<unk>	0
<s>	0
</s>	0
▁t	-0
he	-1
য়	-2
▁a	-3
▁ক	-4
in	-5
ার	-6
▁স	-7
▁প	-8
re	-9
▁ব	-10
▁the	-11
ের	-12
্র	-13
on	-14
্য	-15
er	-16
▁এ	-17
▁w	-18
▁s	-19
▁আ	-20
is	-21
at	-22
▁ত	-23
ান	-24
▁o	-25
en	-26
an	-27
ed	-28
▁ন	-29
▁হ	-30
্ত	-31
▁কর	-32
▁ম	-33
▁c	-34
it	-35
es	-36
or	-37
▁b	-38
▁দ	-39
▁f	-40
nd	-41
▁p	-42
েন	-43
▁in	-44
al	-45
▁অ	-46
ar	-47
য়ে	-48
▁h	-49
▁of	-50
ou	-51
ing	-52
as	-53
▁d	-54
▁to	-55
▁য	-56
▁m	-57
▁জ	-58
কে	-59
িন	-60
▁T	-61
▁প্র	-62
▁and	-63
ic	-64
ion	-65
ছে	-66
রা	-67
িত	-68
র্	-69
il	-70
বে	-71
▁I	-72
িক	-73
াল	-74
om	-75
▁th	-76
ায়	-77
le	-78
টি	-79
ent	-80
▁n	-81
িল	-82
▁S	-83
▁বি	-84
▁শ	-85
দের	-86
▁A	-87
""	-88
তে	-89
্ব	-90
▁গ	-91
▁be	-92
ot	-93
ve	-94
▁is	-95
id	-96
াম	-97
▁re	-98
▁The	-99
▁তা	-100
▁ভ	-101
▁চ	-102
ad	-103
▁l	-104
ড়	-105
▁উ	-106
লে	-107
st	-108
▁B	-109
▁আম	-110
▁করে	-111
▁M	-112
▁ও	-113
▁H	-114
▁নি	-115
্ট	-116
ol	-117
▁g	-118
am	-119
▁e	-120
▁এক	-121
ver	-122
্ষ	-123
ut	-124
▁পর	-125
াস	-126
ct	-127
াক	-128
im	-129
ur	-130
তি	-131
ow	-132
ুল	-133
▁C	-134
ay	-135
ছিল	-136
াই	-137
▁P	-138
▁on	-139
▁সম	-140
▁র	-141
ly	-142
ir	-143
▁(	-144
ation	-145
et	-146
▁for	-147
us	-148
▁এব	-149
▁থ	-150
ন্	-151
্যা	-152
▁না	-153
▁W	-154
ce	-155
লা	-156
▁এবং	-157
▁he	-158
▁দে	-159
ist	-160
▁was	-161
্থ	-162
ro	-163
ুর	-164
য়া	-165
▁y	-166
ন্ত	-167
িয়ে	-168
ন্য	-169
ig	-170
▁বা	-171
▁""	-172
ill	-173
▁that	-174
▁st	-175
▁খ	-176
el	-177
▁সে	-178
▁হয়ে	-179
াত	-180
বা	-181
▁তার	-182
ch	-183
িনি	-184
▁al	-185
ির	-186
ul	-187
ra	-188
▁ফ	-189
▁ই	-190
▁এই	-191
▁রা	-192
od	-193
িস	-194
্প	-195
▁ha	-196
োন	-197
টা	-198
ঙ্	-199
ak	-200
▁D	-201
েশ	-202
▁wh	-203
ক্ষ	-204
▁are	-205
▁it	-206
নে	-207
ith	-208
▁হয়	-209
▁we	-210
ers	-211
▁কা	-212
her	-213
▁an	-214
▁you	-215
▁যে	-216
▁N	-217
▁R	-218
os	-219
▁not	-220
ভা	-221
▁আর	-222
ri	-223
না	-224
কার	-225
▁G	-226
▁ল	-227
ছেন	-228
দ্	-229
▁as	-230
ক্ত	-231
ment	-232
ter	-233
un	-234
নি	-235
op	-236
▁with	-237
and	-238
▁con	-239
▁1	-240
িশ	-241
োগ	-242
চ্	-243
▁করা	-244
ld	-245
▁তিনি	-246
res	-247
ীয়	-248
▁has	-249
▁de	-250
জন	-251
▁১	-252
ঙ্গ	-253
est	-254
ধ্য	-255
েকে	-256
▁have	-257
▁ঘ	-258
th	-259
ain	-260
▁জন্য	-261
▁কি	-262
▁He	-263
▁J	-264
▁যা	-265
্ম	-266
▁K	-267
েল	-268
▁at	-269
▁সা	-270
if	-271
ia	-272
বি	-273
▁থেকে	-274
▁পার	-275
ag	-276
ate	-277
▁ধ	-278
য়ার	-279
rom	-280
nt	-281
pp	-282
▁F	-283
ice	-284
▁ব্য	-285
দ্ধ	-286
েই	-287
▁সং	-288
▁se	-289
▁com	-290
বার	-291
তা	-292
্রী	-293
▁will	-294
red	-295
ুন	-296
ষ্ট	-297
▁by	-298
স্থ	-299
▁পরি	-300
খন	-301
▁this	-302
▁L	-303
▁ছ	-304
▁জান	-305
▁বল	-306
িতে	-307
▁"	-308
▁ছিল	-309
ac	-310
ab	-311
মা	-312
▁k	-313
▁কোন	-314
▁v	-315
▁পা	-316
গুল	-317
ht	-318
▁ট	-319
ess	-320
um	-321
ারা	-322
ah	-323
em	-324
▁E	-325
art	-326
ort	-327
▁তাঁ	-328
▁from	-329
্তু	-330
▁pro	-331
▁ne	-332
▁2	-333
রে	-334
ষ্	-335
ant	-336
ity	-337
▁উপ	-338
▁তো	-339
নের	-340
▁হয়েছে	-341
▁su	-342
▁Th	-343
▁r	-344
▁২	-345
iv	-346
▁দু	-347
্রে	-348
▁Ind	-349
▁একটি	-350
se	-351
ানে	-352
▁তাদের	-353
▁এর	-354
ies	-355
ud	-356
▁go	-357
▁কিন	-358
▁sh	-359
ang	-360
▁do	-361
্ড	-362
▁his	-363
▁ড	-364
ore	-365
▁ex	-366
▁প্রতি	-367
▁O	-368
ৃত	-369
our	-370
▁were	-371
দি	-372
▁sa	-373
▁been	-374
▁হবে	-375
▁অব	-376
▁অন	-377
▁u	-378
▁আমি	-379
▁or	-380
ওয়া	-381
qu	-382
so	-383
▁দেখ	-384
▁"""	-385
▁wor	-386
▁কিন্তু	-387
▁করতে	-388
▁আমা	-389
▁বিশ	-390
দেশ	-391
▁ch	-392
ive	-393
ong	-394
"""	-395
াপ	-396
▁অভ	-397
্দ	-398
ীর	-399
স্ত	-400
ould	-401
▁ভার	-402
র্ত	-403
▁করেন	-404
্ন	-405
▁It	-406
▁But	-407
▁মধ্য	-408
ুম	-409
▁মা	-410
▁বলে	-411
ian	-412
▁কার	-413
▁le	-414
end	-415
▁নিয়ে	-416
oc	-417
ard	-418
▁আমরা	-419
্চ	-420
ect	-421
▁sp	-422
কা	-423
ভাবে	-424
▁ঘট	-425
ন্দ	-426
▁U	-427
ছু	-428
ঙ্গে	-429
all	-430
যোগ	-431
▁pol	-432
ight	-433
▁Ch	-434
▁said	-435
ome	-436
ালে	-437
ুক্ত	-438
্ল	-439
থা	-440
িয়	-441
ie	-442
ust	-443
োর	-444
ত্ত	-445
ধান	-446
মন	-447
ime	-448
▁সু	-449
ান্ত	-450
ial	-451
▁also	-452
ry	-453
▁স্ব	-454
জে	-455
ok	-456
▁Wh	-457
▁আস	-458
cc	-459
পর	-460
▁আপ	-461
▁আমাদের	-462
▁-	-463
▁In	-464
ুরু	-465
▁নে	-466
one	-467
▁নির্	-468
ছি	-469
ap	-470
্ক	-471
▁ভারত	-472
▁পুল	-473
▁কিছু	-474
ther	-475
▁ab	-476
▁।	-477
▁me	-478
▁all	-479
্স	-480
."	-481
inist	-482
▁বিষ	-483
▁তারা	-484
▁সঙ্গে	-485
ড়া	-486
▁মধ্যে	-487
▁সব	-488
▁had	-489
▁they	-490
ast	-491
▁ব্যব	-492
ছিলেন	-493
ident	-494
চ্ছে	-495
▁আল	-496
▁ar	-497
ous	-498
▁কে	-499
িয়া	-500
ated	-501
out	-502
▁pl	-503
ost	-504
▁ag	-505
ড়ে	-506
ep	-507
▁them	-508
্যান	-509
▁j	-510
▁দিয়ে	-511
ip	-512
▁মান	-513
▁can	-514
▁no	-515
▁inc	-516
▁থাক	-517
মে	-518
▁পুলিশ	-519
▁us	-520
▁their	-521
▁রয়ে	-522
▁মু	-523
▁অনু	-524
▁রাজ	-525
মান	-526
▁We	-527
ষ্ঠ	-528
▁pe	-529
▁আমার	-530
ric	-531
▁সম্প	-532
ame	-533
▁সর	-534
▁Y	-535
ov	-536
ib	-537
very	-538
▁তাঁর	-539
▁who	-540
ure	-541
ction	-542
▁সেই	-543
ople	-544
▁ক্ষ	-545
ide	-546
ik	-547
▁কাজ	-548
▁তবে	-549
▁res	-550
ary	-551
▁India	-552
াহ	-553
▁করার	-554
প্র	-555
▁ভা	-556
ূর্	-557
▁Al	-558
ell	-559
▁আগ	-560
▁কো	-561
জ্	-562
েয়ে	-563
are	-564
▁যায়	-565
▁কেন	-566
ন্ত্রী	-567
ind	-568
নার	-569
▁অভি	-570
েষ	-571
▁কী	-572
▁সি	-573
রের	-574
oug	-575
রণ	-576
▁মো	-577
ge	-578
▁বিশ্ব	-579
▁one	-580
▁20	-581
ff	-582
wo	-583
▁him	-584
▁অন্য	-585
িকে	-586
▁Sh	-587
ress	-588
ue	-589
ear	-590
▁বেশ	-591
now	-592
ever	-593
age	-594
ount	-595
ন্ধ	-596
াদ	-597
▁police	-598
▁রয়েছে	-599
▁হল	-600
ওয়ার	-601
▁there	-602
েত	-603
▁সময়	-604
▁কথা	-605
ক্র	-606
hen	-607
▁man	-608
াজ	-609
▁দেশ	-610
গুলো	-611
ish	-612
বাদ	-613
▁people	-614
ত্য	-615
ire	-616
av	-617
েস	-618
▁ad	-619
র্থ	-620
▁un	-621
োক	-622
▁অনে	-623
ater	-624
▁'	-625
িম	-626
▁other	-627
▁ব্যা	-628
og	-629
▁up	-630
▁How	-631
ber	-632
▁‘	-633
ুদ্ধ	-634
vern	-635
fter	-636
ack	-637
▁২০	-638
▁any	-639
ংশ	-640
চার	-641
ical	-642
ose	-643
খানে	-644
থে	-645
লের	-646
▁im	-647
ich	-648
িক্ষ	-649
চিত	-650
▁হিস	-651
ult	-652
▁int	-653
▁so	-654
pl	-655
ুব	-656
ound	-657
ake	-658
▁This	-659
▁dis	-660
হা	-661
pt	-662
▁লা	-663
হার	-664
▁নাম	-665
তো	-666
▁tr	-667
▁did	-668
জ্ঞ	-669
গ্র	-670
ord	-671
বেন	-672
▁সরকার	-673
ীন	-674
▁They	-675
port	-676
ence	-677
ree	-678
▁pr	-679
inister	-680
▁প্রধান	-681
ine	-682
▁নেই	-683
▁19	-684
ানের	-685
মন্ত্রী	-686
▁গ্র	-687
▁out	-688
▁know	-689
ীব	-690
ase	-691
িড	-692
hed	-693
্যাল	-694
ans	-695
ations	-696
রি	-697
ec	-698
▁part	-699
▁cont	-700
ন্ত্র	-701
▁about	-702
সে	-703
nder	-704
▁নয়	-705
▁আই	-706
ays	-707
▁work	-708
iz	-709
▁There	-710
esh	-711
▁জন	-712
াকা	-713
▁off	-714
িব	-715
vernment	-716
ুষ	-717
থম	-718
▁স্থ	-719
▁V	-720
ace	-721
▁St	-722
ions	-723
ub	-724
▁অনেক	-725
▁what	-726
্লা	-727
য়ের	-728
▁চল	-729
▁time	-730
▁করেছে	-731
▁সহ	-732
াত্র	-733
▁১৯	-734
),	-735
তার	-736
."""	-737
▁এটা	-738
▁দ্ব	-739
▁বলেন	-740
▁acc	-741
পি	-742
▁কম	-743
▁en	-744
্দ্র	-745
েম	-746
▁ভাল	-747
orm	-748
per	-749
ারে	-750
▁এমন	-751
▁এখন	-752
িকা	-753
▁আছে	-754
▁cl	-755
..	-756
▁মহ	-757
▁সাম	-758
▁What	-759
▁again	-760
▁বিষয়	-761
টে	-762
▁যদি	-763
ally	-764
ass	-765
ath	-766
ove	-767
▁কারণ	-768
▁your	-769
▁which	-770
ru	-771
স্থা	-772
ance	-773
▁পারে	-774
▁হচ্ছে	-775
▁te	-776
▁two	-777
ach	-778
ষণ	-779
ূল	-780
▁am	-781
rit	-782
ail	-783
▁শুরু	-784
▁বির	-785
ook	-786
ew	-787
▁under	-788
▁কাছে	-789
াব	-790
▁Pr	-791
▁app	-792
ied	-793
▁এটি	-794
▁করেছেন	-795
কের	-796
▁একজন	-797
aj	-798
ough	-799
োধ	-800
ont	-801
জি	-802
irst	-803
প্ত	-804
ign	-805
▁অধ	-806
▁বাং	-807
▁মানুষ	-808
other	-809
ren	-810
দিন	-811
▁over	-812
▁her	-813
ational	-814
াকে	-815
▁As	-816
েবে	-817
▁our	-818
ারণ	-819
খে	-820
ild	-821
কাশ	-822
িহ	-823
▁কোনো	-824
▁ev	-825
ঞ্চ	-826
▁comp	-827
▁অস	-828
eh	-829
বর্ত	-830
▁দিন	-831
োল	-832
▁but	-833
▁comm	-834
▁count	-835
vel	-836
▁ছিলেন	-837
ctor	-838
▁Minister	-839
adesh	-840
▁প্রথম	-841
শ্চ	-842
ings	-843
▁God	-844
টার	-845
▁my	-846
ted	-847
ত্র	-848
uc	-849
টির	-850
▁উত্ত	-851
েক	-852
ond	-853
িকার	-854
ানো	-855
ade	-856
▁প্রশ	-857
▁qu	-858
▁gr	-859
ition	-860
▁ser	-861
ল্প	-862
হত	-863
▁কর্ম	-864
ons	-865
ভাব	-866
▁দা	-867
র্ম	-868
▁আরও	-869
ens	-870
।"	-871
▁কোনও	-872
▁সাথে	-873
শি	-874
▁its	-875
aw	-876
▁new	-877
▁after	-878
ষ্ট্র	-879
▁তোম	-880
ile	-881
▁first	-882
িন্ন	-883
ীদের	-884
▁বাড়	-885
▁বাংলা	-886
ৎস	-887
vers	-888
han	-889
ital	-890
▁বে	-891
▁rec	-892
্যের	-893
ife	-894
▁পর্য	-895
▁would	-896
▁Bang	-897
েন্ট	-898
ike	-899
▁মৃত	-900
▁রাখ	-901
rest	-902
▁reg	-903
▁att	-904
▁একটা	-905
ious	-906
▁হাস	-907
ন্ড	-908
▁more	-909
▁per	-910
োট	-911
▁মে	-912
▁হিসেবে	-913
▁3	-914
্জ	-915
ক্তি	-916
▁৩	-917
▁সালে	-918
▁br	-919
▁শু	-920
▁bec	-921
▁government	-922
ীত	-923
্বর	-924
িজ	-925
here	-926
▁fil	-927
ug	-928
ালের	-929
োপ	-930
ূর্ণ	-931
oy	-932
▁মার	-933
oll	-934
able	-935
ob	-936
ন্ন	-937
reat	-938
্যু	-939
▁And	-940
গত	-941
র্ব	-942
ank	-943
▁sc	-944
▁Un	-945
man	-946
fe	-947
▁You	-948
▁এল	-949
tern	-950
তির	-951
eng	-952
▁শিক্ষ	-953
▁হতে	-954
▁পরে	-955
াধ	-956
সম	-957
▁গিয়ে	-958
▁pres	-959
▁ক্র	-960
র্শ	-961
▁মনে	-962
▁হয়েছিল	-963
▁দেওয়া	-964
▁খুব	-965
▁Bangl	-966
▁Is	-967
াড়া	-968
েছে	-969
▁However	-970
তিক	-971
▁some	-972
form	-973
oin	-974
▁against	-975
▁how	-976
▁then	-977
▁তাকে	-978
্লাহ	-979
▁বছ	-980
▁All	-981
িস্ত	-982
we	-983
ood	-984
▁inv	-985
▁তাই	-986
▁জীব	-987
পাত	-988
...	-989
▁when	-990
▁dec	-991
ুক	-992
▁বিভ	-993
িও	-994
▁“	-995
▁তখন	-996
য়ো	-997
▁happ	-998
▁ra	-999
▁নিজ	-1000
az	-1001
▁pers	-1002
লেখ	-1003
hi	-1004
ehov	-1005
aus	-1006
ehovah	-1007
ved	-1008
াতে	-1009
স্ট	-1010
▁বাংলাদেশ	-1011
িপ	-1012
old	-1013
▁ro	-1014
▁Bangladesh	-1015
▁year	-1016
▁rel	-1017
ates	-1018
ুদ্ধে	-1019
▁201	-1020
▁tak	-1021
িং	-1022
amil	-1023
oth	-1024
▁into	-1025
দা	-1026
▁প্রকাশ	-1027
▁She	-1028
▁Jehovah	-1029
র্ক	-1030
▁bl	-1031
istan	-1032
own	-1033
iss	-1034
ible	-1035
বাস	-1036
▁তোমা	-1037
▁শেষ	-1038
ক্ষে	-1039
ful	-1040
▁ঈ	-1041
ory	-1042
ite	-1043
▁ব্যবহার	-1044
স্য	-1045
।"""	-1046
▁pre	-1047
ত্ব	-1048
মি	-1049
ক্ষা	-1050
বাহ	-1051
তুন	-1052
▁চাল	-1053
ানা	-1054
▁সদ	-1055
▁Indian	-1056
▁দুই	-1057
▁On	-1058
▁sec	-1059
ink	-1060
যুক্ত	-1061
▁লোক	-1062
নায়	-1063
▁অভিযোগ	-1064
ার্থ	-1065
▁বেশি	-1066
▁like	-1067
▁প্রধানমন্ত্রী	-1068
ঞ্জ	-1069
ces	-1070
▁আশ	-1071
ানি	-1072
▁So	-1073
osp	-1074
▁যখন	-1075
mer	-1076
▁Pol	-1077
▁দেখা	-1078
ark	-1079
▁যিহ	-1080
▁ইউ	-1081
▁আপনি	-1082
▁অপ	-1083
ণ্ড	-1084
▁নতুন	-1085
ward	-1086
00	-1087
▁rem	-1088
ities	-1089
বর	-1090
হণ	-1091
▁যোগ	-1092
lic	-1093
ise	-1094
ody	-1095
▁being	-1096
▁উদ	-1097
▁bet	-1098
▁ভারতের	-1099
▁পরিচ	-1100
▁জানিয়ে	-1101
▁ঠ	-1102
▁That	-1103
igh	-1104
▁অংশ	-1105
▁want	-1106
▁she	-1107
▁need	-1108
▁country	-1109
▁পড়	-1110
▁very	-1111
urn	-1112
▁মাধ্য	-1113
▁অর্থ	-1114
▁দায়	-1115
oh	-1116
▁রে	-1117
▁থাকে	-1118
▁বাস	-1119
▁পাল	-1120
▁state	-1121
▁বিরুদ্ধে	-1122
▁act	-1123
▁ওই	-1124
▁অবস্থ	-1125
্যান্ড	-1126
বল	-1127
্ভ	-1128
াড়	-1129
▁তিন	-1130
মাণ	-1131
▁বৃ	-1132
▁mat	-1133
▁পর্যন্ত	-1134
med	-1135
▁আল্লাহ	-1136
▁পুর	-1137
ents	-1138
▁No	-1139
▁ট্র	-1140
▁such	-1141
▁বিভিন্ন	-1142
▁পাক	-1143
▁say	-1144
▁should	-1145
▁could	-1146
lud	-1147
▁ধর	-1148
▁চে	-1149
act	-1150
▁প্রা	-1151
gan	-1152
▁ব্যাপ	-1153
uring	-1154
▁বিষয়ে	-1155
য়েক	-1156
্যে	-1157
▁কেউ	-1158
সল	-1159
দী	-1160
ng	-1161
স্	-1162
▁tra	-1163
▁dist	-1164
▁২০১	-1165
▁বার	-1166
▁ক্ষেত	-1167
দ্র	-1168
ূপ	-1169
ash	-1170
▁film	-1171
rict	-1172
▁পদ	-1173
▁মুখ	-1174
fore	-1175
ospital	-1176
▁লি	-1177
▁করি	-1178
েরা	-1179
▁যিহো	-1180
▁many	-1181
▁পড়ে	-1182
ather	-1183
▁stud	-1184
োর্	-1185
sh	-1186
▁made	-1187
▁বন্ধ	-1188
▁ind	-1189
▁get	-1190
▁those	-1191
▁ear	-1192
ঁচ	-1193
▁good	-1194
ংস	-1195
য়ন	-1196
▁কয়েক	-1197
িউ	-1198
খ্যা	-1199
চ্ছ	-1200
▁আদ	-1201
ble	-1202
▁day	-1203
ুমি	-1204
▁Pak	-1205
▁দিল	-1206
way	-1207
চনা	-1208
ুলে	-1209
▁কেন্দ্র	-1210
▁med	-1211
▁নিয়	-1212
ual	-1213
ered	-1214
ased	-1215
▁lead	-1216
জা	-1217
গুলি	-1218
▁De	-1219
amp	-1220
rent	-1221
ত্যা	-1222
▁অভিন	-1223
▁Police	-1224
▁হয়নি	-1225
ness	-1226
ool	-1227
▁লক্ষ	-1228
▁world	-1229
▁5	-1230
▁case	-1231
▁হাসপাত	-1232
day	-1233
ব্য	-1234
▁bel	-1235
▁every	-1236
সি	-1237
▁সক	-1238
▁করেছিলেন	-1239
▁arrest	-1240
▁৫	-1241
ief	-1242
▁ঈশ	-1243
▁famil	-1244
ick	-1245
কারী	-1246
▁স্ট	-1247
ভাগ	-1248
ামী	-1249
লেন	-1250
▁মন	-1251
les	-1252
ict	-1253
▁4	-1254
▁ele	-1255
▁দল	-1256
▁hel	-1257
▁বাই	-1258
▁এসে	-1259
পুর	-1260
▁ছবি	-1261
▁আগে	-1262
▁৪	-1263
ee	-1264
▁শহ	-1265
tain	-1266
▁if	-1267
বেশ	-1268
itt	-1269
ured	-1270
▁incident	-1271
▁only	-1272
েলা	-1273
▁Com	-1274
elf	-1275
ষ্টি	-1276
ited	-1277
pect	-1278
ওয়	-1279
▁An	-1280
শ্য	-1281
▁ভালো	-1282
▁fl	-1283
াস্থ	-1284
কি	-1285
The	-1286
▁বড়	-1287
JP	-1288
▁includ	-1289
ourt	-1290
আই	-1291
▁play	-1292
▁বৈ	-1293
▁Pakistan	-1294
▁তৈ	-1295
য়োজন	-1296
▁গুরু	-1297
▁dif	-1298
দন্ত	-1299
▁loc	-1300
▁child	-1301
▁thr	-1302
▁than	-1303
▁ঘটনা	-1304
▁Man	-1305
▁তুমি	-1306
ause	-1307
িস্ট	-1308
ai	-1309
▁পরিবার	-1310
লার	-1311
up	-1312
এস	-1313
েলে	-1314
▁নির্বা	-1315
▁does	-1316
▁ছে	-1317
িতা	-1318
বিদ	-1319
চ্চ	-1320
রিক	-1321
▁আন	-1322
এর	-1323
li	-1324
▁ব্যক্তি	-1325
▁ac	-1326
air	-1327
▁BJP	-1328
▁সত্য	-1329
▁হলে	-1330
▁see	-1331
▁উত্তর	-1332
ject	-1333
▁life	-1334
▁মাধ্যমে	-1335
▁তোমাদের	-1336
▁ph	-1337
du	-1338
▁প্রদ	-1339
▁দেয়	-1340
▁cons	-1341
oss	-1342
▁inj	-1343
ning	-1344
ision	-1345
ধারণ	-1346
▁যুক্ত	-1347
▁যারা	-1348
াক্ষ	-1349
oun	-1350
▁পারেন	-1351
▁report	-1352
ci	-1353
▁Ar	-1354
▁চাই	-1355
▁বিজে	-1356
▁ভাই	-1357
▁স্থান	-1358
▁গো	-1359
▁পাকিস্ত	-1360
▁সাহা	-1361
ন্তর্	-1362
কম	-1363
▁ব্র	-1364
wn	-1365
▁[	-1366
▁উদ্	-1367
ared	-1368
▁চলে	-1369
▁three	-1370
▁right	-1371
ীতি	-1372
▁গ্রে	-1373
▁বিশেষ	-1374
▁these	-1375
▁wom	-1376
arm	-1377
▁মতো	-1378
▁করবে	-1379
rib	-1380
▁well	-1381
▁আপনার	-1382
▁offic	-1383
▁Mod	-1384
সং	-1385
ষ্টা	-1386
▁চার	-1387
পতি	-1388
ত্ম	-1389
▁help	-1390
ener	-1391
▁may	-1392
▁উঠ	-1393
▁সাহায	-1394
▁উল	-1395
▁পাঠ	-1396
টাই	-1397
▁হন	-1398
▁take	-1399
▁taken	-1400
▁just	-1401
▁kill	-1402
uch	-1403
▁start	-1404
uth	-1405
▁মূল	-1406
▁fe	-1407
ged	-1408
▁প্রায়	-1409
▁মাম	-1410
ince	-1411
der	-1412
▁পেয়ে	-1413
▁এখনও	-1414
▁back	-1415
ুত	-1416
▁হার	-1417
ower	-1418
াঁ	-1419
▁ভারতীয়	-1420
ft	-1421
▁des	-1422
ান্য	-1423
▁ক্ষেত্রে	-1424
▁call	-1425
▁করেছিল	-1426
▁বু	-1427
ween	-1428
cy	-1429
ভার	-1430
▁ভূ	-1431
ন্ট	-1432
ating	-1433
▁Prime	-1434
led	-1435
▁.	-1436
▁সালের	-1437
▁এস	-1438
ুণ	-1439
▁দ্বারা	-1440
▁সেখানে	-1441
▁ব্যবস্থা	-1442
০০	-1443
ollow	-1444
▁করছে	-1445
▁পৌ	-1446
▁His	-1447
▁happen	-1448
িয়ার	-1449
▁ফির	-1450
▁বছর	-1451
▁আজ	-1452
িটি	-1453
▁between	-1454
▁Go	-1455
gr	-1456
ced	-1457
▁এতে	-1458
▁imp	-1459
াতীয়	-1460
▁hospital	-1461
▁person	-1462
িত্ব	-1463
▁ফলে	-1464
োম	-1465
▁add	-1466
als	-1467
▁ঠিক	-1468
velop	-1469
▁soc	-1470
ave	-1471
▁দিকে	-1472
stit	-1473
▁ঢ	-1474
▁উপর	-1475
▁here	-1476
▁disc	-1477
টের	-1478
amm	-1479
ুই	-1480
hing	-1481
▁অথ	-1482
দে	-1483
▁family	-1484
▁prov	-1485
ীর্	-1486
▁কখন	-1487
▁দেশের	-1488
▁ঘো	-1489
াবে	-1490
▁arrested	-1491
▁cent	-1492
ised	-1493
ড়িয়ে	-1494
▁num	-1495
গে	-1496
▁dont	-1497
used	-1498
োহ	-1499
▁সর্ব	-1500
▁আব	-1501
▁come	-1502
ীতে	-1503
▁ঝ	-1504
▁ent	-1505
▁উন্ন	-1506
alk	-1507
▁পরিচাল	-1508
▁নিশ্চ	-1509
▁mem	-1510
্যার	-1511
▁আইন	-1512
▁Modi	-1513
্যাম	-1514
thing	-1515
ুঁ	-1516
ution	-1517
▁Re	-1518
িন্দ	-1519
▁through	-1520
chool	-1521
rist	-1522
▁where	-1523
aug	-1524
).	-1525
▁মাস	-1526
্বে	-1527
▁most	-1528
▁দক্ষ	-1529
▁even	-1530
▁sub	-1531
▁স্ক	-1532
▁মি	-1533
▁later	-1534
pport	-1535
ঙ্ক	-1536
▁শাস	-1537
▁পৃ	-1538
▁পূর্	-1539
্রম	-1540
িকি	-1541
hes	-1542
ivers	-1543
▁শ্রী	-1544
সা	-1545
▁দেন	-1546
ph	-1547
ফল	-1548
mit	-1549
▁ter	-1550
▁প্রতিষ্ঠ	-1551
▁প্রক	-1552
ments	-1553
▁কল	-1554
▁সম্ম	-1555
ীরা	-1556
▁ass	-1557
ণের	-1558
▁দিতে	-1559
▁টি	-1560
▁পরিস	-1561
ought	-1562
▁সদস্য	-1563
শন	-1564
াকার	-1565
দার	-1566
িত্র	-1567
xt	-1568
uss	-1569
▁pub	-1570
▁বিশ্বাস	-1571
▁6	-1572
▁অর্	-1573
▁long	-1574
▁আলো	-1575
▁পাওয়া	-1576
▁Ab	-1577
ষণা	-1578
ives	-1579
ors	-1580
▁prot	-1581
▁৬	-1582
▁নির্বাচ	-1583
পূর্ণ	-1584
att	-1585
▁যাবে	-1586
▁তাঁকে	-1587
্ধ	-1588
▁before	-1589
▁তোমার	-1590
েন্দ্র	-1591
▁বলা	-1592
▁সিদ্ধ	-1593
▁প্রয়োজন	-1594
engal	-1595
▁জাতীয়	-1596
olle	-1597
ures	-1598
▁সাধারণ	-1599
▁স্প	-1600
ular	-1601
ouse	-1602
▁বর্	-1603
ret	-1604
▁em	-1605
ics	-1606
▁স্ত	-1607
,""	-1608
▁তদন্ত	-1609
▁too	-1610
▁Why	-1611
িশু	-1612
▁ম্যা	-1613
▁co	-1614
▁নার	-1615
▁অনুষ্ঠ	-1616
▁home	-1617
▁meet	-1618
▁years	-1619
get	-1620
সের	-1621
▁way	-1622
olog	-1623
read	-1624
ৈতিক	-1625
▁সাহায্য	-1626
▁তথ	-1627
▁তৈরি	-1628
▁রাজন	-1629
▁তাঁদের	-1630
▁সেটা	-1631
▁আমাকে	-1632
▁জানান	-1633
▁কারণে	-1634
▁গেছে	-1635
▁তোমরা	-1636
alth	-1637
▁দুর্	-1638
ands	-1639
স্ক	-1640
েলার	-1641
▁এখানে	-1642
ায়ী	-1643
ন্ম	-1644
▁হাসপাতালে	-1645
্যাপ	-1646
দন	-1647
▁found	-1648
▁sit	-1649
▁ইতি	-1650
▁রাজ্য	-1651
▁200	-1652
ven	-1653
ission	-1654
▁dem	-1655
▁অফ	-1656
▁Christ	-1657
▁খবর	-1658
cted	-1659
▁চিন	-1660
▁রাষ্ট্র	-1661
▁ভাষ	-1662
▁serv	-1663
▁মৃত্যু	-1664
▁ছাড়া	-1665
ll	-1666
▁বহ	-1667
▁জানা	-1668
▁during	-1669
oup	-1670
চে	-1671
▁follow	-1672
জাত	-1673
cept	-1674
্বরের	-1675
▁invest	-1676
har	-1677
ীল	-1678
▁পি	-1679
ral	-1680
ey	-1681
19	-1682
খান	-1683
ধা	-1684
▁আট	-1685
▁rep	-1686
জার	-1687
▁প্রস	-1688
্তা	-1689
▁death	-1690
▁fin	-1691
▁ধরে	-1692
▁হাজ	-1693
▁ডি	-1694
▁একই	-1695
াইন	-1696
▁New	-1697
▁polit	-1698
ina	-1699
ন্ত্রণ	-1700
▁car	-1701
und	-1702
▁think	-1703
▁make	-1704
▁ob	-1705
▁sur	-1706
ope	-1707
ংগ	-1708
▁অবশ্য	-1709
▁গ্রহণ	-1710
ative	-1711
▁district	-1712
▁যার	-1713
▁end	-1714
▁শুধ	-1715
রাষ্ট্র	-1716
▁never	-1717
▁তাহ	-1718
▁sy	-1719
▁ret	-1720
ya	-1721
▁diffe	-1722
▁অন্যান্য	-1723
▁সিদ্ধান্ত	-1724
▁জীবন	-1725
▁iss	-1726
▁Allah	-1727
▁Bengal	-1728
▁exp	-1729
▁সার	-1730
▁For	-1731
১৯	-1732
▁মিল	-1733
ক্রম	-1734
ished	-1735
▁পে	-1736
▁resp	-1737
ুগ	-1738
ts	-1739
্লি	-1740
▁গুরুত্ব	-1741
▁বস	-1742
িকিৎস	-1743
▁look	-1744
ism	-1745
▁present	-1746
▁dire	-1747
▁পাশ	-1748
▁Z	-1749
esus	-1750
চিত্র	-1751
▁আত্ম	-1752
োভ	-1753
ুট	-1754
িত্ত	-1755
্থিত	-1756
িয়ান	-1757
িল্প	-1758
▁injured	-1759
▁down	-1760
িণ	-1761
লি	-1762
▁দৃ	-1763
▁পারি	-1764
ific	-1765
▁হওয়ার	-1766
▁yet	-1767
▁২০০	-1768
োস	-1769
▁চেষ্টা	-1770
▁Khan	-1771
▁বাক	-1772
▁যদিও	-1773
▁পরিবর্ত	-1774
্ভব	-1775
imes	-1776
▁Sing	-1777
তম	-1778
ha	-1779
ange	-1780
িলা	-1781
ock	-1782
▁ধরনের	-1783
▁water	-1784
▁mon	-1785
▁ওপর	-1786
▁Cong	-1787
▁যান	-1788
arn	-1789
▁চিকিৎস	-1790
▁সেন	-1791
▁Comm	-1792
▁inform	-1793
্লেখ	-1794
plain	-1795
▁”	-1796
▁much	-1797
arch	-1798
ians	-1799
▁ঐ	-1800
ুখ	-1801
blem	-1802
▁বর্ত	-1803
▁উদ্ধ	-1804
▁Its	-1805
▁Tr	-1806
ভূ	-1807
ists	-1808
▁লাগ	-1809
▁number	-1810
▁last	-1811
eep	-1812
ural	-1813
▁গণ	-1814
▁উল্লেখ	-1815
▁Jesus	-1816
▁গত	-1817
▁ঘটনায়	-1818
▁উপস্থ	-1819
▁করুন	-1820
ten	-1821
▁Raj	-1822
▁এরপর	-1823
▁নিজের	-1824
▁Pres	-1825
▁কর্ত	-1826
▁hum	-1827
▁--	-1828
▁develop	-1829
▁place	-1830
থায়	-1831
▁still	-1832
▁ধর্ম	-1833
▁বিদ	-1834
▁Del	-1835
▁যেতে	-1836
▁going	-1837
ক্রান্ত	-1838
▁মত	-1839
▁belie	-1840
▁sent	-1841
▁Wor	-1842
▁cap	-1843
াতা	-1844
▁দর	-1845
কাল	-1846
▁writ	-1847
্যাক	-1848
▁পো	-1849
rem	-1850
ারের	-1851
▁cr	-1852
োনা	-1853
▁জা	-1854
▁problem	-1855
▁set	-1856
▁আহত	-1857
▁Dh	-1858
▁post	-1859
▁used	-1860
:1	-1861
▁লাভ	-1862
▁পরিস্থিত	-1863
▁যেন	-1864
▁গেল	-1865
▁তথ্য	-1866
▁বিপ	-1867
▁team	-1868
▁দাবি	-1869
▁Le	-1870
ata	-1871
rick	-1872
▁accused	-1873
▁7	-1874
ried	-1875
▁gu	-1876
ৃতি	-1877
▁law	-1878
▁পরী	-1879
iet	-1880
orn	-1881
▁bu	-1882
▁আবার	-1883
▁অথবা	-1884
outh	-1885
▁pass	-1886
▁চেয়ে	-1887
▁টাকা	-1888
bers	-1889
▁নর	-1890
বর্তী	-1891
ines	-1892
াক্ত	-1893
▁সৃ	-1894
▁সম্পর্	-1895
▁name	-1896
▁কার্য	-1897
▁sm	-1898
▁লেখ	-1899
ting	-1900
▁same	-1901
duc	-1902
▁৭	-1903
▁giv	-1904
▁তাহলে	-1905
▁ঈশ্বরের	-1906
▁পু	-1907
▁Congress	-1908
▁Pro	-1909
ডি	-1910
▁জি	-1911
কর্ত	-1912
ves	-1913
্টি	-1914
▁সমস	-1915
▁হাম	-1916
ix	-1917
▁attack	-1918
▁পান	-1919
ran	-1920
▁নির্দেশ	-1921
▁took	-1922
কর	-1923
▁পৃথ	-1924
▁উৎস	-1925
▁ref	-1926
▁situ	-1927
ctions	-1928
▁fa	-1929
▁trans	-1930
▁children	-1931
গুলোর	-1932
গুলির	-1933
▁দূ	-1934
ins	-1935
ility	-1936
▁ed	-1937
▁quest	-1938
▁সম্প্র	-1939
▁others	-1940
▁সাক্ষ	-1941
ষে	-1942
হাস	-1943
▁শে	-1944
▁দক্ষিণ	-1945
▁সূ	-1946
▁বিজেপি	-1947
াইল	-1948
ংগ্রে	-1949
lam	-1950
ন্ধে	-1951
▁মার্ক	-1952
স্কার	-1953
omet	-1954
▁ask	-1955
▁mar	-1956
hip	-1957
▁court	-1958
▁হিসাবে	-1959
ায়ক	-1960
▁নিজে	-1961
▁বিচার	-1962
▁Ad	-1963
▁det	-1964
▁10	-1965
েনে	-1966
▁নিরা	-1967
▁social	-1968
▁op	-1969
▁মাল	-1970
ern	-1971
cess	-1972
▁খা	-1973
▁President	-1974
্যাস	-1975
ided	-1976
ote	-1977
▁আহ	-1978
▁conf	-1979
▁At	-1980
iversity	-1981
▁করবেন	-1982
▁খান	-1983
▁contin	-1984
▁now	-1985
▁own	-1986
▁ক্রিকে	-1987
rong	-1988
বিদ্যাল	-1989
▁died	-1990
▁বো	-1991
▁incre	-1992
uk	-1993
মার	-1994
আর	-1995
▁দেখে	-1996
▁Delhi	-1997
iew	-1998
ants	-1999
▁spec	-2000
▁দি	-2001
ute	-2002
▁বুঝ	-2003
▁সম্ভব	-2004
▁মানুষের	-2005
ries	-2006
▁কংগ্রে	-2007
ক্ষণ	-2008
oot	-2009
▁must	-2010
▁media	-2011
▁নেওয়া	-2012
িতীয়	-2013
aka	-2014
▁সরকারের	-2015
onom	-2016
▁If	-2017
▁গান	-2018
ss	-2019
▁সমস্যা	-2020
▁killed	-2021
▁তুলে	-2022
▁তারপর	-2023
াধীন	-2024
▁area	-2025
ানোর	-2026
▁অঞ্চ	-2027
▁body	-2028
▁চলচ্	-2029
▁both	-2030
▁Do	-2031
▁যিহোবার	-2032
▁সমস্ত	-2033
▁সন্ত	-2034
▁বিভাগ	-2035
েশন	-2036
▁১০	-2037
▁investig	-2038
▁Bible	-2039
ty	-2040
▁four	-2041
ury	-2042
▁Im	-2043
▁while	-2044
ati	-2045
ndra	-2046
ues	-2047
ম্প	-2048
▁বাহ	-2049
▁খেল	-2050
ব্দ	-2051
ived	-2052
▁বিষয়টি	-2053
▁উচিত	-2054
ck	-2055
▁different	-2056
▁আদাল	-2057
▁dep	-2058
▁import	-2059
মিত	-2060
▁Singh	-2061
▁result	-2062
▁শিক্ষা	-2063
▁দলের	-2064
20	-2065
▁occ	-2066
ারি	-2067
▁বিশ্ববিদ্যাল	-2068
তের	-2069
▁আধ	-2070
ছাড়া	-2071
▁:	-2072
▁show	-2073
▁ভিড	-2074
▁সময়ে	-2075
রী	-2076
▁সভা	-2077
▁সিং	-2078
▁eff	-2079
▁among	-2080
▁8	-2081
▁হই	-2082
ীকার	-2083
ually	-2084
েহ	-2085
▁পুন	-2086
▁Mus	-2087
▁স্থানীয়	-2088
েনি	-2089
self	-2090
▁কেন্দ্রীয়	-2091
▁উদ্ধার	-2092
ull	-2093
▁father	-2094
িনী	-2095
▁ঘটনার	-2096
land	-2097
েরে	-2098
▁নিরাপ	-2099
▁সবাই	-2100
ently	-2101
রাজ	-2102
eneral	-2103
▁নামে	-2104
▁দ্র	-2105
▁started	-2106
▁উই	-2107
▁শি	-2108
▁high	-2109
▁অনুস	-2110
ene	-2111
aking	-2112
▁বলতে	-2113
ason	-2114
▁house	-2115
▁Eng	-2116
▁দ্বিতীয়	-2117
▁তাতে	-2118
▁organ	-2119
ternational	-2120
▁কৃ	-2121
▁women	-2122
▁অত	-2123
▁কীভাবে	-2124
▁সুযোগ	-2125
▁লে	-2126
এন	-2127
▁করত	-2128
ars	-2129
▁সংখ্যা	-2130
ized	-2131
ছিলাম	-2132
▁মুক্ত	-2133
▁shall	-2134
pur	-2135
▁love	-2136
▁তাঁরা	-2137
▁সম্পর্ক	-2138
▁rece	-2139
lim	-2140
▁সী	-2141
▁why	-2142
▁নাগ	-2143
▁৮	-2144
▁’	-2145
▁Am	-2146
▁ঘোষণা	-2147
ale	-2148
▁পুলিশের	-2149
্বন্ধে	-2150
ুপ	-2151
▁news	-2152
ording	-2153
▁চা	-2154
▁একে	-2155
arge	-2156
ভি	-2157
▁হা	-2158
▁ext	-2159
▁যেমন	-2160
চেয়ে	-2161
▁বাইবে	-2162
▁তুল	-2163
াপন	-2164
ব্র	-2165
▁জানিয়েছেন	-2166
▁great	-2167
ets	-2168
▁সম্পর্কে	-2169
na	-2170
inistry	-2171
▁উপস্থিত	-2172
▁US	-2173
▁cor	-2174
▁My	-2175
ricket	-2176
pr	-2177
▁জল	-2178
▁প্রশ্ন	-2179
riend	-2180
▁days	-2181
▁official	-2182
▁তাল	-2183
▁came	-2184
▁,	-2185
▁জায়	-2186
▁school	-2187
▁however	-2188
▁city	-2189
▁অনুম	-2190
ving	-2191
▁read	-2192
▁ann	-2193
▁Then	-2194
▁remain	-2195
এম	-2196
▁situation	-2197
▁শিল্প	-2198
ases	-2199
te	-2200
▁known	-2201
▁vis	-2202
িট	-2203
▁Q	-2204
▁ins	-2205
▁inf	-2206
▁After	-2207
▁got	-2208
▁ব্যাপারে	-2209
তায়	-2210
its	-2211
ages	-2212
বু	-2213
▁সবচেয়ে	-2214
▁sign	-2215
ention	-2216
▁বলেছেন	-2217
▁গঠ	-2218
▁স্ম	-2219
arendra	-2220
▁head	-2221
▁ছেলে	-2222
▁হলো	-2223
▁inter	-2224
ourn	-2225
▁ছোট	-2226
▁ইসল	-2227
▁hand	-2228
▁ক্ষম	-2229
▁খো	-2230
▁আফ	-2231
▁main	-2232
▁done	-2233
ুরি	-2234
▁cur	-2235
▁spot	-2236
▁ভিডিও	-2237
▁রেখে	-2238
েন্স	-2239
▁গু	-2240
ফতার	-2241
▁because	-2242
▁বিমান	-2243
ices	-2244
দিকে	-2245
stem	-2246
▁support	-2247
রাম	-2248
▁বের	-2249
▁জায়গ	-2250
▁ভূম	-2251
▁হাজার	-2252
জ্ঞান	-2253
▁পালন	-2254
ায়ের	-2255
▁মামলা	-2256
াকায়	-2257
▁চলছে	-2258
▁matter	-2259
▁জেলা	-2260
▁পশ্চ	-2261
োজ	-2262
▁var	-2263
স্ব	-2264
▁One	-2265
▁আপনা	-2266
▁called	-2267
▁cond	-2268
▁Narendra	-2269
▁প্রত্য	-2270
▁ইন	-2271
জাতিক	-2272
াস্থ্য	-2273
ana	-2274
্রা	-2275
পা	-2276
▁power	-2277
ek	-2278
▁18	-2279
ways	-2280
▁গ্রেফতার	-2281
▁vide	-2282
▁Rah	-2283
ides	-2284
oor	-2285
▁form	-2286
▁bus	-2287
▁নরেন্দ্র	-2288
▁খ্র	-2289
osed	-2290
▁mov	-2291
▁ইং	-2292
▁conc	-2293
▁second	-2294
▁When	-2295
▁গুল	-2296
▁Government	-2297
▁দুটি	-2298
▁পূর্ব	-2299
not	-2300
▁another	-2301
▁শুধু	-2302
▁কলে	-2303
arg	-2304
ড়ি	-2305
oney	-2306
্বাস	-2307
▁Af	-2308
▁since	-2309
▁use	-2310
নী	-2311
orth	-2312
▁দেখতে	-2313
▁উচ্চ	-2314
▁pop	-2315
▁World	-2316
২০	-2317
▁মার্কিন	-2318
ament	-2319
▁মোদী	-2320
▁নিহত	-2321
▁few	-2322
irl	-2323
▁given	-2324
▁things	-2325
ন্তর্জাতিক	-2326
▁cre	-2327
▁যাচ্ছে	-2328
▁যায়নি	-2329
▁শতা	-2330
▁Shah	-2331
▁return	-2332
▁sever	-2333
▁ইন্ড	-2334
কদের	-2335
ীপ	-2336
▁minister	-2337
▁গ্রাম	-2338
▁এত	-2339
▁ফিরে	-2340
▁ভাব	-2341
সহ	-2342
▁National	-2343
াপ্ত	-2344
ূহ	-2345
oint	-2346
▁কত	-2347
▁হওয়া	-2348
iel	-2349
লো	-2350
ering	-2351
▁কর্তৃ	-2352
▁বয়	-2353
▁including	-2354
▁স্ত্রী	-2355
▁চলচ্চিত্র	-2356
▁পথ	-2357
▁যেখানে	-2358
▁pri	-2359
▁দেশে	-2360
aim	-2361
▁যিহোবা	-2362
▁শাহ	-2363
▁several	-2364
▁গুরুত্বপূর্ণ	-2365
▁মাঝ	-2366
▁বাবা	-2367
▁নেত	-2368
গর	-2369
▁শিশু	-2370
▁cle	-2371
▁কাছ	-2372
▁আন্তর্জাতিক	-2373
▁১৮	-2374
▁regard	-2375
াত্রী	-2376
▁আল্লাহ্	-2377
▁fore	-2378
▁says	-2379
000	-2380
▁মুখ্য	-2381
ued	-2382
▁তর	-2383
▁প্রার্থ	-2384
▁away	-2385
ক্ষেপ	-2386
▁৯	-2387
▁জন্ম	-2388
▁রাজ্যের	-2389
▁থাকবে	-2390
▁প্রত	-2391
▁Pe	-2392
বেদন	-2393
stand	-2394
▁পরিবারের	-2395
▁talk	-2396
লায়	-2397
▁মারা	-2398
ন্দেহ	-2399
▁দায়িত্ব	-2400
pe	-2401
▁উৎ	-2402
irit	-2403
▁কাউ	-2404
▁বৃদ্ধ	-2405
▁পৃথিব	-2406
▁prom	-2407
▁সকল	-2408
▁each	-2409
▁poss	-2410
▁মেয়ে	-2411
▁won	-2412
conom	-2413
ross	-2414
▁Islam	-2415
ীক	-2416
▁Me	-2417
▁দিয়েছে	-2418
▁public	-2419
▁book	-2420
▁comple	-2421
▁ভাবে	-2422
lish	-2423
▁গিয়েছে	-2424
াপা	-2425
▁ভয়	-2426
▁প্রদান	-2427
▁complain	-2428
▁গাড়	-2429
ended	-2430
▁সিন	-2431
▁সম্বন্ধে	-2432
মানে	-2433
তর	-2434
▁9	-2435
▁সংগ	-2436
▁fire	-2437
▁পৌঁ	-2438
▁করেছি	-2439
▁করছি	-2440
▁open	-2441
▁বিক	-2442
▁পাঁচ	-2443
ঘট	-2444
▁কঠ	-2445
▁প্রচার	-2446
iness	-2447
▁করব	-2448
েম্বর	-2449
uthor	-2450
▁হয়েছেন	-2451
▁let	-2452
▁Kh	-2453
পার	-2454
▁Bh	-2455
▁আশা	-2456
▁word	-2457
▁জয়	-2458
▁didnt	-2459
▁এম	-2460
▁এছাড়া	-2461
▁meeting	-2462
ys	-2463
▁protest	-2464
ember	-2465
▁যুদ্ধ	-2466
▁far	-2467
▁উদ্দেশ	-2468
লাম	-2469
▁give	-2470
▁Mah	-2471
▁rele	-2472
▁anything	-2473
সূ	-2474
▁appro	-2475
angu	-2476
▁ব্যক্ত	-2477
▁win	-2478
▁15	-2479
▁contr	-2480
▁happened	-2481
▁ইসলাম	-2482
▁করছেন	-2483
চ্ছেন	-2484
্যাট	-2485
▁স্বাস্থ্য	-2486
ষ্য	-2487
▁aff	-2488
▁এন	-2489
▁met	-2490
▁spe	-2491
▁নেতা	-2492
▁Many	-2493
my	-2494
▁Te	-2495
দান	-2496
মাত্র	-2497
▁don	-2498
▁প্রেস	-2499
▁partic	-2500
েট	-2501
▁ভিত্ত	-2502
▁দিয়েছেন	-2503
▁রহ	-2504
▁president	-2505
▁দাঁ	-2506
▁ব্ল	-2507
▁av	-2508
▁went	-2509
নিক	-2510
▁কৃষ	-2511
▁দেওয়ার	-2512
▁সো	-2513
atch	-2514
▁Ex	-2515
▁mother	-2516
▁ওয়ে	-2517
▁group	-2518
▁সমর্থ	-2519
▁১৫	-2520
▁ছব	-2521
▁run	-2522
ired	-2523
▁Par	-2524
▁mil	-2525
ালো	-2526
arent	-2527
ames	-2528
ified	-2529
▁বিল	-2530
▁system	-2531
▁খ্রিস্ট	-2532
▁members	-2533
▁আরো	-2534
▁নিতে	-2535
▁মিশ	-2536
স্প	-2537
▁road	-2538
▁Chief	-2539
▁বাংলাদেশের	-2540
ন্দর	-2541
▁spirit	-2542
গণ	-2543
োর্ট	-2544
▁মর	-2545
▁ছাত্র	-2546
▁Shri	-2547
▁State	-2548
stru	-2549
▁নিশ্চিত	-2550
▁''	-2551
ertain	-2552
টিতে	-2553
ats	-2554
▁পাকিস্তান	-2555
▁month	-2556
ari	-2557
▁cannot	-2558
ালী	-2559
▁নিউ	-2560
ollege	-2561
শীল	-2562
dom	-2563
▁video	-2564
▁Lord	-2565
▁party	-2566
রাধ	-2567
▁বই	-2568
ection	-2569
▁যাতে	-2570
▁local	-2571
▁health	-2572
গের	-2573
▁alle	-2574
▁requ	-2575
▁care	-2576
ctors	-2577
বের	-2578
▁এগ	-2579
▁University	-2580
▁nothing	-2581
umb	-2582
বান	-2583
ুয়ার	-2584
▁action	-2585
▁students	-2586
্লে	-2587
▁কু	-2588
▁real	-2589
▁sl	-2590
র্শন	-2591
▁আসে	-2592
▁সৃষ্টি	-2593
েস্ট	-2594
▁feel	-2595
▁তে	-2596
▁lot	-2597
ক্স	-2598
▁পুরস্কার	-2599
itness	-2600
▁men	-2601
ax	-2602
যোগ্য	-2603
▁শহর	-2604
▁est	-2605
▁hist	-2606
▁দ্রুত	-2607
ালি	-2608
▁গবে	-2609
▁12	-2610
▁Every	-2611
rab	-2612
▁হাতে	-2613
কেই	-2614
▁brother	-2615
▁ঘটন	-2616
▁fac	-2617
ালা	-2618
ature	-2619
▁money	-2620
gy	-2621
▁শাস্ত	-2622
▁earth	-2623
▁১২	-2624
▁চর	-2625
▁today	-2626
▁around	-2627
ার্ম	-2628
the	-2629
ience	-2630
হিত	-2631
▁মহিলা	-2632
▁প্রভাব	-2633
▁son	-2634
▁next	-2635
▁নিজেদের	-2636
ূলক	-2637
▁পরিস্থিতি	-2638
▁friend	-2639
▁inte	-2640
▁বর	-2641
ann	-2642
▁Sec	-2643
▁ইউনি	-2644
▁sim	-2645
িকভাবে	-2646
akh	-2647
ology	-2648
▁নাগরিক	-2649
্ট্র	-2650
ately	-2651
▁ধারণ	-2652
▁অন্তর্	-2653
▁কলেজ	-2654
িয়ায়	-2655
chn	-2656
▁নিরাপত্ত	-2657
▁Ph	-2658
▁art	-2659
▁def	-2660
▁Two	-2661
▁educ	-2662
▁রোগ	-2663
▁সৌ	-2664
▁Gu	-2665
▁gl	-2666
র্তি	-2667
▁list	-2668
▁Dhaka	-2669
▁beg	-2670
▁somet	-2671
▁human	-2672
াইট	-2673
▁রাখা	-2674
ম্ব	-2675
sel	-2676
থি	-2677
▁থাকতে	-2678
▁become	-2679
▁থেকেই	-2680
▁held	-2681
ump	-2682
▁সংবাদ	-2683
af	-2684
urity	-2685
▁question	-2686
▁land	-2687
▁mod	-2688
▁ফের	-2689
ploy	-2690
▁mark	-2691
▁গা	-2692
ract	-2693
▁প্রচ	-2694
▁important	-2695
▁former	-2696
▁মাত্র	-2697
▁commun	-2698
ency	-2699
▁exper	-2700
▁জন্যে	-2701
▁political	-2702
▁সির	-2703
▁কাজে	-2704
এই	-2705
ior	-2706
ration	-2707
▁কন	-2708
গ্রহ	-2709
সব	-2710
ram	-2711
▁turn	-2712
ajor	-2713
ship	-2714
▁adv	-2715
▁এলাকায়	-2716
▁Act	-2717
▁সাল	-2718
▁wife	-2719
▁national	-2720
শা	-2721
▁করো	-2722
▁Not	-2723
▁dead	-2724
▁seen	-2725
▁থান	-2726
▁war	-2727
োয়া	-2728
ined	-2729
▁মিড	-2730
que	-2731
▁ঘটনাস্থ	-2732
▁সংস্থা	-2733
▁রাজনৈতিক	-2734
lished	-2735
ccess	-2736
▁rest	-2737
▁find	-2738
wards	-2739
▁বিরোধ	-2740
ple	-2741
▁soon	-2742
▁সারা	-2743
▁due	-2744
ুরুষ	-2745
▁হে	-2746
জনের	-2747
aul	-2748
retary	-2749
▁ম্যাচ	-2750
▁beh	-2751
▁Who	-2752
▁খুবই	-2753
▁আলোচনা	-2754
▁মন্ত্রী	-2755
পক্ষ	-2756
দ্ব	-2757
ভুক্ত	-2758
▁জু	-2759
▁যিনি	-2760
▁relig	-2761
,000	-2762
র্গ	-2763
▁keep	-2764
▁রাস্ত	-2765
▁রেল	-2766
গ্রহণ	-2767
▁order	-2768
▁five	-2769
িনা	-2770
▁বৈঠ	-2771
▁বর্তমানে	-2772
জনক	-2773
▁Ah	-2774
▁heart	-2775
▁King	-2776
টু	-2777
ork	-2778
▁নিক	-2779
▁হাত	-2780
▁কিছুই	-2781
▁stop	-2782
ched	-2783
▁ঈশ্বর	-2784
▁ঘটে	-2785
▁heav	-2786
▁told	-2787
কর্ম	-2788
▁শান্ত	-2789
▁became	-2790
▁best	-2791
▁কংগ্রেস	-2792
▁মুসল	-2793
ready	-2794
ঘাত	-2795
▁থাকা	-2796
▁শ্রে	-2797
মধ্য	-2798
▁স্বাধীন	-2799
তেই	-2800
▁সচ	-2801
▁ফল	-2802
মের	-2803
ল্যান্ড	-2804
▁পরিবর্তন	-2805
ala	-2806
যায়ী	-2807
iving	-2808
▁Cent	-2809
▁countries	-2810
াযোগ	-2811
ror	-2812
▁অবস্থিত	-2813
োষ	-2814
▁সেনা	-2815
▁Be	-2816
ield	-2817
▁ওঠ	-2818
▁leaders	-2819
▁unt	-2820
▁অভিনয়	-2821
▁leg	-2822
▁পক্ষ	-2823
▁বাড়ি	-2824
চ্ছা	-2825
জীব	-2826
▁পরিচিত	-2827
োকে	-2828
ীকে	-2829
)।	-2830
▁কর্মকর্ত	-2831
osition	-2832
ন্টার	-2833
চ্ছি	-2834
ধি	-2835
িসি	-2836
▁প্রশাস	-2837
▁bo	-2838
▁United	-2839
▁মোট	-2840
▁প্রকল্প	-2841
গার	-2842
▁cricket	-2843
িডেন্ট	-2844
▁times	-2845
▁vill	-2846
পির	-2847
ট্র	-2848
eal	-2849
▁যৌ	-2850
▁অধ্য	-2851
▁দরকার	-2852
▁বিবে	-2853
▁left	-2854
▁কমিশ	-2855
▁already	-2856
mber	-2857
▁econom	-2858
▁Muslim	-2859
▁টুই	-2860
▁গড়ে	-2861
▁prop	-2862
▁উৎপ	-2863
▁১১	-2864
▁Con	-2865
▁Court	-2866
less	-2867
▁মুখ্যমন্ত্রী	-2868
াসা	-2869
▁South	-2870
▁reported	-2871
▁min	-2872
আমি	-2873
▁আটক	-2874
▁West	-2875
▁la	-2876
urther	-2877
▁activ	-2878
▁believe	-2879
ম্যান	-2880
রণের	-2881
▁decision	-2882
▁faith	-2883
▁move	-2884
▁vir	-2885
্যোগ	-2886
▁oper	-2887
▁Some	-2888
▁dri	-2889
▁air	-2890
meric	-2891
▁যাওয়া	-2892
ulation	-2893
▁Sp	-2894
ling	-2895
▁সন্তান	-2896
hem	-2897
fic	-2898
▁ভুল	-2899
াপাশি	-2900
ৃহ	-2901
ached	-2902
ept	-2903
ধার	-2904
▁claim	-2905
নাম	-2906
▁night	-2907
▁opp	-2908
▁chief	-2909
▁suff	-2910
▁অধিকার	-2911
▁পরীক্ষা	-2912
ird	-2913
ণী	-2914
য়েল	-2915
▁11	-2916
▁young	-2917
▁big	-2918
▁Med	-2919
""."	-2920
▁পায়	-2921
▁Thats	-2922
▁পাশাপাশি	-2923
▁various	-2924
▁ve	-2925
▁information	-2926
▁tem	-2927
▁দীর্	-2928
▁দীর্ঘ	-2929
▁‘‘	-2930
▁ce	-2931
▁পশ্চিম	-2932
▁Ass	-2933
মু	-2934
▁understand	-2935
▁author	-2936
ড়াই	-2937
▁Hind	-2938
▁সংস	-2939
▁সমা	-2940
▁এসব	-2941
▁তাদেরকে	-2942
▁pur	-2943
▁কখনও	-2944
▁along	-2945
▁জেলার	-2946
adi	-2947
▁girl	-2948
▁মন্দ	-2949
গান	-2950
াউ	-2951
udd	-2952
িয়াম	-2953
▁সরকারি	-2954
mir	-2955
aring	-2956
দেশের	-2957
▁হয়তো	-2958
▁অর্থন	-2959
▁রো	-2960
▁conn	-2961
▁Cor	-2962
▁স্কুল	-2963
▁success	-2964
▁আমের	-2965
সময়	-2966
soci	-2967
▁নির্বাচন	-2968
▁শক্ত	-2969
ush	-2970
রাস	-2971
overed	-2972
ily	-2973
illion	-2974
▁langu	-2975
▁জিজ্ঞ	-2976
▁মন্ত্র	-2977
াজিক	-2978
▁daug	-2979
▁ইস	-2980
▁সভাপতি	-2981
ner	-2982
▁বোঝ	-2983
mitted	-2984
▁199	-2985
িকল্প	-2986
▁জানি	-2987
▁যোগাযোগ	-2988
▁China	-2989
▁দেব	-2990
amed	-2991
▁সফ	-2992
▁produ	-2993
▁বহু	-2994
ination	-2995
orts	-2996
▁বছরের	-2997
▁অবস্থা	-2998
▁ইতিহাস	-2999
▁respons	-3000
বন্ধ	-3001
▁অস্ব	-3002
ressed	-3003
▁যত	-3004
▁stand	-3005
ially	-3006
"",	-3007
▁ri	-3008
াম্প	-3009
পে	-3010
▁ভে	-3011
্যায়	-3012
▁কুম	-3013
▁Union	-3014
▁সুর	-3015
▁প্রত্যা	-3016
▁decl	-3017
▁chang	-3018
▁সংশ	-3019
▁যুব	-3020
িদ	-3021
▁Sy	-3022
▁সামনে	-3023
▁প্রেসিডেন্ট	-3024
▁কেবল	-3025
▁সত্যি	-3026
eration	-3027
▁try	-3028
লেই	-3029
▁ডে	-3030
▁বলেছিলেন	-3031
vent	-3032
com	-3033
▁build	-3034
▁food	-3035
▁অফিস	-3036
▁announ	-3037
▁discuss	-3038
-1	-3039
গ্রাম	-3040
▁ident	-3041
▁বাইবেল	-3042
▁বন্ধু	-3043
▁cult	-3044
▁doing	-3045
খা	-3046
uck	-3047
শে	-3048
reed	-3049
▁যুক্তরাষ্ট্র	-3050
▁শুন	-3051
▁current	-3052
▁People	-3053
▁put	-3054
rence	-3055
▁PM	-3056
▁old	-3057
▁Gand	-3058
▁sk	-3059
▁লিখে	-3060
▁ফোন	-3061
▁ফ্র	-3062
erv	-3063
▁ফেল	-3064
▁প্রমাণ	-3065
▁নিয়ন্ত্রণ	-3066
▁development	-3067
▁লক্ষ্য	-3068
▁অবশ্যই	-3069
▁near	-3070
▁অনুযায়ী	-3071
▁সাং	-3072
▁del	-3073
▁নিশ্চয়	-3074
▁সম্পাদ	-3075
য়োগ	-3076
▁চিন্তা	-3077
▁অভিযুক্ত	-3078
▁বাস্ত	-3079
▁জানিয়েছে	-3080
▁সঙ্গ	-3081
▁বক্ত	-3082
▁হাই	-3083
▁বিক্ষ	-3084
টো	-3085
▁চো	-3086
▁কলক	-3087
▁ক্রিকেট	-3088
চি	-3089
ন্স	-3090
▁ভাগ	-3091
▁বর্ণ	-3092
ense	-3093
eed	-3094
বিষ্য	-3095
▁Or	-3096
▁issue	-3097
▁নারী	-3098
▁Acc	-3099
▁major	-3100
▁কোটি	-3101
iety	-3102
শু	-3103
িয়ন	-3104
any	-3105
▁অ্যা	-3106
▁mur	-3107
In	-3108
▁Sa	-3109
▁দশ	-3110
র্ষ	-3111
▁ফিল	-3112
▁ওয়	-3113
▁ক্ষতি	-3114
anc	-3115
ংক	-3116
olved	-3117
gether	-3118
▁together	-3119
▁প্রস্ত	-3120
▁১৪	-3121
িফ	-3122
▁complaint	-3123
▁allow	-3124
iter	-3125
▁par	-3126
▁রয়েছেন	-3127
▁নাই	-3128
▁tell	-3129
▁কাম	-3130
▁সত	-3131
▁এলাকা	-3132
▁14	-3133
arents	-3134
বিল	-3135
ample	-3136
▁সামাজিক	-3137
▁Mal	-3138
▁div	-3139
▁মুম	-3140
দু	-3141
▁Kum	-3142
▁test	-3143
▁খুঁ	-3144
olk	-3145
ammad	-3146
▁নির	-3147
▁ভবিষ্য	-3148
▁বদ	-3149
▁আলা	-3150
▁ফেলে	-3151
inc	-3152
▁পরিকল্প	-3153
মরা	-3154
▁গভ	-3155
▁প্রভ	-3156
▁পাকিস্তানের	-3157
▁মন্ত	-3158
টন	-3159
▁নির্মাণ	-3160
সভা	-3161
▁ভোট	-3162
▁really	-3163
াহরণ	-3164
▁reason	-3165
bs	-3166
▁adm	-3167
▁আন্দ	-3168
▁বান	-3169
▁১৩	-3170
▁জড়	-3171
▁প্রাচ	-3172
▁সংস্ক	-3173
▁fight	-3174
▁ব্যাপার	-3175
▁These	-3176
sw	-3177
▁এবার	-3178
▁without	-3179
▁মৃত্য	-3180
▁ভর্তি	-3181
▁el	-3182
▁উভ	-3183
▁দিক	-3184
selves	-3185
▁ক্ল	-3186
▁অপরাধ	-3187
iol	-3188
▁দুর্ঘট	-3189
ক্ট	-3190
▁true	-3191
▁পরিবেশ	-3192
▁বিস্ত	-3193
▁persons	-3194
▁woman	-3195
▁always	-3196
▁Americ	-3197
▁13	-3198
▁রূপ	-3199
▁কখনো	-3200
িকায়	-3201
▁ফে	-3202
▁ভারতে	-3203
ait	-3204
▁কোথায়	-3205
জর	-3206
▁ফুট	-3207
করা	-3208
▁May	-3209
▁upon	-3210
▁asked	-3211
▁এগিয়ে	-3212
’’	-3213
▁এখনো	-3214
▁progr	-3215
gg	-3216
▁১৯৯	-3217
▁sing	-3218
িনীর	-3219
▁সহযোগ	-3220
▁জাম	-3221
▁বুঝতে	-3222
▁ছাড়	-3223
▁শব্দ	-3224
reme	-3225
▁মুহ	-3226
ither	-3227
▁বিব	-3228
▁Moh	-3229
emb	-3230
▁fr	-3231
ণা	-3232
▁যাওয়ার	-3233
▁ক্ষমতা	-3234
▁relations	-3235
▁১৭	-3236
▁খু	-3237
els	-3238
▁Mu	-3239
ours	-3240
▁অপর	-3241
▁উন্নয়ন	-3242
▁বিত	-3243
▁interest	-3244
esp	-3245
লী	-3246
▁কারা	-3247
রাং	-3248
▁rul	-3249
▁বললেন	-3250
▁সংগঠ	-3251
▁treat	-3252
টিকে	-3253
▁Ministry	-3254
▁17	-3255
▁Aust	-3256
▁large	-3257
ান্ড	-3258
idd	-3259
inal	-3260
ising	-3261
▁accept	-3262
বায়	-3263
▁আক্রান্ত	-3264
্মদ	-3265
▁কয়েকটি	-3266
জন্য	-3267
▁join	-3268
▁ঢাকা	-3269
▁Gandhi	-3270
▁ছেড়ে	-3271
▁milit	-3272
▁রকম	-3273
▁মানব	-3274
▁ap	-3275
▁High	-3276
ier	-3277
সমূহ	-3278
▁Su	-3279
ically	-3280
িক্ত	-3281
ara	-3282
পু	-3283
বাদী	-3284
ittee	-3285
▁গ্রেপ্ত	-3286
▁16	-3287
▁হলেন	-3288
ones	-3289
ঙ্কা	-3290
hter	-3291
ague	-3292
ani	-3293
▁দেয়া	-3294
▁সেখান	-3295
▁demand	-3296
reg	-3297
▁project	-3298
পত্র	-3299
▁প্রস্তু	-3300
▁১৬	-3301
ক্রমণ	-3302
▁পুরুষ	-3303
▁regist	-3304
itiz	-3305
▁প্রতির	-3306
▁সুত	-3307
▁fear	-3308
▁eas	-3309
▁plan	-3310
▁truth	-3311
▁এসেছে	-3312
▁exam	-3313
ষ্কার	-3314
▁cases	-3315
▁পদক্ষেপ	-3316
▁might	-3317
▁প্রেম	-3318
iver	-3319
স্ত্র	-3320
▁সপ্ত	-3321
▁thought	-3322
▁প্রের	-3323
বস	-3324
▁crit	-3325
▁mor	-3326
▁received	-3327
টিং	-3328
▁চান	-3329
▁estab	-3330
াদের	-3331
ality	-3332
▁role	-3333
▁To	-3334
▁Kash	-3335
▁leader	-3336
▁played	-3337
▁রাখতে	-3338
▁মুক্তি	-3339
▁জো	-3340
medi	-3341
▁investigation	-3342
artment	-3343
▁Day	-3344
ient	-3345
▁control	-3346
▁রু	-3347
াৎ	-3348
▁thing	-3349
বিশ	-3350
▁study	-3351
▁পরবর্তী	-3352
raph	-3353
ডের	-3354
তেন	-3355
▁আগুন	-3356
▁bene	-3357
▁সহজ	-3358
▁বিক্ষোভ	-3359
▁উদাহরণ	-3360
▁(1	-3361
এফ	-3362
ert	-3363
▁example	-3364
▁Ram	-3365
▁Gr	-3366
▁event	-3367
▁মনো	-3368
▁small	-3369
cl	-3370
▁den	-3371
▁week	-3372
▁বাইরে	-3373
▁press	-3374
▁অগ্র	-3375
▁ইন্টার	-3376
▁বিন	-3377
be	-3378
▁সুতরাং	-3379
▁নিঃ	-3380
▁began	-3381
wit	-3382
ভর	-3383
▁following	-3384
▁College	-3385
ali	-3386
▁বিশ্বের	-3387
স্থার	-3388
্ঞ	-3389
ession	-3390
জিত	-3391
oura	-3392
হুল	-3393
▁respect	-3394
▁আনন্দ	-3395
▁জ্ঞ	-3396
▁করলেন	-3397
বী	-3398
▁পক্ষে	-3399
▁বিদেশ	-3400
▁Sc	-3401
▁further	-3402
▁clear	-3403
▁মৌ	-3404
▁পরিমাণ	-3405
▁spok	-3406
▁Ag	-3407
▁match	-3408
▁view	-3409
▁process	-3410
▁grow	-3411
▁live	-3412
▁prof	-3413
ining	-3414
He	-3415
কৃত	-3416
▁peace	-3417
▁Sab	-3418
idence	-3419
une	-3420
▁অবস্থায়	-3421
ger	-3422
তু	-3423
বো	-3424
iod	-3425
▁স্বা	-3426
র্ষণ	-3427
ffic	-3428
▁অভিয	-3429
িন্দু	-3430
ণিজ	-3431
▁বাকি	-3432
▁পারবে	-3433
▁working	-3434
▁ছড়িয়ে	-3435
▁term	-3436
▁Kumar	-3437
▁অস্ট্র	-3438
▁jud	-3439
▁Our	-3440
▁gre	-3441
lier	-3442
▁Fr	-3443
▁রিপ	-3444
▁নিরাপত্তা	-3445
▁mus	-3446
▁সমাজ	-3447
▁বৃদ্ধি	-3448
▁Sat	-3449
▁something	-3450
ected	-3451
ript	-3452
▁init	-3453
▁ইউর	-3454
▁প্রকাশিত	-3455
▁Jan	-3456
▁ever	-3457
▁প্রতিষ্ঠান	-3458
লিক	-3459
line	-3460
""-	-3461
▁wr	-3462
▁আক	-3463
▁cro	-3464
rael	-3465
▁চুক্ত	-3466
▁pray	-3467
তাম	-3468
▁গোল	-3469
▁vict	-3470
▁across	-3471
্যাম্প	-3472
দিষ্ট	-3473
▁প্রাথম	-3474
▁মাঝে	-3475
▁শেখ	-3476
▁শক্তি	-3477
▁hard	-3478
▁নেতৃত	-3479
▁ইর	-3480
▁জাহ	-3481
▁hope	-3482
▁গে	-3483
▁দাম	-3484
acher	-3485
We	-3486
▁হ্যা	-3487
▁উঠে	-3488
▁খেলা	-3489
▁kind	-3490
▁better	-3491
▁change	-3492
▁visit	-3493
্ভাব	-3494
▁জাতি	-3495
ুদ্র	-3496
▁parents	-3497
▁উপরে	-3498
▁Pradesh	-3499
▁একটু	-3500
ider	-3501
▁উদ্যোগ	-3502
▁Kashmir	-3503
por	-3504
▁অন্ত	-3505
▁Mad	-3506
▁বৃহ	-3507
▁নাক	-3508
app	-3509
▁special	-3510
পূর্	-3511
▁viol	-3512
▁States	-3513
▁account	-3514
ittle	-3515
▁education	-3516
গো	-3517
▁লড়াই	-3518
করণ	-3519
men	-3520
▁Res	-3521
▁অবস্থান	-3522
rat	-3523
▁wrong	-3524
▁কাজের	-3525
▁Austral	-3526
▁Dep	-3527
▁শ্রম	-3528
রামর্শ	-3529
▁প্রাণ	-3530
liament	-3531
▁আয়	-3532
কেট	-3533
ointed	-3534
েনার	-3535
▁অন্যতম	-3536
▁মৃত্যুর	-3537
▁চি	-3538
▁bro	-3539
▁Brit	-3540
▁Commission	-3541
▁rev	-3542
▁জানতে	-3543
▁197	-3544
ams	-3545
▁আরেক	-3546
▁lost	-3547
▁service	-3548
▁বাড়িতে	-3549
▁আবেদন	-3550
রেজি	-3551
▁sus	-3552
hat	-3553
ila	-3554
:2	-3555
▁টেল	-3556
ma	-3557
ভে	-3558
▁কঠিন	-3559
▁camp	-3560
▁টেস্ট	-3561
▁রান	-3562
▁পোস্ট	-3563
দীর	-3564
▁Israel	-3565
▁region	-3566
body	-3567
▁journ	-3568
ান্স	-3569
▁Russ	-3570
▁প্রক্র	-3571
▁জানানো	-3572
▁filed	-3573
umbai	-3574
▁রায়	-3575
▁পদ্ধ	-3576
▁&	-3577
▁perform	-3578
বিধা	-3579
ained	-3580
ুস	-3581
▁val	-3582
াক্তন	-3583
▁কিং	-3584
▁পরামর্শ	-3585
▁avail	-3586
▁মন্তব্য	-3587
ামা	-3588
▁hold	-3589
▁মেড	-3590
▁Abd	-3591
নির্	-3592
ারাপ	-3593
▁Mar	-3594
ibility	-3595
▁equ	-3596
▁পেশ	-3597
alf	-3598
▁#	-3599
▁চিত্র	-3600
▁possible	-3601
▁Se	-3602
র্ড	-3603
▁Can	-3604
▁fun	-3605
▁record	-3606
▁নেয়	-3607
▁বিয়ে	-3608
▁চায়	-3609
সঙ্গে	-3610
▁তোমাকে	-3611
ences	-3612
▁সম্ভাব	-3613
▁শতাংশ	-3614
▁security	-3615
▁priv	-3616
▁entire	-3617
▁দিল্ল	-3618
▁আগামী	-3619
▁খাবার	-3620
▁ওর	-3621
▁bas	-3622
ohn	-3623
▁inst	-3624
▁থাকার	-3625
▁অপে	-3626
▁brought	-3627
aged	-3628
br	-3629
▁ভাষায়	-3630
▁মিথ	-3631
রূপ	-3632
▁উৎপাদ	-3633
▁"(	-3634
েনের	-3635
▁বিশ্ববিদ্যালয়	-3636
▁জড়িত	-3637
িহ্ন	-3638
▁mind	-3639
erc	-3640
▁ডিস	-3641
ize	-3642
▁প্রাক্তন	-3643
▁condu	-3644
▁হত্যা	-3645
▁accident	-3646
duced	-3647
▁po	-3648
▁occas	-3649
ঙ্গি	-3650
▁answ	-3651
▁–	-3652
▁Ali	-3653
▁added	-3654
▁(19	-3655
জু	-3656
▁though	-3657
▁স্পষ্ট	-3658
▁Mumbai	-3659
arty	-3660
▁লোকে	-3661
▁আপনাকে	-3662
▁ট্রাম্প	-3663
০০০	-3664
▁করলে	-3665
▁ঐতি	-3666
▁আন্দোল	-3667
par	-3668
▁তিনটি	-3669
ট্ট	-3670
▁সাই	-3671
▁পিত	-3672
▁সম্মান	-3673
▁face	-3674
হে	-3675
▁Dist	-3676
rah	-3677
ফে	-3678
▁means	-3679
▁hig	-3680
▁পাঠানো	-3681
্রি	-3682
▁প্রস্তাব	-3683
airs	-3684
▁Sal	-3685
▁দায়ের	-3686
ourse	-3687
▁period	-3688
uge	-3689
▁বেড়ে	-3690
▁series	-3691
uture	-3692
ফি	-3693
▁রহমান	-3694
▁অস্ট্রেল	-3695
▁Christian	-3696
irc	-3697
▁international	-3698
▁আসলে	-3699
তন	-3700
▁immedi	-3701
▁dest	-3702
▁According	-3703
uty	-3704
▁সেরা	-3705
▁Eur	-3706
▁প্রবেশ	-3707
বাদিক	-3708
াধিক	-3709
প্রিয়	-3710
▁School	-3711
▁খারাপ	-3712
▁করোনা	-3713
aid	-3714
▁strong	-3715
▁sol	-3716
▁election	-3717
▁যাদের	-3718
▁অতি	-3719
▁অত্য	-3720
-19	-3721
ীরে	-3722
▁পাই	-3723
▁With	-3724
স্থান	-3725
▁class	-3726
▁station	-3727
▁level	-3728
ches	-3729
stitution	-3730
▁দুঃ	-3731
▁bring	-3732
▁ple	-3733
জয়	-3734
▁history	-3735
▁foot	-3736
▁colle	-3737
▁general	-3738
▁শত	-3739
▁certain	-3740
▁সুপার	-3741
▁প্রযুক্ত	-3742
▁ey	-3743
▁International	-3744
▁ভাষা	-3745
▁eng	-3746
▁wrote	-3747
0.	-3748
▁লিখ	-3749
▁mean	-3750
▁ওয়া	-3751
▁supp	-3752
রাই	-3753
▁দূর	-3754
▁reached	-3755
ভিড	-3756
ূর্ত	-3757
▁Her	-3758
▁?	-3759
▁areas	-3760
কালে	-3761
▁গান্ধ	-3762
▁পরিণ	-3763
▁six	-3764
▁char	-3765
▁কোর্	-3766
.-	-3767
▁খুন	-3768
ডার	-3769
ony	-3770
▁job	-3771
▁কাশ	-3772
ত্ত্ব	-3773
side	-3774
▁cant	-3775
▁plac	-3776
ভায়	-3777
▁pict	-3778
lect	-3779
▁short	-3780
ৃতিক	-3781
ামি	-3782
সন	-3783
▁কেমন	-3784
▁ধারণা	-3785
▁desc	-3786
▁সফল	-3787
▁তেমন	-3788
ison	-3789
▁প্রতিনি	-3790
▁কর্তৃপক্ষ	-3791
▁speak	-3792
▁বিনি	-3793
▁Trump	-3794
▁সাংবাদিক	-3795
▁business	-3796
গুলোতে	-3797
▁able	-3798
▁জে	-3799
ন্দ্র	-3800
▁mess	-3801
band	-3802
▁সর্বো	-3803
▁অর্জন	-3804
▁মুম্ব	-3805
▁col	-3806
▁daughter	-3807
জের	-3808
▁সোশ	-3809
▁থাকেন	-3810
ped	-3811
▁আদালত	-3812
▁আছেন	-3813
ounc	-3814
▁tre	-3815
▁laun	-3816
oon	-3817
ops	-3818
▁learn	-3819
▁মূল্য	-3820
▁এদের	-3821
বেক	-3822
য়াল	-3823
▁গৃহ	-3824
of	-3825
ান্তর	-3826
ule	-3827
▁কাল	-3828
anj	-3829
▁ভাইরা	-3830
▁করল	-3831
▁less	-3832
▁নীতি	-3833
▁বাণিজ	-3834
োদ	-3835
▁wick	-3836
uted	-3837
itions	-3838
▁সতর্ক	-3839
▁সহায়	-3840
▁এমনকি	-3841
▁প্রত্যেক	-3842
▁little	-3843
▁চাপ	-3844
▁Test	-3845
wood	-3846
▁দিয়েছিলেন	-3847
▁himself	-3848
▁সাংস	-3849
aching	-3850
▁সমর্থন	-3851
▁bre	-3852
▁cause	-3853
▁দিনের	-3854
▁Just	-3855
▁লাই	-3856
▁অনুষ্ঠানে	-3857
CC	-3858
▁Has	-3859
সর	-3860
▁বন্দ	-3861
জনকে	-3862
▁techn	-3863
ware	-3864
বাব	-3865
▁আপন	-3866
olkata	-3867
▁গ্রেপ্তার	-3868
▁final	-3869
▁caus	-3870
▁future	-3871
▁সময়ের	-3872
▁১৯৭	-3873
ias	-3874
▁Afric	-3875
▁within	-3876
▁ধ্ব	-3877
epend	-3878
tt	-3879
resent	-3880
গুলিতে	-3881
▁Paul	-3882
go	-3883
▁তারি	-3884
▁প্রাচীন	-3885
ুয়ারি	-3886
▁থানায়	-3887
abad	-3888
▁free	-3889
uly	-3890
▁খাদ	-3891
icle	-3892
এল	-3893
▁অল	-3894
▁dra	-3895
▁জম	-3896
▁অন্তর্ভুক্ত	-3897
ivil	-3898
▁happy	-3899
শেষ	-3900
▁পানি	-3901
▁Later	-3902
▁making	-3903
ushed	-3904
▁effect	-3905
▁Rs	-3906
▁198	-3907
▁বাত	-3908
▁নেন	-3909
▁সেবা	-3910
▁মুসলিম	-3911
▁সঠ	-3912
▁সপ্তাহ	-3913
▁often	-3914
▁Arab	-3915
চক	-3916
int	-3917
▁আফ্র	-3918
▁saying	-3919
রায়	-3920
▁dr	-3921
ড়ক	-3922
▁gener	-3923
▁পরিকল্পনা	-3924
ald	-3925
সার	-3926
▁particip	-3927
▁ইতিমধ্য	-3928
ball	-3929
▁sure	-3930
▁expect	-3931
▁পুলিস	-3932
▁top	-3933
ৌশ	-3934
কিছু	-3935
▁Bank	-3936
alm	-3937
▁Kolkata	-3938
জায়	-3939
▁Bar	-3940
erman	-3941
রাট	-3942
▁Br	-3943
▁শহরের	-3944
▁field	-3945
ify	-3946
▁phot	-3947
ublic	-3948
ikh	-3949
ন্থ	-3950
▁bank	-3951
মর	-3952
▁একাধিক	-3953
▁গুলি	-3954
▁bad	-3955
▁early	-3956
▁বিধান	-3957
▁এটাই	-3958
▁include	-3959
▁General	-3960
▁পিছ	-3961
▁সম্মেল	-3962
▁চেয়ার	-3963
▁gone	-3964
▁গঠন	-3965
▁past	-3966
জ্ঞা	-3967
▁রাষ্ট্রপতি	-3968
▁চৌ	-3969
▁serious	-3970
▁খোঁ	-3971
▁এছাড়াও	-3972
▁sour	-3973
▁সম্পূর্ণ	-3974
ভূত	-3975
▁অত্যন্ত	-3976
▁ইউরোপ	-3977
▁Don	-3978
▁terror	-3979
▁stay	-3980
▁million	-3981
▁বিজ্ঞান	-3982
▁indust	-3983
▁tot	-3984
▁century	-3985
ilar	-3986
oad	-3987
ানির	-3988
▁Cup	-3989
▁District	-3990
▁Both	-3991
▁English	-3992
▁সাত	-3993
▁ঘটেছে	-3994
ficult	-3995
ID	-3996
▁দিব	-3997
ization	-3998
▁মস	-3999
চল	-4000
▁চিহ্ন	-4001
arma	-4002
▁Pl	-4003
▁North	-4004
het	-4005
▁gave	-4006
▁সংক্রান্ত	-4007
▁—	-4008
▁officials	-4009
▁Kap	-4010
▁অভিনেত	-4011
ances	-4012
িভ	-4013
▁বেশির	-4014
ঢ়	-4015
▁গাড়ি	-4016
▁@	-4017
asing	-4018
▁administ	-4019
র্য	-4020
▁কোম্প	-4021
▁দান	-4022
▁member	-4023
আমরা	-4024
নাথ	-4025
▁মোহ	-4026
▁trad	-4027
সন্দেহ	-4028
▁২৪	-4029
▁শীর্	-4030
▁যিশু	-4031
▁জানেন	-4032
▁পরীক্ষ	-4033
য়াদ	-4034
▁coming	-4035
▁লী	-4036
aled	-4037
▁Kingdom	-4038
agar	-4039
▁deb	-4040
পাল	-4041
▁difficult	-4042
▁বর্তমান	-4043
olly	-4044
▁""""	-4045
▁হোস	-4046
rie	-4047
▁আর্	-4048
▁released	-4049
▁পূর্ণ	-4050
▁পড়া	-4051
▁পরিচালক	-4052
▁নানা	-4053
▁কুমার	-4054
▁concern	-4055
▁শ্র	-4056
▁language	-4057
▁pay	-4058
▁ব্যাপক	-4059
sequ	-4060
▁states	-4061
▁Cl	-4062
বেদ	-4063
▁মাসে	-4064
▁জীবনের	-4065
বহ	-4066
▁বেস	-4067
▁close	-4068
▁হতো	-4069
▁Europe	-4070
▁জার্ম	-4071
▁Where	-4072
▁উপল	-4073
▁taking	-4074
খ্য	-4075
▁Air	-4076
ক্ষম	-4077
▁24	-4078
য়নের	-4079
শিয়া	-4080
ung	-4081
▁light	-4082
▁সোশ্যাল	-4083
▁everything	-4084
▁enc	-4085
সী	-4086
▁গল্প	-4087
পথ	-4088
▁পুরো	-4089
ending	-4090
▁employ	-4091
▁Hospital	-4092
▁village	-4093
▁occasion	-4094
▁বাদ	-4095
▁চিকিৎসা	-4096
▁stru	-4097
▁বাঁ	-4098
▁dev	-4099
েতন	-4100
▁কোর	-4101
▁League	-4102
▁চাক	-4103
▁প্রতিযোগ	-4104
ises	-4105
ories	-4106
▁hus	-4107
জনে	-4108
াসের	-4109
▁hon	-4110
িনায়ক	-4111
eb	-4112
▁behind	-4113
েতা	-4114
▁ধরা	-4115
▁continue	-4116
োব	-4117
ওয়ে	-4118
▁informed	-4119
▁ide	-4120
ges	-4121
▁পথে	-4122
▁ty	-4123
▁আগ্র	-4124
itional	-4125
▁আল্লাহর	-4126
▁treatment	-4127
▁আলাদা	-4128
▁story	-4129
দায়	-4130
▁Iran	-4131
akes	-4132
▁anyone	-4133
%,	-4134
▁ur	-4135
▁প্রাথমিক	-4136
▁ভূমিকা	-4137
▁Theres	-4138
▁fail	-4139
▁কর্মসূ	-4140
▁ব্যবহ	-4141
ouncil	-4142
▁game	-4143
গুলোকে	-4144
hest	-4145
▁registered	-4146
▁until	-4147
▁শা	-4148
▁recovered	-4149
▁চালু	-4150
▁গোটা	-4151
▁চী	-4152
1.	-4153
▁admitted	-4154
▁উভয়	-4155
▁কাশ্ম	-4156
▁Bl	-4157
▁murder	-4158
▁লেখা	-4159
1,	-4160
▁সরব	-4161
▁Rep	-4162
▁spread	-4163
▁proper	-4164
▁ওয়ার	-4165
▁দিল্লি	-4166
▁cong	-4167
▁অনুষ্ঠিত	-4168
▁করতেন	-4169
▁based	-4170
▁একা	-4171
▁Most	-4172
▁age	-4173
▁Ahmed	-4174
▁একেবার	-4175
▁course	-4176
ke	-4177
▁তৃত	-4178
বন	-4179
▁tri	-4180
iron	-4181
▁full	-4182
▁অঞ্চল	-4183
▁চলা	-4184
▁পৌঁছ	-4185
োয়	-4186
▁জোর	-4187
▁benef	-4188
বাধ	-4189
ঠি	-4190
▁office	-4191
▁Dr	-4192
▁বাণিজ্য	-4193
▁জায়গায়	-4194
ami	-4195
▁whole	-4196
▁pract	-4197
▁কাউকে	-4198
pportun	-4199
▁town	-4200
▁অস্বীকার	-4201
েন্ড	-4202
ledge	-4203
pped	-4204
▁নিম	-4205
ober	-4206
▁pun	-4207
▁সমস্য	-4208
▁John	-4209
▁তালিকা	-4210
▁ব্যক্তিগত	-4211
▁বিধ	-4212
▁পরিচালনা	-4213
reng	-4214
▁words	-4215
itizens	-4216
▁স্বীকার	-4217
▁problems	-4218
▁ঋ	-4219
উট	-4220
▁বিজেপির	-4221
apan	-4222
ference	-4223
▁ধ্বংস	-4224
▁১৯৮	-4225
কল	-4226
িটিশ	-4227
erm	-4228
itnesses	-4229
▁ঘটনাস্থলে	-4230
াস্ট	-4231
▁রক্ত	-4232
▁fact	-4233
▁অ্যান্ড	-4234
▁হিন্দু	-4235
▁সবার	-4236
▁চলেছে	-4237
▁জনপ্রিয়	-4238
ened	-4239
▁গভীর	-4240
▁kn	-4241
▁পত্র	-4242
▁যাই	-4243
কারীদের	-4244
▁সম্প্রতি	-4245
্না	-4246
▁nation	-4247
▁Mos	-4248
ption	-4249
▁লোকেদের	-4250
▁else	-4251
book	-4252
▁বিদ্যাল	-4253
▁দার	-4254
itive	-4255
▁মেনে	-4256
রাহ	-4257
োহন	-4258
▁str	-4259
▁রাহুল	-4260
▁liter	-4261
ery	-4262
দুল	-4263
▁পছ	-4264
▁opportun	-4265
▁step	-4266
রকম	-4267
জ্ঞতা	-4268
▁নিকট	-4269
▁written	-4270
▁হত	-4271
এক	-4272
▁গবেষণা	-4273
▁created	-4274
▁side	-4275
▁জায়গা	-4276
কেল	-4277
▁workers	-4278
▁Will	-4279
▁যাত্রী	-4280
▁নিজেকে	-4281
▁বিপর	-4282
▁হোক	-4283
ama	-4284
ograph	-4285
aster	-4286
▁প্রতিবাদ	-4287
▁দুঃখ	-4288
▁সমাধান	-4289
েলায়	-4290
▁common	-4291
▁Rahul	-4292
ij	-4293
▁ছবিতে	-4294
sc	-4295
▁স্বামী	-4296
▁নেওয়ার	-4297
andid	-4298
্যাশন	-4299
▁প্ল	-4300
▁সৈ	-4301
ollywood	-4302
irm	-4303
▁টুইট	-4304
▁elections	-4305
ঞ্	-4306
▁কৃত	-4307
witter	-4308
uary	-4309
িগ	-4310
▁announced	-4311
▁Nob	-4312
▁population	-4313
adu	-4314
▁Other	-4315
oud	-4316
ফা	-4317
▁needs	-4318
ডে	-4319
to	-4320
▁সন্দেহ	-4321
▁জুল	-4322
▁জানায়	-4323
ron	-4324
▁available	-4325
ta	-4326
▁তৃতীয়	-4327
ogn	-4328
work	-4329
▁করেনি	-4330
utions	-4331
▁পড়েছে	-4332
val	-4333
ময়	-4334
amb	-4335
ored	-4336
সায়	-4337
▁Sabha	-4338
urs	-4339
mp	-4340
▁veh	-4341
োঁ	-4342
প্ট	-4343
▁উদ্দেশ্য	-4344
udi	-4345
▁সমালো	-4346
▁নিঃসন্দেহ	-4347
ভাবেই	-4348
▁চালিয়ে	-4349
▁pain	-4350
▁arri	-4351
iah	-4352
▁২৫	-4353
▁German	-4354
াম্মদ	-4355
▁ভিন্ন	-4356
।-	-4357
▁Pet	-4358
▁)	-4359
▁25	-4360
▁lives	-4361
▁আঘাত	-4362
era	-4363
▁pati	-4364
▁chall	-4365
▁মাই	-4366
▁বাহিনী	-4367
mar	-4368
তিরিক্ত	-4369
হীন	-4370
▁শাস্তি	-4371
▁নির্দিষ্ট	-4372
▁নৌ	-4373
▁নজর	-4374
মত	-4375
▁ver	-4376
বদ্ধ	-4377
বিত্র	-4378
▁whom	-4379
▁elect	-4380
▁circ	-4381
▁Him	-4382
▁মন্দির	-4383
▁Three	-4384
▁song	-4385
▁প্রয়োজনীয়	-4386
ভোগ	-4387
▁dam	-4388
শাস	-4389
▁mag	-4390
▁কর্মকর্তা	-4391
▁নদী	-4392
aps	-4393
▁হারিয়ে	-4394
▁অভিনেত্রী	-4395
▁having	-4396
▁whe	-4397
▁associ	-4398
▁রাজধান	-4399
▁বিভাগের	-4400
▁সম্পাদক	-4401
রত	-4402
▁streng	-4403
▁British	-4404
▁প্রথ	-4405
বাদের	-4406
▁প্রশংস	-4407
▁ones	-4408
▁মার্চ	-4409
▁গুরুতর	-4410
▁অনুর	-4411
▁sw	-4412
▁ব্রিটিশ	-4413
শিয়ার	-4414
embly	-4415
▁fell	-4416
▁months	-4417
▁orig	-4418
2.	-4419
▁রক্ষা	-4420
▁ধারা	-4421
▁উদ্ব	-4422
কোন	-4423
▁পারবেন	-4424
▁আর্থ	-4425
▁আচ	-4426
ards	-4427
▁বাধ্য	-4428
দিনের	-4429
ৃদ	-4430
▁সাবেক	-4431
ium	-4432
▁জাপ	-4433
▁boy	-4434
▁পৌঁছে	-4435
ude	-4436
▁খুঁজে	-4437
▁নির্ভর	-4438
▁নিন	-4439
▁শ্রমিক	-4440
▁ছয়	-4441
▁Are	-4442
▁আক্রমণ	-4443
▁Australia	-4444
▁রাম	-4445
▁rese	-4446
▁led	-4447
▁phone	-4448
3.	-4449
▁seem	-4450
▁rain	-4451
▁বিবেচনা	-4452
▁নাকি	-4453
▁নভ	-4454
▁travel	-4455
cent	-4456
▁স্মরণ	-4457
acy	-4458
▁/	-4459
▁ওরা	-4460
সু	-4461
▁represent	-4462
obal	-4463
▁husband	-4464
▁ত্র	-4465
▁গিয়েছিল	-4466
▁impro	-4467
ricult	-4468
▁East	-4469
ead	-4470
িকান	-4471
▁সাধারণত	-4472
▁সঠিক	-4473
▁সেটি	-4474
▁involved	-4475
্রীষ্ট	-4476
▁leave	-4477
▁শিখ	-4478
ilt	-4479
ইউ	-4480
▁constru	-4481
rop	-4482
▁answer	-4483
▁miss	-4484
▁third	-4485
▁পরিচালিত	-4486
▁ব্যবহৃত	-4487
▁Fin	-4488
পরি	-4489
gress	-4490
প্রাপ্ত	-4491
uries	-4492
▁গেলে	-4493
wh	-4494
▁স্থাপন	-4495
Th	-4496
ঙ্গল	-4497
▁প্রশিক্ষ	-4498
▁কর্তৃক	-4499
lu	-4500
িয়াল	-4501
▁teacher	-4502
ত্তি	-4503
দ্দ	-4504
ুরী	-4505
▁আপনাদের	-4506
▁ঘর	-4507
▁reve	-4508
oub	-4509
irus	-4510
▁জ্ঞান	-4511
টক	-4512
▁৩০	-4513
ভাবিক	-4514
joy	-4515
▁larg	-4516
▁viral	-4517
▁অংশগ্রহণ	-4518
ণ্য	-4519
▁সর্বোচ্চ	-4520
▁শিক্ষার্থ	-4521
▁Japan	-4522
▁বিদ্যু	-4523
▁fall	-4524
▁পর্যা	-4525
▁অতিরিক্ত	-4526
▁...	-4527
▁সংঘ	-4528
irth	-4529
▁condition	-4530
▁Co	-4531
▁এক্স	-4532
owd	-4533
শের	-4534
▁March	-4535
এব	-4536
জ্জ	-4537
▁সংগ্রহ	-4538
▁দ্য	-4539
▁England	-4540
enior	-4541
▁বলিউ	-4542
▁currently	-4543
▁ফেস	-4544
▁ক্ষেত্র	-4545
▁আগেই	-4546
▁Bo	-4547
▁blog	-4548
▁হত্য	-4549
▁secretary	-4550
▁যী	-4551
▁দিনে	-4552
▁rushed	-4553
▁পূর্বে	-4554
▁mot	-4555
▁disp	-4556
▁published	-4557
lement	-4558
▁196	-4559
রম	-4560
engers	-4561
▁জিনি	-4562
▁sold	-4563
BI	-4564
▁Yes	-4565
▁cele	-4566
▁everyone	-4567
▁তবু	-4568
incip	-4569
াণ	-4570
▁অসু	-4571
কো	-4572
▁capital	-4573
2,	-4574
কাপ	-4575
▁Sharma	-4576
১৮	-4577
▁begin	-4578
▁married	-4579
ows	-4580
▁ক্যা	-4581
াতার	-4582
ৃত্ত	-4583
▁didn	-4584
▁তেল	-4585
▁actor	-4586
▁named	-4587
It	-4588
▁comes	-4589
ক্রিয়	-4590
ফার	-4591
াত্ম	-4592
▁আসা	-4593
▁declared	-4594
""।"	-4595
▁হ্যাঁ	-4596
▁sist	-4597
▁music	-4598
ষ্ণ	-4599
্যালে	-4600
িশালী	-4601
।’’	-4602
▁lov	-4603
▁বলল	-4604
7.	-4605
though	-4606
▁দোষ	-4607
▁শীর্ষ	-4608
aut	-4609
ত্রে	-4610
aught	-4611
চ্ছিল	-4612
▁aut	-4613
▁সুবিধা	-4614
▁Army	-4615
ees	-4616
▁আগ্রহ	-4617
▁morning	-4618
3,	-4619
▁মসজি	-4620
▁যুগ	-4621
েজ	-4622
▁point	-4623
▁ful	-4624
মেন্ট	-4625
?"	-4626
▁বন	-4627
▁হতা	-4628
▁Har	-4629
▁নম	-4630
গু	-4631
▁ছবির	-4632
▁ধার	-4633
▁মণ্ড	-4634
▁complete	-4635
itation	-4636
▁living	-4637
র্মা	-4638
তিনি	-4639
▁During	-4640
?"""	-4641
প্রিল	-4642
▁expl	-4643
▁পেরে	-4644
▁পাওয়ার	-4645
4.	-4646
িকাংশ	-4647
6,	-4648
▁30	-4649
▁CO	-4650
▁বরং	-4651
ঙে	-4652
▁জ্ব	-4653
▁popular	-4654
▁সন্ত্র	-4655
ane	-4656
িশুর	-4657
▁রেক	-4658
▁উৎসাহ	-4659
▁খাদ্য	-4660
▁বৈঠকে	-4661
▁আসছে	-4662
▁farm	-4663
riage	-4664
▁Son	-4665
▁born	-4666
▁immediately	-4667
anka	-4668
aff	-4669
▁বাজ	-4670
▁least	-4671
▁ord	-4672
▁statement	-4673
weet	-4674
▁friends	-4675
▁getting	-4676
▁ইচ্ছা	-4677
▁দেবে	-4678
stitute	-4679
▁বোন	-4680
▁হোসেন	-4681
▁congreg	-4682
icy	-4683
▁অভিনেতা	-4684
avirus	-4685
▁প্রতিক	-4686
▁যাব	-4687
▁পূ	-4688
▁candid	-4689
▁সত্ত	-4690
▁Christians	-4691
▁connection	-4692
▁alleged	-4693
▁alleg	-4694
▁পরিচয়	-4695
▁বায়	-4696
ুদ	-4697
বির	-4698
▁শিক্ষক	-4699
▁বিজ্ঞ	-4700
▁market	-4701
▁prev	-4702
িক্যাল	-4703
▁Ak	-4704
atives	-4705
▁towards	-4706
▁ডাক	-4707
▁port	-4708
icles	-4709
ask	-4710
▁সীম	-4711
▁ব্যক্তির	-4712
গণের	-4713
▁প্রথমে	-4714
▁mom	-4715
▁অধিকাংশ	-4716
▁Party	-4717
8,	-4718
▁pos	-4719
▁ভো	-4720
▁পবিত্র	-4721
▁হৃদ	-4722
▁total	-4723
▁ওঠে	-4724
▁খ্রীষ্ট	-4725
▁পছন্দ	-4726
▁themselves	-4727
▁En	-4728
▁non	-4729
িষ্ট	-4730
ঃপর	-4731
▁ফুটবল	-4732
▁commit	-4733
onavirus	-4734
▁বিরাট	-4735
ভাই	-4736
▁শার	-4737
▁Twitter	-4738
▁military	-4739
ীম	-4740
▁lab	-4741
▁কাঁ	-4742
▁War	-4743
▁z	-4744
▁director	-4745
▁trying	-4746
▁wanted	-4747
▁একমাত্র	-4748
oul	-4749
▁rights	-4750
পরে	-4751
azila	-4752
5.	-4753
▁শর	-4754
▁films	-4755
▁পেতে	-4756
ধর	-4757
▁foreign	-4758
▁Rahman	-4759
্যাগ	-4760
rew	-4761
্নের	-4762
▁রাজা	-4763
ghan	-4764
▁অনুসারে	-4765
▁অম	-4766
▁প্রচুর	-4767
most	-4768
▁Dont	-4769
▁design	-4770
পের	-4771
5,	-4772
▁once	-4773
▁উপাস	-4774
▁deal	-4775
▁রাজনীতি	-4776
▁দেখুন	-4777
ilities	-4778
▁সামরিক	-4779
▁Dire	-4780
▁কোথা	-4781
▁stri	-4782
7,	-4783
▁জনসং	-4784
▁খর	-4785
▁religious	-4786
6.	-4787
▁ঘরে	-4788
▁except	-4789
▁earlier	-4790
▁যুক্তরাষ্ট্রের	-4791
▁Sup	-4792
▁বাল	-4793
▁অতঃপর	-4794
▁according	-4795
▁পরিষ	-4796
▁driver	-4797
▁আসেন	-4798
omin	-4799
▁হাসপাতাল	-4800
▁provide	-4801
▁এলাকার	-4802
▁needed	-4803
কারে	-4804
▁Amit	-4805
▁deep	-4806
8.	-4807
োর্ড	-4808
▁ফাঁ	-4809
▁বসে	-4810
▁দেহ	-4811
▁সূত্র	-4812
war	-4813
asht	-4814
▁building	-4815
বিধান	-4816
▁সচিব	-4817
▁পরিষে	-4818
▁স্থানে	-4819
▁relationship	-4820
▁knowledge	-4821
cember	-4822
everal	-4823
▁sex	-4824
▁রাখার	-4825
▁মহা	-4826
▁মোকা	-4827
ters	-4828
▁phys	-4829
িনের	-4830
▁পারেনি	-4831
▁এখান	-4832
▁sal	-4833
িতার	-4834
▁ব্যাংক	-4835
▁ইংল্যান্ড	-4836
▁হলেও	-4837
▁ইয়	-4838
▁এপ্রিল	-4839
pril	-4840
▁জিতে	-4841
▁services	-4842
তন্ত্র	-4843
▁আসবে	-4844
▁politics	-4845
▁Medical	-4846
বাহী	-4847
▁বিশ্বকাপ	-4848
ুটি	-4849
▁জীবনে	-4850
▁Face	-4851
▁প্রার্থনা	-4852
9.	-4853
▁works	-4854
▁জিজ্ঞাসা	-4855
ned	-4856
েনারেল	-4857
ban	-4858
inet	-4859
▁২১	-4860
▁enjoy	-4861
▁সেন্ট	-4862
▁বর্ণনা	-4863
▁ang	-4864
ুজ	-4865
▁সংর	-4866
ivid	-4867
▁ধর্মীয়	-4868
ুনিক	-4869
▁initi	-4870
ুরে	-4871
▁Pri	-4872
▁নির্বাচনে	-4873
▁conv	-4874
▁Chand	-4875
▁প্রক্রিয়া	-4876
fully	-4877
▁আসতে	-4878
োদন	-4879
hel	-4880
মুখ	-4881
সিক	-4882
▁বিস্তার	-4883
▁ব্যাখ্যা	-4884
▁cust	-4885
▁movie	-4886
▁আত	-4887
▁changed	-4888
▁দেবেন	-4889
▁সুপ্র	-4890
গা	-4891
4,	-4892
▁বাসিন্দ	-4893
▁prep	-4894
▁Several	-4895
▁journal	-4896
▁By	-4897
্রাম	-4898
▁দৃষ্টি	-4899
▁shared	-4900
cient	-4901
বাসী	-4902
▁অধিক	-4903
▁অভিযান	-4904
rain	-4905
▁increase	-4906
▁আহমে	-4907
▁বস্তু	-4908
omen	-4909
▁recogn	-4910
▁personal	-4911
▁meas	-4912
▁che	-4913
▁ফার	-4914
ival	-4915
▁অর্থনৈতিক	-4916
▁tele	-4917
▁আইনের	-4918
over	-4919
▁রি	-4920
▁Dav	-4921
▁fem	-4922
▁cost	-4923
▁জর	-4924
▁রাস্তা	-4925
viron	-4926
▁দাস	-4927
▁ভালোবাস	-4928
্বেও	-4929
▁ens	-4930
▁অল্প	-4931
▁মিথ্যা	-4932
▁195	-4933
▁Witnesses	-4934
▁Bollywood	-4935
▁Mess	-4936
▁ফ্ল	-4937
▁বৃষ্টি	-4938
ুমাত্র	-4939
▁doesnt	-4940
ream	-4941
bel	-4942
str	-4943
ঠাম	-4944
▁walk	-4945
▁lod	-4946
▁পুত্র	-4947
▁সরবরাহ	-4948
▁ব্যবস্থ	-4949
by	-4950
▁obs	-4951
▁সাব	-4952
▁শুনে	-4953
ড়ায়	-4954
▁Ear	-4955
▁appear	-4956
anch	-4957
ication	-4958
▁either	-4959
▁Kapoor	-4960
▁১৯৬	-4961
▁অনুমতি	-4962
্যাশনাল	-4963
▁worked	-4964
সম্প	-4965
▁আফগান	-4966
▁অপেক্ষা	-4967
▁পার্	-4968
▁self	-4969
ler	-4970
ains	-4971
▁agree	-4972
ceed	-4973
▁Sam	-4974
▁অস্ত্র	-4975
▁spiritual	-4976
▁রাজ্যে	-4977
airman	-4978
▁শ্রেণ	-4979
▁detail	-4980
▁হয়েছিলেন	-4981
▁যৌন	-4982
▁responsibility	-4983
মাধ্য	-4984
▁যথে	-4985
▁গোপ	-4986
▁programm	-4987
▁মানে	-4988
iding	-4989
▁knows	-4990
িক্স	-4991
▁ধন্য	-4992
শ্র	-4993
্যান্ট	-4994
োনাল	-4995
▁অথচ	-4996
▁বিজয়	-4997
▁প্রদর্শন	-4998
▁তাম	-4999
▁প্রকৃত	-5000
chie	-5001
▁using	-5002
▁মুম্বই	-5003
▁সেনাবাহ	-5004
empt	-5005
▁হস্ত	-5006
▁Sub	-5007
াট	-5008
▁২২	-5009
▁উপায়	-5010
▁necess	-5011
ification	-5012
▁till	-5013
▁মিডিয়ায়	-5014
▁saw	-5015
▁ওদের	-5016
াধারণ	-5017
▁প্রযুক্তি	-5018
▁lim	-5019
▁194	-5020
▁company	-5021
▁খুশি	-5022
▁জনের	-5023
কারি	-5024
▁সিরিজ	-5025
▁উল্লেখযোগ্য	-5026
▁brothers	-5027
▁শক্তিশালী	-5028
▁রিপোর্ট	-5029
▁প্রধানমন্ত্রীর	-5030
▁north	-5031
▁আয়োজন	-5032
▁আদালতে	-5033
adem	-5034
▁Everyone	-5035
▁Mr	-5036
elt	-5037
▁চোখ	-5038
▁parts	-5039
▁চেয়ারম্যান	-5040
oice	-5041
▁অন্যদের	-5042
▁April	-5043
োধন	-5044
▁স্ন	-5045
কেও	-5046
ক্ষিত	-5047
▁Health	-5048
▁ব্যক্তিদের	-5049
▁মাহ	-5050
▁questions	-5051
▁এনে	-5052
ওয়ায়	-5053
▁Kar	-5054
▁eyes	-5055
▁ব্যর্থ	-5056
▁X	-5057
▁শহরে	-5058
▁December	-5059
▁জেনারেল	-5060
io	-5061
▁জবাব	-5062
▁ক্ষমা	-5063
▁বক্তব্য	-5064
▁কমিটি	-5065
▁rail	-5066
ূর	-5067
ীরের	-5068
▁ministry	-5069
▁নির্বাচিত	-5070
▁direct	-5071
▁ক্যাম	-5072
▁ill	-5073
ugust	-5074
জেলা	-5075
▁বাক্য	-5076
head	-5077
9,	-5078
vironment	-5079
▁private	-5080
▁Their	-5081
▁heard	-5082
ners	-5083
ton	-5084
্নে	-5085
▁mater	-5086
▁শান্তি	-5087
▁কিভাবে	-5088
▁নিশ্চয়ই	-5089
▁রেকর্ড	-5090
▁গঠিত	-5091
বঙ্গ	-5092
চের	-5093
▁মনোন	-5094
▁পরিণত	-5095
▁নেতৃত্ব	-5096
▁coll	-5097
erson	-5098
▁%	-5099
▁মুহূর্ত	-5100
▁সন্ত্রাস	-5101
▁Facebook	-5102
▁Let	-5103
▁বজায়	-5104
▁গুণ	-5105
▁পদ্ধতি	-5106
াপ্র	-5107
▁বিবাহ	-5108
▁half	-5109
omes	-5110
▁কিংবা	-5111
▁হামলা	-5112
isation	-5113
reedom	-5114
▁youth	-5115
cap	-5116
▁যথেষ্ট	-5117
▁reports	-5118
ীনে	-5119
▁নিয়েছে	-5120
▁community	-5121
▁purp	-5122
ada	-5123
নীয়	-5124
স্বর	-5125
▁মাধ্যম	-5126
▁বিরোধী	-5127
▁nor	-5128
▁মুখে	-5129
ড়াতে	-5130
▁seek	-5131
▁যোগ্য	-5132
▁জানে	-5133
▁Africa	-5134
▁..	-5135
ফের	-5136
▁denied	-5137
দল	-5138
▁Supreme	-5139
▁প্রস্তুত	-5140
▁Afghan	-5141
▁মেল	-5142
১৫	-5143
▁assist	-5144
▁জারি	-5145
▁সাফল	-5146
ential	-5147
▁সুন্দর	-5148
▁contrib	-5149
▁সহায়তা	-5150
দেহ	-5151
cture	-5152
ৌশল	-5153
▁ছাড়াও	-5154
▁নেমে	-5155
োপা	-5156
▁late	-5157
▁কলকাতা	-5158
তান	-5159
isk	-5160
▁award	-5161
aries	-5162
▁ভালবাস	-5163
ipp	-5164
order	-5165
▁returned	-5166
▁প্রতিটি	-5167
▁threat	-5168
মূলক	-5169
▁ভাইরাল	-5170
ively	-5171
▁officer	-5172
▁কম্প	-5173
▁January	-5174
erred	-5175
▁প্রচে	-5176
▁বিএন	-5177
▁Sri	-5178
▁fav	-5179
leep	-5180
▁ইন্ডিয়া	-5181
▁Secretary	-5182
▁লাল	-5183
▁সেগুলো	-5184
▁অনেকে	-5185
▁decided	-5186
olution	-5187
▁joined	-5188
▁কার্যকর	-5189
▁অঞ্চলে	-5190
গঞ্জ	-5191
▁similar	-5192
▁সংগঠন	-5193
itor	-5194
▁দেখিয়ে	-5195
▁located	-5196
ging	-5197
১০	-5198
িশন	-5199
্টা	-5200
▁প্রেরিত	-5201
▁lakh	-5202
ites	-5203
▁হামলার	-5204
▁Pat	-5205
▁সার্ভ	-5206
ying	-5207
ষি	-5208
iful	-5209
▁অ্যাপ	-5210
▁শেয়ার	-5211
▁society	-5212
▁resc	-5213
▁পাবে	-5214
▁ভেঙে	-5215
পূর্ব	-5216
▁শো	-5217
▁birth	-5218
▁seven	-5219
▁American	-5220
ights	-5221
▁king	-5222
▁forces	-5223
▁হাল	-5224
▁reject	-5225
াসে	-5226
▁ট্রেন	-5227
▁পঞ্চ	-5228
▁Gods	-5229
▁provided	-5230
খ্যান	-5231
▁পড়ুন	-5232
▁শেষে	-5233
eth	-5234
▁বিমানব	-5235
▁civil	-5236
▁More	-5237
▁blood	-5238
▁কষ্ট	-5239
▁single	-5240
▁experience	-5241
▁প্রণ	-5242
▁জুলাই	-5243
▁তরুণ	-5244
▁লোকেরা	-5245
▁super	-5246
▁করেননি	-5247
▁hous	-5248
▁স্বাধীনতা	-5249
ষ্ঠান	-5250
▁কারও	-5251
কালীন	-5252
▁passed	-5253
▁ground	-5254
ovember	-5255
leg	-5256
্যন্ত	-5257
dd	-5258
▁exist	-5259
▁জগ	-5260
ividual	-5261
▁committee	-5262
দেশে	-5263
gar	-5264
▁অঙ্গ	-5265
▁Rail	-5266
▁object	-5267
▁App	-5268
ক্য	-5269
▁মন্ত্রণ	-5270
ator	-5271
▁পেয়েছে	-5272
▁গ্রুপ	-5273
▁প্রাপ্ত	-5274
▁খ্রিস্টান	-5275
ternet	-5276
ণে	-5277
▁marriage	-5278
▁এগুলো	-5279
▁দাঁড়িয়ে	-5280
▁সিনে	-5281
▁achie	-5282
▁Ne	-5283
▁front	-5284
▁Az	-5285
ৃণ	-5286
্লিষ্ট	-5287
য়র	-5288
▁কৃষি	-5289
▁independ	-5290
▁নো	-5291
ধে	-5292
▁১৯৫	-5293
▁Mo	-5294
▁dise	-5295
▁hands	-5296
▁গান্ধী	-5297
িরে	-5298
▁কঠোর	-5299
চনার	-5300
▁ধন্যবাদ	-5301
▁describ	-5302
hu	-5303
▁অধিনায়ক	-5304
▁পদে	-5305
bed	-5306
▁মালিক	-5307
▁জঙ্গি	-5308
▁পৃষ্ঠ	-5309
▁মিনি	-5310
▁বংশ	-5311
▁অক্ট	-5312
▁sat	-5313
▁accom	-5314
▁ant	-5315
isc	-5316
▁টা	-5317
▁চুক্তি	-5318
▁অগ	-5319
▁recently	-5320
েতু	-5321
মাদের	-5322
ctober	-5323
▁August	-5324
▁medical	-5325
▁জিনিস	-5326
▁Council	-5327
vi	-5328
▁সবসময়	-5329
▁পরিশ	-5330
▁নিয়মিত	-5331
▁পৃথিবীর	-5332
▁maintain	-5333
▁মূলত	-5334
utes	-5335
unj	-5336
▁command	-5337
▁force	-5338
isions	-5339
▁June	-5340
▁From	-5341
▁সদর	-5342
▁বাঁচ	-5343
্রিয়া	-5344
▁অনুসরণ	-5345
য়াদিল	-5346
▁শতাব্দ	-5347
▁২৩	-5348
▁কংগ্রেসের	-5349
eptember	-5350
▁increasing	-5351
▁David	-5352
শিষ্ট	-5353
▁১৯৪	-5354
▁বাড়ছে	-5355
র্ধ	-5356
▁Parliament	-5357
্টার	-5358
where	-5359
▁দুজন	-5360
▁Department	-5361
▁army	-5362
▁আনা	-5363
▁compet	-5364
:3	-5365
▁বার্তা	-5366
▁নিল	-5367
▁শিকার	-5368
্যাত্ম	-5369
▁search	-5370
▁particular	-5371
▁জুন	-5372
দর্শন	-5373
▁Soc	-5374
▁July	-5375
▁সাহ	-5376
▁claimed	-5377
▁issues	-5378
আমার	-5379
▁Since	-5380
hold	-5381
▁নয়াদিল	-5382
▁host	-5383
▁উৎপাদন	-5384
▁মন্ত্রণাল	-5385
স্ফ	-5386
▁আর্থিক	-5387
▁সত্যিই	-5388
▁Central	-5389
▁resident	-5390
▁victim	-5391
▁আও	-5392
ধ্যায়	-5393
▁established	-5394
▁খে	-5395
▁Stud	-5396
▁সন্	-5397
▁occur	-5398
▁চূ	-5399
▁authorities	-5400
▁sil	-5401
cts	-5402
▁Sheikh	-5403
▁dece	-5404
▁movement	-5405
▁কথ	-5406
▁ভেবে	-5407
দর্শ	-5408
ৃদ্ধ	-5409
▁সুপ্রিম	-5410
▁trib	-5411
▁Nobody	-5412
ley	-5413
icide	-5414
▁ক্লা	-5415
▁Ma	-5416
▁batt	-5417
▁increased	-5418
▁research	-5419
▁worship	-5420
আপ	-5421
▁low	-5422
▁সড়ক	-5423
▁নন	-5424
▁সম্ভাবনা	-5425
▁অনুষ্ঠান	-5426
▁কোভিড	-5427
▁পালিয়ে	-5428
▁চৌধ	-5429
▁activities	-5430
▁কান	-5431
▁surv	-5432
▁তল	-5433
▁Fil	-5434
ne	-5435
hood	-5436
গুলিকে	-5437
ওয়ান	-5438
uddin	-5439
োয়াড়	-5440
কী	-5441
▁উপজেলা	-5442
▁mention	-5443
▁সেপ্ট	-5444
▁যাক	-5445
▁bow	-5446
estern	-5447
▁fund	-5448
১৪	-5449
▁lodged	-5450
ঙ্গা	-5451
▁individual	-5452
▁আহ্ব	-5453
▁সক্ষম	-5454
▁Develop	-5455
▁একবার	-5456
▁wait	-5457
েনা	-5458
▁দৃঢ়	-5459
oly	-5460
▁ভিত্তি	-5461
hy	-5462
▁families	-5463
▁citizens	-5464
atic	-5465
▁imm	-5466
াস্ত	-5467
hammad	-5468
▁অশ	-5469
ably	-5470
▁এফ	-5471
▁consider	-5472
▁অন্ধ	-5473
▁লক্ষ্যে	-5474
▁সোন	-5475
▁poor	-5476
let	-5477
▁সাহিত	-5478
▁আকাশ	-5479
vision	-5480
▁eat	-5481
▁Best	-5482
▁সংসদ	-5483
enced	-5484
▁charact	-5485
ecially	-5486
▁করেছিলাম	-5487
▁ইউনিয়ন	-5488
▁আসার	-5489
esides	-5490
▁shot	-5491
onse	-5492
▁গুজ	-5493
▁বাতিল	-5494
প্রে	-5495
nel	-5496
▁outside	-5497
▁আধ্যাত্ম	-5498
▁economic	-5499
▁দৈ	-5500
VID	-5501
▁কয়েকজন	-5502
▁norm	-5503
ples	-5504
▁address	-5505
▁explain	-5506
▁November	-5507
েত্রে	-5508
রো	-5509
▁হুম	-5510
inese	-5511
ড়ান্ত	-5512
reen	-5513
খ্যাত	-5514
▁UN	-5515
ension	-5516
▁1,	-5517
▁Whats	-5518
▁বাজে	-5519
মূল	-5520
-2	-5521
ইং	-5522
▁সত্ত্বেও	-5523
oid	-5524
ামের	-5525
agement	-5526
বিআই	-5527
গ্রস্ত	-5528
▁tw	-5529
▁দ্বীপ	-5530
ামার	-5531
▁(2	-5532
▁নিয়ম	-5533
▁south	-5534
hew	-5535
▁issued	-5536
▁টাই	-5537
▁ছিলাম	-5538
▁আধুনিক	-5539
▁পয়	-5540
দ্ধা	-5541
0,	-5542
▁সর্	-5543
▁alone	-5544
▁তাহা	-5545
▁লাগে	-5546
ভব	-5547
▁Gh	-5548
abinet	-5549
▁ভি	-5550
ায়ে	-5551
▁খেলোয়াড়	-5552
▁বেশিরভাগ	-5553
▁সমস্যার	-5554
▁এভাবে	-5555
▁মধ্যেই	-5556
▁যাত্র	-5557
▁congregation	-5558
▁আহমেদ	-5559
▁princip	-5560
▁সীমান্ত	-5561
▁অভিজ্ঞতা	-5562
▁সিনেমা	-5563
atural	-5564
ighb	-5565
▁দিয়েছিল	-5566
▁প্রব	-5567
▁October	-5568
▁শিব	-5569
▁স্বপ	-5570
▁জুড়ে	-5571
▁নী	-5572
▁অধীনে	-5573
▁আরব	-5574
▁date	-5575
▁ঘটনাটি	-5576
▁থাকলে	-5577
fort	-5578
idered	-5579
oms	-5580
aper	-5581
▁ধীরে	-5582
▁efforts	-5583
▁স্থাপ	-5584
▁surpr	-5585
▁thous	-5586
vere	-5587
▁রোহ	-5588
aign	-5589
▁stat	-5590
▁ইন্টারনে	-5591
▁Mahar	-5592
▁সংশ্লিষ্ট	-5593
মিটার	-5594
েরি	-5595
ষ্টির	-5596
▁picture	-5597
্কা	-5598
▁টু	-5599
দ্য	-5600
ককে	-5601
▁প্রয	-5602
▁watch	-5603
aly	-5604
lection	-5605
▁September	-5606
▁কাপুর	-5607
▁অঞ্চলের	-5608
▁মাথা	-5609
aily	-5610
▁largest	-5611
▁places	-5612
▁share	-5613
▁quite	-5614
▁student	-5615
▁বিষয়টা	-5616
for	-5617
ার্ট	-5618
বাই	-5619
▁parties	-5620
▁religion	-5621
▁oil	-5622
▁mob	-5623
টাল	-5624
▁lo	-5625
▁বলছে	-5626
▁উইকেট	-5627
▁কিল	-5628
▁পরিষেবা	-5629
la	-5630
▁express	-5631
odies	-5632
▁identified	-5633
▁উপজ	-5634
▁Educ	-5635
verage	-5636
▁constit	-5637
▁Hindu	-5638
▁প্রাক	-5639
▁পরেই	-5640
▁আপনারা	-5641
▁influ	-5642
▁লাশ	-5643
▁poll	-5644
▁regular	-5645
▁ঘুম	-5646
▁দিলেন	-5647
▁শাসন	-5648
োবর	-5649
▁21	-5650
▁line	-5651
▁likely	-5652
▁inn	-5653
▁repl	-5654
row	-5655
▁উনি	-5656
▁Feb	-5657
▁শুধুমাত্র	-5658
▁Up	-5659
▁রাতে	-5660
▁et	-5661
▁subject	-5662
oto	-5663
১১	-5664
ze	-5665
▁শর্মা	-5666
▁forg	-5667
▁মাঠ	-5668
▁অধ্যয়ন	-5669
▁crore	-5670
▁ভিত্তিতে	-5671
▁কর্মী	-5672
ruary	-5673
▁tour	-5674
▁tit	-5675
▁শী	-5676
▁neg	-5677
▁অনল	-5678
াফ	-5679
▁বাজার	-5680
▁বসবাস	-5681
▁কমে	-5682
ullah	-5683
▁কার্যক্রম	-5684
know	-5685
▁COVID	-5686
▁নিয়োগ	-5687
▁আন্দোলন	-5688
▁attended	-5689
▁apost	-5690
▁launched	-5691
▁উত	-5692
▁অব্যা	-5693
য়ান	-5694
▁হাঁ	-5695
▁Reg	-5696
টিটি	-5697
▁বরা	-5698
itting	-5699
▁পাঠিয়ে	-5700
▁ago	-5701
▁বলেও	-5702
ashtra	-5703
▁আমাদেরকে	-5704
▁বলার	-5705
▁ঝুঁ	-5706
টিয়ে	-5707
▁City	-5708
▁expressed	-5709
▁ইতিমধ্যেই	-5710
ode	-5711
▁considered	-5712
▁Of	-5713
▁destro	-5714
▁সম্ভবত	-5715
▁vot	-5716
▁looking	-5717
▁বিশাল	-5718
িমা	-5719
▁formed	-5720
▁এদিন	-5721
▁স্বাভাবিক	-5722
▁সুখ	-5723
omb	-5724
▁discip	-5725
ese	-5726
১৭	-5727
▁Lok	-5728
▁god	-5729
▁আছি	-5730
▁খরচ	-5731
gu	-5732
▁river	-5733
▁বলছেন	-5734
▁আদেশ	-5735
▁Development	-5736
▁ফলা	-5737
▁স্বরাষ্ট্র	-5738
ঁচে	-5739
▁Award	-5740
▁modern	-5741
▁celebr	-5742
▁উত্তম	-5743
▁Asia	-5744
▁চম	-5745
▁মহারা	-5746
▁results	-5747
▁material	-5748
োমুখ	-5749
▁message	-5750
িটির	-5751
▁জমা	-5752
▁সিল	-5753
▁রস	-5754
▁Fore	-5755
▁ডিসেম্বর	-5756
ৃতির	-5757
▁Now	-5758
▁প্রশংসা	-5759
▁বাধা	-5760
▁Home	-5761
স্বরূপ	-5762
▁ইংরেজি	-5763
▁separ	-5764
▁thank	-5765
▁ফেব্র	-5766
১২	-5767
▁rule	-5768
ঙ্খ	-5769
unjab	-5770
▁দাও	-5771
oman	-5772
▁পর্ব	-5773
ternal	-5774
▁মুখোমুখ	-5775
uel	-5776
▁মানুষকে	-5777
▁নিউজ	-5778
ergy	-5779
▁বিদ্যুৎ	-5780
েলের	-5781
▁eld	-5782
▁Your	-5783
▁ফ্রান্স	-5784
▁prim	-5785
▁পাশে	-5786
▁পৃথিবীতে	-5787
▁net	-5788
▁কব	-5789
▁বাংলাদেশে	-5790
▁সন	-5791
""""	-5792
র্ণ	-5793
▁whether	-5794
▁এয়ার	-5795
▁Col	-5796
▁দর্শ	-5797
▁Director	-5798
▁wind	-5799
▁কমিশন	-5800
▁er	-5801
▁বয়স	-5802
িকেল	-5803
▁Cal	-5804
▁চূড়ান্ত	-5805
▁হবেন	-5806
sequently	-5807
cu	-5808
▁comment	-5809
▁নব	-5810
▁feat	-5811
স্তক	-5812
▁doctors	-5813
▁এরা	-5814
ীব্র	-5815
▁punish	-5816
ড়ার	-5817
ুকে	-5818
NP	-5819
▁Chinese	-5820
ম্ভ	-5821
▁Abdul	-5822
ipur	-5823
▁সুস্থ	-5824
▁mass	-5825
while	-5826
▁ময়ন	-5827
▁অনেকেই	-5828
▁remember	-5829
▁ইত্যা	-5830
▁gra	-5831
arat	-5832
▁included	-5833
▁Those	-5834
▁forward	-5835
র্ন	-5836
ourage	-5837
▁fine	-5838
▁মামলার	-5839
▁বিস	-5840
▁Bengali	-5841
▁arr	-5842
▁বিদ্যালয়	-5843
১৬	-5844
▁caused	-5845
▁Comp	-5846
▁Roh	-5847
▁টেক	-5848
▁শির	-5849
▁বিতর্ক	-5850
▁Roy	-5851
▁পরিষ্কার	-5852
▁মুখোমুখি	-5853
হেতু	-5854
▁Gl	-5855
▁moment	-5856
চা	-5857
▁necessary	-5858
্রিক	-5859
বিক	-5860
▁rate	-5861
iers	-5862
▁Jehovahs	-5863
▁appre	-5864
▁Bi	-5865
▁applic	-5866
▁আবদুল	-5867
ena	-5868
▁লিখেছেন	-5869
বারের	-5870
▁তীব্র	-5871
▁গ্যাস	-5872
▁wasnt	-5873
ammu	-5874
▁trust	-5875
▁freedom	-5876
▁রাখে	-5877
রাসরি	-5878
▁mult	-5879
▁বিচারপতি	-5880
ত্তর	-5881
▁pot	-5882
▁কোহ	-5883
ৎকার	-5884
▁Utt	-5885
▁নেট	-5886
▁Even	-5887
তিয়ে	-5888
▁respond	-5889
ests	-5890
▁Sw	-5891
▁neighb	-5892
▁creat	-5893
cel	-5894
▁allowed	-5895
থাৎ	-5896
▁গীত	-5897
▁বোধ	-5898
ps	-5899
▁গেছেন	-5900
ids	-5901
ুটে	-5902
ত্তম	-5903
▁গাছ	-5904
▁suicide	-5905
▁গ্ল	-5906
▁sector	-5907
▁February	-5908
▁football	-5909
▁মণ্ডল	-5910
▁ওঁ	-5911
▁Mir	-5912
▁season	-5913
asons	-5914
▁জরুরি	-5915
▁Punjab	-5916
▁সরাসরি	-5917
▁আলী	-5918
▁কিনা	-5919
▁বেসর	-5920
▁belong	-5921
▁বিনিয়োগ	-5922
▁আগের	-5923
▁অ্যাল	-5924
▁histor	-5925
come	-5926
▁অর	-5927
▁প্রশিক্ষণ	-5928
enc	-5929
▁indeed	-5930
gypt	-5931
াত্মক	-5932
mb	-5933
▁মোহাম্মদ	-5934
▁ছবিটি	-5935
▁বাহিনীর	-5936
▁যেটা	-5937
যুদ্ধ	-5938
ancial	-5939
▁নিম্ন	-5940
au	-5941
▁প্রতিদিন	-5942
্যানে	-5943
rying	-5944
▁মূ	-5945
▁train	-5946
▁administration	-5947
ological	-5948
▁coun	-5949
িতেই	-5950
▁পারব	-5951
▁sum	-5952
▁চাহ	-5953
▁followed	-5954
▁susp	-5955
▁pet	-5956
▁বলি	-5957
▁response	-5958
▁মতে	-5959
▁নামক	-5960
▁পেল	-5961
▁anim	-5962
ালেন	-5963
▁risk	-5964
▁100	-5965
▁কিছুটা	-5966
ring	-5967
▁Jammu	-5968
িশোর	-5969
▁mer	-5970
after	-5971
▁পাস	-5972
▁position	-5973
▁ক্রম	-5974
▁tax	-5975
▁বোল	-5976
▁block	-5977
enly	-5978
▁Aff	-5979
য়েন	-5980
াতদন্ত	-5981
▁kept	-5982
▁রাজধানী	-5983
▁opportunity	-5984
▁Add	-5985
▁আচরণ	-5986
▁জিজ্ঞেস	-5987
▁Mohammad	-5988
▁instit	-5989
othing	-5990
▁bur	-5991
▁jail	-5992
▁অনুরোধ	-5993
▁campaign	-5994
১৩	-5995
▁অনুমোদন	-5996
▁সহযোগিতা	-5997
▁hear	-5998
▁মহান	-5999
▁দফ	-6000
িত্রে	-6001
▁Indias	-6002
▁appointed	-6003
ounded	-6004
ন্ব	-6005
▁esp	-6006
▁progress	-6007
▁ময়নাতদন্ত	-6008
▁easy	-6009
▁নই	-6010
▁sugg	-6011
▁coronavirus	-6012
▁প্রশাসন	-6013
▁পশ্চিমবঙ্গ	-6014
▁playing	-6015
inisters	-6016
▁turned	-6017
▁Film	-6018
▁doub	-6019
▁hit	-6020
▁senior	-6021
undred	-6022
▁মামলায়	-6023
▁ড্র	-6024
▁couldnt	-6025
ানী	-6026
▁কাপ	-6027
▁রাত	-6028
▁পণ্য	-6029
cle	-6030
▁সংক	-6031
▁etc	-6032
anger	-6033
▁tweet	-6034
erve	-6035
▁moved	-6036
▁পর্যায়ে	-6037
apt	-6038
▁prime	-6039
▁deceased	-6040
▁পালনকর্ত	-6041
▁Muslims	-6042
▁বাইবেলের	-6043
▁প্রতিনিধি	-6044
▁বদলে	-6045
▁কোথাও	-6046
ঘ্র	-6047
▁ভেত	-6048
▁democ	-6049
▁aware	-6050
▁bless	-6051
▁ম্যাচে	-6052
▁bodies	-6053
▁coup	-6054
▁km	-6055
▁wants	-6056
▁সৎ	-6057
▁squ	-6058
▁পেছ	-6059
▁Ge	-6060
শী	-6061
▁Muhammad	-6062
▁আহ্বান	-6063
▁stopped	-6064
ন্দ্ব	-6065
▁পত	-6066
▁attempt	-6067
▁Also	-6068
▁central	-6069
▁Cricket	-6070
itude	-6071
▁ধর্ষণ	-6072
ott	-6073
▁ব্যাট	-6074
eds	-6075
▁চ্যালে	-6076
aman	-6077
▁অসম	-6078
▁sac	-6079
▁har	-6080
▁Form	-6081
যে	-6082
▁আবি	-6083
▁পার্থ	-6084
িসের	-6085
▁দলে	-6086
▁অতএব	-6087
িকারিক	-6088
▁violence	-6089
▁জিত	-6090
ires	-6091
▁Sm	-6092
▁cam	-6093
▁enough	-6094
anda	-6095
শিল্প	-6096
▁implement	-6097
িদের	-6098
▁officers	-6099
ডেম	-6100
ায়ার	-6101
▁বিস্ফ	-6102
▁চিহ্নিত	-6103
▁higher	-6104
▁Koh	-6105
াতায়	-6106
▁Sci	-6107
▁নামের	-6108
▁huge	-6109
▁৫০	-6110
▁চট্ট	-6111
েড	-6112
▁জমি	-6113
▁আদি	-6114
▁মোদীর	-6115
▁আধ্যাত্মিক	-6116
This	-6117
▁Guj	-6118
illed	-6119
▁যেহেতু	-6120
▁সচেতন	-6121
▁sleep	-6122
▁বুদ্ধ	-6123
▁বিস্ফোর	-6124
▁captain	-6125
urk	-6126
▁প্রযোজ	-6127
▁দোক	-6128
▁Ac	-6129
▁অগ্রগ	-6130
belie	-6131
্মু	-6132
▁foc	-6133
ুয়া	-6134
operation	-6135
▁built	-6136
PL	-6137
▁খোঁজ	-6138
▁listen	-6139
▁Kore	-6140
▁অধ্যাপ	-6141
ecause	-6142
বেগ	-6143
▁সক্রিয়	-6144
▁অমিত	-6145
▁stated	-6146
▁pan	-6147
▁তত	-6148
▁অর্থাৎ	-6149
ধারিত	-6150
▁books	-6151
▁প্রয়োগ	-6152
add	-6153
▁উঠেছে	-6154
ika	-6155
▁দখ	-6156
▁online	-6157
▁খতিয়ে	-6158
▁খেলে	-6159
▁মসজিদ	-6160
▁Def	-6161
▁প্রতিক্রিয়া	-6162
▁আধিকারিক	-6163
▁temple	-6164
▁star	-6165
▁বছরে	-6166
▁সম্পন্ন	-6167
▁shoot	-6168
▁পরের	-6169
▁door	-6170
▁নিষে	-6171
▁houses	-6172
্রয়	-6173
▁অবিশ	-6174
▁pat	-6175
▁benefit	-6176
পক্ষে	-6177
▁বৈঠক	-6178
▁প্রতিরোধ	-6179
সংঘ	-6180
▁যীশু	-6181
▁দৃশ্য	-6182
▁নভেম্বর	-6183
otion	-6184
▁positive	-6185
▁চ্যাম্প	-6186
▁tried	-6187
▁মাসের	-6188
▁দপ্ত	-6189
▁বেঁচে	-6190
▁farmers	-6191
▁Egypt	-6192
▁একেবারে	-6193
▁মহাস	-6194
▁release	-6195
jee	-6196
▁ফর	-6197
▁সেল	-6198
▁হায়	-6199
ex	-6200
▁While	-6201
▁স্বীক	-6202
▁Islamic	-6203
▁টেলিভ	-6204
▁thats	-6205
▁mis	-6206
▁দুর্ব	-6207
বাইল	-6208
চাল	-6209
ডিও	-6210
▁Another	-6211
ested	-6212
▁নয়াদিল্লি	-6213
▁destroy	-6214
টিল	-6215
▁protect	-6216
ব্ধ	-6217
ends	-6218
▁অক্টোবর	-6219
▁intro	-6220
ills	-6221
▁pressure	-6222
▁es	-6223
▁hur	-6224
aker	-6225
▁especially	-6226
জাতি	-6227
▁ways	-6228
▁teams	-6229
▁raised	-6230
▁compan	-6231
▁training	-6232
▁critic	-6233
ঞ্চল	-6234
▁আশঙ্কা	-6235
▁energy	-6236
uf	-6237
▁loss	-6238
▁চরিত্রে	-6239
▁ন্যায়	-6240
হ্য	-6241
▁industry	-6242
▁প্রার্থী	-6243
▁দিল্লির	-6244
▁ইঞ্জ	-6245
আমাদের	-6246
Is	-6247
▁মোবাইল	-6248
▁সাক্ষাৎ	-6249
going	-6250
▁শয়	-6251
▁signific	-6252
uter	-6253
▁আওয়	-6254
▁সমান	-6255
্টর	-6256
্বল	-6257
iddle	-6258
▁deg	-6259
▁letter	-6260
▁Read	-6261
icated	-6262
▁ব্যয়	-6263
▁Saudi	-6264
▁groups	-6265
▁served	-6266
▁Here	-6267
▁কের	-6268
▁directed	-6269
▁ten	-6270
▁Div	-6271
▁ভ্রম	-6272
then	-6273
▁সকলের	-6274
পণ	-6275
▁policy	-6276
▁Pal	-6277
▁যেকোন	-6278
ager	-6279
▁legal	-6280
লেক	-6281
oles	-6282
▁passengers	-6283
▁50	-6284
▁হঠ	-6285
▁চির	-6286
▁Peter	-6287
▁key	-6288
▁জেনে	-6289
▁lock	-6290
▁তোলা	-6291
ন্দি	-6292
▁Affairs	-6293
▁Institute	-6294
▁witness	-6295
▁ল্যা	-6296
▁emer	-6297
▁হাইক	-6298
▁Uttar	-6299
▁commission	-6300
▁সৌদি	-6301
▁উন্নত	-6302
▁বিস্তারিত	-6303
▁সম্পর্কিত	-6304
▁২৮	-6305
▁দূরে	-6306
গ্রী	-6307
▁CBI	-6308
▁Maharashtra	-6309
▁ভোগ	-6310
টেড	-6311
সুম	-6312
▁environment	-6313
nes	-6314
দেরকে	-6315
▁বিষয়ক	-6316
▁qual	-6317
play	-6318
▁inside	-6319
▁এরকম	-6320
salm	-6321
view	-6322
cut	-6323
ভাষ	-6324
▁22	-6325
ুয়ে	-6326
সাম	-6327
▁কমিটির	-6328
▁দৃষ্ট	-6329
▁নির্মিত	-6330
্যাণ	-6331
▁রাই	-6332
▁Rec	-6333
▁সবাইকে	-6334
▁আফগানিস্ত	-6335
োমিটার	-6336
▁সেপ্টেম্বর	-6337
▁ভর	-6338
▁পৌল	-6339
▁বৈশিষ্ট	-6340
aya	-6341
rench	-6342
▁পরিচর	-6343
▁Law	-6344
▁sons	-6345
ামত	-6346
▁তাপ	-6347
▁তত্ত্ব	-6348
▁knew	-6349
জির	-6350
▁প্রতিবেদন	-6351
▁আগস্ট	-6352
▁Afghanistan	-6353
▁চিন্ত	-6354
▁জাহাজ	-6355
▁চৌধুরী	-6356
গম	-6357
▁সীমা	-6358
্যাকা	-6359
রির	-6360
▁শ্রীল	-6361
ots	-6362
▁evening	-6363
▁দাব	-6364
▁black	-6365
ateg	-6366
▁হক	-6367
▁injuries	-6368
▁গোষ্ঠ	-6369
াতের	-6370
▁actually	-6371
োনাল্ড	-6372
▁শীঘ্র	-6373
ift	-6374
▁কাট	-6375
▁basis	-6376
হু	-6377
▁যথ	-6378
▁কথায়	-6379
▁আওয়ামী	-6380
rs	-6381
▁Sun	-6382
▁break	-6383
▁পিতা	-6384
▁eight	-6385
▁actress	-6386
osh	-6387
▁female	-6388
▁Committee	-6389
শার	-6390
▁শ্রেষ্ঠ	-6391
িনার	-6392
▁আন্ত	-6393
▁উপাদ	-6394
্কৃতিক	-6395
▁economy	-6396
▁stre	-6397
তিক্রম	-6398
▁প্রশ্নের	-6399
use	-6400
▁তদন্তের	-6401
▁চলতে	-6402
▁vers	-6403
▁above	-6404
▁চীন	-6405
▁অব্যাহত	-6406
▁Assembly	-6407
▁জার্মান	-6408
iring	-6409
ূত	-6410
▁hours	-6411
▁খেলার	-6412
▁স্থায়ী	-6413
▁প্রতিষ্ঠিত	-6414
্বিক	-6415
raz	-6416
▁চ্যালেঞ্জ	-6417
.)	-6418
▁felt	-6419
▁ইব্র	-6420
▁২৬	-6421
▁instru	-6422
▁evidence	-6423
▁harm	-6424
atter	-6425
▁মিডিয়া	-6426
▁culture	-6427
▁একসঙ্গে	-6428
▁safe	-6429
▁নিয়ন্ত্রণে	-6430
্যান্স	-6431
▁অ্যাস	-6432
▁exc	-6433
▁পরবর্ত	-6434
▁মেডিকেল	-6435
▁Did	-6436
▁পরিবর্তে	-6437
▁পড়তে	-6438
▁Sund	-6439
▁মানসিক	-6440
▁determ	-6441
▁শোন	-6442
▁চারটি	-6443
ার্	-6444
্প্র	-6445
▁percent	-6446
▁ময়	-6447
▁ডাক্ত	-6448
▁বিপক্ষে	-6449
▁Ha	-6450
মান্ড	-6451
তী	-6452
▁isnt	-6453
▁এদিকে	-6454
▁ভাঙ	-6455
▁ye	-6456
▁Far	-6457
▁থাম	-6458
anned	-6459
▁ডলার	-6460
▁বাচ্চ	-6461
▁কাউন্স	-6462
▁Yet	-6463
▁Russia	-6464
▁Hoss	-6465
▁পারেননি	-6466
▁ষ	-6467
▁ক্রিকেটার	-6468
raft	-6469
▁স্টেশন	-6470
▁Board	-6471
▁suffering	-6472
▁সঙ্গীত	-6473
▁ঐতিহাস	-6474
▁হেল	-6475
▁continued	-6476
▁establish	-6477
▁Inst	-6478
▁York	-6479
▁অনুপ্র	-6480
▁Ash	-6481
unic	-6482
▁quick	-6483
টিভ	-6484
▁কিশোর	-6485
iy	-6486
▁হ্র	-6487
▁রক্ষ	-6488
▁II	-6489
ণ্ডের	-6490
▁ফিরিয়ে	-6491
rif	-6492
বাচক	-6493
▁page	-6494
▁মজ	-6495
▁লেখক	-6496
তেও	-6497
▁Qu	-6498
▁মহিল	-6499
▁চাকরি	-6500
▁অন্যদিকে	-6501
▁ঘোষ	-6502
▁চালক	-6503
▁বেরিয়ে	-6504
াদার	-6505
▁demanded	-6506
▁purpose	-6507
▁2020	-6508
down	-6509
▁বঙ্গ	-6510
উন্ট	-6511
▁অভিযোগে	-6512
▁Aw	-6513
AT	-6514
eous	-6515
▁ball	-6516
▁মাথায়	-6517
▁drink	-6518
জন্ম	-6519
▁সান	-6520
erved	-6521
▁developed	-6522
▁Serv	-6523
▁global	-6524
িমি	-6525
▁docu	-6526
▁related	-6527
▁লাখ	-6528
▁almost	-6529
▁leav	-6530
▁সিস্ট	-6531
নো	-6532
▁Kohli	-6533
▁construction	-6534
▁নির্বাচনের	-6535
▁সংখ	-6536
▁প্রিয়	-6537
সমা	-6538
▁ওকে	-6539
▁Associ	-6540
asth	-6541
▁গৌ	-6542
▁upazila	-6543
▁অবিশ্বাস	-6544
▁হাসান	-6545
▁character	-6546
chan	-6547
▁সেটাই	-6548
▁defe	-6549
▁নির্ম	-6550
▁recent	-6551
▁পুনরায়	-6552
▁গড়	-6553
▁ব্যবসা	-6554
াদু	-6555
▁উন্নতি	-6556
▁conduct	-6557
▁দুর্ঘটনা	-6558
▁i	-6559
▁সিংহ	-6560
▁Women	-6561
▁নিযুক্ত	-6562
▁চলবে	-6563
▁produced	-6564
গারে	-6565
▁Per	-6566
▁Hossain	-6567
▁তৃণ	-6568
▁পড়েন	-6569
▁someone	-6570
▁২০১৯	-6571
▁স্কুলে	-6572
▁193	-6573
িত্য	-6574
▁দুটো	-6575
▁বাস্তব	-6576
atthew	-6577
▁অভিষ	-6578
▁schools	-6579
▁tar	-6580
রেজ	-6581
▁sin	-6582
▁Bab	-6583
▁প্রায়ই	-6584
▁অনি	-6585
As	-6586
▁শোক	-6587
পদ	-6588
’।	-6589
▁amount	-6590
▁রাজি	-6591
▁ফাইন	-6592
▁bit	-6593
▁আওতায়	-6594
▁আসামি	-6595
▁সবকিছু	-6596
▁ভিত	-6597
.'	-6598
▁অর্থনীতি	-6599
▁ইত্যাদি	-6600
▁expected	-6601
▁vol	-6602
mi	-6603
▁যাকে	-6604
▁MP	-6605
rices	-6606
▁বিহার	-6607
▁উদ্দেশ্যে	-6608
▁function	-6609
▁অ্যাড	-6610
▁First	-6611
ondon	-6612
▁attend	-6613
▁প্রভু	-6614
▁college	-6615
enger	-6616
▁Nep	-6617
▁Four	-6618
oo	-6619
▁লিখিত	-6620
▁মড	-6621
▁অধি	-6622
▁access	-6623
▁die	-6624
uman	-6625
▁Well	-6626
sp	-6627
▁তারিখ	-6628
▁অভাব	-6629
▁টাকার	-6630
▁profession	-6631
▁সাংস্কৃতিক	-6632
▁লন্ড	-6633
eared	-6634
isher	-6635
োপুরি	-6636
idge	-6637
▁personnel	-6638
বীর	-6639
▁২০২০	-6640
োড	-6641
vey	-6642
▁Dev	-6643
▁তাক	-6644
ability	-6645
road	-6646
atory	-6647
িতায়	-6648
▁required	-6649
▁Vir	-6650
fect	-6651
▁Centre	-6652
▁দারুণ	-6653
▁Sur	-6654
▁matches	-6655
▁অসুস্থ	-6656
▁পল	-6657
▁abs	-6658
▁data	-6659
▁পৌর	-6660
▁Tra	-6661
ওয়াল	-6662
▁price	-6663
▁Word	-6664
▁তরফে	-6665
▁cal	-6666
দ্দিন	-6667
▁TV	-6668
▁charg	-6669
াউন	-6670
▁Mean	-6671
▁ইস্রা	-6672
▁scient	-6673
▁previous	-6674
দৃ	-6675
▁Jew	-6676
▁!	-6677
▁জেরে	-6678
▁details	-6679
▁তুলনায়	-6680
▁পিছনে	-6681
▁গ্রামে	-6682
▁ব্যবস্থাপ	-6683
▁সংস্থার	-6684
▁নিখ	-6685
▁lib	-6686
▁fast	-6687
্ৰ	-6688
▁যোহন	-6689
▁কাউন্সিল	-6690
essor	-6691
▁শারীর	-6692
▁trade	-6693
▁text	-6694
▁পুরোপুরি	-6695
▁জনগণের	-6696
▁Tim	-6697
▁জম্মু	-6698
earch	-6699
▁ফলাফল	-6700
▁দম	-6701
▁Prot	-6702
▁জানুয়ারি	-6703
▁প্রে	-6704
▁আনু	-6705
্যাপী	-6706
ড়ের	-6707
▁serve	-6708
▁spoke	-6709
▁সংস্কার	-6710
rog	-6711
▁BNP	-6712
▁ওয়েবস	-6713
▁reasons	-6714
▁couple	-6715
▁স্বাক্ষ	-6716
atever	-6717
▁exec	-6718
▁সাড়া	-6719
ka	-6720
▁মনোযোগ	-6721
▁districts	-6722
▁নিজস্ব	-6723
▁suspect	-6724
▁regarding	-6725
▁career	-6726
▁happening	-6727
▁সমন্ব	-6728
▁ahead	-6729
্কার	-6730
▁Bhar	-6731
▁revealed	-6732
kar	-6733
▁highest	-6734
শেষে	-6735
িনে	-6736
ampions	-6737
▁cast	-6738
▁অফিসার	-6739
রূপে	-6740
▁transport	-6741
িকের	-6742
▁অধ্যাপক	-6743
▁মর্	-6744
▁sources	-6745
IC	-6746
▁ইন্দ	-6747
▁সাম্প্র	-6748
ুধ	-6749
▁makes	-6750
▁university	-6751
িরা	-6752
▁Have	-6753
de	-6754
▁উপযুক্ত	-6755
ইংরেজি	-6756
গী	-6757
▁চতু	-6758
▁Education	-6759
racy	-6760
উল	-6761
▁রঙ	-6762
▁কর্মসূচ	-6763
▁আইস	-6764
▁takes	-6765
▁তারিখে	-6766
▁মনোভাব	-6767
▁পাপ	-6768
▁Techn	-6769
▁ডা	-6770
▁opened	-6771
কারীরা	-6772
▁challeng	-6773
▁মের	-6774
▁Because	-6775
▁সফর	-6776
▁মুসলমান	-6777
▁প্রকল্পের	-6778
iance	-6779
▁grant	-6780
▁Tamil	-6781
▁wide	-6782
▁সংযুক্ত	-6783
cast	-6784
▁production	-6785
▁London	-6786
▁hy	-6787
▁remained	-6788
▁রাস্তায়	-6789
▁Child	-6790
▁মুদ্র	-6791
▁স্নাত	-6792
ouble	-6793
▁যন্ত্র	-6794
▁প্রদেশ	-6795
▁hot	-6796
ole	-6797
▁কিলোমিটার	-6798
ৃঙ্খ	-6799
▁অক্ষ	-6800
▁Gujarat	-6801
▁বিবরণ	-6802
▁opposition	-6803
ামে	-6804
▁Phil	-6805
▁Pakistani	-6806
▁agricult	-6807
ঠামো	-6808
.""-	-6809
▁খোলা	-6810
▁site	-6811
▁typ	-6812
▁পারছি	-6813
▁23	-6814
▁সিবিআই	-6815
▁নেয়া	-6816
▁sett	-6817
▁demon	-6818
▁পরীক্ষার	-6819
▁giving	-6820
▁বাস্তবায়	-6821
্রান্ত	-6822
▁পুনর	-6823
▁দিচ্ছে	-6824
▁Cont	-6825
▁institutions	-6826
▁করিয়া	-6827
▁পৃথক	-6828
▁underway	-6829
▁lear	-6830
▁২০১৮	-6831
▁২৭	-6832
ন্দের	-6833
▁সমুদ্র	-6834
▁নির্ধারিত	-6835
Ch	-6836
▁House	-6837
▁পেয়েছেন	-6838
▁পাবেন	-6839
▁charge	-6840
এইচ	-6841
▁daily	-6842
ortem	-6843
▁prevent	-6844
▁wis	-6845
za	-6846
▁যাঁ	-6847
▁origin	-6848
▁উপক	-6849
▁সেখানেই	-6850
নিষ্ঠ	-6851
▁Former	-6852
▁cop	-6853
▁link	-6854
▁কম্পিউ	-6855
Ind	-6856
▁মঙ্গল	-6857
েও	-6858
▁fru	-6859
▁rout	-6860
▁তিনিই	-6861
▁তৎ	-6862
▁Syri	-6863
▁নিয়ন্ত্র	-6864
▁goes	-6865
▁financial	-6866
▁Jos	-6867
▁Republic	-6868
IS	-6869
টুক	-6870
্ষিক	-6871
▁disease	-6872
▁insp	-6873
▁যৌথ	-6874
▁whose	-6875
▁গবেষণ	-6876
▁Gree	-6877
▁wond	-6878
oday	-6879
▁Meanwhile	-6880
▁বেসরকারি	-6881
▁ক্রী	-6882
▁চলাচল	-6883
▁নির্ধারণ	-6884
দীপ	-6885
▁gold	-6886
▁wickets	-6887
alse	-6888
▁সামান্য	-6889
▁আসন	-6890
▁কোম্পানি	-6891
iday	-6892
vernor	-6893
▁elected	-6894
ান্ত্রিক	-6895
▁চরিত্র	-6896
▁punishment	-6897
▁ছিলো	-6898
▁কাশ্মীর	-6899
▁border	-6900
▁French	-6901
▁gun	-6902
▁technology	-6903
aur	-6904
olve	-6905
▁bar	-6906
ables	-6907
▁খুল	-6908
ruption	-6909
▁attention	-6910
▁runs	-6911
inent	-6912
সভায়	-6913
▁মিস	-6914
▁allegations	-6915
ভারত	-6916
▁নগর	-6917
wal	-6918
▁তোলার	-6919
▁Justice	-6920
imate	-6921
দায়ের	-6922
edd	-6923
rug	-6924
eech	-6925
ators	-6926
▁arm	-6927
▁gen	-6928
▁যাও	-6929
▁affected	-6930
▁সরিয়ে	-6931
▁যথা	-6932
haps	-6933
▁সাফল্য	-6934
▁idea	-6935
iry	-6936
▁reach	-6937
▁তবুও	-6938
▁যিশুর	-6939
িম্প	-6940
▁নির্যা	-6941
▁heavy	-6942
▁বিক্রি	-6943
দম	-6944
▁completed	-6945
▁mos	-6946
▁thinking	-6947
ares	-6948
▁appeal	-6949
mission	-6950
▁অস্ট্রেলিয়া	-6951
▁গতি	-6952
rief	-6953
▁Work	-6954
▁Nav	-6955
▁ancient	-6956
েশনের	-6957
▁ঐতিহাসিক	-6958
▁দৌ	-6959
বেল	-6960
▁Fl	-6961
▁ঈমান	-6962
ীতিতে	-6963
▁doctor	-6964
▁বাড়ির	-6965
▁জনগণ	-6966
▁justice	-6967
▁পরই	-6968
well	-6969
▁তালিকায়	-6970
▁বিদ্র	-6971
▁এইচ	-6972
▁railway	-6973
▁Zeal	-6974
▁দিয়েছি	-6975
▁থাকি	-6976
istic	-6977
▁room	-6978
▁successful	-6979
▁Father	-6980
বুক	-6981
▁১৯৩	-6982
▁Watch	-6983
▁seats	-6984
িল্যান্ড	-6985
▁rejected	-6986
▁বিভাগে	-6987
নিয়া	-6988
▁থানার	-6989
গির	-6990
▁Turk	-6991
▁উক্ত	-6992
▁emb	-6993
্দি	-6994
yl	-6995
▁transl	-6996
▁জ্বাল	-6997
▁electric	-6998
vest	-6999
▁ন্যাশনাল	-7000
▁danger	-7001
র্জ	-7002
urch	-7003
▁চট্টগ্রাম	-7004
▁রোম	-7005
rish	-7006
▁Ap	-7007
▁Ed	-7008
▁সম্প্রদায়	-7009
▁হো	-7010
▁space	-7011
isl	-7012
্যো	-7013
▁growth	-7014
▁Fire	-7015
ona	-7016
ন্দন	-7017
খ্যক	-7018
▁strengthen	-7019
▁মোদি	-7020
▁France	-7021
▁failed	-7022
▁natural	-7023
▁helped	-7024
urg	-7025
.,	-7026
ঞ্জাব	-7027
▁গ্রন্থ	-7028
▁fulf	-7029
▁আইপি	-7030
▁২০১৪	-7031
▁গ্রামের	-7032
ras	-7033
ulated	-7034
rid	-7035
▁mobile	-7036
▁Book	-7037
rol	-7038
▁১০০	-7039
▁clean	-7040
▁শীঘ্রই	-7041
▁নদীর	-7042
▁গতকাল	-7043
▁জার	-7044
inary	-7045
▁wont	-7046
▁crime	-7047
lands	-7048
▁শত্র	-7049
▁মাছ	-7050
▁রণ	-7051
উই	-7052
▁programme	-7053
▁Lib	-7054
▁তুলতে	-7055
▁cut	-7056
▁normal	-7057
▁পরবর্তীতে	-7058
▁Under	-7059
▁IS	-7060
ুরের	-7061
▁responsible	-7062
▁চাহি	-7063
ris	-7064
▁remains	-7065
▁addition	-7066
▁উপভোগ	-7067
▁disapp	-7068
▁lack	-7069
year	-7070
▁ইন্টারনেট	-7071
শাক	-7072
▁প্রস্তুতি	-7073
▁ভয়ে	-7074
▁সংবিধান	-7075
▁Em	-7076
▁Cons	-7077
▁Madh	-7078
▁Karn	-7079
▁flood	-7080
▁Follow	-7081
▁মহাকা	-7082
▁দিবস	-7083
▁বলেছে	-7084
▁মিলিয়ন	-7085
▁sister	-7086
▁নিচে	-7087
▁steps	-7088
▁তামিল	-7089
▁Ban	-7090
iction	-7091
▁events	-7092
▁teachers	-7093
▁Car	-7094
born	-7095
▁distrib	-7096
▁rules	-7097
চনায়	-7098
▁ইন্ডিয়ান	-7099
▁এড	-7100
▁হর	-7101
▁stars	-7102
estival	-7103
▁arrived	-7104
▁উপজেলার	-7105
বিধ	-7106
▁vehicles	-7107
▁চীনের	-7108
হিতা	-7109
▁ready	-7110
co	-7111
osing	-7112
▁Lanka	-7113
খানা	-7114
কালের	-7115
▁webs	-7116
▁চ্যাম্পিয়ন	-7117
RC	-7118
▁significant	-7119
▁Such	-7120
▁০	-7121
▁ফেব্রুয়ারি	-7122
▁draw	-7123
▁appreci	-7124
ুতি	-7125
▁জটিল	-7126
▁mount	-7127
▁হঠাৎ	-7128
কু	-7129
▁ঐতিহ্য	-7130
▁posted	-7131
▁charges	-7132
ratic	-7133
action	-7134
▁Assam	-7135
▁অ্যাকা	-7136
ায়া	-7137
▁review	-7138
▁জোট	-7139
▁২০১১	-7140
ports	-7141
▁পরাজ	-7142
▁তিনজন	-7143
ales	-7144
ique	-7145
▁1.	-7146
▁জখ	-7147
▁ময়নাতদন্তের	-7148
▁বেল	-7149
▁Germany	-7150
▁FI	-7151
▁গ্রী	-7152
▁বিকা	-7153
▁Hence	-7154
▁ঋণ	-7155
▁warn	-7156
▁বেশী	-7157
▁Nothing	-7158
▁প্রতিষ্ঠা	-7159
▁মথি	-7160
▁Say	-7161
▁নিজেই	-7162
▁soul	-7163
গল	-7164
▁ব্যবহারের	-7165
মূ	-7166
▁Sar	-7167
▁প্রান্ত	-7168
▁Zealand	-7169
▁Script	-7170
▁patients	-7171
কেরা	-7172
▁east	-7173
▁সংযোগ	-7174
▁accepted	-7175
asthan	-7176
▁চাম	-7177
চিত্রে	-7178
ছাত্রী	-7179
▁সম্মেলনে	-7180
▁conducted	-7181
ার্ড	-7182
oted	-7183
▁engine	-7184
▁সম্প্রদায়ের	-7185
স্তি	-7186
▁Donald	-7187
▁improve	-7188
▁looked	-7189
িংস	-7190
▁টে	-7191
▁৪০	-7192
ষ্ট্রে	-7193
▁Photo	-7194
▁পের	-7195
▁স্বপ্ন	-7196
▁shows	-7197
▁comb	-7198
▁দেখার	-7199
▁European	-7200
▁Road	-7201
4)	-7202
.""	-7203
▁prison	-7204
eral	-7205
▁প্রদর্শ	-7206
▁ম্যাক	-7207
শুর	-7208
▁সদস্যদের	-7209
▁আদালতের	-7210
গতের	-7211
▁players	-7212
▁yourself	-7213
▁committed	-7214
▁মম	-7215
ades	-7216
ox	-7217
fer	-7218
প্লে	-7219
▁সাংসদ	-7220
▁America	-7221
▁mentioned	-7222
ifted	-7223
▁জাতিসংঘ	-7224
▁ডিগ্র	-7225
yn	-7226
▁২৯	-7227
lected	-7228
▁Offic	-7229
ae	-7230
রাও	-7231
▁names	-7232
▁মাদ্র	-7233
▁শুভে	-7234
স্টিটি	-7235
ফিক	-7236
▁contact	-7237
▁ব্যাঙ্ক	-7238
▁দেশটির	-7239
ammed	-7240
▁rise	-7241
▁closed	-7242
▁source	-7243
▁নক	-7244
▁ess	-7245
▁কর্	-7246
▁Kam	-7247
▁উপলব্ধ	-7248
▁আমেরিকা	-7249
▁ইনি	-7250
▁territ	-7251
▁উপাদান	-7252
▁সিটি	-7253
▁judge	-7254
▁tou	-7255
▁সুল	-7256
oints	-7257
ঙ্ঘ	-7258
▁Cabinet	-7259
▁Super	-7260
▁exact	-7261
মহ	-7262
▁সমালোচনা	-7263
▁ডিজি	-7264
usion	-7265
চ্ছিন্ন	-7266
▁Mem	-7267
▁throughout	-7268
▁ব্যক্তিকে	-7269
▁ensure	-7270
▁hundred	-7271
▁Association	-7272
hern	-7273
▁happens	-7274
▁Bihar	-7275
▁তথা	-7276
▁thus	-7277
▁খুলে	-7278
▁Salman	-7279
▁secret	-7280
▁false	-7281
▁Mark	-7282
▁বোঝা	-7283
▁কৌশল	-7284
▁বলো	-7285
▁El	-7286
▁fig	-7287
▁জেলায়	-7288
ER	-7289
ously	-7290
▁Muk	-7291
▁খানের	-7292
▁চিঠি	-7293
▁পাহা	-7294
▁নম্বর	-7295
▁রং	-7296
▁Hy	-7297
▁ধন	-7298
▁যুদ্ধের	-7299
iqu	-7300
▁remov	-7301
▁beginning	-7302
ental	-7303
▁prices	-7304
▁কারো	-7305
▁পরিস্থিতির	-7306
▁’’	-7307
▁operation	-7308
▁sea	-7309
▁Jud	-7310
▁department	-7311
▁প্রচেষ্টা	-7312
ভূতি	-7313
▁নগ	-7314
▁সংস্কৃতি	-7315
▁বৈশিষ্ট্য	-7316
▁$	-7317
▁Port	-7318
▁Off	-7319
▁আটকে	-7320
হত্যা	-7321
▁হইতে	-7322
▁create	-7323
▁গরম	-7324
ষিদ্ধ	-7325
িয়েত	-7326
▁প্রদেশের	-7327
▁চন্দ্র	-7328
▁righteous	-7329
▁অ্যান	-7330
▁পুলিশকে	-7331
নীতির	-7332
▁Nepal	-7333
▁capt	-7334
▁করলাম	-7335
▁জখম	-7336
ঙ্কার	-7337
▁pen	-7338
▁প্রতিরক্ষা	-7339
▁Us	-7340
▁তু	-7341
▁soldiers	-7342
irmed	-7343
oned	-7344
▁surely	-7345
▁তাড়	-7346
▁লোকজন	-7347
▁বিখ্যাত	-7348
▁parliament	-7349
▁pra	-7350
▁resign	-7351
▁কালো	-7352
elfare	-7353
▁offer	-7354
জীবী	-7355
▁স্বার্থ	-7356
▁কোচ	-7357
জাতির	-7358
▁pow	-7359
▁concerned	-7360
▁joy	-7361
▁acqu	-7362
▁carried	-7363
▁সিস্টেম	-7364
▁দেখি	-7365
▁believed	-7366
▁প্যার	-7367
বিজ্ঞান	-7368
▁সুই	-7369
▁joint	-7370
▁Russian	-7371
কিন	-7372
▁sust	-7373
▁receive	-7374
▁ইনস্টিটি	-7375
▁certainly	-7376
তীত	-7377
enge	-7378
▁দেখানো	-7379
ফোন	-7380
▁killing	-7381
▁বলুন	-7382
▁বোর্ড	-7383
astern	-7384
▁television	-7385
োতে	-7386
cious	-7387
▁সম্পদ	-7388
▁cities	-7389
▁Rajasthan	-7390
▁নিষিদ্ধ	-7391
put	-7392
▁mist	-7393
▁সকাল	-7394
▁cross	-7395
▁অন্তত	-7396
▁ব্যবসায়	-7397
▁কার্ড	-7398
▁নিয়েছেন	-7399
▁ব্যবস্থার	-7400
quiry	-7401
টিক	-7402
াইড	-7403
▁অভ্যন্ত	-7404
নীতি	-7405
▁2.	-7406
201	-7407
শাহ	-7408
▁science	-7409
▁চরম	-7410
ীর্ণ	-7411
জীবন	-7412
▁languages	-7413
▁tourn	-7414
▁leading	-7415
▁সাধ	-7416
▁জানাতে	-7417
গোষ্ঠ	-7418
▁detained	-7419
▁কাহ	-7420
▁evil	-7421
চিব	-7422
▁লীগের	-7423
▁যেভাবে	-7424
▁সভায়	-7425
সংহিতা	-7426
▁network	-7427
ES	-7428
পুরে	-7429
wa	-7430
▁লক	-7431
▁সিনেম	-7432
▁target	-7433
▁মেস	-7434
▁sides	-7435
▁মন্ত্রিস	-7436
▁speech	-7437
▁article	-7438
য়োজিত	-7439
▁রাখেন	-7440
oses	-7441
▁অনুবাদ	-7442
orthern	-7443
ছো	-7444
iled	-7445
ফর	-7446
▁beat	-7447
▁শাস্ত্র	-7448
▁বিশেষজ্ঞ	-7449
▁অবাক	-7450
▁talking	-7451
▁none	-7452
্নি	-7453
্রাজ	-7454
▁prayer	-7455
ওয়ার্ক	-7456
▁বলবে	-7457
িত্তিক	-7458
▁truck	-7459
▁ভবন	-7460
▁residents	-7461
েইন	-7462
▁নেতৃত্বে	-7463
▁সাহিত্য	-7464
ademy	-7465
▁goal	-7466
ender	-7467
▁investigating	-7468
▁extreme	-7469
২০০	-7470
▁Although	-7471
▁cultural	-7472
▁gas	-7473
▁নিন্দ	-7474
২১	-7475
▁শুভেচ্ছা	-7476
▁যুক্তি	-7477
▁Division	-7478
▁মুহূর্তে	-7479
▁চোখে	-7480
▁করেই	-7481
▁দখল	-7482
▁দীপ	-7483
▁পড়াশ	-7484
তাকে	-7485
দণ্ড	-7486
▁স্যার	-7487
▁traffic	-7488
▁করিয়ে	-7489
▁মায়ের	-7490
ources	-7491
igr	-7492
বাল	-7493
ব্যাপী	-7494
▁জানাই	-7495
▁conference	-7496
stant	-7497
▁বাব	-7498
মুনা	-7499
cement	-7500
▁বাজারে	-7501
ensive	-7502
▁একাডেম	-7503
▁বাড়িয়ে	-7504
ety	-7505
▁hearing	-7506
াড়ি	-7507
▁Besides	-7508
▁মহারাষ্ট্র	-7509
▁constitu	-7510
▁বর্ষ	-7511
▁Ra	-7512
কারের	-7513
▁enter	-7514
▁dig	-7515
▁কর্মসূচি	-7516
▁প্যা	-7517
ছুর	-7518
▁af	-7519
▁IPL	-7520
▁Loc	-7521
▁আব্দ	-7522
▁rank	-7523
ault	-7524
▁save	-7525
▁arch	-7526
▁paid	-7527
▁dom	-7528
▁শিক্ষার	-7529
োপাধ্যায়	-7530
▁Ay	-7531
▁পরম	-7532
▁Net	-7533
▁longer	-7534
পাত্র	-7535
▁কেটে	-7536
▁বিশিষ্ট	-7537
bit	-7538
▁মাদ	-7539
▁ভাষার	-7540
সভার	-7541
▁newsp	-7542
▁হু	-7543
AN	-7544
▁বেছে	-7545
endra	-7546
▁Satan	-7547
▁একক	-7548
▁সকালে	-7549
▁কম্পিউটার	-7550
lear	-7551
▁যেটি	-7552
▁cell	-7553
▁conditions	-7554
▁প্রচল	-7555
▁শারীরিক	-7556
▁করিতে	-7557
▁ধারাবাহ	-7558
▁ওয়েস্ট	-7559
right	-7560
খি	-7561
wise	-7562
▁ডিগ্রি	-7563
▁ডোনাল্ড	-7564
▁বিয়ের	-7565
▁changes	-7566
ply	-7567
▁Ran	-7568
দব	-7569
▁experi	-7570
▁সোম	-7571
▁২০১৫	-7572
oming	-7573
▁ওষ	-7574
থর	-7575
▁apply	-7576
্গ	-7577
▁projects	-7578
▁desp	-7579
▁স্বাক্ষর	-7580
▁ক্লাব	-7581
▁Budd	-7582
▁দরজা	-7583
arters	-7584
mortem	-7585
▁prepared	-7586
উন্ড	-7587
▁Sim	-7588
▁humans	-7589
▁সেক	-7590
▁প্রাকৃতিক	-7591
▁guid	-7592
▁Trans	-7593
▁connect	-7594
▁ক্ষুদ্র	-7595
▁বিশ্বস্ত	-7596
5)	-7597
▁মিটার	-7598
ডা	-7599
omm	-7600
▁পররাষ্ট্র	-7601
▁handed	-7602
▁ded	-7603
▁শীত	-7604
hib	-7605
autiful	-7606
▁itself	-7607
▁40	-7608
▁তদন্তে	-7609
▁দুর্বল	-7610
▁আলি	-7611
chol	-7612
▁therefore	-7613
জান	-7614
rial	-7615
light	-7616
▁ফিল্ম	-7617
▁laws	-7618
▁factor	-7619
▁উন্নয়নের	-7620
২২	-7621
▁nations	-7622
▁সৃষ্ট	-7623
▁গিয়েছিলেন	-7624
hal	-7625
▁উইল	-7626
ounds	-7627
▁গেলেন	-7628
▁Dem	-7629
"")	-7630
▁quality	-7631
▁অসং	-7632
ataka	-7633
পুরের	-7634
▁শ্রদ্ধা	-7635
▁যুবক	-7636
▁অবশেষে	-7637
▁আনতে	-7638
rupt	-7639
ূক	-7640
▁সাম্রাজ	-7641
poration	-7642
▁gives	-7643
hod	-7644
▁২০১২	-7645
▁Hindi	-7646
▁সংরক্ষণ	-7647
▁sense	-7648
▁active	-7649
▁ব্লগার	-7650
▁শরী	-7651
▁fre	-7652
▁san	-7653
▁লাগবে	-7654
▁জনসংখ্যা	-7655
▁ডান	-7656
ja	-7657
ittag	-7658
formation	-7659
▁measures	-7660
▁আমেরিকার	-7661
▁Sad	-7662
বোধ	-7663
▁Bel	-7664
▁বিএনপির	-7665
▁জাতির	-7666
▁ধরণের	-7667
▁মন্ত্রকের	-7668
50	-7669
▁যো	-7670
াত্ত	-7671
▁নাট	-7672
তাল	-7673
▁Science	-7674
▁আঁ	-7675
▁চেন	-7676
▁জন্যই	-7677
▁পার্টি	-7678
▁দেখায়	-7679
ittagong	-7680
▁Ive	-7681
▁গর্ব	-7682
▁protests	-7683
anded	-7684
▁কন্যা	-7685
utive	-7686
▁ক্ষতিগ্রস্ত	-7687
abor	-7688
hury	-7689
▁ডাক্তার	-7690
wide	-7691
▁লুক	-7692
▁২০১৩	-7693
▁rather	-7694
▁supply	-7695
▁হবার	-7696
▁discussion	-7697
▁average	-7698
প্রধান	-7699
▁আমন্ত্রণ	-7700
▁ডিজ	-7701
▁Prof	-7702
▁ব্লগ	-7703
▁red	-7704
▁অ্যাক	-7705
▁কমিশনার	-7706
যাপন	-7707
▁গেম	-7708
▁বাবার	-7709
▁নষ্ট	-7710
▁Pre	-7711
inth	-7712
▁পেছনে	-7713
ওয়ার্ড	-7714
▁seized	-7715
▁ব্যতীত	-7716
▁সংঘর্ষ	-7717
▁politic	-7718
heme	-7719
ipl	-7720
▁Public	-7721
cher	-7722
কুম	-7723
▁Ker	-7724
▁meetings	-7725
▁Sir	-7726
হর	-7727
▁বলব	-7728
▁flow	-7729
▁কল্যাণ	-7730
▁আনুষ্ঠান	-7731
▁স্বাগত	-7732
uru	-7733
▁মৌসুম	-7734
▁তারকা	-7735
▁critical	-7736
▁sexual	-7737
▁চালানো	-7738
▁escap	-7739
▁fair	-7740
▁পিতর	-7741
▁firm	-7742
দ্বন্দ্ব	-7743
▁ইম	-7744
▁বৃহত্তম	-7745
▁achieve	-7746
▁নিরাপদ	-7747
।""-	-7748
▁sched	-7749
▁path	-7750
▁faithful	-7751
▁ওষুধ	-7752
▁পোশাক	-7753
▁সৈন্য	-7754
▁myself	-7755
▁দোকান	-7756
▁দাঁড়	-7757
yle	-7758
▁টেলিভিশন	-7759
▁Defence	-7760
▁পৃথিবী	-7761
▁majority	-7762
▁গর্	-7763
▁বলিউড	-7764
▁যাচ্ছি	-7765
বাহিত	-7766
▁focus	-7767
▁roads	-7768
▁কেন্দ	-7769
AS	-7770
udget	-7771
মানের	-7772
son	-7773
বনে	-7774
▁হৃদয়	-7775
▁apostle	-7776
▁centre	-7777
▁অন্যায়	-7778
▁ট্রাক	-7779
▁girls	-7780
▁fellow	-7781
wan	-7782
্দা	-7783
set	-7784
▁Hes	-7785
চন	-7786
▁বলেই	-7787
cer	-7788
▁vac	-7789
▁কড়া	-7790
▁আলম	-7791
rovers	-7792
▁বিমানবন্দর	-7793
▁meaning	-7794
িপ্ত	-7795
▁হও	-7796
▁victory	-7797
ৃষ্ট	-7798
▁প্রভুর	-7799
▁ship	-7800
▁হচ্ছেন	-7801
▁value	-7802
iting	-7803
alls	-7804
▁Karnataka	-7805
▁stage	-7806
াকারী	-7807
▁ঘন	-7808
▁Today	-7809
ির্	-7810
বয়	-7811
▁বিদ্রোহ	-7812
▁যেসব	-7813
▁পরিবহ	-7814
▁Following	-7815
aced	-7816
3)	-7817
▁নারীদের	-7818
▁দুর্ঘটনায়	-7819
▁vote	-7820
▁degree	-7821
▁board	-7822
▁সাম্প্রতিক	-7823
abh	-7824
▁বলছি	-7825
And	-7826
হারা	-7827
▁ফেসবুক	-7828
▁Bangladeshi	-7829
▁আখ	-7830
▁২০১৬	-7831
▁aim	-7832
▁Group	-7833
িমে	-7834
▁ভী	-7835
▁বহন	-7836
kind	-7837
ক্রমণের	-7838
▁sometimes	-7839
▁includes	-7840
ান্তরিত	-7841
▁tournament	-7842
▁Nar	-7843
▁সুরক্ষা	-7844
rim	-7845
▁জের	-7846
▁dark	-7847
▁নিষেধা	-7848
▁confirmed	-7849
বিষ	-7850
দির	-7851
▁পর্যবে	-7852
unicip	-7853
ili	-7854
encies	-7855
▁আহতদের	-7856
টর	-7857
▁River	-7858
▁grand	-7859
▁বললাম	-7860
▁হাজির	-7861
▁cover	-7862
▁writing	-7863
▁authority	-7864
দানের	-7865
▁Thus	-7866
▁pick	-7867
▁পূরণ	-7868
মন্ত্র	-7869
▁Ang	-7870
▁Only	-7871
▁আমিও	-7872
ণ্	-7873
▁fam	-7874
▁হওয়ায়	-7875
▁2019	-7876
▁prob	-7877
শিক্ষ	-7878
▁এজন্য	-7879
▁strugg	-7880
▁Mor	-7881
azar	-7882
▁avoid	-7883
▁আকর্ষণ	-7884
▁temper	-7885
▁Jer	-7886
known	-7887
▁যাত্রা	-7888
ন্ধান	-7889
▁প্রভাবিত	-7890
▁শাখা	-7891
▁থাকবেন	-7892
যো	-7893
▁strength	-7894
icro	-7895
▁আদর্শ	-7896
শিং	-7897
zz	-7898
▁probe	-7899
▁তুই	-7900
▁forest	-7901
▁cris	-7902
▁Mon	-7903
▁exerc	-7904
time	-7905
▁করিনি	-7906
▁মিশ্র	-7907
▁Bah	-7908
▁চালা	-7909
▁Int	-7910
▁ভাষণ	-7911
▁পত্রিকা	-7912
▁bail	-7913
▁produc	-7914
▁সুন	-7915
▁appeared	-7916
▁wel	-7917
▁আপাত	-7918
▁Students	-7919
▁ফি	-7920
isf	-7921
ভূমি	-7922
▁কবে	-7923
▁লীগ	-7924
▁টুইটার	-7925
igation	-7926
▁attacks	-7927
▁স্ট্র	-7928
▁শিশুদের	-7929
ukh	-7930
▁চাহিদা	-7931
▁অবদান	-7932
▁direction	-7933
▁severe	-7934
apur	-7935
ধর্ম	-7936
▁আবাস	-7937
▁করবো	-7938
▁vehicle	-7939
▁নিবন্ধ	-7940
uke	-7941
▁Pad	-7942
▁running	-7943
▁সদস্যরা	-7944
▁কানা	-7945
শক্তি	-7946
▁এজ	-7947
rast	-7948
▁ইলেক	-7949
▁broad	-7950
▁বৌ	-7951
▁Deep	-7952
▁points	-7953
▁সূচনা	-7954
▁completely	-7955
▁হইবে	-7956
হান	-7957
স্যের	-7958
▁heavens	-7959
বিচার	-7960
▁রই	-7961
▁ইমর	-7962
▁holy	-7963
▁রোহিত	-7964
পতির	-7965
ev	-7966
▁fish	-7967
▁ক্যাল	-7968
▁হাউ	-7969
▁বাংলার	-7970
ভিত্তিক	-7971
▁described	-7972
▁হুমকি	-7973
▁Prov	-7974
▁cooperation	-7975
▁নিউজিল্যান্ড	-7976
▁হাসপাতালের	-7977
▁টিম	-7978
rect	-7979
▁aud	-7980
▁plant	-7981
▁শত্রু	-7982
▁প্রতিনিধ	-7983
▁Security	-7984
▁৩১	-7985
▁management	-7986
een	-7987
াইনে	-7988
▁ধাক	-7989
)-	-7990
▁লাইন	-7991
rap	-7992
▁gets	-7993
▁বিধানসভা	-7994
▁করছিল	-7995
▁cred	-7996
চর	-7997
▁contain	-7998
▁usually	-7999
They	-8000
▁দায়ী	-8001
▁সমাজের	-8002
raid	-8003
▁প্লে	-8004
▁finally	-8005
োতা	-8006
▁Sush	-8007
▁কামনা	-8008
▁উঠতে	-8009
▁জন্মগ্রহণ	-8010
▁কাগ	-8011
▁wish	-8012
ume	-8013
▁জনকে	-8014
DI	-8015
শান্ত	-8016
CT	-8017
▁Therefore	-8018
▁airport	-8019
cing	-8020
6)	-8021
▁west	-8022
বণ	-8023
ube	-8024
ৃতিতে	-8025
▁28	-8026
▁Kal	-8027
▁মহিলাদের	-8028
unt	-8029
▁destroyed	-8030
ুলের	-8031
arily	-8032
▁tro	-8033
▁See	-8034
▁radi	-8035
gn	-8036
ita	-8037
▁fled	-8038
াজিল	-8039
▁Foreign	-8040
enn	-8041
▁pictures	-8042
▁চলচ্চিত্রে	-8043
▁সফরে	-8044
▁suffered	-8045
▁ফিলিপ	-8046
▁শুনতে	-8047
▁send	-8048
োগ্রাম	-8049
▁কমিশনের	-8050
▁Sol	-8051
▁beautiful	-8052
▁crisis	-8053
্যমান	-8054
▁Sunday	-8055
▁inaug	-8056
▁আসল	-8057
▁ভ্রমণ	-8058
▁chairman	-8059
pan	-8060
▁primary	-8061
ঘর	-8062
pro	-8063
▁বাছ	-8064
▁Rohit	-8065
ems	-8066
▁এশিয়া	-8067
▁জিন	-8068
▁terms	-8069
▁candidates	-8070
▁নেটওয়ার্ক	-8071
ভূম	-8072
more	-8073
▁উন্ম	-8074
▁ঘিরে	-8075
▁বিপর্য	-8076
▁Met	-8077
▁sad	-8078
▁সমৃদ্ধ	-8079
ব্ল	-8080
েক্স	-8081
▁Rel	-8082
মানা	-8083
▁drug	-8084
▁Good	-8085
ব্যব	-8086
▁Among	-8087
▁lik	-8088
▁battle	-8089
▁মেডিক্যাল	-8090
▁প্রতিবেশ	-8091
সাধারণ	-8092
▁শর্ত	-8093
▁ইরানের	-8094
▁display	-8095
▁impact	-8096
▁করোন	-8097
emic	-8098
▁সরকারকে	-8099
▁সংস্করণ	-8100
▁Academy	-8101
%.	-8102
গকে	-8103
রাত	-8104
▁poet	-8105
▁মডেল	-8106
ালীন	-8107
▁রচনা	-8108
▁মিনিট	-8109
▁কর্প	-8110
▁asc	-8111
▁সকলেই	-8112
▁Ser	-8113
▁মর্যা	-8114
▁অংশী	-8115
▁controvers	-8116
▁cho	-8117
▁সাক্ষ্য	-8118
▁অধীন	-8119
▁সায়	-8120
▁আস্থা	-8121
cell	-8122
▁Mond	-8123
▁Over	-8124
agh	-8125
▁seems	-8126
▁Ant	-8127
▁doubt	-8128
▁মেট্র	-8129
▁Bal	-8130
▁২০১০	-8131
ini	-8132
সান	-8133
জুড়ে	-8134
▁write	-8135
mad	-8136
usal	-8137
▁কারণেই	-8138
alled	-8139
▁লাগছে	-8140
াধিকার	-8141
oyal	-8142
▁চতুর্থ	-8143
▁ir	-8144
▁ম্যান	-8145
7)	-8146
োয়ার	-8147
▁examination	-8148
▁আবহা	-8149
▁লিখেছিলেন	-8150
▁sens	-8151
▁ব্যাপারটা	-8152
্যব	-8153
▁Internet	-8154
▁ক্ষমতায়	-8155
▁গণতন্ত্র	-8156
8)	-8157
মতো	-8158
▁আরেকটি	-8159
ন্যাস	-8160
▁mission	-8161
imum	-8162
▁Leg	-8163
▁সপ্তাহে	-8164
▁ইউরোপীয়	-8165
▁26	-8166
▁Art	-8167
▁চিকিৎসক	-8168
▁পদার্থ	-8169
▁bi	-8170
▁আতঙ্ক	-8171
▁physical	-8172
▁ক্যাম্প	-8173
▁ত্যাগ	-8174
▁democracy	-8175
▁deploy	-8176
▁household	-8177
▁কাঠ	-8178
▁species	-8179
▁আফ্রিকা	-8180
▁camera	-8181
বাধিকার	-8182
▁features	-8183
সাই	-8184
▁San	-8185
▁মাত	-8186
eness	-8187
াপ্রভ	-8188
▁games	-8189
মন্ড	-8190
▁কাজেই	-8191
▁মেয়ের	-8192
▁স্মৃতি	-8193
▁কল্প	-8194
▁বললে	-8195
▁Greek	-8196
▁organization	-8197
▁Asian	-8198
এটা	-8199
টস	-8200
▁তল্লা	-8201
▁Tel	-8202
▁afraid	-8203
িত্বে	-8204
▁victims	-8205
▁condem	-8206
▁191	-8207
▁ut	-8208
▁crim	-8209
▁হত্যার	-8210
▁প্রত্যাখ্যান	-8211
▁বিপদ	-8212
▁ইরা	-8213
▁discussed	-8214
▁যাবেন	-8215
▁custody	-8216
):	-8217
▁Research	-8218
▁teach	-8219
▁এসেছিল	-8220
agram	-8221
▁male	-8222
lict	-8223
▁refused	-8224
▁Vice	-8225
বাং	-8226
▁অনুগ্রহ	-8227
▁লোকের	-8228
▁ইতিমধ্যে	-8229
▁পারিনি	-8230
▁তাও	-8231
ফিল	-8232
▁অলিম্প	-8233
▁request	-8234
▁উপকার	-8235
▁জৈ	-8236
enty	-8237
ম্মদ	-8238
▁করুণ	-8239
▁performance	-8240
▁বেড়েছে	-8241
ড্ড	-8242
▁আসেনি	-8243
▁তাপমাত্র	-8244
মধ্যে	-8245
▁bab	-8246
▁method	-8247
▁plays	-8248
▁arrange	-8249
ুলি	-8250
▁আসুন	-8251
You	-8252
▁|	-8253
▁অনুসন্ধান	-8254
▁Chittagong	-8255
▁যুদ্ধে	-8256
▁growing	-8257
▁পার্টির	-8258
▁rich	-8259
▁লকড	-8260
▁ঘুরে	-8261
▁মিউ	-8262
▁signed	-8263
▁servants	-8264
aging	-8265
1)	-8266
ivity	-8267
▁সার্ভিস	-8268
চারী	-8269
▁check	-8270
িয়াস	-8271
▁worth	-8272
টুকু	-8273
▁doesn	-8274
▁দৃষ্টিভ	-8275
শিয়ান	-8276
rastru	-8277
miss	-8278
▁আমেরিকান	-8279
টাতে	-8280
▁বাগ	-8281
▁তীম	-8282
তান্ত্রিক	-8283
▁কেউই	-8284
▁হামলায়	-8285
▁পরস্প	-8286
▁আফ্রিকার	-8287
hab	-8288
▁image	-8289
ashed	-8290
▁আশ্রয়	-8291
▁অসংখ্য	-8292
্যালো	-8293
▁প্রতিদ্বন্দ্ব	-8294
▁greater	-8295
hters	-8296
▁সূত্রে	-8297
lymp	-8298
▁192	-8299
▁ইরান	-8300
▁কর্মীদের	-8301
▁যেগুলো	-8302
▁lived	-8303
▁উত্তেজ	-8304
▁Spec	-8305
▁দিল্লিতে	-8306
▁daughters	-8307
▁studies	-8308
▁প্রেরণ	-8309
▁পর্	-8310
▁খেলতে	-8311
মাধ্যম	-8312
▁Everything	-8313
▁La	-8314
▁Hasan	-8315
▁Shar	-8316
▁reading	-8317
ulations	-8318
প্রতি	-8319
▁cy	-8320
razil	-8321
▁Hasina	-8322
প্রকাশ	-8323
▁tweeted	-8324
▁type	-8325
▁integr	-8326
▁প্রতিশ্র	-8327
২৫	-8328
▁mill	-8329
▁অ্যাকাউন্ট	-8330
ামীর	-8331
▁নাটক	-8332
▁নেবে	-8333
▁দুর	-8334
ণ্ডে	-8335
▁মানবাধিকার	-8336
▁ইঙ্গ	-8337
জিং	-8338
াইভ	-8339
▁lies	-8340
outher	-8341
▁missing	-8342
▁ban	-8343
ত্বের	-8344
▁Technology	-8345
▁Five	-8346
প্রদেশ	-8347
▁0	-8348
▁dream	-8349
▁website	-8350
▁companies	-8351
▁broke	-8352
▁তারপরে	-8353
▁Champions	-8354
ইন	-8355
▁medic	-8356
▁minor	-8357
ঙ্কর	-8358
based	-8359
▁খুনের	-8360
হের	-8361
▁candidate	-8362
েইল	-8363
▁টুইটারে	-8364
▁Red	-8365
েম্ব	-8366
▁shock	-8367
▁ইংরেজ	-8368
ography	-8369
▁Cap	-8370
▁deaths	-8371
'.	-8372
▁visited	-8373
▁simple	-8374
তঃ	-8375
lease	-8376
▁২০১৭	-8377
▁yes	-8378
▁Korea	-8379
▁signs	-8380
▁recorded	-8381
▁Look	-8382
▁enem	-8383
▁Water	-8384
▁Econom	-8385
▁section	-8386
▁assign	-8387
▁বিচ্ছিন্ন	-8388
োরে	-8389
েননি	-8390
▁মেলেনি	-8391
IN	-8392
▁unto	-8393
▁লোকসভা	-8394
outhern	-8395
▁কতটা	-8396
কান	-8397
ixed	-8398
▁wonder	-8399
▁facilities	-8400
যাত্র	-8401
brew	-8402
▁বিভক্ত	-8403
▁প্রসঙ্গে	-8404
▁ওটা	-8405
▁অবস্থার	-8406
▁chance	-8407
▁Exp	-8408
াও	-8409
▁অত্যা	-8410
▁ক্রীড়া	-8411
▁nature	-8412
▁উপলক্ষে	-8413
▁নমুনা	-8414
▁Finance	-8415
▁উত্তরে	-8416
▁pred	-8417
তাই	-8418
▁Bill	-8419
▁কোহলি	-8420
▁caught	-8421
বিলা	-8422
▁hearts	-8423
▁শন	-8424
বছ	-8425
▁attacked	-8426
▁উৎসব	-8427
▁বী	-8428
ties	-8429
▁anti	-8430
▁lat	-8431
▁Fed	-8432
▁বৃদ্ধির	-8433
▁ঊ	-8434
kh	-8435
▁হিসাব	-8436
AR	-8437
যথ	-8438
চ্ছেদ	-8439
▁পড়ার	-8440
▁সেজন্য	-8441
▁rap	-8442
েক্টর	-8443
▁rape	-8444
▁matters	-8445
▁শুভ	-8446
▁prior	-8447
oe	-8448
▁program	-8449
▁challenge	-8450
▁rural	-8451
▁মাহমু	-8452
▁practice	-8453
rate	-8454
▁List	-8455
▁গাজ	-8456
▁Olymp	-8457
২৪	-8458
ার্স	-8459
ুরুর	-8460
▁ঝুঁকি	-8461
▁occurred	-8462
quarters	-8463
▁continues	-8464
পাক	-8465
▁সংক্রমণ	-8466
▁বোমা	-8467
▁খাওয়া	-8468
▁rescued	-8469
▁begun	-8470
▁মহাকাশ	-8471
▁ব্যবস	-8472
▁literature	-8473
▁মোটর	-8474
▁ste	-8475
▁গ্রাহ	-8476
▁mid	-8477
ource	-8478
▁effort	-8479
▁যেকোনো	-8480
su	-8481
GB	-8482
▁একেবারেই	-8483
▁Election	-8484
চু	-8485
▁sun	-8486
▁স্টি	-8487
▁ভুলে	-8488
▁মঞ্চ	-8489
শ্বর	-8490
▁lower	-8491
ানু	-8492
▁মুখপাত্র	-8493
▁below	-8494
▁ভবিষ্যৎ	-8495
ত্যাগ	-8496
▁কার্যাল	-8497
raq	-8498
phone	-8499
2)	-8500
▁schol	-8501
like	-8502
▁স্বর্গ	-8503
ilit	-8504
▁Organ	-8505
ূন্য	-8506
▁whatever	-8507
▁reb	-8508
িন্থ	-8509
▁Kerala	-8510
▁তখনই	-8511
▁পরা	-8512
▁club	-8513
▁magaz	-8514
▁অস্ট্রেলিয়ার	-8515
▁Virat	-8516
▁প্রশাসনের	-8517
uri	-8518
▁বাণিজ্যিক	-8519
▁ওপ	-8520
▁মুজ	-8521
▁হইয়া	-8522
rative	-8523
▁Sum	-8524
▁Chowd	-8525
▁আশীর্	-8526
▁বিস্ম	-8527
▁Adv	-8528
ঞ্চলিক	-8529
▁বিপুল	-8530
▁player	-8531
▁বিশ্বে	-8532
▁সর্বাধ	-8533
ira	-8534
রিদ্র	-8535
▁continu	-8536
bo	-8537
▁Moses	-8538
▁opt	-8539
▁অর্ধ	-8540
▁শয়তান	-8541
▁saf	-8542
▁Commissioner	-8543
▁Brazil	-8544
▁বিষয়গুলো	-8545
▁Indust	-8546
দিগকে	-8547
▁সহকারী	-8548
▁Force	-8549
▁এইরকম	-8550
There	-8551
▁অনুভব	-8552
দারি	-8553
▁জরি	-8554
▁Railway	-8555
▁অনুভূতি	-8556
▁Great	-8557
▁তহ	-8558
▁title	-8559
If	-8560
▁শিষ্য	-8561
ken	-8562
▁white	-8563
▁Ja	-8564
▁burn	-8565
▁ক্যার	-8566
▁কমান্ড	-8567
▁ব্যাং	-8568
▁নির্দেশনা	-8569
▁repe	-8570
▁অসাধারণ	-8571
▁cerem	-8572
▁সমগ্র	-8573
▁চাঁ	-8574
▁Isa	-8575
▁অপেক্ষ	-8576
craft	-8577
▁প্রশাসনিক	-8578
uled	-8579
▁application	-8580
▁সার্ব	-8581
▁সংগীত	-8582
ols	-8583
র্ষে	-8584
izing	-8585
য়াত	-8586
▁ইনস্ট	-8587
▁এটিকে	-8588
▁লেগ	-8589
▁reform	-8590
▁এখানেই	-8591
▁slow	-8592
▁উত্তেজনা	-8593
িনিয়ার	-8594
gest	-8595
rastructure	-8596
▁মোকাবিলা	-8597
estic	-8598
▁agreed	-8599
▁অনুমান	-8600
▁স্বীকৃতি	-8601
▁und	-8602
▁Chen	-8603
▁ছাত্রী	-8604
▁sisters	-8605
▁মেরে	-8606
▁talks	-8607
▁trial	-8608
▁মৃতদেহ	-8609
▁separate	-8610
-3	-8611
ভার্স	-8612
বিশ্বাস	-8613
▁খেলায়	-8614
▁পরাজিত	-8615
!"""	-8616
▁box	-8617
▁commerc	-8618
▁weap	-8619
▁উপলব্ধি	-8620
▁ডায়	-8621
▁dies	-8622
ione	-8623
▁ব্রাজিল	-8624
▁governments	-8625
▁সঞ্চ	-8626
▁হ্রাস	-8627
oke	-8628
▁সম্মেলন	-8629
▁লু	-8630
িন্স	-8631
MS	-8632
▁জেল	-8633
▁ফাইল	-8634
▁এমনটা	-8635
oni	-8636
▁ওয়ান	-8637
▁কুল	-8638
▁মেঘ	-8639
▁Shiv	-8640
▁consid	-8641
▁কাছাকা	-8642
▁বিষয়ের	-8643
▁Naz	-8644
▁করিন্থ	-8645
',	-8646
▁Does	-8647
▁আবু	-8648
▁Myan	-8649
▁opin	-8650
বোন	-8651
▁photo	-8652
MC	-8653
▁reply	-8654
▁require	-8655
▁debut	-8656
urre	-8657
▁weak	-8658
▁Come	-8659
▁পরিষদের	-8660
৩০	-8661
aches	-8662
▁বৌদ্ধ	-8663
▁toward	-8664
▁quickly	-8665
▁যাচ্ছেন	-8666
▁damaged	-8667
▁referred	-8668
▁দিই	-8669
▁placed	-8670
ensus	-8671
duce	-8672
▁Spe	-8673
standing	-8674
▁অস্ত	-8675
▁Awami	-8676
▁ওয়েব	-8677
▁অবল	-8678
▁James	-8679
▁Take	-8680
▁বাম	-8681
▁ডিজিটাল	-8682
▁Constitution	-8683
▁2018	-8684
▁সংশোধ	-8685
কর্মী	-8686
▁forth	-8687
▁কাছাকাছি	-8688
▁বিপ্ল	-8689
▁mankind	-8690
▁bul	-8691
▁সবই	-8692
ঙ্গাল	-8693
্যানেল	-8694
▁soft	-8695
ম্বা	-8696
▁শাহর	-8697
ক্ষিতে	-8698
▁মমতা	-8699
▁songs	-8700
্টে	-8701
▁চমৎকার	-8702
▁ক্যামেরা	-8703
▁ordered	-8704
▁corruption	-8705
iam	-8706
▁Sanj	-8707
▁ML	-8708
ny	-8709
▁টাইম	-8710
iles	-8711
স্টার	-8712
olled	-8713
▁কোর্ট	-8714
দাতা	-8715
bar	-8716
▁এমনই	-8717
IT	-8718
▁দয়া	-8719
▁Ahmad	-8720
▁scared	-8721
▁il	-8722
▁reward	-8723
▁refuge	-8724
resh	-8725
ড়ো	-8726
সিং	-8727
্দের	-8728
▁via	-8729
▁মৌলিক	-8730
▁27	-8731
▁Arabia	-8732
▁participated	-8733
▁বয়সে	-8734
▁আহম	-8735
▁প্রতিনিধিত্ব	-8736
▁লোকদের	-8737
▁sudd	-8738
▁সেইসঙ্গে	-8739
ufact	-8740
ামূলক	-8741
rel	-8742
শ্ব	-8743
▁কেননা	-8744
▁Friday	-8745
▁products	-8746
▁আঞ্চলিক	-8747
▁ep	-8748
▁reality	-8749
▁desire	-8750
▁উদ্ভাব	-8751
▁পরিষদ	-8752
িন্দি	-8753
▁খেয়ে	-8754
▁oppos	-8755
orrow	-8756
▁খার	-8757
▁suspended	-8758
▁unc	-8759
▁locals	-8760
▁Pand	-8761
▁crowd	-8762
▁তল্লাশি	-8763
্রমে	-8764
▁inquiry	-8765
gment	-8766
▁সেনাবাহিনী	-8767
রোধ	-8768
▁তৃণমূল	-8769
গরে	-8770
▁নেপ	-8771
▁circum	-8772
▁Chowdhury	-8773
ৃঙ্খলা	-8774
▁কেন্দ্রের	-8775
ানার	-8776
▁writer	-8777
যা	-8778
▁রেজ	-8779
▁লেগে	-8780
▁রপ্ত	-8781
dict	-8782
▁satisf	-8783
▁জিজ্ঞাসাবাদ	-8784
ামান	-8785
▁ren	-8786
▁Char	-8787
▁মাঠে	-8788
▁nobody	-8789
▁অভিনন্দন	-8790
২৩	-8791
me	-8792
▁থাকছে	-8793
▁প্রচলিত	-8794
গোল	-8795
ক্ল	-8796
▁2014	-8797
▁যথাযথ	-8798
▁আইনজীবী	-8799
▁করোনাভাই	-8800
▁quar	-8801
▁gar	-8802
▁notice	-8803
খার	-8804
ীকরণ	-8805
adav	-8806
▁নাগরিকত্ব	-8807
ণ্ঠ	-8808
বাহিনী	-8809
▁session	-8810
▁neither	-8811
adium	-8812
▁ইঙ্গিত	-8813
▁Iraq	-8814
▁Life	-8815
▁টিভি	-8816
▁coast	-8817
▁Matthew	-8818
▁card	-8819
সারণ	-8820
▁ভক্ত	-8821
▁মার্	-8822
▁জানালেন	-8823
orial	-8824
োসিয়ে	-8825
▁সরে	-8826
sy	-8827
বিরোধ	-8828
▁এমনকী	-8829
icate	-8830
▁remark	-8831
avi	-8832
তিতে	-8833
▁পার্থক্য	-8834
▁সন্তানের	-8835
▁importance	-8836
▁ভীষণ	-8837
▁instead	-8838
রীণ	-8839
▁symb	-8840
▁তৈরী	-8841
▁disbelie	-8842
▁নিরাপত্তার	-8843
atform	-8844
ening	-8845
▁safety	-8846
▁দক্ষতা	-8847
পশ্চ	-8848
াব্দ	-8849
▁মন্ত্রক	-8850
ented	-8851
সম্যান	-8852
টল	-8853
▁শৈ	-8854
▁কিছুদিন	-8855
▁Aj	-8856
▁Human	-8857
খ্যার	-8858
▁সম্মুখ	-8859
▁complex	-8860
৫০	-8861
▁Mam	-8862
▁users	-8863
▁ব্যস্ত	-8864
change	-8865
▁Office	-8866
িয়েল	-8867
▁আবিষ্কার	-8868
▁Dan	-8869
▁শপথ	-8870
▁seriously	-8871
জিক	-8872
▁আশীর্বাদ	-8873
▁Monday	-8874
্ডার	-8875
▁adop	-8876
▁staff	-8877
▁পরিশ্রম	-8878
▁প্রোগ্রাম	-8879
▁প্রতীক	-8880
▁পারিবার	-8881
▁অভিযোগের	-8882
ধিক	-8883
ভিল	-8884
▁এঁ	-8885
▁cas	-8886
▁Indeed	-8887
▁পাঞ্জাব	-8888
▁বিকল্প	-8889
েসে	-8890
▁২০০৯	-8891
▁পাঁচটি	-8892
লাপ	-8893
▁হয়ত	-8894
▁sn	-8895
জনেই	-8896
▁Earlier	-8897
▁voice	-8898
yer	-8899
▁interview	-8900
▁হোম	-8901
গ্ন	-8902
ganj	-8903
▁দিত	-8904
pri	-8905
imately	-8906
▁injury	-8907
লাত	-8908
▁বার্ষিক	-8909
ীতির	-8910
▁simply	-8911
▁Je	-8912
▁রেলওয়ে	-8913
▁havent	-8914
What	-8915
▁Geor	-8916
▁mosque	-8917
▁ইস্রায়েল	-8918
▁ভাইরাস	-8919
▁সম্পর্কের	-8920
oph	-8921
▁Op	-8922
▁lay	-8923
iab	-8924
োনেশ	-8925
▁ICC	-8926
▁Buddh	-8927
▁সন্তানদের	-8928
▁ফেলা	-8929
▁ভেতরে	-8930
▁গ্রহণের	-8931
▁রেখেছে	-8932
ursday	-8933
▁damage	-8934
▁অস্থ	-8935
▁স্নাতক	-8936
▁দেখাতে	-8937
▁ইমরান	-8938
▁lockdown	-8939
▁Mohammed	-8940
▁Ben	-8941
▁Rem	-8942
▁গোপন	-8943
▁পুনর্	-8944
য়নে	-8945
ড্র	-8946
▁Never	-8947
▁partners	-8948
▁ভারী	-8949
▁virus	-8950
▁উদ্বোধন	-8951
ico	-8952
▁Author	-8953
▁আত্মহত্যা	-8954
▁আইনে	-8955
▁fourth	-8956
▁বলেছিল	-8957
▁seat	-8958
▁occup	-8959
▁Satur	-8960
েডিয়াম	-8961
▁প্রবল	-8962
সমাচার	-8963
▁রীতি	-8964
▁সল	-8965
▁হিত	-8966
▁depart	-8967
▁encoura	-8968
▁original	-8969
▁গর	-8970
য়েলের	-8971
▁অনলাইন	-8972
▁learned	-8973
▁numbers	-8974
পূ	-8975
ils	-8976
▁fully	-8977
oj	-8978
▁propos	-8979
▁দেয়নি	-8980
▁অনুষ্ঠানের	-8981
▁hor	-8982
rences	-8983
dra	-8984
▁সুসমাচার	-8985
▁speaking	-8986
▁চলচ্চিত্রের	-8987
▁উদ্দেশে	-8988
▁Mur	-8989
▁please	-8990
▁Corinth	-8991
▁independent	-8992
▁শিরোন	-8993
▁taught	-8994
▁আবারও	-8995
▁করায়	-8996
ঙ্কের	-8997
▁acting	-8998
▁গুপ্ত	-8999
▁ম্যাচের	-9000
▁presence	-9001
▁suc	-9002
▁facing	-9003
টিস	-9004
▁নিয়েই	-9005
▁ধোন	-9006
▁ধর্মের	-9007
▁Second	-9008
কীয়	-9009
▁Mahm	-9010
▁মণ্ডলীর	-9011
▁ধরতে	-9012
FA	-9013
▁অবসর	-9014
োর্ডের	-9015
▁ইনস্টিটিউট	-9016
ধানে	-9017
▁spent	-9018
▁Myanmar	-9019
▁ইচ্ছে	-9020
asp	-9021
ন্তু	-9022
▁হচ্ছিল	-9023
▁হেন	-9024
▁স্টেডিয়াম	-9025
▁জয়ী	-9026
▁believers	-9027
rul	-9028
▁নিন্দা	-9029
▁এরই	-9030
▁চাষ	-9031
oring	-9032
▁income	-9033
▁করতাম	-9034
▁আত্মীয়	-9035
▁আজকে	-9036
▁recomm	-9037
▁teaching	-9038
▁News	-9039
▁হতাহত	-9040
▁স্ল	-9041
▁খেতে	-9042
▁শরীর	-9043
▁Tri	-9044
usalem	-9045
▁succeed	-9046
▁সঞ্জ	-9047
duction	-9048
▁consum	-9049
▁ম্যানে	-9050
▁পারিবারিক	-9051
▁ভাস	-9052
োপদেশ	-9053
▁shifted	-9054
▁দুর্ঘটনার	-9055
cutta	-9056
▁Nations	-9057
fall	-9058
বৃত্ত	-9059
যুদ্ধের	-9060
▁দরিদ্র	-9061
▁emp	-9062
▁chann	-9063
iling	-9064
▁Imran	-9065
▁Wash	-9066
ওয়াজ	-9067
▁ইয়ে	-9068
▁speed	-9069
▁অ্যাম	-9070
▁CP	-9071
kay	-9072
▁ended	-9073
প্রদেশের	-9074
ফট	-9075
illa	-9076
▁পেয়েছি	-9077
▁উৎসর্গ	-9078
বাড়	-9079
্যুত	-9080
▁সংখ্যক	-9081
▁যুক্তরাজ	-9082
▁homes	-9083
▁আলোচনার	-9084
শাল	-9085
▁associated	-9086
▁অংশে	-9087
▁Thursday	-9088
▁organis	-9089
▁ইতিবাচক	-9090
▁shut	-9091
ray	-9092
ednes	-9093
ellig	-9094
▁shown	-9095
মার্ক	-9096
বাজার	-9097
▁illeg	-9098
▁বিশ্লে	-9099
▁তাৎ	-9100
▁launch	-9101
▁solution	-9102
▁Were	-9103
▁thousands	-9104
▁অন্তর্গত	-9105
পত	-9106
▁আদম	-9107
▁gain	-9108
ক্ষেত্রে	-9109
▁additional	-9110
▁প্রসঙ্গ	-9111
▁প্রতিষ্ঠানের	-9112
▁leadership	-9113
▁loved	-9114
াইয়	-9115
মেন	-9116
Ph	-9117
▁ফুল	-9118
oples	-9119
▁টেবিল	-9120
▁সাজ	-9121
▁এড়িয়ে	-9122
▁Like	-9123
▁serving	-9124
▁নিষেধাজ্ঞা	-9125
▁famous	-9126
▁পাত	-9127
উন	-9128
▁begins	-9129
▁ক্ষোভ	-9130
▁আক্রান্তের	-9131
▁carry	-9132
▁petition	-9133
enes	-9134
▁করিন্থীয়	-9135
onding	-9136
acity	-9137
iplom	-9138
▁ঘটনাস্থলেই	-9139
▁ইতিহাসে	-9140
▁feet	-9141
▁কমিউ	-9142
back	-9143
▁পাল্টা	-9144
▁সর্বাধিক	-9145
▁Chairman	-9146
▁অভিভাব	-9147
▁পয়েন্ট	-9148
দ্বীপ	-9149
▁পরিবহন	-9150
▁সাদা	-9151
▁biggest	-9152
▁বাছাই	-9153
▁Jerusalem	-9154
▁Pers	-9155
▁বিদ্যমান	-9156
▁sound	-9157
▁Deputy	-9158
ূদ	-9159
▁মাংস	-9160
▁জগতের	-9161
িকম্প	-9162
▁sell	-9163
▁এসেছেন	-9164
ednesday	-9165
▁offered	-9166
apers	-9167
▁চিকিৎসার	-9168
▁২০০৮	-9169
▁entered	-9170
ওয়্যার	-9171
▁Mag	-9172
▁Children	-9173
▁extremely	-9174
▁নীল	-9175
য়িক	-9176
েমে	-9177
▁প্রতিযোগিতা	-9178
▁নিদর্শন	-9179
▁সেনাবাহিনীর	-9180
▁convers	-9181
▁ভূমি	-9182
▁আজকের	-9183
▁Saturday	-9184
▁stra	-9185
▁গাড়ির	-9186
▁শতাব্দীর	-9187
জো	-9188
▁model	-9189
▁forget	-9190
▁শনাক্ত	-9191
▁sacrif	-9192
▁assembly	-9193
inite	-9194
সমূহের	-9195
▁BS	-9196
▁উপদেশ	-9197
লেও	-9198
face	-9199
uesday	-9200
▁aspect	-9201
টাকে	-9202
▁bill	-9203
But	-9204
▁Bangla	-9205
anga	-9206
▁তোমাদেরকে	-9207
▁ঘনিষ্ঠ	-9208
▁মন্ত্রণালয়	-9209
▁মনোনীত	-9210
▁প্রবন্ধ	-9211
বিন্দ	-9212
▁Thank	-9213
▁track	-9214
▁operations	-9215
ভাস	-9216
▁যুক্তরা	-9217
▁Special	-9218
▁Madhya	-9219
▁বিরোধিতা	-9220
▁ইক	-9221
▁Min	-9222
▁আর্ম	-9223
▁স্কুলের	-9224
don	-9225
▁surprised	-9226
▁constitution	-9227
▁দম্প	-9228
▁Ur	-9229
▁ফেসবু	-9230
ডন	-9231
▁2:	-9232
▁becoming	-9233
▁Instagram	-9234
▁particularly	-9235
▁dram	-9236
▁সম্ভাব্য	-9237
▁Hist	-9238
াকালীন	-9239
য়ং	-9240
রাসি	-9241
▁স্বে	-9242
▁thousand	-9243
শাসিত	-9244
▁আগ্রহী	-9245
▁ঔ	-9246
বর্তন	-9247
▁Famil	-9248
▁আব্দুল	-9249
▁scored	-9250
▁Fa	-9251
▁status	-9252
!"	-9253
▁log	-9254
▁frequ	-9255
▁inaugur	-9256
▁অংশীদার	-9257
▁কর্মীরা	-9258
▁তুলনা	-9259
▁রাশিয়ার	-9260
▁তৈরির	-9261
▁deployed	-9262
▁suggest	-9263
▁যত্ন	-9264
▁এমনটাই	-9265
▁Gold	-9266
▁helps	-9267
▁ঘণ	-9268
▁ডু	-9269
▁রসূল	-9270
▁treated	-9271
▁systems	-9272
va	-9273
▁জানার	-9274
▁সকলে	-9275
▁মর্গে	-9276
পো	-9277
▁powerful	-9278
▁billion	-9279
▁individuals	-9280
▁সংগঠনের	-9281
do	-9282
▁stories	-9283
aks	-9284
▁ইস্যু	-9285
▁শুক্র	-9286
▁সিক	-9287
▁প্রতিমন্ত্রী	-9288
তারা	-9289
inder	-9290
▁equal	-9291
▁বিস্তৃত	-9292
▁কারাগারে	-9293
▁pros	-9294
েপ	-9295
▁2015	-9296
▁বৃষ্টির	-9297
▁শহী	-9298
▁এসময়	-9299
▁অনন্ত	-9300
▁showed	-9301
▁scene	-9302
টারি	-9303
▁ব্যবস্থাপনা	-9304
ায়ণ	-9305
▁তহবিল	-9306
▁প্রতিশ্রুতি	-9307
agers	-9308
▁যোগ্যতা	-9309
▁specific	-9310
▁adj	-9311
▁ক্রে	-9312
▁বেন	-9313
▁ঢাকার	-9314
▁proud	-9315
],	-9316
▁loving	-9317
▁2,	-9318
▁মাইক্র	-9319
▁shooting	-9320
▁Corporation	-9321
▁difference	-9322
▁গোষ্ঠী	-9323
▁fighting	-9324
প্রা	-9325
▁heaven	-9326
▁(@	-9327
▁হিন্দি	-9328
▁গ্লোব	-9329
▁granted	-9330
nai	-9331
▁introduced	-9332
▁উপাসনা	-9333
▁laug	-9334
▁Agricult	-9335
ression	-9336
▁Commun	-9337
When	-9338
▁receiving	-9339
মাস	-9340
▁চুল	-9341
▁বিজেপ	-9342
পুস্তক	-9343
▁পড়াশোনা	-9344
▁bats	-9345
▁Social	-9346
▁নাগরিকদের	-9347
off	-9348
▁guard	-9349
▁independence	-9350
▁gradu	-9351
▁weeks	-9352
কেন্দ্র	-9353
▁obtain	-9354
▁ঘরের	-9355
▁preaching	-9356
▁commercial	-9357
▁সিপি	-9358
derabad	-9359
▁অনেকের	-9360
▁verdict	-9361
▁Sah	-9362
▁gather	-9363
▁nearly	-9364
▁Tuesday	-9365
▁প্রত্যক্ষ	-9366
▁মন্ত্রণালয়ের	-9367
ST	-9368
iq	-9369
▁ministers	-9370
nam	-9371
▁fif	-9372
▁approved	-9373
▁Wednesday	-9374
▁extra	-9375
▁শাহরুখ	-9376
▁although	-9377
▁influence	-9378
▁novel	-9379
াউন্ড	-9380
▁এক্ষ	-9381
▁যিহোবাকে	-9382
▁ছাত্রছাত্রী	-9383
▁এসেছি	-9384
▁বলেছি	-9385
▁ঘটনাস্থল	-9386
িকর	-9387
▁platform	-9388
▁Post	-9389
▁আমরাও	-9390
▁রাখুন	-9391
▁manner	-9392
▁ভূমিকায়	-9393
▁constituency	-9394
▁rescue	-9395
▁সমিত	-9396
অধ	-9397
পাশে	-9398
anged	-9399
▁রিস	-9400
▁নিয়েছিলেন	-9401
▁favour	-9402
ulate	-9403
▁নেতারা	-9404
▁4:	-9405
▁learning	-9406
▁Ob	-9407
▁journalist	-9408
▁vice	-9409
▁এটাকে	-9410
▁অবত	-9411
▁আপাতত	-9412
▁feeling	-9413
ander	-9414
ultan	-9415
▁protesters	-9416
ores	-9417
শ্রে	-9418
▁elder	-9419
apore	-9420
icted	-9421
▁চিক	-9422
▁সের	-9423
ৃতা	-9424
isha	-9425
ema	-9426
▁যির	-9427
▁strike	-9428
▁কবি	-9429
▁যেত	-9430
aired	-9431
▁lose	-9432
▁spoken	-9433
ভেল	-9434
▁হাইকোর্	-9435
▁ইন্দোনেশ	-9436
মাল	-9437
▁সরকারী	-9438
▁pione	-9439
▁রাশিয়া	-9440
▁sports	-9441
▁বুধ	-9442
▁Engine	-9443
▁employees	-9444
▁আসাম	-9445
verbs	-9446
▁কলকাতার	-9447
▁শোনা	-9448
▁গোয়েন	-9449
istics	-9450
▁worried	-9451
▁hop	-9452
▁চক্র	-9453
২৮	-9454
েরও	-9455
ব্যের	-9456
▁এরপরই	-9457
▁পরিমাণে	-9458
▁২০০১	-9459
▁স্থগ	-9460
▁দেখেছি	-9461
rin	-9462
▁জলের	-9463
gency	-9464
▁বন্য	-9465
▁govern	-9466
BC	-9467
▁comfort	-9468
ম্বে	-9469
▁Abu	-9470
▁সাহায্যে	-9471
▁ওয়েবসাইট	-9472
▁দেখেন	-9473
▁divided	-9474
ela	-9475
▁ঠাক	-9476
।'	-9477
lin	-9478
িলি	-9479
▁Please	-9480
▁waiting	-9481
’-	-9482
▁Calcutta	-9483
▁division	-9484
▁ডঃ	-9485
▁hurt	-9486
▁চলতি	-9487
▁নারীর	-9488
য়াবহ	-9489
র্ঘ	-9490
ura	-9491
▁creation	-9492
▁উৎসাহিত	-9493
▁ইঞ্জিনিয়ার	-9494
▁পরিস্থিতিতে	-9495
িবদ্ধ	-9496
▁বীর	-9497
▁pand	-9498
▁Somet	-9499
▁Hyderabad	-9500
▁cold	-9501
▁Psalm	-9502
▁ব্রিট	-9503
স্পতি	-9504
▁promise	-9505
▁সেটার	-9506
▁আমির	-9507
▁থেকেও	-9508
▁সাবধান	-9509
▁Rom	-9510
▁আশ্বাস	-9511
▁becomes	-9512
▁internet	-9513
ctive	-9514
urance	-9515
▁Mas	-9516
উদ্দিন	-9517
stances	-9518
▁journey	-9519
▁৬০	-9520
্রেড	-9521
ilater	-9522
▁ছেলেমে	-9523
চাই	-9524
িকো	-9525
টায়	-9526
▁পিছিয়ে	-9527
▁disciples	-9528
এটি	-9529
▁পার্ক	-9530
▁file	-9531
▁ভুগ	-9532
▁ভূমিকম্প	-9533
দূত	-9534
▁opportunities	-9535
eum	-9536
ভেন	-9537
সির	-9538
grat	-9539
▁ক্ষয়	-9540
▁মিছিল	-9541
▁organised	-9542
▁ক্যাপ	-9543
▁চীনা	-9544
▁মাদক	-9545
ervation	-9546
▁cancel	-9547
▁প্রমুখ	-9548
▁Dis	-9549
▁খারিজ	-9550
▁Bas	-9551
▁phil	-9552
▁31	-9553
uclear	-9554
▁opposite	-9555
মিন	-9556
▁বাঙ	-9557
▁কর্তৃপক্ষের	-9558
▁Year	-9559
olic	-9560
▁animals	-9561
ogle	-9562
▁calls	-9563
▁murd	-9564
▁Bharat	-9565
▁standing	-9566
lex	-9567
▁consist	-9568
▁confidence	-9569
▁অপার	-9570
্ফ	-9571
ীক্ষা	-9572
▁Indones	-9573
▁Governor	-9574
ুরা	-9575
▁Var	-9576
▁Priy	-9577
erous	-9578
▁Syria	-9579
▁উদাহরণস্বরূপ	-9580
ায়িত	-9581
▁চালায়	-9582
কির	-9583
বিন	-9584
▁মাহমুদ	-9585
স্থানের	-9586
▁ourselves	-9587
▁ign	-9588
▁Cr	-9589
▁middle	-9590
▁সোমবার	-9591
▁ইউনিভার্স	-9592
▁নির্বাহী	-9593
জ্জ্বল	-9594
▁manufact	-9595
▁unit	-9596
▁ঝড়	-9597
adh	-9598
▁Time	-9599
▁জড়িয়ে	-9600
▁যুক্তরাষ্ট্রে	-9601
▁(""	-9602
▁buy	-9603
▁hospitals	-9604
▁organisation	-9605
▁সৌর	-9606
▁rock	-9607
▁plans	-9608
▁agreement	-9609
ুতে	-9610
▁Ham	-9611
raham	-9612
▁জিয়া	-9613
▁ধৈ	-9614
▁ভয়াবহ	-9615
For	-9616
▁Cur	-9617
▁29	-9618
▁ge	-9619
▁গিয়েছেন	-9620
mon	-9621
velation	-9622
▁assistance	-9623
শনের	-9624
▁গীতসংহিতা	-9625
▁property	-9626
▁বিশ্ববিদ্যালয়ে	-9627
িপূর্ণ	-9628
▁পূর্বা	-9629
▁Ste	-9630
াতাড়ি	-9631
▁দুর্নীতি	-9632
▁UK	-9633
▁দৃষ্টান্ত	-9634
▁পাকিস্তানে	-9635
▁Invest	-9636
▁প্রতিবেদ	-9637
▁presented	-9638
▁Bet	-9639
▁অধিবেশ	-9640
▁খালে	-9641
▁union	-9642
োদিত	-9643
▁eventually	-9644
দিক	-9645
বস্তু	-9646
▁থানা	-9647
ato	-9648
▁বর্ধ	-9649
িস্তান	-9650
gent	-9651
▁removed	-9652
▁duty	-9653
▁provides	-9654
▁der	-9655
▁আইএস	-9656
▁সন্ধ	-9657
বৃ	-9658
erjee	-9659
load	-9660
▁অধ্যক্ষ	-9661
▁প্রতিফল	-9662
▁counsel	-9663
হি	-9664
▁উড়	-9665
▁অতিথি	-9666
▁Pra	-9667
How	-9668
eless	-9669
▁বন্দর	-9670
▁স্থির	-9671
▁aw	-9672
▁ঘন্ট	-9673
▁noted	-9674
▁affect	-9675
▁1:	-9676
▁ফেডার	-9677
ক্ষণের	-9678
vert	-9679
▁মনোনয়ন	-9680
িষ	-9681
▁table	-9682
▁Eastern	-9683
▁Bus	-9684
▁Park	-9685
▁ব্যাটসম্যান	-9686
াণিত	-9687
▁কখনোই	-9688
▁round	-9689
▁লিমি	-9690
▁Corinthians	-9691
▁মিলে	-9692
ground	-9693
asure	-9694
▁eth	-9695
▁screen	-9696
uls	-9697
িলেন	-9698
▁পেট্র	-9699
Sh	-9700
▁Earth	-9701
▁মিলিয়ে	-9702
▁computer	-9703
▁কৃষক	-9704
▁মায়	-9705
anced	-9706
▁agency	-9707
▁শাসক	-9708
▁Bach	-9709
▁Chandra	-9710
াঙ্গ	-9711
▁imag	-9712
▁thou	-9713
▁surr	-9714
▁উপায়ে	-9715
▁মুম্বাই	-9716
আল	-9717
hered	-9718
▁ফেরত	-9719
▁belief	-9720
▁tradition	-9721
▁তাহার	-9722
▁perfect	-9723
coming	-9724
uff	-9725
▁শিশুর	-9726
▁ইব্রীয়	-9727
বর্ধ	-9728
থার	-9729
কিন্তু	-9730
▁পর্যালো	-9731
▁traditional	-9732
পেক্ষ	-9733
▁dispute	-9734
awan	-9735
▁ইয়া	-9736
▁tree	-9737
▁পাকিস্তানি	-9738
▁কর্মসং	-9739
ador	-9740
▁subsequently	-9741
▁warm	-9742
▁lands	-9743
▁বিকাশ	-9744
urb	-9745
▁announcement	-9746
▁multip	-9747
▁Still	-9748
iger	-9749
▁3:1	-9750
▁যাদব	-9751
অন	-9752
▁despite	-9753
গরের	-9754
▁univers	-9755
▁সুপারিশ	-9756
▁Service	-9757
▁অবৈ	-9758
▁থাকায়	-9759
▁ধারাবাহিক	-9760
▁opening	-9761
▁comments	-9762
▁document	-9763
▁Any	-9764
▁হতাশ	-9765
▁চাইতে	-9766
lying	-9767
▁কৌ	-9768
reet	-9769
venue	-9770
বার্ট	-9771
▁Global	-9772
▁রোমীয়	-9773
eph	-9774
▁nar	-9775
▁স্বাধীনতার	-9776
▁tear	-9777
জ্ঞানিক	-9778
▁একত্র	-9779
▁দুজনের	-9780
▁Jam	-9781
▁initiative	-9782
endent	-9783
▁demonstr	-9784
▁ruling	-9785
▁পরিবর্তনের	-9786
▁ব্যক্তিরা	-9787
প্তি	-9788
▁পরিপূর্ণ	-9789
▁বিমানবন্দ	-9790
▁কয়	-9791
▁wealth	-9792
yan	-9793
ima	-9794
▁তারাই	-9795
och	-9796
হাই	-9797
▁Dar	-9798
▁hasnt	-9799
্সি	-9800
▁Tal	-9801
▁উপদে	-9802
NA	-9803
▁লঙ্ঘ	-9804
▁এসেছিলেন	-9805
▁সেদিন	-9806
▁মোতায়	-9807
▁competition	-9808
গাঁ	-9809
িশা	-9810
ক্ষার	-9811
▁অনেকটা	-9812
▁হত্যাকা	-9813
▁২০০৭	-9814
▁মারাত্মক	-9815
▁পরিসং	-9816
▁জনসংখ্যার	-9817
▁Alam	-9818
▁categ	-9819
pper	-9820
▁দেননি	-9821
▁Family	-9822
▁cricketer	-9823
▁Kab	-9824
ster	-9825
▁চুপ	-9826
▁রয়	-9827
▁awarded	-9828
শালী	-9829
▁কলেজে	-9830
bal	-9831
▁Mary	-9832
▁মুক্তির	-9833
গন	-9834
▁rob	-9835
▁আন্তরিক	-9836
▁রবি	-9837
▁providing	-9838
▁bat	-9839
▁bey	-9840
▁3:	-9841
▁ফাইনালে	-9842
▁Hebrew	-9843
:-	-9844
▁ধৃত	-9845
▁ভবিষ্যতে	-9846
▁lie	-9847
▁debate	-9848
▁ধাক্কা	-9849
rary	-9850
বাংলা	-9851
▁Tom	-9852
▁যানবাহ	-9853
ifest	-9854
▁খব	-9855
under	-9856
▁প্রত্যাহার	-9857
aste	-9858
ping	-9859
▁সংসদে	-9860
▁Information	-9861
▁60	-9862
▁কথাও	-9863
▁directly	-9864
▁produce	-9865
▁রোজ	-9866
▁Malays	-9867
▁smart	-9868
▁touch	-9869
▁সিঙ্গ	-9870
▁Chennai	-9871
▁ভ্র	-9872
▁ceremony	-9873
hra	-9874
▁flag	-9875
▁বৃহস্পতি	-9876
aza	-9877
▁ব্যবসায়ী	-9878
আন	-9879
ayan	-9880
▁limited	-9881
▁claims	-9882
▁মহামার	-9883
▁কপ	-9884
▁coach	-9885
endment	-9886
▁pack	-9887
▁রোমান	-9888
▁কেন্দ্রে	-9889
▁Sin	-9890
্নাই	-9891
▁প্লা	-9892
▁গভর্ন	-9893
▁moving	-9894
▁northern	-9895
▁employment	-9896
▁sought	-9897
”।	-9898
▁trains	-9899
▁Indians	-9900
▁Oh	-9901
▁pandemic	-9902
ilateral	-9903
▁বাঁধ	-9904
▁পলাত	-9905
▁পড়ছে	-9906
▁তাড়াতাড়ি	-9907
▁আসনে	-9908
▁চামচ	-9909
▁Main	-9910
▁দেখান	-9911
▁ভিতরে	-9912
▁Airport	-9913
▁survived	-9914
▁নির্মাণের	-9915
▁Naw	-9916
▁territory	-9917
▁জাল	-9918
▁দীর্ঘদিন	-9919
িডি	-9920
▁লক্ষণ	-9921
ৃত্ব	-9922
বেদনা	-9923
▁নাও	-9924
▁ফরাসি	-9925
গড়	-9926
rees	-9927
DP	-9928
▁infrastructure	-9929
▁বিপরীতে	-9930
▁terrorism	-9931
▁তুর	-9932
পথে	-9933
▁Zia	-9934
▁accounts	-9935
▁ফুটে	-9936
▁beyond	-9937
▁Part	-9938
▁তাকিয়ে	-9939
amin	-9940
rack	-9941
▁Krish	-9942
▁আত্মা	-9943
▁congrat	-9944
inals	-9945
▁স্বেচ্ছ	-9946
▁কর্মকর্তারা	-9947
▁kingdom	-9948
▁casual	-9949
▁kid	-9950
espite	-9951
▁অভিষেক	-9952
▁৩৫	-9953
▁একদম	-9954
▁পাচ্ছে	-9955
পোর্ট	-9956
▁hair	-9957
▁হয়েছি	-9958
▁গাঁ	-9959
▁educational	-9960
▁কোর্টের	-9961
▁identity	-9962
▁গবেষ	-9963
▁পদের	-9964
▁ছেলের	-9965
▁Society	-9966
▁শনি	-9967
▁Na	-9968
▁পাবল	-9969
▁Civil	-9970
▁urban	-9971
ength	-9972
▁সঙ্ক	-9973
বাহিনীর	-9974
▁মূল্যবান	-9975
ান্ট	-9976
ভুত	-9977
▁ঢুক	-9978
elled	-9979
বাড়ি	-9980
▁effective	-9981
▁content	-9982
▁healthy	-9983
▁vs	-9984
▁extended	-9985
▁আন্দোলনের	-9986
▁ছাপ	-9987
▁ইন্টারন	-9988
▁Muj	-9989
▁sky	-9990
▁খুঁজ	-9991
▁প্রদানের	-9992
▁পালনকর্তা	-9993
▁রণবীর	-9994
▁abroad	-9995
▁তোলে	-9996
▁Inter	-9997
ষ্প	-9998
itable	-9999
▁Count	-10000
▁Head	-10001
▁veget	-10002
▁আনন্দিত	-10003
্নার	-10004
▁brief	-10005
ington	-10006
ilty	-10007
▁2011	-10008
▁ধরেই	-10009
▁baby	-10010
▁এন্ড	-10011
যন্ত্র	-10012
▁pie	-10013
ga	-10014
চার্য	-10015
ME	-10016
bir	-10017
▁bapt	-10018
▁ভারতকে	-10019
▁aircraft	-10020
▁অভ্যন্তরীণ	-10021
▁গুগ	-10022
▁Google	-10023
য়াম	-10024
ামীণ	-10025
েত্র	-10026
▁নাস	-10027
heast	-10028
On	-10029
▁প্রসার	-10030
▁পেলে	-10031
▁আইনি	-10032
থিয়	-10033
▁আগেও	-10034
▁forced	-10035
▁forms	-10036
▁resources	-10037
▁ডাকা	-10038
র্মে	-10039
▁খালি	-10040
িলে	-10041
▁Dut	-10042
▁আকা	-10043
arian	-10044
▁Western	-10045
She	-10046
▁তোর	-10047
▁activity	-10048
▁অনুপ্রাণিত	-10049
মথি	-10050
▁খোল	-10051
পুরুষ	-10052
বিশ্ব	-10053
▁affairs	-10054
▁Get	-10055
▁Lang	-10056
▁Emp	-10057
▁willing	-10058
▁3.	-10059
▁জোগ	-10060
▁সংশোধন	-10061
?'	-10062
aved	-10063
▁2016	-10064
র্নাম	-10065
ক্রমে	-10066
▁goods	-10067
▁মতামত	-10068
▁রাষ্ট্রীয়	-10069
▁মধ	-10070
ফারেন্স	-10071
▁Yadav	-10072
▁Ye	-10073
্মান	-10074
▁argu	-10075
বার্তা	-10076
▁prem	-10077
▁wisdom	-10078
াপুর	-10079
▁পানির	-10080
▁সান্ত	-10081
▁fruit	-10082
▁জলবায়	-10083
▁বুধবার	-10084
othy	-10085
▁Val	-10086
▁পলাতক	-10087
▁professional	-10088
▁বেতন	-10089
▁polls	-10090
▁দেয়ার	-10091
যদি	-10092
ধরনের	-10093
▁জর্জ	-10094
▁Lat	-10095
▁Know	-10096
▁Rukh	-10097
▁rivers	-10098
▁permission	-10099
▁সামগ্রী	-10100
▁Japanese	-10101
▁rally	-10102
াইজ	-10103
াদা	-10104
▁কাটিয়ে	-10105
▁communication	-10106
খিত	-10107
hand	-10108
▁এটির	-10109
▁আলোক	-10110
▁domestic	-10111
enant	-10112
▁correct	-10113
▁Tk	-10114
▁villages	-10115
▁understanding	-10116
খর	-10117
▁মনের	-10118
▁worry	-10119
min	-10120
HE	-10121
▁pil	-10122
▁পর্যায়ের	-10123
▁অবি	-10124
চ্চার	-10125
র্নামেন্ট	-10126
▁regularly	-10127
oper	-10128
▁Qur	-10129
▁park	-10130
▁chair	-10131
▁বিদেশি	-10132
িথ	-10133
▁Roman	-10134
▁supported	-10135
▁দিচ্ছেন	-10136
▁banks	-10137
▁অনুপ	-10138
▁roles	-10139
▁ভবিষ্যদ্ব	-10140
iced	-10141
▁Vij	-10142
▁আনার	-10143
▁newspaper	-10144
▁Banerjee	-10145
▁urged	-10146
▁অবরোধ	-10147
▁উত্থ	-10148
▁শুরুর	-10149
ুনে	-10150
▁দুর্দ	-10151
▁শতকের	-10152
▁Nath	-10153
পন্থ	-10154
anish	-10155
▁Mand	-10156
▁ক্রিকেটে	-10157
সেন্স	-10158
▁amb	-10159
▁পোষণ	-10160
oured	-10161
▁সম্প্রচার	-10162
law	-10163
▁budget	-10164
▁firing	-10165
▁কলেজের	-10166
চ্ছু	-10167
▁প্রজাত	-10168
▁leaving	-10169
▁শিল	-10170
▁অর্থমন্ত্রী	-10171
▁legisl	-10172
hemical	-10173
▁হাসিনা	-10174
▁undergoing	-10175
িজে	-10176
▁decisions	-10177
▁আনে	-10178
ষ্টার	-10179
▁জাপান	-10180
▁absc	-10181
vention	-10182
▁কলকাতায়	-10183
▁লো	-10184
▁উপহার	-10185
▁ডেভিড	-10186
▁কয়েকদিন	-10187
▁সিস	-10188
▁আরোপ	-10189
phas	-10190
য়ায়	-10191
▁2013	-10192
▁বাসিন্দা	-10193
edding	-10194
▁activists	-10195
▁জওয়ান	-10196
ফ্র	-10197
▁কূ	-10198
▁Gal	-10199
▁পড়বে	-10200
▁আবহাওয়া	-10201
▁Das	-10202
▁capacity	-10203
rison	-10204
▁alive	-10205
▁dismiss	-10206
▁conflict	-10207
▁পাট	-10208
▁appl	-10209
▁কিমি	-10210
▁লম্বা	-10211
▁invited	-10212
▁approach	-10213
▁দিলে	-10214
bre	-10215
▁Priyanka	-10216
▁bound	-10217
▁সদস্যের	-10218
▁আহমদ	-10219
▁আলোকে	-10220
বিষয়	-10221
▁অবৈধ	-10222
▁proceed	-10223
▁কুর	-10224
▁route	-10225
▁মোকাবিল	-10226
▁৩২	-10227
▁hom	-10228
▁মিশর	-10229
▁contest	-10230
▁প্রমাণিত	-10231
▁বাড়তে	-10232
▁ইংল্যান্ডের	-10233
▁Canada	-10234
▁রহস্য	-10235
জল	-10236
▁পরিচর্যা	-10237
▁counter	-10238
ষ্কৃত	-10239
▁Cult	-10240
▁রাজনীতিবিদ	-10241
▁গুজরা	-10242
▁Philipp	-10243
▁দক্ষিণে	-10244
▁পুলিশে	-10245
▁prin	-10246
▁ইন্ডিজ	-10247
▁সমবেদনা	-10248
hara	-10249
▁remaining	-10250
▁চারজন	-10251
▁mercy	-10252
▁conclud	-10253
▁essential	-10254
▁Nadu	-10255
▁বার্ত	-10256
▁সোস	-10257
▁negative	-10258
র্কের	-10259
▁bird	-10260
▁শিক্ষার্থীদের	-10261
▁জ্যো	-10262
▁Bur	-10263
▁স্ক্র	-10264
ষ্ম	-10265
▁স্মার্ট	-10266
লোক	-10267
▁nine	-10268
▁accompan	-10269
ora	-10270
▁cancer	-10271
▁ঢাকায়	-10272
▁eye	-10273
▁literacy	-10274
▁টুর্নামেন্ট	-10275
প্তর	-10276
ব্যা	-10277
▁স্বল্প	-10278
▁মোতায়েন	-10279
▁protection	-10280
▁সেন্টার	-10281
▁ইউনিয়নের	-10282
CCI	-10283
▁kids	-10284
▁প্রতিবাদে	-10285
▁সিরিজের	-10286
▁স্বয়ং	-10287
▁squad	-10288
▁electricity	-10289
চ্ছন্ন	-10290
▁wicket	-10291
▁Av	-10292
▁সঙ্গেই	-10293
▁chap	-10294
▁জাপানের	-10295
বেলা	-10296
▁Shak	-10297
▁guilty	-10298
▁মালয়ে	-10299
▁বিধায়ক	-10300
োরা	-10301
▁ধৈর্য	-10302
▁investment	-10303
ux	-10304
▁dro	-10305
▁হননি	-10306
▁studied	-10307
▁goals	-10308
▁চিনি	-10309
▁Ghosh	-10310
▁followers	-10311
ih	-10312
▁Ka	-10313
char	-10314
▁দেখছে	-10315
পাশের	-10316
▁উদ্বেগ	-10317
▁judic	-10318
▁philos	-10319
▁প্রহ	-10320
▁festival	-10321
▁promised	-10322
▁বৃহস্পতিবার	-10323
▁Prop	-10324
▁Sure	-10325
0)	-10326
▁মেশ	-10327
▁স্বচ্ছ	-10328
▁submitted	-10329
▁বিশেষভাবে	-10330
য়দ	-10331
▁Out	-10332
▁astr	-10333
▁পিতার	-10334
▁Che	-10335
িশাইয়	-10336
▁Before	-10337
▁0.	-10338
II	-10339
চালক	-10340
▁Yog	-10341
▁custom	-10342
▁বদল	-10343
▁benefits	-10344
▁Ministers	-10345
কুমার	-10346
▁deeds	-10347
▁overse	-10348
▁শুরুতে	-10349
▁appropri	-10350
▁motor	-10351
othom	-10352
▁মরদেহ	-10353
▁বাপ্ত	-10354
▁করছিলেন	-10355
▁ঘুর	-10356
কতা	-10357
▁চেন্নাই	-10358
▁western	-10359
▁গ্রামীণ	-10360
▁ঘোষণ	-10361
▁একদিন	-10362
▁script	-10363
▁theres	-10364
▁পরিসংখ্যান	-10365
▁bear	-10366
১৯৯	-10367
িবাস	-10368
▁নিখোঁ	-10369
▁mach	-10370
▁immediate	-10371
▁খাল	-10372
▁তখনও	-10373
▁Keep	-10374
▁carrying	-10375
▁মঙ্গলবার	-10376
ji	-10377
iment	-10378
▁Awards	-10379
▁চিকিৎসাধীন	-10380
▁গুলিতে	-10381
oting	-10382
,'	-10383
▁পারছেন	-10384
▁পর্যবেক্ষণ	-10385
aves	-10386
▁Democ	-10387
▁guidance	-10388
▁তীমথিয়	-10389
ফর্ম	-10390
▁Dil	-10391
▁পেন	-10392
গগির	-10393
▁headquarters	-10394
টাও	-10395
▁managed	-10396
ৃত্য	-10397
▁scheme	-10398
rated	-10399
▁দপ্তর	-10400
▁আউট	-10401
▁compl	-10402
▁জ্যাক	-10403
▁stations	-10404
ঘু	-10405
idden	-10406
▁..."	-10407
▁faced	-10408
▁paper	-10409
▁পদত্যাগ	-10410
াগ্রাম	-10411
▁wicked	-10412
বাবে	-10413
▁ঘটছে	-10414
▁কিন্ত	-10415
▁ইজ	-10416
▁শক্তির	-10417
বাজ	-10418
▁সমঝ	-10419
ঞ্জন	-10420
▁Though	-10421
mark	-10422
▁sort	-10423
▁বাসায়	-10424
▁অজ	-10425
▁troops	-10426
ohan	-10427
▁task	-10428
্ল্ড	-10429
্রাণ	-10430
ahi	-10431
▁trees	-10432
▁organiz	-10433
▁perhaps	-10434
ালয়	-10435
▁অপ্র	-10436
▁উপদেষ্টা	-10437
▁favor	-10438
▁সমাবেশ	-10439
▁শিক্ষার্থী	-10440
দায়ক	-10441
▁উপকূল	-10442
India	-10443
▁খ্রীষ্টান	-10444
লেট	-10445
▁স্টেট	-10446
ড়াও	-10447
edia	-10448
▁Alo	-10449
▁বরাবর	-10450
▁Timothy	-10451
▁সভ	-10452
▁পানীয়	-10453
▁happiness	-10454
▁African	-10455
▁ফা	-10456
▁এক্ষেত্রে	-10457
▁seeking	-10458
▁সেগুলি	-10459
▁৩৩	-10460
ahar	-10461
▁কুক	-10462
▁Times	-10463
▁ক্রমা	-10464
▁Opp	-10465
ওল	-10466
inger	-10467
▁Sen	-10468
itect	-10469
▁proposed	-10470
শির	-10471
tty	-10472
▁কর্মসূচির	-10473
▁বোর্ডের	-10474
▁শিখে	-10475
▁মৃতের	-10476
▁identify	-10477
▁অক্স	-10478
▁লজ্	-10479
▁Love	-10480
▁মাইল	-10481
AP	-10482
▁সাংবাদিকদের	-10483
▁ইউন	-10484
▁ইতো	-10485
▁ডেকে	-10486
▁branch	-10487
US	-10488
astic	-10489
▁বিজয়ী	-10490
▁diplom	-10491
▁actions	-10492
iar	-10493
▁Des	-10494
▁skin	-10495
▁wors	-10496
ামরিক	-10497
▁দেখছি	-10498
▁ধা	-10499
▁জেলে	-10500
9)	-10501
প্রেস	-10502
▁relief	-10503
▁examples	-10504
▁challenges	-10505
▁CM	-10506
▁meant	-10507
▁types	-10508
▁উদ্দিন	-10509
▁পুরনো	-10510
▁Nag	-10511
আরসি	-10512
▁nomin	-10513
▁Lad	-10514
▁opinion	-10515
▁বিবৃতিতে	-10516
টিউ	-10517
▁innings	-10518
▁ছু	-10519
▁(18	-10520
▁organisations	-10521
garh	-10522
ওয়াই	-10523
▁বিশ্বব্যাপী	-10524
▁ব্যবহারকারী	-10525
▁দলকে	-10526
▁ক্রিস	-10527
▁proved	-10528
▁পালনকর্তার	-10529
▁Ke	-10530
▁cru	-10531
▁explos	-10532
▁Mother	-10533
▁ধাপ	-10534
ED	-10535
▁Dhoni	-10536
▁শব্দটি	-10537
▁প্রতিযোগিতায়	-10538
▁Trin	-10539
▁বানিয়ে	-10540
▁feature	-10541
▁অহ	-10542
iverse	-10543
▁rising	-10544
▁লেখেন	-10545
▁দশকে	-10546
▁বৈধ	-10547
▁দর্শন	-10548
▁তাপমাত্রা	-10549
▁island	-10550
▁proposal	-10551
কাম	-10552
াদে	-10553
▁বলবেন	-10554
▁circumstances	-10555
▁Play	-10556
▁clos	-10557
▁suffer	-10558
▁inspired	-10559
বাদে	-10560
▁বারবার	-10561
▁note	-10562
▁পারত	-10563
▁শিগগির	-10564
▁exercise	-10565
▁potential	-10566
▁নির্বাচনী	-10567
▁নিকটবর্তী	-10568
oices	-10569
▁নির্যাত	-10570
▁bal	-10571
▁dwell	-10572
▁Railways	-10573
▁encourage	-10574
opsy	-10575
▁কাটা	-10576
▁প্রিয়া	-10577
▁বক্তৃতা	-10578
▁রিজ	-10579
▁Despite	-10580
▁audience	-10581
▁accompanied	-10582
▁পড়েছেন	-10583
▁Ib	-10584
▁Prothom	-10585
▁বয়সী	-10586
▁পর্যটন	-10587
▁province	-10588
▁ভিত্তিক	-10589
গ্ধ	-10590
▁২০০৬	-10591
২৬	-10592
▁ODI	-10593
▁Indies	-10594
attle	-10595
▁মেয়র	-10596
▁ক্যামের	-10597
▁Singapore	-10598
খিল	-10599
▁মুশ	-10600
▁Hel	-10601
▁ব্যাক	-10602
▁Mex	-10603
▁tom	-10604
▁শুক্রবার	-10605
▁base	-10606
▁গানের	-10607
স্থল	-10608
uit	-10609
সন্ত	-10610
▁ট্রাম্পের	-10611
▁version	-10612
▁ব্যতিক্রম	-10613
▁স্থগিত	-10614
▁ক্রমাগত	-10615
overy	-10616
▁প্রচণ্ড	-10617
▁চাও	-10618
▁truly	-10619
▁নেতাদের	-10620
-0	-10621
▁Ron	-10622
▁Foot	-10623
▁লেন	-10624
▁থাকত	-10625
olit	-10626
▁Was	-10627
▁illegal	-10628
▁আত্মার	-10629
▁স্টার	-10630
▁ইনস্টাগ্রাম	-10631
▁পেয়েছিলেন	-10632
itizen	-10633
ancy	-10634
▁পোল	-10635
▁সীমাবদ্ধ	-10636
▁তাঁহার	-10637
▁মাটিতে	-10638
▁exactly	-10639
▁Amb	-10640
▁sitting	-10641
▁বক্স	-10642
▁জামিন	-10643
ney	-10644
ষ্ক	-10645
onna	-10646
▁বিতরণ	-10647
▁মাত্রা	-10648
▁generally	-10649
▁relatives	-10650
বিরোধী	-10651
ashes	-10652
▁ইসরা	-10653
▁honor	-10654
uv	-10655
▁টুক	-10656
জেন্ট	-10657
▁ব্যাটিং	-10658
গরি	-10659
▁সহিংস	-10660
▁পাতা	-10661
▁fans	-10662
▁fort	-10663
nath	-10664
▁পায়নি	-10665
porary	-10666
▁constant	-10667
▁বনাম	-10668
▁ভাইয়ের	-10669
▁দো	-10670
▁শহীদ	-10671
▁southern	-10672
▁2017	-10673
▁অনলাইনে	-10674
ূপে	-10675
ান্তি	-10676
▁কণ্ঠ	-10677
▁policemen	-10678
▁BC	-10679
▁রাস্তার	-10680
▁Ill	-10681
▁mut	-10682
কারীর	-10683
▁টান	-10684
▁stone	-10685
▁Abraham	-10686
▁ইচ্ছ	-10687
▁বুদ্ধি	-10688
rough	-10689
▁দত্ত	-10690
▁ফেলতে	-10691
তাদের	-10692
▁কথাগুলো	-10693
▁৷	-10694
লাভ	-10695
▁থেমে	-10696
▁sick	-10697
▁user	-10698
▁শনিবার	-10699
▁পার্শ্ব	-10700
▁কর্ণা	-10701
▁এশিয়ার	-10702
▁ছাড়াই	-10703
▁exception	-10704
স্তে	-10705
▁ওখানে	-10706
▁keeping	-10707
▁বাংলায়	-10708
▁Bad	-10709
▁শরীরে	-10710
▁নিখোঁজ	-10711
▁wasn	-10712
▁temperature	-10713
জম	-10714
চাপ	-10715
▁হান	-10716
▁wise	-10717
▁performed	-10718
▁তিনিও	-10719
▁সাক্ষিদের	-10720
▁rice	-10721
▁অতিক্রম	-10722
▁ভিডিওটি	-10723
▁রেডিও	-10724
কাতে	-10725
▁wat	-10726
▁ব্যাংকের	-10727
দেশিক	-10728
▁বলিউডের	-10729
▁Sea	-10730
▁বুঝে	-10731
▁শিল্পী	-10732
▁Bachchan	-10733
ef	-10734
▁হিম	-10735
▁উদ্ভি	-10736
▁স্পর্শ	-10737
্টো	-10738
▁দ্বিপ	-10739
ামিন	-10740
▁অস্তিত্ব	-10741
▁বাসিন্দারা	-10742
▁ত্ব	-10743
▁blast	-10744
▁কোষ	-10745
▁সড়	-10746
minist	-10747
রক্ষ	-10748
নগর	-10749
ভাগ্য	-10750
▁সহ্য	-10751
▁greatest	-10752
▁band	-10753
▁unable	-10754
▁হালকা	-10755
▁cook	-10756
▁Upazila	-10757
▁তামিলনা	-10758
চুর	-10759
▁Each	-10760
▁Mald	-10761
▁courage	-10762
▁লাইসেন্স	-10763
▁Found	-10764
▁autopsy	-10765
▁সম্মুখীন	-10766
aryana	-10767
▁বিএনপি	-10768
▁নং	-10769
▁গণ্য	-10770
▁numerous	-10771
▁condol	-10772
▁cancelled	-10773
েস্ক	-10774
▁চ্যানেল	-10775
ON	-10776
গীত	-10777
▁মুর	-10778
▁Ver	-10779
▁জাদু	-10780
▁দেরি	-10781
▁প্যাট	-10782
▁4.	-10783
▁twice	-10784
▁মঞ্জ	-10785
▁Apart	-10786
▁criminal	-10787
▁6:	-10788
▁prophe	-10789
▁অসম্ভব	-10790
▁ঘাট	-10791
▁Open	-10792
▁resist	-10793
▁কৃতজ্ঞ	-10794
ni	-10795
িনিয়র	-10796
▁probably	-10797
▁spend	-10798
▁গৃহীত	-10799
▁colour	-10800
▁Adam	-10801
▁বিচারক	-10802
▁dial	-10803
▁কেবলমাত্র	-10804
▁সোভ	-10805
▁ability	-10806
▁struggle	-10807
pir	-10808
▁decide	-10809
urrection	-10810
▁rapid	-10811
▁পদক	-10812
▁assault	-10813
▁Syed	-10814
▁রম	-10815
স্ট্র	-10816
▁যীশুর	-10817
▁সর্বশেষ	-10818
▁হস্তক্ষেপ	-10819
ape	-10820
▁প্রকাশ্যে	-10821
▁সংসদের	-10822
▁principles	-10823
▁withdra	-10824
মো	-10825
বনের	-10826
▁Ter	-10827
য়েড	-10828
ণ্ডিত	-10829
▁অ্যাসোসিয়ে	-10830
▁gard	-10831
▁কল্পনা	-10832
etic	-10833
▁IC	-10834
▁ডির	-10835
▁বিচ	-10836
▁বিভ্রান্ত	-10837
MP	-10838
▁photos	-10839
asc	-10840
▁যোগদান	-10841
▁ট্যা	-10842
olute	-10843
oviet	-10844
▁Khaled	-10845
ola	-10846
াসহ	-10847
োর্স	-10848
▁centuries	-10849
▁Sha	-10850
▁সেতু	-10851
▁repeated	-10852
All	-10853
ফাজ	-10854
▁মাধ্যমিক	-10855
▁generation	-10856
ael	-10857
▁Games	-10858
▁selected	-10859
▁ইতিহাসের	-10860
▁migr	-10861
yal	-10862
▁Scriptures	-10863
দূর	-10864
▁trouble	-10865
▁Last	-10866
30	-10867
াইয়া	-10868
▁জয়ের	-10869
▁cultiv	-10870
▁weather	-10871
▁Arun	-10872
▁যাচ্ছিল	-10873
▁scheduled	-10874
▁চিঠ	-10875
▁saved	-10876
▁বাজেট	-10877
▁অগ্ন	-10878
▁অবন	-10879
▁ইন্স	-10880
▁clearly	-10881
▁jobs	-10882
▁theory	-10883
▁পেশাদার	-10884
রন	-10885
▁সাহস	-10886
SS	-10887
ুশ	-10888
▁বাড়বে	-10889
▁কিছুতেই	-10890
▁জনসাধারণ	-10891
ica	-10892
▁শুটিং	-10893
▁interested	-10894
▁লেগেছে	-10895
▁সমাধ	-10896
▁green	-10897
▁প্রতিষ্ঠাতা	-10898
ঘা	-10899
▁kil	-10900
▁অনুশীল	-10901
with	-10902
হত্য	-10903
▁anybody	-10904
▁approval	-10905
rep	-10906
▁levels	-10907
▁()	-10908
▁পরিত	-10909
▁compr	-10910
▁attitude	-10911
▁গোয়েন্দা	-10912
atre	-10913
▁Inc	-10914
▁সংঘর্ষে	-10915
ns	-10916
▁করছ	-10917
▁শাম	-10918
▁নান	-10919
▁মুহাম্মদ	-10920
বাক	-10921
▁Din	-10922
▁concept	-10923
AA	-10924
ua	-10925
▁Brah	-10926
oti	-10927
▁bomb	-10928
▁সৈয়দ	-10929
▁বয়স্ক	-10930
▁investigated	-10931
▁Mosque	-10932
▁estim	-10933
▁Which	-10934
▁জবাবে	-10935
সাথে	-10936
োরেশন	-10937
▁bra	-10938
▁শুক	-10939
▁Kat	-10940
▁কূটন	-10941
▁Sidd	-10942
▁ছুটে	-10943
▁রাজনীতির	-10944
ধারা	-10945
▁score	-10946
▁ভাবনা	-10947
▁winning	-10948
▁জাহান	-10949
▁altern	-10950
▁Haryana	-10951
▁স্ত্রীর	-10952
▁প্রত্যাশা	-10953
▁Langdon	-10954
lig	-10955
▁কাঁদ	-10956
▁পরিকা	-10957
▁৩৭	-10958
▁বর্গ	-10959
▁rains	-10960
▁planning	-10961
▁পাননি	-10962
্কে	-10963
▁shop	-10964
▁ভোটের	-10965
ader	-10966
▁জেম	-10967
▁এইসব	-10968
▁agricultural	-10969
▁বিবৃতি	-10970
▁বয়ে	-10971
▁মহম্মদ	-10972
▁ক্যান	-10973
াদশ	-10974
▁প্রতার	-10975
ext	-10976
▁broken	-10977
▁৭০	-10978
▁প্রাণী	-10979
▁reflect	-10980
িয়াক	-10981
▁ধর্ষণের	-10982
▁ঢুকে	-10983
▁যাঁরা	-10984
ভিন	-10985
▁tor	-10986
▁emphas	-10987
▁eastern	-10988
▁politician	-10989
তল	-10990
তিকর	-10991
▁deliver	-10992
▁ইতাল	-10993
▁গঠনের	-10994
▁পারছে	-10995
ertific	-10996
▁nuclear	-10997
▁মিলিত	-10998
▁32	-10999
▁পর্যাপ্ত	-11000
▁ক্রমশ	-11001
▁Others	-11002
▁easily	-11003
২৯	-11004
▁কর্তব্য	-11005
▁reportedly	-11006
▁fra	-11007
ournal	-11008
▁বইয়ের	-11009
▁Express	-11010
▁অভিযুক্তদের	-11011
ুগে	-11012
ার্থী	-11013
▁একথা	-11014
▁Actor	-11015
▁allegedly	-11016
▁3,	-11017
▁allegation	-11018
▁পাইনি	-11019
▁ascertain	-11020
িয়ো	-11021
▁রুশ	-11022
▁মহিলার	-11023
▁Abdullah	-11024
তোমরা	-11025
তুমি	-11026
▁advant	-11027
▁widely	-11028
▁পঞ্চায়ে	-11029
▁সন্তু	-11030
ডেন	-11031
▁Rab	-11032
▁কোম্পানির	-11033
▁সূর্য	-11034
▁উজ্জ্বল	-11035
ঙ্কে	-11036
▁জগতে	-11037
▁magazine	-11038
▁নকশা	-11039
▁defeated	-11040
▁পুনরুত	-11041
▁মতোই	-11042
▁institution	-11043
▁lic	-11044
স্পষ্ট	-11045
noon	-11046
▁Jon	-11047
▁ঘটেনি	-11048
▁হেফাজ	-11049
▁ইলেকট্র	-11050
▁Jews	-11051
▁কন্ট	-11052
▁privile	-11053
▁Whe	-11054
▁বুক	-11055
▁অবিল	-11056
▁নৈতিক	-11057
▁ব্যক্তিত্ব	-11058
jun	-11059
স্ম	-11060
▁টানা	-11061
▁রাজস্থান	-11062
▁সংবাদপত্র	-11063
▁বহি	-11064
▁illust	-11065
াসম	-11066
▁ঘটেছিল	-11067
ন্থা	-11068
▁basic	-11069
▁কৃষকদের	-11070
▁190	-11071
▁গির্	-11072
▁প্রজন্ম	-11073
▁Hall	-11074
হল	-11075
▁Mun	-11076
দ্ভুত	-11077
▁সেখানকার	-11078
▁structure	-11079
িসিআই	-11080
▁Further	-11081
▁underst	-11082
▁কাহিনী	-11083
▁আয়োজিত	-11084
কাজ	-11085
▁নথি	-11086
▁obey	-11087
▁রাষ্ট্রের	-11088
▁Club	-11089
ষম	-11090
▁vision	-11091
▁ইসলামী	-11092
▁wedding	-11093
চন্দ্র	-11094
▁সকলকে	-11095
▁নেবেন	-11096
ossible	-11097
▁Mamata	-11098
▁সদাপ্রভ	-11099
▁সাহায্যের	-11100
▁Er	-11101
▁multiple	-11102
▁mainly	-11103
▁fle	-11104
lers	-11105
▁council	-11106
No	-11107
▁Food	-11108
▁কবিতা	-11109
▁উঠল	-11110
▁কাফের	-11111
▁prophet	-11112
নির	-11113
▁জগৎ	-11114
▁বিধি	-11115
pector	-11116
▁thereafter	-11117
▁সোসাই	-11118
▁একজনের	-11119
▁worldwide	-11120
▁patient	-11121
▁advice	-11122
▁সিনিয়র	-11123
তুল	-11124
▁বেঁ	-11125
▁stood	-11126
▁interests	-11127
▁বচ্চ	-11128
▁appropriate	-11129
নাট	-11130
▁শরণ	-11131
▁militants	-11132
10	-11133
▁nearby	-11134
শিত	-11135
▁লিপ	-11136
▁মেক্স	-11137
▁পোর্ট	-11138
▁সন্ধান	-11139
▁মেয়েদের	-11140
▁demands	-11141
▁anywhere	-11142
▁Sil	-11143
Wh	-11144
vious	-11145
▁একইভাবে	-11146
▁Elect	-11147
▁ওয়ার্ল্ড	-11148
atiya	-11149
▁length	-11150
uj	-11151
ঘাট	-11152
িংয়ের	-11153
IA	-11154
▁municip	-11155
ula	-11156
▁cin	-11157
▁unf	-11158
▁provision	-11159
▁determined	-11160
▁লূক	-11161
▁relative	-11162
▁forever	-11163
iversary	-11164
▁Att	-11165
▁calling	-11166
গামী	-11167
▁দিয়া	-11168
▁মুমিন	-11169
▁Joseph	-11170
▁উইলিয়াম	-11171
uild	-11172
▁রেখেছেন	-11173
▁contains	-11174
▁initiated	-11175
aint	-11176
▁Very	-11177
াস্ত্র	-11178
▁toll	-11179
▁আলাপ	-11180
াক্রমে	-11181
▁সই	-11182
াব্দে	-11183
ida	-11184
ford	-11185
▁range	-11186
▁জনতা	-11187
▁center	-11188
▁পর্যালোচনা	-11189
ferred	-11190
য়ী	-11191
▁জীবিত	-11192
ামন্ত্রী	-11193
▁seeing	-11194
াকৃত	-11195
▁অবিলম্বে	-11196
াম্ম	-11197
▁করলেও	-11198
▁Power	-11199
rely	-11200
▁climate	-11201
▁জলবায়ু	-11202
▁জিম	-11203
▁হোট	-11204
azi	-11205
▁পক্ষের	-11206
▁গুঁ	-11207
▁সংগ্রাম	-11208
HO	-11209
ঙ্গার	-11210
ক্ষিপ্ত	-11211
▁বিশ্লেষণ	-11212
Al	-11213
▁জ্যোতি	-11214
hens	-11215
▁পরিত্র	-11216
ায়ন	-11217
▁size	-11218
▁শরীরের	-11219
St	-11220
▁কাগজ	-11221
▁লাগল	-11222
▁চলছিল	-11223
Bengal	-11224
▁annual	-11225
▁reduce	-11226
▁নামকরণ	-11227
▁বন্দ্য	-11228
aksh	-11229
▁সরল	-11230
▁অপরের	-11231
▁unknown	-11232
শিপ	-11233
▁weight	-11234
▁সমাপ্ত	-11235
▁দৃষ্টিভঙ্গি	-11236
▁শ্বাস	-11237
▁উপস্থাপ	-11238
ন্টি	-11239
▁নীত	-11240
▁Citizens	-11241
▁এখনই	-11242
▁অফিসে	-11243
▁উত্তরাধ	-11244
▁সুশান্ত	-11245
ench	-11246
▁সহজেই	-11247
▁অবলম্ব	-11248
▁Beg	-11249
▁careful	-11250
▁বাঙালি	-11251
▁fulfill	-11252
্বিত	-11253
▁angry	-11254
▁worse	-11255
▁প্রতিজ্ঞা	-11256
▁Od	-11257
▁ইল	-11258
gers	-11259
▁পশ্চিমে	-11260
▁ক্ষেত্রেও	-11261
াবল	-11262
২৭	-11263
▁bed	-11264
▁Bhatt	-11265
▁organized	-11266
কন	-11267
CTV	-11268
োগ্রা	-11269
ীয়দের	-11270
▁elders	-11271
BS	-11272
▁virt	-11273
▁minutes	-11274
▁aid	-11275
্যানিশ	-11276
▁অগ্রগতি	-11277
▁About	-11278
▁domin	-11279
▁anymore	-11280
▁স্থিত	-11281
emen	-11282
তানের	-11283
▁হব	-11284
▁Italy	-11285
▁Palest	-11286
▁পরিবারকে	-11287
▁কথাই	-11288
▁loyal	-11289
▁consequ	-11290
CP	-11291
উদ	-11292
raf	-11293
▁incidents	-11294
▁মুজিব	-11295
▁murdered	-11296
উর	-11297
র্কে	-11298
য়োজনে	-11299
অধিনায়ক	-11300
▁সেমি	-11301
▁flight	-11302
▁Iranian	-11303
cript	-11304
▁highly	-11305
▁terrorist	-11306
▁মন্ত্রিসভার	-11307
ips	-11308
▁Sang	-11309
▁Australian	-11310
▁ঠা	-11311
াবলি	-11312
▁involve	-11313
▁prepar	-11314
▁5:	-11315
▁Local	-11316
র্ধ্ব	-11317
▁অনুরূপ	-11318
▁CCTV	-11319
▁Youth	-11320
imb	-11321
▁Gar	-11322
▁ত্রিপ	-11323
▁দশকের	-11324
▁Soviet	-11325
▁70	-11326
▁সোভিয়েত	-11327
▁2012	-11328
▁প্রত্যেকে	-11329
aving	-11330
▁prayers	-11331
▁Bay	-11332
নিবেশ	-11333
▁আকার	-11334
▁কিছুর	-11335
য়াজ	-11336
▁deputy	-11337
▁থাকুন	-11338
মন্ত্রক	-11339
▁asking	-11340
▁দিয়েছিলাম	-11341
inate	-11342
▁younger	-11343
unk	-11344
▁agriculture	-11345
▁রুম	-11346
▁দপ্তরের	-11347
My	-11348
কেন	-11349
▁diss	-11350
▁Officer	-11351
▁Professor	-11352
ফুল	-11353
্সের	-11354
▁fired	-11355
দানি	-11356
▁আশ্চ	-11357
▁Messenger	-11358
▁পুরা	-11359
▁prove	-11360
▁ফায়ার	-11361
inct	-11362
▁digital	-11363
লোড	-11364
▁Maj	-11365
▁looks	-11366
▁বৈজ্ঞানিক	-11367
west	-11368
▁মর্যাদা	-11369
equ	-11370
,""""	-11371
▁limit	-11372
▁পড়ল	-11373
ius	-11374
▁পরিবারে	-11375
▁Administ	-11376
▁Job	-11377
atar	-11378
▁cry	-11379
▁রক্ষণ	-11380
▁গ্লোবাল	-11381
▁ব্যথা	-11382
▁পরিব	-11383
▁phase	-11384
▁জন্যও	-11385
▁সহায়ক	-11386
▁পেয়েছিল	-11387
keep	-11388
▁অর্থনীতির	-11389
▁প্রোট	-11390
চিৎ	-11391
▁উঁচ	-11392
adise	-11393
▁Prem	-11394
iveness	-11395
▁করানো	-11396
শস্ত্র	-11397
▁bridge	-11398
▁leaves	-11399
▁পাবলিক	-11400
▁Senior	-11401
▁mostly	-11402
▁টেস্টে	-11403
pta	-11404
anta	-11405
▁grad	-11406
▁বিশেষত	-11407
রাল	-11408
▁regions	-11409
▁বৃহৎ	-11410
▁স্তর	-11411
▁industrial	-11412
nic	-11413
ingu	-11414
▁prec	-11415
▁ইব্রাহ	-11416
elligence	-11417
▁association	-11418
▁Action	-11419
▁planned	-11420
▁উত্তরাধিকার	-11421
▁ঘৃ	-11422
গতভাবে	-11423
েশ্বর	-11424
▁5.	-11425
▁id	-11426
▁বিএস	-11427
▁Company	-11428
▁ইভ	-11429
▁জাতিসংঘের	-11430
▁Rajya	-11431
▁ভাবতে	-11432
▁ব্যান্ড	-11433
▁weapons	-11434
▁আনুষ্ঠানিক	-11435
▁সন্বন্ধে	-11436
▁writes	-11437
aq	-11438
ত্রী	-11439
▁Mich	-11440
▁older	-11441
▁streets	-11442
▁cash	-11443
▁assured	-11444
▁executive	-11445
্টেন	-11446
▁অরুণ	-11447
▁videos	-11448
▁ঝাড়	-11449
▁Deepika	-11450
▁boys	-11451
▁গ্রীষ্ম	-11452
▁আইসিসি	-11453
▁সালমান	-11454
▁পশ্চিমবঙ্গের	-11455
▁অভিজ্ঞ	-11456
▁উন্মুক্ত	-11457
▁ধরার	-11458
্বস্ত	-11459
▁causes	-11460
▁অভ্যাস	-11461
▁রান্না	-11462
▁কনফারেন্স	-11463
▁হেরে	-11464
▁regional	-11465
▁Additional	-11466
▁fat	-11467
fortun	-11468
▁measure	-11469
▁ক্ষেত্রের	-11470
▁নীচে	-11471
▁Real	-11472
▁mir	-11473
▁রাজস্ব	-11474
▁consult	-11475
▁imper	-11476
▁চালাচ্ছে	-11477
OR	-11478
▁acted	-11479
▁দুধ	-11480
▁ইয়ো	-11481
▁location	-11482
সেন	-11483
▁Station	-11484
▁৩৪	-11485
iant	-11486
▁Independ	-11487
▁Lim	-11488
▁ধান	-11489
▁সেগুলোর	-11490
ankar	-11491
ellow	-11492
▁founded	-11493
▁প্রজাতন্ত্র	-11494
▁accompl	-11495
▁উড়িয়ে	-11496
▁বটে	-11497
▁খ্যা	-11498
▁imprison	-11499
▁কোরিয়ার	-11500
▁শ্রীলঙ্কা	-11501
▁সবুজ	-11502
▁দৈনিক	-11503
▁নিত	-11504
▁ম্যাগ	-11505
▁strict	-11506
▁আকাঙ্	-11507
▁highway	-11508
▁complaints	-11509
▁holding	-11510
শান	-11511
▁IN	-11512
▁Tem	-11513
▁বৃত্ত	-11514
▁journalists	-11515
▁পাথর	-11516
▁administrative	-11517
▁আপত্তি	-11518
▁সুস্পষ্ট	-11519
▁সাক্ষর	-11520
▁uncle	-11521
▁Ins	-11522
▁dangerous	-11523
▁arms	-11524
▁gonna	-11525
▁Jah	-11526
▁পরেও	-11527
▁honour	-11528
▁আইপিএল	-11529
▁হাইকোর্ট	-11530
owing	-11531
জ্ঞাত	-11532
▁peoples	-11533
▁2010	-11534
▁designed	-11535
▁পরিদর্শন	-11536
▁FIR	-11537
▁ঐক্য	-11538
ero	-11539
▁angels	-11540
▁Lal	-11541
▁পাচ্ছেন	-11542
▁লাগিয়ে	-11543
রালো	-11544
াক্ষিক	-11545
▁লিমিটেড	-11546
▁সমস্যায়	-11547
SC	-11548
েশনে	-11549
▁রাতের	-11550
▁tal	-11551
enesis	-11552
▁Spanish	-11553
।""	-11554
▁১৯০	-11555
▁ন্যা	-11556
▁শিখতে	-11557
াদন	-11558
▁showing	-11559
▁Mount	-11560
his	-11561
িস্ম	-11562
▁CE	-11563
▁unique	-11564
▁সৌজন্য	-11565
▁৮০	-11566
কাশ্ম	-11567
▁বিগত	-11568
▁বিশ্রাম	-11569
mpt	-11570
rer	-11571
▁editor	-11572
▁লিগ	-11573
ঙ্গের	-11574
▁web	-11575
cial	-11576
▁অতীত	-11577
▁প্রকার	-11578
িগ্ন	-11579
▁Rev	-11580
▁চিকিত	-11581
▁Hindus	-11582
▁বন্ধুত্ব	-11583
▁ভিট	-11584
TI	-11585
▁ভুট	-11586
▁সুলতান	-11587
▁wild	-11588
pass	-11589
▁dedicated	-11590
▁ঈশ্বরকে	-11591
▁শেষের	-11592
▁রোগের	-11593
▁কয়েকটা	-11594
▁সমন্বয়	-11595
▁Football	-11596
▁documents	-11597
oom	-11598
▁Rash	-11599
asting	-11600
▁গভর্নর	-11601
▁sir	-11602
▁Sultan	-11603
▁পাচ্ছি	-11604
▁census	-11605
াণী	-11606
▁গিল	-11607
▁ডিম	-11608
▁amaz	-11609
▁possess	-11610
▁afternoon	-11611
্বার	-11612
▁বাড়ানো	-11613
▁covered	-11614
নির্দিষ্ট	-11615
ania	-11616
▁স্বামীর	-11617
মল	-11618
▁sugar	-11619
▁perman	-11620
▁নোট	-11621
▁observed	-11622
▁গণতান্ত্রিক	-11623
▁Bhut	-11624
▁dance	-11625
ুষ্য	-11626
orry	-11627
▁credit	-11628
ীড়	-11629
pping	-11630
▁লাঠি	-11631
▁সম্রা	-11632
▁communities	-11633
▁যুগ্ম	-11634
কল্প	-11635
▁খ্রিস্টীয়	-11636
▁কির	-11637
▁রঙের	-11638
জিও	-11639
▁feed	-11640
▁coal	-11641
▁পরিবহণ	-11642
alys	-11643
▁bag	-11644
▁ran	-11645
▁Chop	-11646
▁এটার	-11647
▁Creat	-11648
othes	-11649
▁invol	-11650
হন	-11651
▁ওঁর	-11652
▁standard	-11653
▁গার্ড	-11654
▁দুইটি	-11655
▁feelings	-11656
15	-11657
সমান	-11658
▁ইন্টারন্যাশনাল	-11659
▁radio	-11660
্টন	-11661
▁পাব	-11662
con	-11663
▁মোকাবিলায়	-11664
িসে	-11665
▁অচ	-11666
্যুই	-11667
▁shops	-11668
▁গাড়িতে	-11669
▁Sk	-11670
সঙ্গ	-11671
▁banned	-11672
▁বন্দুক	-11673
▁পরিবর্তিত	-11674
▁গৌর	-11675
▁composed	-11676
▁exchange	-11677
▁চেয়েছিলেন	-11678
▁Welfare	-11679
পুত	-11680
ঞ্জে	-11681
▁পঞ্চম	-11682
▁স্বর্ণ	-11683
▁একত্রিত	-11684
40	-11685
▁choice	-11686
▁controversy	-11687
▁পট	-11688
▁চলার	-11689
▁milk	-11690
▁শৌ	-11691
▁Meh	-11692
দৃশ্য	-11693
▁প্রায়শ	-11694
▁তরফ	-11695
▁সংকট	-11696
▁শুনানি	-11697
▁উঠছে	-11698
▁awards	-11699
▁Hon	-11700
▁আফগানিস্তান	-11701
achal	-11702
্রেট	-11703
▁বেলা	-11704
▁চাইলে	-11705
lisher	-11706
▁Luke	-11707
▁hour	-11708
▁অভিনয়ের	-11709
▁চুরি	-11710
▁হিতোপদেশ	-11711
▁বস্ত	-11712
▁নিয়েও	-11713
মুক্ত	-11714
ার্ধ	-11715
verse	-11716
▁Rang	-11717
▁দ্যা	-11718
▁দীপিকা	-11719
▁Six	-11720
▁উদ্বিগ্ন	-11721
▁isn	-11722
▁alliance	-11723
শত	-11724
▁ইউটিউ	-11725
▁philosop	-11726
▁sacrifice	-11727
▁ইবনে	-11728
charge	-11729
▁absconding	-11730
▁clash	-11731
ড়ানো	-11732
প্রধানমন্ত্রী	-11733
▁Polit	-11734
দুর	-11735
▁বাড়াতে	-11736
ষিত	-11737
টিই	-11738
▁চর্	-11739
মাধ্যমে	-11740
▁চিকিৎসকরা	-11741
▁সংক্ষিপ্ত	-11742
▁historical	-11743
▁ফো	-11744
িশীল	-11745
▁Ir	-11746
▁headed	-11747
▁কাশ্মীরের	-11748
শিল্পী	-11749
ibly	-11750
▁কাঁচ	-11751
▁orders	-11752
▁couldn	-11753
▁upd	-11754
▁micro	-11755
▁tests	-11756
▁সহজে	-11757
▁সাইট	-11758
▁internal	-11759
▁style	-11760
▁অধিকাংশই	-11761
▁scientific	-11762
RO	-11763
▁পরপর	-11764
▁Haque	-11765
▁বাচ্চা	-11766
▁করেছ	-11767
▁উপস্থাপন	-11768
ব্লিউ	-11769
লস	-11770
▁Ber	-11771
▁silent	-11772
▁ডিপ	-11773
▁ভাইস	-11774
▁Kamal	-11775
▁thee	-11776
▁behalf	-11777
▁Mc	-11778
▁আরেকটা	-11779
▁প্রজাতির	-11780
▁মল	-11781
বলী	-11782
▁টেম	-11783
▁দোষী	-11784
▁নিয়েছিল	-11785
▁চোট	-11786
▁ডেম	-11787
▁সেসব	-11788
▁চিনের	-11789
'।	-11790
▁ন্য	-11791
▁History	-11792
▁appoint	-11793
▁provisions	-11794
▁singer	-11795
▁implemented	-11796
▁যন্ত্রণ	-11797
▁professor	-11798
▁হাসি	-11799
▁raped	-11800
▁মহাসা	-11801
▁Lt	-11802
Bengali	-11803
▁awareness	-11804
▁ment	-11805
▁ইয়র্ক	-11806
▁fresh	-11807
▁lawyer	-11808
▁RA	-11809
ateful	-11810
ixt	-11811
▁সিনেমার	-11812
▁watching	-11813
▁Put	-11814
▁মুল	-11815
▁greet	-11816
▁দুষ্ট	-11817
▁টন	-11818
▁মৎস	-11819
▁নিক্ষ	-11820
▁আবেগ	-11821
▁proof	-11822
▁কোরিয়া	-11823
▁Malaysia	-11824
▁প্রবণ	-11825
▁বেঞ্চ	-11826
জ্জামান	-11827
▁addressed	-11828
▁Ann	-11829
▁cul	-11830
▁Acts	-11831
▁Trib	-11832
▁পুরুষদের	-11833
▁রাজশাহ	-11834
▁distance	-11835
▁Washington	-11836
▁Championship	-11837
▁Ret	-11838
▁ভোটে	-11839
িতাব	-11840
▁মৃ	-11841
▁promote	-11842
▁মহাসচিব	-11843
▁ভাড়া	-11844
▁যাচাই	-11845
▁তুরস্ক	-11846
osen	-11847
▁Empire	-11848
▁অভিহিত	-11849
▁মিয়ান	-11850
▁massive	-11851
▁escape	-11852
▁interrog	-11853
▁ভালোবাসা	-11854
েম্বরে	-11855
▁চার্জ	-11856
শুম	-11857
▁Mahmud	-11858
▁পেঁ	-11859
▁মারধর	-11860
cont	-11861
▁Navy	-11862
osphere	-11863
▁threatened	-11864
che	-11865
▁drive	-11866
▁বন্যা	-11867
▁citizen	-11868
▁helping	-11869
▁পড়েছিল	-11870
▁sustained	-11871
▁রাগ	-11872
▁চেয়েও	-11873
▁harass	-11874
▁appears	-11875
্যাড	-11876
▁করুক	-11877
চ্ছিলেন	-11878
▁Syl	-11879
▁রোব	-11880
▁lines	-11881
▁pron	-11882
▁Shahid	-11883
▁সহযোগী	-11884
▁thoughts	-11885
▁দ্বার	-11886
▁সময়ই	-11887
▁holds	-11888
▁Cy	-11889
▁Alex	-11890
▁busy	-11891
▁Spain	-11892
▁রাজনীতিতে	-11893
▁Ba	-11894
▁nom	-11895
▁এটিই	-11896
▁বিপরীত	-11897
▁nab	-11898
নির্বা	-11899
aken	-11900
▁Due	-11901
▁Middle	-11902
▁অদ্ভুত	-11903
য্য	-11904
মাতে	-11905
▁Kul	-11906
▁অঙ্গীকার	-11907
▁photograph	-11908
▁Agriculture	-11909
োরের	-11910
সেস	-11911
▁Authority	-11912
াইনের	-11913
▁এগুলি	-11914
▁architect	-11915
▁Major	-11916
▁panic	-11917
▁চুক্তির	-11918
বলের	-11919
েন্সি	-11920
▁laid	-11921
▁৩৬	-11922
▁warning	-11923
▁উত্তরা	-11924
▁drinking	-11925
▁tick	-11926
▁আনন্দের	-11927
▁শিল্পের	-11928
প্রথম	-11929
▁nice	-11930
ক্ক	-11931
এনএ	-11932
uters	-11933
▁পদ্ধতিতে	-11934
▁ফসল	-11935
▁ভবিষ্যদ্বাণী	-11936
আইআর	-11937
▁developing	-11938
▁delay	-11939
যান	-11940
▁Chh	-11941
verty	-11942
ounter	-11943
▁একজনকে	-11944
▁অর্থে	-11945
▁Isaiah	-11946
▁বেঙ্গাল	-11947
▁ওজন	-11948
▁রিপোর্	-11949
▁গবেষণার	-11950
▁AD	-11951
▁Indonesia	-11952
▁২০০৫	-11953
▁Farm	-11954
▁Sadar	-11955
▁চালানোর	-11956
▁পরীক্ষায়	-11957
▁কখনই	-11958
▁লাফ	-11959
▁fault	-11960
▁নিচ্ছে	-11961
▁পেলেন	-11962
▁সীমিত	-11963
▁monitor	-11964
▁মানুষদের	-11965
▁hol	-11966
▁mental	-11967
▁impossible	-11968
▁স্তরে	-11969
▁principal	-11970
পন্থী	-11971
▁apolog	-11972
itate	-11973
ট্টা	-11974
▁poverty	-11975
owed	-11976
anchay	-11977
Pro	-11978
▁হাও	-11979
anth	-11980
▁Royal	-11981
▁explained	-11982
▁প্রাথমিকভাবে	-11983
▁ভগ	-11984
▁refer	-11985
▁Qual	-11986
▁তাতেই	-11987
▁wid	-11988
▁অপহ	-11989
▁কৃষ্ণ	-11990
▁পিটার	-11991
▁বাস্তবে	-11992
▁কাজটা	-11993
▁বায়ু	-11994
সম্পদ	-11995
▁initially	-11996
▁রইল	-11997
▁ধার্ম	-11998
▁Opposition	-11999
60	-12000
▁Mahe	-12001
▁কাদের	-12002
▁সঞ্জয়	-12003
arya	-12004
▁প্রকাশের	-12005
▁একমত	-12006
▁আসন্ন	-12007
▁নির্যাতন	-12008
yas	-12009
▁corn	-12010
person	-12011
▁নম্র	-12012
▁purch	-12013
কিল	-12014
▁Gul	-12015
▁খনি	-12016
▁সুসং	-12017
▁Soon	-12018
ডু	-12019
দরা	-12020
▁surface	-12021
▁দুর্গ	-12022
▁দিচ্ছি	-12023
▁35	-12024
যোগী	-12025
পক্ষের	-12026
▁setting	-12027
ino	-12028
▁শাক	-12029
▁(200	-12030
▁Tele	-12031
▁punished	-12032
▁ঘটল	-12033
▁Britain	-12034
▁খেয়াল	-12035
ademic	-12036
▁প্রেমের	-12037
aram	-12038
িয়ানা	-12039
▁undert	-12040
▁যাহা	-12041
▁Jh	-12042
চারের	-12043
▁কারন	-12044
▁প্রো	-12045
inated	-12046
▁দলীয়	-12047
sych	-12048
▁replied	-12049
alt	-12050
▁choose	-12051
▁কোয়ার	-12052
▁buildings	-12053
▁সফট	-12054
▁wall	-12055
▁views	-12056
▁Sanjay	-12057
▁গান্ধীর	-12058
▁কাজটি	-12059
▁Business	-12060
▁কাত	-12061
▁collabor	-12062
▁posts	-12063
▁অনুকরণ	-12064
▁decades	-12065
▁যাত্রীদের	-12066
▁celebrated	-12067
▁Doctors	-12068
জুন	-12069
▁বিপর্যয়	-12070
▁টেলিফ	-12071
▁শূন্য	-12072
▁emotion	-12073
▁mistake	-12074
▁80	-12075
Tube	-12076
▁confident	-12077
▁prominent	-12078
▁Miss	-12079
▁master	-12080
▁নিষ্	-12081
ালেম	-12082
▁Journal	-12083
▁যানবাহন	-12084
anging	-12085
▁remind	-12086
▁ideas	-12087
ধীন	-12088
▁sight	-12089
▁welfare	-12090
iary	-12091
তামূলক	-12092
sec	-12093
▁mask	-12094
য়াস	-12095
▁Arabic	-12096
▁পরবর্তীকালে	-12097
▁মী	-12098
▁concer	-12099
▁powers	-12100
▁বাস্তবায়ন	-12101
▁ক্ষমতার	-12102
▁ল্যাং	-12103
▁Jag	-12104
বাসীর	-12105
▁Kings	-12106
▁Mug	-12107
▁মেগ	-12108
▁storm	-12109
▁export	-12110
▁আকারে	-12111
▁millions	-12112
▁তামিলনাড়	-12113
প্ল	-12114
▁লাভের	-12115
▁ওয়াশিং	-12116
▁mad	-12117
▁পত্রিকার	-12118
avy	-12119
▁৯০	-12120
▁পশু	-12121
▁উদযাপন	-12122
▁সীমানা	-12123
▁নিয়েছি	-12124
ovid	-12125
▁করতেই	-12126
▁কাছেই	-12127
▁জাতীয়তা	-12128
▁জোন	-12129
▁ক্ষয়ক্ষ	-12130
▁expression	-12131
ভেদ	-12132
roll	-12133
▁থিয়ে	-12134
▁Commer	-12135
▁৪৫	-12136
তাবাস	-12137
বিদ্যা	-12138
▁লড়াইয়ে	-12139
▁মেষ	-12140
▁কারখানা	-12141
▁raise	-12142
▁রাজীব	-12143
▁চলেছেন	-12144
▁Rajput	-12145
লাইন	-12146
angana	-12147
▁গ্রিক	-12148
▁standards	-12149
▁ongoing	-12150
▁সম্পত্তি	-12151
▁opposed	-12152
▁responded	-12153
▁programmes	-12154
▁aband	-12155
াইল্যান্ড	-12156
▁মহাপ	-12157
▁সংঘট	-12158
▁values	-12159
room	-12160
▁শ্রেণীর	-12161
▁এক্সপ্রেস	-12162
৪০	-12163
▁None	-12164
▁লঙ্ঘন	-12165
▁actors	-12166
▁=	-12167
▁Would	-12168
rav	-12169
igen	-12170
▁অভিষিক্ত	-12171
▁arg	-12172
▁দফত	-12173
▁কক্ষ	-12174
▁মেয়াদ	-12175
▁Win	-12176
▁nut	-12177
▁উচিৎ	-12178
▁ক্যাট	-12179
▁Team	-12180
▁পাহাড়	-12181
▁Similar	-12182
▁marks	-12183
▁খোঁজে	-12184
▁praise	-12185
▁ভাইরাসের	-12186
ivered	-12187
▁Star	-12188
নামূলক	-12189
▁তুর্ক	-12190
▁answers	-12191
An	-12192
▁factory	-12193
▁plane	-12194
▁mort	-12195
▁গুগল	-12196
▁Turkey	-12197
▁contribution	-12198
▁নয়া	-12199
▁Ronald	-12200
▁ক্যান্স	-12201
▁resolved	-12202
▁suddenly	-12203
▁ঝাঁ	-12204
▁Andhra	-12205
▁MS	-12206
▁ছুঁ	-12207
▁সৎকর্ম	-12208
▁respectively	-12209
▁church	-12210
▁Inf	-12211
▁ভৌ	-12212
▁Mat	-12213
▁Mission	-12214
বিশেষ	-12215
▁চোখের	-12216
▁যুগের	-12217
ronic	-12218
▁ট্রান্স	-12219
ব্ব	-12220
▁Messi	-12221
▁deleg	-12222
▁তারাও	-12223
▁wonderful	-12224
▁Arch	-12225
▁প্রতিবেদনে	-12226
actions	-12227
▁জানাচ্ছি	-12228
▁জানিয়েছিলেন	-12229
▁পিটি	-12230
▁starts	-12231
▁coin	-12232
▁symbol	-12233
▁copy	-12234
▁compared	-12235
▁মেন	-12236
ারক	-12237
▁কোর্টে	-12238
▁defence	-12239
▁মেহ	-12240
▁plants	-12241
▁সংরক্ষিত	-12242
উপ	-12243
▁ult	-12244
▁Rober	-12245
দাস	-12246
▁সিন্ধ	-12247
▁অধিবাস	-12248
▁উপস্থিতি	-12249
বছর	-12250
ক্ষেত্র	-12251
▁দায়ূদ	-12252
▁মাটি	-12253
▁contract	-12254
▁villagers	-12255
▁anniversary	-12256
▁ঘটতে	-12257
▁birthday	-12258
CO	-12259
▁পাখ	-12260
▁রোড	-12261
▁(201	-12262
▁gift	-12263
▁সাক্ষী	-12264
cean	-12265
▁uses	-12266
▁সুখী	-12267
▁উঠেছিল	-12268
লক	-12269
ারী	-12270
▁Peace	-12271
যুগ	-12272
▁আইসি	-12273
▁faces	-12274
▁প্রথা	-12275
▁emergency	-12276
▁Sud	-12277
▁কথাটা	-12278
▁আলোচনায়	-12279
ুপ্ত	-12280
▁represented	-12281
মালা	-12282
▁isol	-12283
▁Church	-12284
▁sharing	-12285
▁সপ্তাহের	-12286
▁terrorists	-12287
▁রাস	-12288
▁লড়	-12289
▁YouTube	-12290
▁অধিকারী	-12291
▁লিও	-12292
▁দেখো	-12293
▁Sushant	-12294
▁90	-12295
ogue	-12296
▁তাতেও	-12297
▁অন্যের	-12298
▁ছেলেমেয়ে	-12299
▁শ্রমিকদের	-12300
bum	-12301
ভ্র	-12302
নিয়ার	-12303
antly	-12304
▁Hope	-12305
▁প্রথমবার	-12306
▁দায়িত্বে	-12307
▁era	-12308
▁hell	-12309
▁floor	-12310
asi	-12311
▁ওঠা	-12312
▁bench	-12313
▁হস্তান্তর	-12314
Do	-12315
▁ভদ্র	-12316
▁উপত্য	-12317
▁Foundation	-12318
▁stayed	-12319
▁বেদ	-12320
▁tough	-12321
lets	-12322
▁shel	-12323
▁reduced	-12324
▁Chopra	-12325
▁গিয়েছিলাম	-12326
বাম	-12327
▁সোনা	-12328
▁participate	-12329
ming	-12330
▁ইহু	-12331
হত্যার	-12332
▁revolution	-12333
▁করণ	-12334
বাসীদের	-12335
▁destru	-12336
▁প্রযোজ্য	-12337
▁bilateral	-12338
ishing	-12339
▁animal	-12340
▁জনগোষ্ঠ	-12341
▁Jewish	-12342
▁Nor	-12343
▁দমন	-12344
▁নামা	-12345
▁গেলাম	-12346
▁Finally	-12347
▁earthqu	-12348
▁strongly	-12349
▁blessings	-12350
▁Portug	-12351
▁কতই	-12352
▁লকডাউন	-12353
▁ধোনি	-12354
াভাবিক	-12355
▁তত্ত্বাব	-12356
ham	-12357
itch	-12358
িকেশন	-12359
শো	-12360
▁judgment	-12361
টিও	-12362
▁achieved	-12363
▁প্রবাহিত	-12364
▁anger	-12365
▁Mujib	-12366
▁street	-12367
▁anointed	-12368
▁ব্যাপকভাবে	-12369
iff	-12370
▁ভিড়	-12371
vation	-12372
▁survey	-12373
▁জানুয়ার	-12374
্টের	-12375
ধ্ব	-12376
সূত্র	-12377
▁acts	-12378
▁২০০০	-12379
পূর্বে	-12380
rible	-12381
▁অন্ধ্র	-12382
াতেই	-12383
▁race	-12384
▁থাকলেও	-12385
▁Proverbs	-12386
▁জঙ্গ	-12387
ুল্লাহ	-12388
obe	-12389
▁রোহি	-12390
▁দেশকে	-12391
▁software	-12392
র্দ	-12393
▁কই	-12394
▁বচ্চন	-12395
▁উৎপন্ন	-12396
▁কোড	-12397
▁Once	-12398
▁চোপ	-12399
▁জাগ	-12400
intendent	-12401
▁রেড	-12402
▁straight	-12403
দেব	-12404
িতাভ	-12405
▁ruled	-12406
▁প্রযুক্তির	-12407
াপনের	-12408
হাল	-12409
opal	-12410
▁Engineering	-12411
জেন	-12412
▁মজা	-12413
▁ব্লক	-12414
DA	-12415
▁Hus	-12416
aji	-12417
omon	-12418
icient	-12419
▁Press	-12420
▁wood	-12421
স্থায়	-12422
▁চলমান	-12423
esperson	-12424
▁ছোট্ট	-12425
▁বাইরের	-12426
▁experienced	-12427
▁penal	-12428
▁dyn	-12429
▁Sylhet	-12430
▁Land	-12431
▁color	-12432
▁বোঝায়	-12433
▁এবারের	-12434
▁max	-12435
▁records	-12436
▁delivered	-12437
▁কপি	-12438
▁পাইল	-12439
▁Media	-12440
ফাইন	-12441
▁Brother	-12442
▁আফগানিস্তানের	-12443
▁সমঝোতা	-12444
েকের	-12445
▁সাক	-12446
▁Make	-12447
িয়েছে	-12448
▁লন্ডন	-12449
▁পরিবেশন	-12450
▁সান্ত্ব	-12451
চয়	-12452
class	-12453
জনিত	-12454
্যারি	-12455
▁Black	-12456
▁criticism	-12457
▁প্রথমবারের	-12458
্ডিং	-12459
▁excell	-12460
▁besides	-12461
▁আবেদ	-12462
▁শিক্ষার্থীরা	-12463
শ্রী	-12464
▁বিদেশে	-12465
▁advance	-12466
১৯৮	-12467
▁Must	-12468
▁Grand	-12469
ভাবনা	-12470
▁creating	-12471
otten	-12472
▁উত্তে	-12473
▁Mer	-12474
▁Kong	-12475
▁খালেদা	-12476
▁নেপাল	-12477
▁উপন্যাস	-12478
resp	-12479
▁motiv	-12480
▁ভোটার	-12481
▁সাময়িক	-12482
▁33	-12483
▁double	-12484
▁প্রদত্ত	-12485
-4	-12486
শ্বরের	-12487
▁advis	-12488
▁দিলাম	-12489
▁earned	-12490
▁entertain	-12491
পশ্চিম	-12492
▁ঠাকুর	-12493
omp	-12494
▁বোলার	-12495
▁তাছাড়া	-12496
▁Abb	-12497
▁Jay	-12498
▁সহযোগিতার	-12499
▁কাঠামো	-12500
▁রাজনাথ	-12501
▁মদ	-12502
▁সামনের	-12503
▁latest	-12504
▁করোনায়	-12505
▁আশঙ্কাজনক	-12506
পিং	-12507
একটি	-12508
▁tea	-12509
যিহ	-12510
শনে	-12511
ওয়েল	-12512
স্তা	-12513
shahi	-12514
▁batsman	-12515
win	-12516
▁ঝুল	-12517
▁ক্লাস	-12518
▁দূতাবাস	-12519
সাল	-12520
▁organizations	-12521
bh	-12522
▁Rights	-12523
▁তৎকালীন	-12524
▁finished	-12525
▁অনুমোদিত	-12526
▁convention	-12527
▁বিশ্বাসের	-12528
▁তারপরও	-12529
▁crops	-12530
▁George	-12531
▁Hong	-12532
riends	-12533
▁votes	-12534
irt	-12535
....	-12536
▁Israelites	-12537
▁apart	-12538
▁fields	-12539
▁ছুটি	-12540
▁worst	-12541
ভাজন	-12542
▁Pan	-12543
াত্ত্বিক	-12544
enth	-12545
▁Sometimes	-12546
▁কামাল	-12547
▁পতাকা	-12548
▁টেলিফোন	-12549
▁absolute	-12550
▁Lets	-12551
▁বিশ্বকাপের	-12552
▁2008	-12553
▁movies	-12554
▁চিৎকার	-12555
▁instance	-12556
▁2009	-12557
▁সেটাও	-12558
anguage	-12559
▁রাজপুত	-12560
▁শান্তিপূর্ণ	-12561
▁White	-12562
▁grew	-12563
▁সঙ্গেও	-12564
▁নেব	-12565
▁Pict	-12566
▁quiet	-12567
crib	-12568
▁কৃতজ্ঞতা	-12569
▁সাম্রাজ্যের	-12570
▁অধ্যায়	-12571
▁residence	-12572
70	-12573
ামূল	-12574
▁উন্নয়নে	-12575
ান্ডার	-12576
▁আদায়	-12577
▁collection	-12578
▁আরা	-12579
▁সত্যিকার	-12580
▁ফেসবুকে	-12581
▁প্রিয়াঙ্কা	-12582
▁Jal	-12583
▁অঙ্ক	-12584
▁channel	-12585
].	-12586
▁রবী	-12587
▁তারই	-12588
▁অংশের	-12589
uh	-12590
▁গল	-12591
ঘাতী	-12592
otal	-12593
▁পৃষ্ঠার	-12594
▁changing	-12595
▁নিহতদের	-12596
শ্চিত	-12597
vant	-12598
▁Pras	-12599
▁সঙ্গী	-12600
▁Smith	-12601
▁cat	-12602
amental	-12603
▁ত্রুটি	-12604
▁Federation	-12605
▁ক্যাথ	-12606
uz	-12607
▁মুছে	-12608
▁ট্রাই	-12609
▁Nas	-12610
ibilities	-12611
দর	-12612
▁ধূ	-12613
▁Dal	-12614
তাস	-12615
▁Tell	-12616
▁approx	-12617
▁ফাউন্ড	-12618
▁থাইল্যান্ড	-12619
iya	-12620
▁Services	-12621
EC	-12622
▁stands	-12623
▁মৃত্যুতে	-12624
%।	-12625
ception	-12626
80	-12627
▁হারে	-12628
▁বরাদ্দ	-12629
▁বঙ্গবন্ধ	-12630
▁discussions	-12631
▁মাঝারি	-12632
Bang	-12633
▁tested	-12634
▁restrict	-12635
▁উল্লেখ্য	-12636
োনো	-12637
১৯৭	-12638
orage	-12639
ঞ্চিত	-12640
nagar	-12641
▁Jama	-12642
▁প্রভৃতি	-12643
▁সাফল্যের	-12644
▁সংক্রমণের	-12645
শক্ত	-12646
▁আপিল	-12647
▁দম্পতি	-12648
াবলী	-12649
▁পরও	-12650
▁হাতি	-12651
▁জলা	-12652
▁বিবেচিত	-12653
▁studying	-12654
▁soil	-12655
▁code	-12656
aded	-12657
wered	-12658
uting	-12659
▁বড়ো	-12660
▁Madrid	-12661
তাঁ	-12662
ফেস	-12663
▁উম	-12664
▁গোলা	-12665
▁চাঞ্চল	-12666
▁testing	-12667
▁vital	-12668
পুল	-12669
▁scholar	-12670
▁4,	-12671
▁ওভার	-12672
▁product	-12673
▁তাঁরই	-12674
▁Region	-12675
▁everybody	-12676
▁বন্দ্যোপাধ্যায়	-12677
rance	-12678
▁foundation	-12679
▁ইউনিট	-12680
▁১৯৭১	-12681
▁discovered	-12682
ভৌ	-12683
শিদ	-12684
লাতে	-12685
ailand	-12686
▁ওড়	-12687
তই	-12688
▁দারি	-12689
▁রচিত	-12690
▁quant	-12691
▁বিনিম	-12692
ান্ডা	-12693
তত্ত্ব	-12694
স্থায়ী	-12695
iny	-12696
▁দাবী	-12697
▁defeat	-12698
▁heavenly	-12699
▁সংস্কৃতির	-12700
▁questioned	-12701
▁Fran	-12702
▁dog	-12703
▁fixed	-12704
▁প্রকাশনা	-12705
▁সাড়ে	-12706
▁অপরাধের	-12707
pura	-12708
▁রোগী	-12709
▁এখানকার	-12710
▁বিমানবন্দরে	-12711
▁ফু	-12712
▁রুট	-12713
▁পরস্পর	-12714
▁বিরক্ত	-12715
▁সিসিটি	-12716
▁সাঁ	-12717
▁খাতে	-12718
ভারতীয়	-12719
▁talked	-12720
▁Persian	-12721
▁dismissed	-12722
▁লেখার	-12723
▁নিহতের	-12724
▁বৈদ	-12725
▁দূষণ	-12726
▁Chak	-12727
▁Rajnath	-12728
খণ্ড	-12729
▁Dig	-12730
▁র‍	-12731
▁সিদ্ধান্তের	-12732
▁Economic	-12733
ava	-12734
▁অন্তর	-12735
▁স্যাম	-12736
▁জার্মানির	-12737
▁Hell	-12738
▁bond	-12739
▁উইন্ড	-12740
গড়া	-12741
▁Sand	-12742
▁previously	-12743
▁ওপরে	-12744
▁বেড়	-12745
▁equip	-12746
▁বোলিং	-12747
▁অমিতাভ	-12748
্মা	-12749
ধ্যে	-12750
▁earn	-12751
▁engaged	-12752
▁যিশাইয়	-12753
ংকং	-12754
▁আশ্চর্য	-12755
▁ইউনিভার্সিটি	-12756
▁টিকি	-12757
claim	-12758
▁ঘূর্ণ	-12759
AF	-12760
ms	-12761
▁কমপক্ষে	-12762
▁হায়দরা	-12763
ল্যান্ডের	-12764
anges	-12765
▁charged	-12766
▁mouth	-12767
▁chosen	-12768
▁Amitabh	-12769
কৃ	-12770
▁সাথ	-12771
▁Mexico	-12772
▁কর্মকা	-12773
▁500	-12774
বিড়	-12775
▁7.	-12776
lick	-12777
দিনে	-12778
▁colon	-12779
▁increases	-12780
▁বিজ	-12781
▁দিলীপ	-12782
bl	-12783
▁funds	-12784
▁ton	-12785
▁BCCI	-12786
▁Viet	-12787
▁trend	-12788
▁ভাগ্য	-12789
▁Assist	-12790
▁সিনেমায়	-12791
▁Vijay	-12792
▁images	-12793
▁শিগগিরই	-12794
▁বার্স	-12795
এসএস	-12796
▁lif	-12797
াব্ল	-12798
▁খাত	-12799
▁সুষ্ঠ	-12800
▁colleges	-12801
▁ইতোমধ্যে	-12802
▁এশ	-12803
▁peaceful	-12804
দক্ষ	-12805
▁পাঠায়	-12806
▁MLA	-12807
▁ঝাম	-12808
ঞ্চলের	-12809
▁enfor	-12810
▁মৎস্য	-12811
▁স্মিথ	-12812
▁kilomet	-12813
জরে	-12814
▁জেন	-12815
▁heat	-12816
▁aspects	-12817
স্র	-12818
umed	-12819
assador	-12820
initely	-12821
▁constructed	-12822
▁সিরিজে	-12823
athi	-12824
▁হাঁট	-12825
▁আসছেন	-12826
▁ভালোভাবে	-12827
র্ট	-12828
▁জানো	-12829
▁আমদানি	-12830
▁দেখানোর	-12831
▁diseases	-12832
▁সীমান্তে	-12833
▁অধিদ	-12834
▁ষড়	-12835
▁Thous	-12836
▁সমাজে	-12837
▁assistant	-12838
▁টের	-12839
▁জেমস	-12840
▁ওয়ার্ড	-12841
▁গর্বিত	-12842
▁Project	-12843
▁সরঞ্জ	-12844
চিন	-12845
▁hun	-12846
▁luck	-12847
▁conversation	-12848
▁fifth	-12849
▁এইভাবে	-12850
▁গণনা	-12851
▁picked	-12852
▁variety	-12853
▁ছাত্রদের	-12854
▁ভেতর	-12855
▁ক্ষেত্রেই	-12856
jan	-12857
comm	-12858
চ্ছুক	-12859
▁pretty	-12860
▁ঘৃণা	-12861
▁ফোনে	-12862
▁বাড়তি	-12863
▁Paris	-12864
den	-12865
▁পণ	-12866
▁মিশন	-12867
▁Patel	-12868
akers	-12869
usive	-12870
▁ঘটবে	-12871
▁তেলে	-12872
elines	-12873
▁worlds	-12874
▁advantage	-12875
link	-12876
কেটে	-12877
▁captured	-12878
্তুগ	-12879
▁উদ্বোধ	-12880
▁gradually	-12881
▁winter	-12882
▁sympt	-12883
নাগ	-12884
▁blogger	-12885
▁অপারেশন	-12886
▁technical	-12887
ancing	-12888
▁এভাবেই	-12889
▁সায়েন্স	-12890
▁publisher	-12891
▁তেমনই	-12892
▁দ্বিপাক্ষিক	-12893
▁Argent	-12894
▁মৌসুমে	-12895
▁Could	-12896
▁ছো	-12897
▁Fund	-12898
▁6.	-12899
▁পারস্প	-12900
part	-12901
▁Sonia	-12902
▁উপকৃত	-12903
ুমান	-12904
▁ওয়েবসাই	-12905
কুল	-12906
ords	-12907
ঈশ্বরের	-12908
▁রপ্তানি	-12909
▁UP	-12910
▁Rich	-12911
▁Prophet	-12912
▁resulted	-12913
▁৫০০	-12914
▁dear	-12915
বক	-12916
▁ইহা	-12917
▁Sports	-12918
▁বিনিময়	-12919
▁রাজধানীর	-12920
পন	-12921
▁Bengaluru	-12922
সিল	-12923
▁extent	-12924
▁fought	-12925
▁situated	-12926
▁নিঃসন্দেহে	-12927
পান	-12928
▁শয়তানের	-12929
ভারে	-12930
▁chaired	-12931
▁রাষ্ট্রপতির	-12932
▁নীর	-12933
▁কাই	-12934
rers	-12935
iable	-12936
▁stress	-12937
▁ফ্রান্সের	-12938
lies	-12939
▁2:1	-12940
▁figure	-12941
▁larger	-12942
▁Moreover	-12943
▁আক্রমণের	-12944
▁Progr	-12945
rant	-12946
▁labou	-12947
▁ভালবাসা	-12948
▁Coronavirus	-12949
▁ফাই	-12950
▁fruits	-12951
▁inhab	-12952
▁passing	-12953
▁Conference	-12954
▁Subsequently	-12955
oz	-12956
▁Raf	-12957
▁গায়ে	-12958
▁enjoyed	-12959
▁5,	-12960
▁memory	-12961
▁accidents	-12962
▁warned	-12963
▁বিদেশী	-12964
▁কাজকর্ম	-12965
▁পঞ্চায়েত	-12966
▁semi	-12967
▁regret	-12968
চীন	-12969
▁গ্যাল	-12970
▁existing	-12971
সাম্য	-12972
▁starting	-12973
▁Dec	-12974
ounced	-12975
▁এনেছে	-12976
▁childhood	-12977
ুব্ধ	-12978
▁NRC	-12979
▁প্রতিবেশী	-12980
হাট	-12981
▁AN	-12982
▁পরিমা	-12983
▁সুরক্ষিত	-12984
▁magn	-12985
hemat	-12986
▁pure	-12987
▁তৎপর	-12988
▁বিষয়বস্তু	-12989
▁Thailand	-12990
▁বাপ্তিস্ম	-12991
▁vegetables	-12992
আপনি	-12993
▁Jac	-12994
▁catch	-12995
▁wishes	-12996
▁context	-12997
▁অপারে	-12998
বৈ	-12999
বাগ	-13000
বর্ষ	-13001
▁কর্মরত	-13002
▁tension	-13003
▁অনেকটাই	-13004
▁guide	-13005
▁Buddhist	-13006
▁অস্বাভাবিক	-13007
abi	-13008
▁bott	-13009
▁fuel	-13010
কেলে	-13011
▁Quran	-13012
▁প্রজাতি	-13013
aband	-13014
▁কোন্	-13015
▁দী	-13016
▁ধুয়ে	-13017
▁Actress	-13018
▁hundreds	-13019
▁বাণী	-13020
▁enemy	-13021
▁error	-13022
)"	-13023
ভাল	-13024
▁medicine	-13025
▁দ্বি	-13026
▁জানতেন	-13027
▁Vis	-13028
স্থিত	-13029
▁estimated	-13030
টোর	-13031
▁reveal	-13032
▁স্ত্রীকে	-13033
▁bin	-13034
▁pages	-13035
লির	-13036
▁neighbour	-13037
▁remove	-13038
ein	-13039
▁miles	-13040
▁ইউরোপের	-13041
▁পরিত্রাণ	-13042
জিৎ	-13043
যাব	-13044
▁দশক	-13045
▁alert	-13046
▁স্থানীয়রা	-13047
aud	-13048
টেক	-13049
▁Top	-13050
▁Everybody	-13051
▁মাস্ক	-13052
▁articles	-13053
ণ্ডা	-13054
ীপুর	-13055
▁campus	-13056
▁tells	-13057
▁walking	-13058
▁জার্মানি	-13059
▁নৃত্য	-13060
ূশ	-13061
▁Name	-13062
▁partnership	-13063
▁representatives	-13064
onomy	-13065
▁পারো	-13066
▁ভবিষ্যতের	-13067
▁বিশ্বকাপে	-13068
▁মুদ্রা	-13069
ীশ	-13070
▁THE	-13071
▁ডাল	-13072
▁বেত	-13073
▁এটাও	-13074
▁System	-13075
টকে	-13076
▁দফতর	-13077
▁ত্রাণ	-13078
▁closely	-13079
▁অপেক্ষায়	-13080
▁সংখ্যাল	-13081
▁demanding	-13082
▁Cam	-13083
▁Tour	-13084
▁coord	-13085
▁উদ্ভিদ	-13086
▁historic	-13087
▁ছি	-13088
▁anx	-13089
25	-13090
orders	-13091
▁Stadium	-13092
▁Tw	-13093
এসসি	-13094
▁react	-13095
arh	-13096
▁Id	-13097
▁উঠবে	-13098
▁blame	-13099
▁প্রহরী	-13100
iber	-13101
▁hero	-13102
RA	-13103
ংসে	-13104
দলের	-13105
▁সম্পাদন	-13106
▁connected	-13107
▁agencies	-13108
▁ইনিংস	-13109
পর্য	-13110
▁rid	-13111
▁সাগর	-13112
ধন	-13113
hana	-13114
গ্রাহ	-13115
ইয়	-13116
▁Ep	-13117
▁খাই	-13118
▁শস্য	-13119
▁রাখবেন	-13120
?’’	-13121
শায়	-13122
এবং	-13123
▁armed	-13124
▁হংকং	-13125
▁wearing	-13126
▁possibility	-13127
▁gat	-13128
▁centres	-13129
▁দূরত্ব	-13130
▁cup	-13131
▁গোল্ড	-13132
▁জীবনকে	-13133
ুদি	-13134
্বা	-13135
▁উঁচু	-13136
▁deter	-13137
▁রায়ের	-13138
▁resolve	-13139
▁বিরত	-13140
▁মহানগর	-13141
ago	-13142
▁দমকল	-13143
▁হোয়	-13144
▁জানতাম	-13145
▁পর্যায়	-13146
▁এমনি	-13147
▁প্রত্যেকের	-13148
▁fed	-13149
জনার	-13150
সচিব	-13151
▁কালে	-13152
▁সন্তুষ্ট	-13153
▁Pop	-13154
tower	-13155
▁তড়ি	-13156
▁নাইট	-13157
▁প্রিম	-13158
▁মানতে	-13159
▁তোলেন	-13160
▁eating	-13161
▁কথাবার্তা	-13162
▁Perhaps	-13163
gen	-13164
▁ইসলামিক	-13165
▁benefic	-13166
▁প্রায়শই	-13167
▁Nur	-13168
▁ছিন	-13169
▁blind	-13170
বিজ্ঞ	-13171
▁নার্স	-13172
▁searching	-13173
▁189	-13174
▁পদ্	-13175
▁mountain	-13176
▁Eff	-13177
▁এতো	-13178
▁divine	-13179
▁Os	-13180
▁বন্দি	-13181
▁স্বীকৃত	-13182
এখন	-13183
▁২০০৪	-13184
▁ওয়াল	-13185
▁Rashid	-13186
▁শাস্তির	-13187
▁concerns	-13188
▁scientists	-13189
ঞ্চলে	-13190
▁wear	-13191
▁mechan	-13192
▁existence	-13193
▁নিষ্ঠ	-13194
▁satell	-13195
▁engineering	-13196
োনার	-13197
▁empt	-13198
৩৫	-13199
ওনা	-13200
▁Mill	-13201
▁অ্যাট	-13202
▁honest	-13203
▁দেখিনি	-13204
▁Wik	-13205
▁যথাক্রমে	-13206
▁পূর্ববর্তী	-13207
▁understood	-13208
▁ইঞ্জিন	-13209
▁manifest	-13210
কায়	-13211
▁atm	-13212
▁প্রকৌশল	-13213
%)	-13214
▁*	-13215
▁উপে	-13216
▁করলো	-13217
▁রাসায়	-13218
▁belongs	-13219
▁উপাস্য	-13220
▁initial	-13221
িসা	-13222
▁confirm	-13223
৩১	-13224
▁নৌকা	-13225
icious	-13226
ensions	-13227
▁judicial	-13228
মারের	-13229
▁কমিউনি	-13230
▁তাৎক্ষণ	-13231
▁বুল	-13232
▁artist	-13233
pre	-13234
▁collaps	-13235
▁হ্যান্ড	-13236
▁সোনার	-13237
▁ভিটামিন	-13238
য়েত	-13239
▁ডেন	-13240
▁persec	-13241
▁Rohing	-13242
▁Plan	-13243
▁আঘাতের	-13244
মোহন	-13245
শাসন	-13246
▁Hard	-13247
▁দারিদ্র	-13248
▁নিরপেক্ষ	-13249
▁চেক	-13250
alore	-13251
স্তফা	-13252
▁Move	-13253
▁৩৮	-13254
▁আশে	-13255
▁আবুল	-13256
▁পাঁচজন	-13257
▁কিউ	-13258
▁adopted	-13259
’,	-13260
▁প্রতিবন্ধ	-13261
iti	-13262
▁Cath	-13263
▁square	-13264
▁পারস্পরিক	-13265
▁Md	-13266
▁ফেলেছে	-13267
ূন	-13268
্যাক্ট	-13269
▁album	-13270
▁প্রজ্ঞ	-13271
োহর	-13272
ওয়ের	-13273
▁Ronaldo	-13274
▁ব্যবস্থায়	-13275
▁marry	-13276
▁Daniel	-13277
▁Prince	-13278
icit	-13279
▁রবার্ট	-13280
--	-13281
eter	-13282
antic	-13283
▁পেশা	-13284
▁innov	-13285
▁জার্ন	-13286
▁Festival	-13287
▁sites	-13288
▁নিচের	-13289
▁labor	-13290
মাংস	-13291
▁spokesperson	-13292
ভৌম	-13293
▁দুইজন	-13294
▁রবীন্দ্র	-13295
▁পরিচালনার	-13296
Pak	-13297
টেও	-13298
▁প্রাস	-13299
নির্ভর	-13300
▁আমায়	-13301
লাল	-13302
▁adult	-13303
▁ভাবেই	-13304
▁হোটেল	-13305
▁offices	-13306
▁সংবিধানের	-13307
▁করতো	-13308
▁stock	-13309
▁Solomon	-13310
▁রেস	-13311
▁পরিশোধ	-13312
▁সুষ্ঠু	-13313
raj	-13314
▁celeb	-13315
▁welcome	-13316
▁উদ্ভাবন	-13317
▁অসি	-13318
▁টিক	-13319
াস্থ্যের	-13320
▁condemned	-13321
বংশ	-13322
▁Control	-13323
▁সম্ব	-13324
▁সশস্ত্র	-13325
▁recommend	-13326
▁sport	-13327
▁units	-13328
▁indic	-13329
▁সাম্রাজ্য	-13330
aja	-13331
una	-13332
▁ক্লিন	-13333
IM	-13334
বন্দ	-13335
▁Lab	-13336
▁লুই	-13337
▁হারা	-13338
▁founder	-13339
rd	-13340
chers	-13341
▁বেঁধে	-13342
▁আগুনে	-13343
▁অন্ধকার	-13344
▁প্রেক্ষিতে	-13345
▁সতর্কতা	-13346
ক্টর	-13347
▁মূর্তি	-13348
হায়	-13349
▁recognized	-13350
▁মিন	-13351
দুর্গ	-13352
▁Girl	-13353
▁drama	-13354
▁দাখিল	-13355
▁blocked	-13356
▁folk	-13357
▁মিত্র	-13358
▁রাসায়নিক	-13359
ansk	-13360
▁পানিতে	-13361
▁নিক্ষেপ	-13362
▁salt	-13363
orter	-13364
▁Talk	-13365
▁যাবত	-13366
▁hat	-13367
▁strik	-13368
▁সভাপত	-13369
▁failure	-13370
নাট্য	-13371
▁Mart	-13372
▁চার্চ	-13373
▁spl	-13374
▁Jack	-13375
▁medium	-13376
▁Memorial	-13377
▁Watchtower	-13378
▁টেন	-13379
▁blue	-13380
▁বিদায়	-13381
▁therein	-13382
▁শতাব্দীতে	-13383
unch	-13384
▁পারবো	-13385
▁অনুশীলন	-13386
▁universities	-13387
▁tort	-13388
▁conqu	-13389
হাত	-13390
▁Trinam	-13391
▁collect	-13392
ti	-13393
oes	-13394
illing	-13395
▁distribution	-13396
▁unbelie	-13397
▁implementation	-13398
▁রুপ	-13399
▁Oper	-13400
▁টেনে	-13401
▁manager	-13402
▁Transport	-13403
▁Revelation	-13404
ঠন	-13405
▁পড়ি	-13406
▁offers	-13407
▁দুজনেই	-13408
িয়েতনাম	-13409
▁নিয়োজিত	-13410
▁citizenship	-13411
SP	-13412
▁solid	-13413
oration	-13414
▁certific	-13415
সাহ	-13416
্ধব	-13417
Re	-13418
▁ঘন্টা	-13419
lasting	-13420
▁ভাইবোন	-13421
▁dry	-13422
▁cinema	-13423
▁হের	-13424
▁Covid	-13425
▁Stand	-13426
▁দুঃখিত	-13427
▁Neh	-13428
▁ঠিকই	-13429
▁cloud	-13430
▁আইনগত	-13431
?""	-13432
কার্য	-13433
elling	-13434
▁waste	-13435
▁resear	-13436
▁Limited	-13437
▁survive	-13438
▁wounded	-13439
১৯৬	-13440
▁পান্ড	-13441
▁বিচারের	-13442
▁Rajshahi	-13443
▁কমিয়ে	-13444
▁Dilip	-13445
▁gathered	-13446
▁encounter	-13447
fight	-13448
▁experts	-13449
▁সৃষ্টির	-13450
▁costs	-13451
▁অলিম্পিক	-13452
িনীতে	-13453
▁পুনঃ	-13454
▁supporting	-13455
▁arrangements	-13456
▁Song	-13457
োন্ন	-13458
▁handle	-13459
isal	-13460
▁তুম	-13461
▁কিছুক্ষণ	-13462
▁সংঘটিত	-13463
▁যিহূ	-13464
▁প্রতিরক্ষ	-13465
▁পশ	-13466
▁রোধ	-13467
▁জোরালো	-13468
▁স্বতন্ত্র	-13469
▁Cop	-13470
▁items	-13471
▁filled	-13472
▁কর্তৃত্ব	-13473
▁Teacher	-13474
▁ইঞ্জিনিয়ারিং	-13475
▁decre	-13476
▁খাবারের	-13477
Acc	-13478
▁dign	-13479
▁নিলেন	-13480
▁Khaleda	-13481
▁সফটওয়্যার	-13482
ালার	-13483
▁বৈষম	-13484
rieved	-13485
▁window	-13486
▁revenue	-13487
মিক	-13488
▁spokes	-13489
:4	-13490
ounding	-13491
ইয়া	-13492
কষ্ট	-13493
▁নিষ্প	-13494
▁worker	-13495
▁যাবার	-13496
▁flights	-13497
▁বিলুপ্ত	-13498
▁infection	-13499
▁একাডেমি	-13500
ভের	-13501
terday	-13502
▁নেয়নি	-13503
▁sheep	-13504
▁অয	-13505
▁পাঠান	-13506
▁deeply	-13507
▁rainfall	-13508
দো	-13509
▁brings	-13510
▁পাঠিয়েছে	-13511
▁Thereafter	-13512
▁Huss	-13513
ধাব	-13514
▁মনুষ্য	-13515
▁গ্রুপের	-13516
▁sins	-13517
▁তেম	-13518
▁হামল	-13519
▁প্রধানত	-13520
▁upcoming	-13521
ks	-13522
কিপ	-13523
ুল্ক	-13524
শৃঙ্খলা	-13525
▁telling	-13526
▁সম্মেলনের	-13527
abled	-13528
তিবাচক	-13529
▁ট্যুই	-13530
▁পশ্চিমা	-13531
সেই	-13532
ফোর্ড	-13533
▁আগুনের	-13534
গরিষ্ঠ	-13535
▁lying	-13536
▁sovere	-13537
▁Que	-13538
▁store	-13539
ণিক	-13540
▁exhib	-13541
ashion	-13542
▁জানানোর	-13543
▁ru	-13544
▁Ele	-13545
▁স্বরূপ	-13546
▁পাঠানোর	-13547
▁বাসিন্দাদের	-13548
কেশ	-13549
▁Mac	-13550
▁রুজু	-13551
িস্টার	-13552
erciful	-13553
ণীর	-13554
▁উপা	-13555
▁রেখ	-13556
Matthew	-13557
▁স্থাপত্য	-13558
▁ফ্রে	-13559
▁খ্রিস্টাব্দে	-13560
টিশ	-13561
▁Stat	-13562
▁বিনা	-13563
ohar	-13564
father	-13565
swered	-13566
▁করিবে	-13567
ঝি	-13568
▁চাঞ্চল্য	-13569
iw	-13570
▁disaster	-13571
▁establishment	-13572
▁রোগীর	-13573
▁powder	-13574
▁বিসিসিআই	-13575
▁রকমের	-13576
▁ties	-13577
▁মানের	-13578
▁অবনতি	-13579
▁প্রিন্স	-13580
▁ফিলিস্ত	-13581
▁Hab	-13582
▁যুগে	-13583
▁Protest	-13584
▁chapter	-13585
▁মোদীকে	-13586
▁বাড়ানোর	-13587
500	-13588
rene	-13589
▁সত্যের	-13590
▁advoc	-13591
▁learnt	-13592
▁অগ্রাধিকার	-13593
unal	-13594
প্রের	-13595
াপিত	-13596
▁slave	-13597
▁করোনাভাইরা	-13598
▁hotel	-13599
▁তথ্যের	-13600
▁Michael	-13601
▁ইসলামের	-13602
▁Adity	-13603
▁একদল	-13604
llor	-13605
▁prosper	-13606
▁broadcast	-13607
▁গাই	-13608
▁Romans	-13609
▁ভাঙচুর	-13610
▁ডুবে	-13611
▁দুর্যোগ	-13612
rific	-13613
জাতীয়	-13614
াস্ট্র	-13615
▁Bazar	-13616
▁youths	-13617
▁গার	-13618
▁আর্জেন্ট	-13619
সাগর	-13620
▁Nit	-13621
▁Khal	-13622
▁মেট্রো	-13623
▁সন্ত্রাসী	-13624
▁বান্দ	-13625
প্লেক্স	-13626
▁রাজশাহী	-13627
▁improved	-13628
▁controlled	-13629
▁বিস্ফোরণ	-13630
▁sentenced	-13631
▁Old	-13632
▁রাখি	-13633
)."	-13634
▁হিউ	-13635
▁সার্বভৌম	-13636
At	-13637
দপ্তর	-13638
▁mand	-13639
▁চিরকাল	-13640
▁হতাহতের	-13641
▁promises	-13642
▁সার্ক	-13643
▁আদিত্য	-13644
▁purposes	-13645
▁প্রতিযোগিতার	-13646
AL	-13647
▁Ev	-13648
▁ওহ	-13649
▁ভারসাম্য	-13650
▁কর্মকর্তাদের	-13651
▁সেখানেও	-13652
াময়	-13653
ugu	-13654
urd	-13655
▁Yemen	-13656
▁দৈর্ঘ	-13657
▁Bhutan	-13658
▁Premier	-13659
▁secondary	-13660
▁concerning	-13661
▁মর্ম	-13662
▁ফিরতে	-13663
▁Center	-13664
▁submit	-13665
▁চালাতে	-13666
▁সাউ	-13667
বাদি	-13668
▁alt	-13669
▁মুক্তিযো	-13670
usted	-13671
▁প্রয়োজনে	-13672
▁industries	-13673
▁ফিফ	-13674
▁hes	-13675
▁Sinha	-13676
▁বিজ্ঞাপন	-13677
মকে	-13678
▁৪৮	-13679
▁visible	-13680
ipper	-13681
▁cabinet	-13682
▁পরিকাঠামো	-13683
▁Odisha	-13684
▁beaten	-13685
▁ম্যানেজার	-13686
▁যিরূশ	-13687
▁অসুবিধা	-13688
▁দেই	-13689
▁সাতটি	-13690
▁Farmers	-13691
▁forgive	-13692
▁গরি	-13693
ading	-13694
▁তির	-13695
ফু	-13696
eting	-13697
▁Shaf	-13698
▁Ranbir	-13699
▁হেফাজতে	-13700
▁Recently	-13701
▁অপরি	-13702
▁মাইক্রো	-13703
▁highlight	-13704
▁বিনামূল	-13705
rina	-13706
োলজি	-13707
celona	-13708
▁(199	-13709
▁আছ	-13710
র্পণ	-13711
▁rent	-13712
▁সাক্ষরতার	-13713
ৈত	-13714
▁ডিভাই	-13715
▁herself	-13716
▁তুলেছেন	-13717
▁ভারপ্রাপ্ত	-13718
ণু	-13719
▁scale	-13720
▁নাট্য	-13721
▁প্রাপ	-13722
oli	-13723
▁investigate	-13724
▁ওঠার	-13725
▁ক্যাপ্টেন	-13726
▁partner	-13727
▁surprise	-13728
▁materials	-13729
▁উষ্ণ	-13730
asty	-13731
▁লিন	-13732
▁কিনে	-13733
▁effects	-13734
▁নারায়ণ	-13735
▁infected	-13736
ড়ির	-13737
▁চলাকালীন	-13738
▁পুত	-13739
▁তাড়া	-13740
▁মিজ	-13741
ighter	-13742
মুখী	-13743
▁বিক্র	-13744
▁ঘু	-13745
▁Dub	-13746
▁ডাই	-13747
▁ভিয়েতনাম	-13748
▁সংখ্যাগরিষ্ঠ	-13749
জক	-13750
▁হোন	-13751
▁নেপালের	-13752
▁কর্পোরেশন	-13753
▁condolences	-13754
▁বেসামরিক	-13755
▁IT	-13756
Pr	-13757
gh	-13758
▁দফায়	-13759
▁স্বর্	-13760
▁Squ	-13761
▁returning	-13762
▁Iq	-13763
▁Exec	-13764
বাবু	-13765
▁দেবী	-13766
▁গুয়া	-13767
▁classes	-13768
▁delight	-13769
▁storage	-13770
▁Tai	-13771
▁পণ্ডিত	-13772
▁Through	-13773
▁rum	-13774
▁বেগম	-13775
▁Trust	-13776
abandhu	-13777
▁সম্মানিত	-13778
▁practices	-13779
gi	-13780
▁15,	-13781
▁doll	-13782
▁Surely	-13783
▁অ্যান্ট	-13784
uzz	-13785
ষ্ণু	-13786
▁sectors	-13787
▁সংখ্যালঘু	-13788
▁sam	-13789
▁pregn	-13790
▁accord	-13791
৩৩	-13792
▁হিং	-13793
▁seemed	-13794
▁thy	-13795
rupted	-13796
▁pattern	-13797
কলা	-13798
resident	-13799
▁বস্তুতঃ	-13800
▁সম্রাট	-13801
▁ইন্ডিয়ার	-13802
▁জ্বালানি	-13803
▁accus	-13804
▁Hussain	-13805
▁লুকিয়ে	-13806
▁answered	-13807
▁symptoms	-13808
▁Ken	-13809
▁সমূহ	-13810
▁Korean	-13811
▁চিকিত্স	-13812
বয়স্ক	-13813
owned	-13814
▁বিক্ষোভকারীদের	-13815
▁আচ্ছা	-13816
▁encouraged	-13817
▁obtained	-13818
assy	-13819
▁প্ৰ	-13820
▁permanent	-13821
▁আরম্ভ	-13822
▁ফেরার	-13823
▁সেন্স	-13824
▁পায়ে	-13825
▁inher	-13826
captain	-13827
▁বিলিয়ন	-13828
তবে	-13829
টারে	-13830
▁পাখি	-13831
igenous	-13832
িকেট	-13833
▁divor	-13834
▁ছিট	-13835
▁Happ	-13836
▁পুরস্কারের	-13837
ett	-13838
্লাম	-13839
দিয়া	-13840
্যায়ন	-13841
▁summer	-13842
সমস্ত	-13843
▁স্তরের	-13844
▁operating	-13845
▁Arjun	-13846
▁requires	-13847
▁ভেন	-13848
▁Mirza	-13849
থেকে	-13850
▁clothes	-13851
▁বাংলাদেশী	-13852
গি	-13853
achi	-13854
এমএস	-13855
asters	-13856
▁সফরের	-13857
▁পড়ুয়া	-13858
▁Lo	-13859
▁rates	-13860
▁Pur	-13861
▁কাস	-13862
পুঞ্জ	-13863
▁কর্ণ	-13864
▁মোটরসাই	-13865
েব	-13866
▁Source	-13867
▁কুই	-13868
erted	-13869
▁অবধি	-13870
▁অগ্নি	-13871
▁লিঙ্গ	-13872
▁ইস্ট	-13873
▁মির্	-13874
olitan	-13875
▁সভার	-13876
▁reaction	-13877
▁Ty	-13878
পাতের	-13879
▁Gard	-13880
▁silver	-13881
▁রবিবার	-13882
▁পুলিসের	-13883
ulna	-13884
▁জোরদার	-13885
▁তুলেছে	-13886
▁newly	-13887
▁contem	-13888
▁যাতায়	-13889
▁"""""""	-13890
▁Thousands	-13891
▁Had	-13892
ieties	-13893
-20	-13894
▁Rather	-13895
▁মাইকেল	-13896
▁Class	-13897
▁owners	-13898
▁হাইকোর্টের	-13899
▁Est	-13900
▁lit	-13901
্যাক্স	-13902
▁destruction	-13903
▁Maybe	-13904
▁Commerce	-13905
▁qualities	-13906
▁একসাথে	-13907
শ্বাস	-13908
▁Forest	-13909
▁আনুষ্ঠানিকভাবে	-13910
লাই	-13911
ত্তির	-13912
তিন	-13913
▁Aam	-13914
▁Sit	-13915
▁ঊর্ধ্ব	-13916
▁hall	-13917
▁academic	-13918
▁উত্তরপ্রদেশের	-13919
জী	-13920
▁পর্তুগ	-13921
▁সান্ত্বনা	-13922
▁Srin	-13923
ipe	-13924
rits	-13925
তিষ্ঠান	-13926
▁মণ্ডলীতে	-13927
▁leads	-13928
▁dropped	-13929
▁bringing	-13930
▁officially	-13931
▁Sl	-13932
▁প্রবাহ	-13933
▁নেতিবাচক	-13934
হাজ	-13935
▁tend	-13936
▁Current	-13937
▁owner	-13938
▁নিজেও	-13939
▁অবতীর্ণ	-13940
▁সন্ধ্যায়	-13941
▁যশ	-13942
▁cool	-13943
▁secure	-13944
ront	-13945
ba	-13946
hus	-13947
According	-13948
God	-13949
▁নিই	-13950
▁incl	-13951
▁প্রণয়ন	-13952
▁commonly	-13953
স্থানে	-13954
▁Voices	-13955
▁চিন্তিত	-13956
▁বন্ধুদের	-13957
PF	-13958
ograp	-13959
বিহীন	-13960
▁prepare	-13961
▁স্থিতিশীল	-13962
▁মাটির	-13963
odh	-13964
just	-13965
▁রাষ্ট্রদূত	-13966
রায়ণ	-13967
িডিয়া	-13968
▁তেমনি	-13969
▁Legisl	-13970
▁দেবার	-13971
▁সীতার	-13972
▁পৃষ্ঠা	-13973
িমের	-13974
▁উদ্যান	-13975
▁ফস	-13976
সিন	-13977
▁vent	-13978
▁phones	-13979
সম্ম	-13980
▁tur	-13981
▁ওপেন	-13982
▁মেজর	-13983
▁গুলির	-13984
▁বিতর্কিত	-13985
▁ধনী	-13986
খাস্ত	-13987
▁drop	-13988
▁crash	-13989
▁suspected	-13990
▁Mit	-13991
▁মাকে	-13992
▁সচেতনতা	-13993
্যারা	-13994
▁কিতাব	-13995
▁পর্যট	-13996
▁স্পেশ	-13997
▁শাসনের	-13998
▁জীবনযাপন	-13999
থন	-14000
▁hath	-14001
▁চলুন	-14002
▁আদিবাসী	-14003
▁Management	-14004
11	-14005
প্তাহ	-14006
▁plea	-14007
▁সিলেট	-14008
▁ভেঙ্গে	-14009
▁prevail	-14010
▁প্রকৃতি	-14011
▁ডিরেক্টর	-14012
▁আত্মবিশ্বাস	-14013
field	-14014
▁Enter	-14015
▁স্পেন	-14016
▁উভয়ের	-14017
▁Olympic	-14018
▁democratic	-14019
▁purs	-14020
▁আসলেই	-14021
▁বিশ্বাসী	-14022
মাকে	-14023
▁মিয়া	-14024
▁ষড়যন্ত্র	-14025
▁পরিণতি	-14026
ications	-14027
▁Instead	-14028
ত্তা	-14029
▁হিল	-14030
night	-14031
▁Maul	-14032
▁অষ্ট	-14033
্রাল	-14034
▁Kan	-14035
▁পেত	-14036
▁analys	-14037
▁follows	-14038
▁প্রদর্শিত	-14039
▁cars	-14040
▁Paduk	-14041
াপি	-14042
িকাল	-14043
▁রিয়াল	-14044
▁Environment	-14045
After	-14046
▁নিরী	-14047
ria	-14048
▁Swed	-14049
য়েই	-14050
োগান	-14051
▁কারনে	-14052
▁footage	-14053
োরি	-14054
▁forb	-14055
▁গাছের	-14056
▁হেঁ	-14057
▁ডেস্ক	-14058
▁এও	-14059
হো	-14060
▁আয়ের	-14061
▁x	-14062
িনাল	-14063
▁Ital	-14064
▁যতক্ষণ	-14065
▁applied	-14066
▁প্রতিষ্ঠার	-14067
▁drawn	-14068
▁crying	-14069
▁মন্দিরের	-14070
▁জমির	-14071
▁Again	-14072
▁খ্রিস্টানদের	-14073
▁কিসের	-14074
▁apostles	-14075
▁baptized	-14076
bon	-14077
যেমন	-14078
ুরির	-14079
▁Mil	-14080
▁হোয়াইট	-14081
▁১৮৯	-14082
িহীন	-14083
▁পাথ	-14084
▁উল্টো	-14085
▁chemical	-14086
▁উৎপাদনের	-14087
▁ব্রো	-14088
▁Nagar	-14089
▁নোবেল	-14090
▁সেকেন্ড	-14091
▁friendship	-14092
▁Pen	-14093
▁ফেলার	-14094
▁Israeli	-14095
iban	-14096
▁empty	-14097
▁পরমাণ	-14098
▁Trinamool	-14099
▁শ্রীলঙ্কার	-14100
mod	-14101
▁Iqbal	-14102
▁slight	-14103
ব্যস্ত	-14104
▁এশিয়ান	-14105
▁গণিত	-14106
▁মণ্ডলী	-14107
▁Egyptian	-14108
▁চলচ্চিত্রটি	-14109
▁Death	-14110
izes	-14111
stan	-14112
▁খোদ	-14113
▁concl	-14114
▁টাইমস	-14115
▁সংগ্রহের	-14116
auty	-14117
ার্চ	-14118
র্যের	-14119
▁কর্মচার	-14120
▁জাহান্ন	-14121
▁স্থানান্তরিত	-14122
▁ধ্য	-14123
▁পারতেন	-14124
▁maximum	-14125
ভো	-14126
▁ব্যার	-14127
▁প্রবণতা	-14128
বলি	-14129
aked	-14130
▁খ্রিষ্ট	-14131
▁Right	-14132
লিন	-14133
ব্যে	-14134
▁Big	-14135
▁মোদির	-14136
▁যাকোব	-14137
▁explains	-14138
▁শমূ	-14139
▁গোষ্ঠীর	-14140
adha	-14141
▁মেম	-14142
▁টিকে	-14143
▁অর্ধেক	-14144
▁advised	-14145
▁governor	-14146
▁Sind	-14147
pted	-14148
▁টেক্স	-14149
iture	-14150
▁toss	-14151
pet	-14152
▁বইটি	-14153
▁কারখান	-14154
▁লাগানো	-14155
▁সত্যতা	-14156
▁নাচ	-14157
▁Give	-14158
▁medal	-14159
▁stick	-14160
ishes	-14161
▁mountains	-14162
▁বেঙ্গালুরু	-14163
সুর	-14164
▁হাতের	-14165
▁sentence	-14166
▁supposed	-14167
সদ	-14168
▁Vict	-14169
▁পাত্র	-14170
▁proced	-14171
▁অভিযানে	-14172
▁alternative	-14173
roid	-14174
▁acknow	-14175
▁primarily	-14176
্রাহ	-14177
▁ক্ষে	-14178
charged	-14179
▁producer	-14180
ীকৃত	-14181
▁Anil	-14182
▁courts	-14183
▁রাউন্ড	-14184
▁yourselves	-14185
▁hyp	-14186
▁van	-14187
▁Unt	-14188
▁জলে	-14189
▁transferred	-14190
▁participation	-14191
John	-14192
▁অভ্য	-14193
▁রাজ্যপাল	-14194
▁equipment	-14195
deep	-14196
▁Citizenship	-14197
ordan	-14198
▁ethnic	-14199
বিদ্ধ	-14200
▁moral	-14201
▁আইপিএ	-14202
▁পিতাম	-14203
htar	-14204
াবাদ	-14205
▁দাঁড়ায়	-14206
''	-14207
▁ইনিংসে	-14208
fare	-14209
▁মুসলমানদের	-14210
৩৭	-14211
▁Tam	-14212
▁গাঁধ	-14213
▁অর্জুন	-14214
▁enemies	-14215
▁supporters	-14216
▁distributed	-14217
▁ib	-14218
▁Yeah	-14219
▁ক্রিকেটের	-14220
দাবাদ	-14221
▁loves	-14222
▁Telugu	-14223
ployment	-14224
▁সূত্রের	-14225
▁ফুটেজ	-14226
▁option	-14227
▁Otherwise	-14228
▁নৈ	-14229
▁unity	-14230
▁প্রত্ন	-14231
▁upset	-14232
▁চাপা	-14233
That	-14234
▁কাপড়	-14235
uilding	-14236
▁যোগাযোগের	-14237
▁উর্	-14238
▁শব	-14239
unte	-14240
▁ঘা	-14241
▁constituted	-14242
থের	-14243
হোক	-14244
▁পার্ট	-14245
▁রিয়া	-14246
▁gods	-14247
▁সিদ্দ	-14248
▁successfully	-14249
gery	-14250
▁দিয়েই	-14251
▁lad	-14252
▁দুর্ভোগ	-14253
▁পরিপ্রে	-14254
▁explosion	-14255
coh	-14256
▁entry	-14257
▁দায়ে	-14258
▁households	-14259
ET	-14260
খানেই	-14261
▁Show	-14262
প্প	-14263
▁glad	-14264
▁load	-14265
▁বাক্স	-14266
▁earthquake	-14267
▁sustain	-14268
▁দলটি	-14269
▁unless	-14270
▁পদ্ধতির	-14271
▁everywhere	-14272
ladesh	-14273
▁suggested	-14274
▁4:1	-14275
▁মির	-14276
▁অপমান	-14277
প্রেরিত	-14278
▁অভিযানের	-14279
▁মণ	-14280
▁Sant	-14281
▁culp	-14282
▁বিহারের	-14283
▁compens	-14284
ুলা	-14285
বর্ণ	-14286
িসির	-14287
ৃহীত	-14288
ওয়াত	-14289
▁সিসিটিভি	-14290
▁কমপ্লেক্স	-14291
▁প্রকৃতপক্ষে	-14292
▁shar	-14293
▁psych	-14294
▁করুণা	-14295
৪৫	-14296
ifying	-14297
▁আসি	-14298
▁ডাউন	-14299
▁alloc	-14300
▁boost	-14301
▁interact	-14302
12	-14303
▁6,	-14304
rian	-14305
▁অবস	-14306
▁মধ্যেও	-14307
▁Padukone	-14308
▁খ্রিস্টের	-14309
▁কর্মসংস্থান	-14310
▁flesh	-14311
▁settled	-14312
▁জেট	-14313
▁ঘণ্টা	-14314
ক্তা	-14315
▁Goa	-14316
করণের	-14317
▁উচ্চার	-14318
▁ছা	-14319
▁হতেই	-14320
▁দিকের	-14321
ব্যক্তি	-14322
▁elements	-14323
▁okay	-14324
প্রায়	-14325
▁experiences	-14326
পাট	-14327
▁inaugurated	-14328
▁8,	-14329
▁Dam	-14330
▁ভঙ্গ	-14331
▁guest	-14332
▁activist	-14333
▁জিবি	-14334
▁Armen	-14335
▁vacc	-14336
▁সিভিল	-14337
▁toler	-14338
▁nominated	-14339
▁দর্শক	-14340
avior	-14341
▁করেও	-14342
▁Band	-14343
▁২০০৩	-14344
▁Taj	-14345
ার্থে	-14346
▁ভরসা	-14347
▁thanks	-14348
▁পেট্রোল	-14349
▁properly	-14350
▁অ্যাসোসিয়েশন	-14351
inn	-14352
▁Museum	-14353
aces	-14354
▁লোককে	-14355
মাণবিক	-14356
▁নিষেধ	-14357
▁Robert	-14358
▁নেতৃত্বাধীন	-14359
ushka	-14360
▁ends	-14361
erves	-14362
▁দুজনকে	-14363
▁taste	-14364
earing	-14365
▁থাকব	-14366
▁নীতির	-14367
▁Bangabandhu	-14368
এসটি	-14369
▁আজও	-14370
▁Staff	-14371
▁polic	-14372
▁রিসার্চ	-14373
▁স্থাপিত	-14374
veer	-14375
▁নায়	-14376
▁নিকটে	-14377
asa	-14378
নিম	-14379
▁পুনর্ব	-14380
▁replaced	-14381
▁ইট	-14382
্যাব	-14383
▁টেলি	-14384
▁সাক্ষি	-14385
▁accur	-14386
▁totally	-14387
▁tomorrow	-14388
▁commissioner	-14389
Why	-14390
▁stead	-14391
▁10.	-14392
▁Latin	-14393
secut	-14394
▁লেনদ	-14395
▁refugees	-14396
সাধ	-14397
বার্গ	-14398
▁labour	-14399
inations	-14400
▁থিয়েটার	-14401
৩২	-14402
▁স্বর্গীয়	-14403
tion	-14404
▁মোটেই	-14405
▁Member	-14406
▁অক্ষয়	-14407
সীমা	-14408
▁খাওয়ার	-14409
েদ	-14410
▁Hu	-14411
▁Barcelona	-14412
▁shocked	-14413
▁Whos	-14414
▁const	-14415
▁whats	-14416
▁বৈচিত্র	-14417
গর্	-14418
▁জন্	-14419
▁স্বেচ্ছাসে	-14420
▁ন্যায়বিচার	-14421
ovind	-14422
▁সংশোধনী	-14423
▁Tar	-14424
▁জেত	-14425
▁Vide	-14426
▁ইনফ	-14427
▁Rahim	-14428
▁সংগঠিত	-14429
▁fathers	-14430
▁depos	-14431
▁apparent	-14432
ipped	-14433
▁১৯৯০	-14434
atures	-14435
▁Guard	-14436
▁জনসাধারণের	-14437
▁মৃত্যুদণ্ড	-14438
GO	-14439
▁বীজ	-14440
চী	-14441
▁fundamental	-14442
▁kinds	-14443
▁maintained	-14444
পৃ	-14445
▁(.	-14446
▁এড়াতে	-14447
হ্ম	-14448
▁দের	-14449
▁সেট	-14450
anath	-14451
দ্দীন	-14452
▁discl	-14453
▁fever	-14454
▁অতীতে	-14455
▁USA	-14456
জিস্ট	-14457
▁welcom	-14458
ভূমির	-14459
▁trem	-14460
▁entirely	-14461
▁পাকিস্তানকে	-14462
▁grie	-14463
▁grief	-14464
▁shortly	-14465
▁দেখেছেন	-14466
ureau	-14467
▁shame	-14468
▁afford	-14469
েন্টের	-14470
▁নেয়ার	-14471
▁programs	-14472
So	-14473
▁দাবিতে	-14474
▁অবস্থানে	-14475
কর্মীরা	-14476
▁ধারায়	-14477
▁গবেষণায়	-14478
োহী	-14479
▁Pass	-14480
▁Krishna	-14481
attis	-14482
ণার	-14483
েক্ট	-14484
্যতা	-14485
▁দুশ্চ	-14486
▁বর্ষণ	-14487
▁objective	-14488
▁ঠিকানা	-14489
আজ	-14490
▁ফয়	-14491
reams	-14492
▁উৎক	-14493
▁চাওয়া	-14494
assan	-14495
▁পুড়ে	-14496
▁বিস্ময়	-14497
▁Sena	-14498
▁রোগীদের	-14499
▁আর্ক	-14500
▁অপসারণ	-14501
Pakistan	-14502
care	-14503
▁চোপড়া	-14504
▁transform	-14505
▁notes	-14506
▁Saif	-14507
ovenant	-14508
▁হাট	-14509
▁abuse	-14510
▁Sharif	-14511
▁যানজ	-14512
▁expand	-14513
▁নিয়ন্ত্রিত	-14514
ota	-14515
▁autom	-14516
▁বিজেপিতে	-14517
▁functions	-14518
▁flu	-14519
▁rej	-14520
▁গাল	-14521
▁তারপরই	-14522
চার্জ	-14523
ীয়রা	-14524
▁রাজার	-14525
▁বৃহত্তর	-14526
▁pollution	-14527
▁নও	-14528
▁Cant	-14529
▁Vill	-14530
▁মেলা	-14531
যাত্রা	-14532
▁পরিচর্যায়	-14533
▁চিন্তাভাবনা	-14534
গাঁও	-14535
uties	-14536
▁FIFA	-14537
▁impl	-14538
▁বিরাজ	-14539
theless	-14540
▁হুস	-14541
anskrit	-14542
▁Prasad	-14543
▁ব্রে	-14544
▁gained	-14545
▁থাকতেন	-14546
ropolitan	-14547
সেনা	-14548
▁rememb	-14549
ফিষ	-14550
berg	-14551
▁ফাঁস	-14552
IP	-14553
৩৪	-14554
জাহ	-14555
ুগণ	-14556
াকালে	-14557
▁fest	-14558
াখ	-14559
▁বলেছিলাম	-14560
▁originally	-14561
▁শ্রেণির	-14562
▁rom	-14563
▁সাজা	-14564
essed	-14565
▁consists	-14566
াক্স	-14567
বুল	-14568
▁deny	-14569
▁পুলিশি	-14570
▁সরঞ্জাম	-14571
▁Consider	-14572
▁বেকার	-14573
▁ফোনের	-14574
▁ময়না	-14575
▁যিহুদি	-14576
▁মেয়েকে	-14577
▁300	-14578
▁convey	-14579
▁সম্প্রসারণ	-14580
▁strateg	-14581
▁Executive	-14582
▁involvement	-14583
পুটি	-14584
▁আমলে	-14585
▁worshi	-14586
phy	-14587
▁Tan	-14588
রোগ	-14589
িয়ের	-14590
▁physic	-14591
▁shell	-14592
▁সেনার	-14593
▁losing	-14594
igious	-14595
▁facility	-14596
▁approximately	-14597
ংকার	-14598
▁Mel	-14599
ছা	-14600
ules	-14601
রাতে	-14602
▁আজি	-14603
▁brain	-14604
▁মহাসড়ক	-14605
rahim	-14606
aze	-14607
▁Step	-14608
▁নির্ণ	-14609
▁লজ্জা	-14610
▁appearance	-14611
▁কমান	-14612
▁methods	-14613
▁Udd	-14614
▁অবা	-14615
▁লকডাউ	-14616
▁সন্ধ্যা	-14617
break	-14618
▁bloggers	-14619
▁initiatives	-14620
▁37	-14621
ষ্টায়	-14622
▁birds	-14623
▁collapsed	-14624
edy	-14625
▁mine	-14626
▁ছয়টি	-14627
▁বাচ্চাদের	-14628
▁oath	-14629
মির	-14630
▁Image	-14631
▁Katrina	-14632
▁atmosphere	-14633
▁interesting	-14634
▁quit	-14635
জিয়াম	-14636
▁device	-14637
▁united	-14638
▁grateful	-14639
▁wins	-14640
▁harmony	-14641
▁Hey	-14642
▁ধাত	-14643
াকের	-14644
▁লবণ	-14645
▁প্রসঙ্গত	-14646
ফির	-14647
▁8.	-14648
িকর্ত	-14649
▁খায়	-14650
▁driving	-14651
▁otherwise	-14652
▁জিততে	-14653
▁মাস্টার	-14654
▁গ্রহণযোগ্য	-14655
াসমূহ	-14656
▁clin	-14657
▁শুল্ক	-14658
▁কর্মচারী	-14659
নাব	-14660
▁ওব	-14661
খন্ড	-14662
▁CPI	-14663
▁এগুলোর	-14664
AD	-14665
▁quarter	-14666
ীয়া	-14667
arted	-14668
▁mirac	-14669
▁সোহ	-14670
▁sacred	-14671
▁অবলম্বন	-14672
▁সিপিএম	-14673
জেক্ট	-14674
▁batter	-14675
▁বৈঠকের	-14676
টেন	-14677
ario	-14678
▁alongside	-14679
Islam	-14680
▁Hill	-14681
▁trig	-14682
▁finance	-14683
▁listening	-14684
▁{	-14685
▁pal	-14686
oking	-14687
place	-14688
▁approached	-14689
▁এলে	-14690
▁রিল	-14691
▁Sher	-14692
▁refers	-14693
board	-14694
inton	-14695
▁উপেক্ষা	-14696
্রিম	-14697
▁কমন	-14698
▁Theyre	-14699
▁regime	-14700
▁wa	-14701
▁Wind	-14702
▁এলেন	-14703
▁সিআই	-14704
ব্যবহার	-14705
▁মঞ্জুর	-14706
▁amazing	-14707
▁ভিডিয়ো	-14708
▁reign	-14709
▁recover	-14710
▁পারমাণবিক	-14711
▁Men	-14712
▁Khulna	-14713
▁Princip	-14714
▁moon	-14715
▁যুবকের	-14716
▁অ্যান্টি	-14717
▁উদার	-14718
▁Music	-14719
▁শিবির	-14720
▁দুর্দান্ত	-14721
▁Democratic	-14722
▁pioneer	-14723
ibl	-14724
▁পী	-14725
▁Holy	-14726
▁Secret	-14727
IV	-14728
▁Aksh	-14729
▁theatre	-14730
▁সৌন্দর	-14731
সূলের	-14732
▁আয়ার	-14733
▁বার্তায়	-14734
▁collected	-14735
প্লেট	-14736
▁নজরদারি	-14737
ীক্ষ	-14738
▁fit	-14739
▁একান্ত	-14740
▁practical	-14741
▁discipline	-14742
▁চাইছে	-14743
ferences	-14744
iforn	-14745
ishad	-14746
ত্রের	-14747
▁রাখবে	-14748
▁struct	-14749
▁ক্যাথলিক	-14750
ভাষা	-14751
▁অজানা	-14752
▁closer	-14753
ারাজ	-14754
ষ্টিতে	-14755
ressing	-14756
▁unfortun	-14757
pa	-14758
▁1:1	-14759
কর্মীদের	-14760
▁requested	-14761
oi	-14762
ampur	-14763
▁কাকে	-14764
friend	-14765
▁সম্মিল	-14766
inner	-14767
▁শান্তির	-14768
▁বিনিময়ে	-14769
▁সমাধানের	-14770
jri	-14771
▁vast	-14772
▁অগ্রসর	-14773
▁অত্যাচার	-14774
ওলানা	-14775
eel	-14776
▁নবী	-14777
▁বিদ্যালয়ের	-14778
▁Hum	-14779
▁স্বাদ	-14780
▁guided	-14781
▁verily	-14782
বিত	-14783
▁Gen	-14784
▁Prize	-14785
▁Creator	-14786
বহুল	-14787
▁habit	-14788
▁সঠিকভাবে	-14789
▁সাফ	-14790
▁solve	-14791
▁fulfilled	-14792
▁দুর্নীতির	-14793
ilas	-14794
▁লন্ডনে	-14795
▁Industry	-14796
▁করোনাভাইরাস	-14797
ught	-14798
wing	-14799
▁ক্ষতিপূ	-14800
▁Nobel	-14801
▁পেরেছি	-14802
▁Sik	-14803
▁মেসি	-14804
▁সমুদ	-14805
বিধানিক	-14806
▁Samuel	-14807
▁formal	-14808
▁মাপ	-14809
▁Heavy	-14810
▁slowly	-14811
▁মুম্বইয়ের	-14812
কেত	-14813
▁Deb	-14814
▁মঙ্গ	-14815
▁45	-14816
ellect	-14817
▁overall	-14818
▁ল্যাংডন	-14819
্লস	-14820
▁টাক	-14821
▁calm	-14822
▁ঘোষণার	-14823
▁কায়	-14824
▁বিনামূল্যে	-14825
মী	-14826
ooth	-14827
স্বাস্থ্য	-14828
▁casualties	-14829
lor	-14830
▁teen	-14831
▁shares	-14832
▁Command	-14833
▁violent	-14834
▁ওয়াশিংটন	-14835
▁grown	-14836
ighty	-14837
▁Common	-14838
▁assigned	-14839
▁egg	-14840
▁বিভাগীয়	-14841
▁AL	-14842
▁লাইব্র	-14843
▁trained	-14844
▁mish	-14845
▁শতাব্দী	-14846
▁Catholic	-14847
▁Assistant	-14848
্লী	-14849
▁তম	-14850
▁ibn	-14851
▁ফিন	-14852
cience	-14853
▁ফাইনাল	-14854
▁প্রযোজক	-14855
▁যাবতীয়	-14856
▁Independence	-14857
▁ইন্ডাস্ট্র	-14858
কত	-14859
▁নুর	-14860
▁Conf	-14861
▁wives	-14862
andal	-14863
▁ওঠেন	-14864
▁ডেপুটি	-14865
▁প্রান্তে	-14866
rine	-14867
▁অমান	-14868
sk	-14869
▁আড়	-14870
▁উচ্চতা	-14871
▁corresp	-14872
roc	-14873
▁পুঁ	-14874
▁Disc	-14875
▁crimes	-14876
▁পরিদর্শ	-14877
athy	-14878
সভাপতি	-14879
▁বলিউডে	-14880
▁Young	-14881
▁excellent	-14882
ায়ত্ত	-14883
▁loan	-14884
▁Think	-14885
oked	-14886
বিষয়ক	-14887
▁বোঝার	-14888
▁falls	-14889
▁আয়াত	-14890
▁ধার্মিক	-14891
▁সেমিফাইন	-14892
বৃন্দ	-14893
▁circuit	-14894
gin	-14895
▁obed	-14896
▁এফআইআর	-14897
▁markets	-14898
▁skills	-14899
▁Eid	-14900
▁skipper	-14901
▁Californ	-14902
াশ	-14903
irty	-14904
▁Ray	-14905
OS	-14906
▁Bul	-14907
reprene	-14908
▁native	-14909
▁শ্রেণী	-14910
▁causing	-14911
▁দ্বিগ	-14912
▁Bangalore	-14913
race	-14914
▁ক্যাটর	-14915
▁differences	-14916
▁ইচ্ছুক	-14917
গতি	-14918
rage	-14919
▁2007	-14920
▁নির্মাতা	-14921
aon	-14922
▁মিটি	-14923
িবি	-14924
▁pul	-14925
▁pending	-14926
▁policies	-14927
▁শের	-14928
▁Noah	-14929
▁কথার	-14930
▁advert	-14931
▁প্যাকে	-14932
বারে	-14933
▁হরি	-14934
▁৩০০	-14935
ুগত্য	-14936
▁গায়ক	-14937
▁Temple	-14938
▁imposed	-14939
▁বাংলাদেশি	-14940
▁সুনির্দিষ্ট	-14941
েশা	-14942
ান্দ	-14943
যুদ্ধে	-14944
▁ভয়েসেস	-14945
▁Rao	-14946
▁স্মারক	-14947
▁priority	-14948
▁আদৌ	-14949
ুখী	-14950
▁মাতৃ	-14951
▁edition	-14952
▁হইল	-14953
▁transfer	-14954
▁কাশ্মীরে	-14955
হতি	-14956
▁36	-14957
▁ওয়াই	-14958
▁concent	-14959
▁cart	-14960
▁spect	-14961
▁Shakib	-14962
▁Ku	-14963
apse	-14964
▁mal	-14965
▁subs	-14966
রিটি	-14967
▁রোগে	-14968
াপিক্স	-14969
▁drugs	-14970
▁messages	-14971
▁elim	-14972
▁আস্তে	-14973
ruit	-14974
▁স্র	-14975
▁Anushka	-14976
▁Sciences	-14977
▁kindness	-14978
▁cou	-14979
iders	-14980
▁Begum	-14981
▁Jordan	-14982
▁Turkish	-14983
▁Rai	-14984
▁কারাদণ্ড	-14985
EN	-14986
▁ভিক	-14987
▁রূপে	-14988
▁recognition	-14989
▁Ky	-14990
oral	-14991
বৃত্তি	-14992
▁feels	-14993
▁rulers	-14994
▁ব্যবধানে	-14995
▁Administration	-14996
▁সংসদীয়	-14997
mal	-14998
▁বাঘ	-14999
▁আমিই	-15000
▁spokesman	-15001
্টিফ	-15002
পূর্বা	-15003
▁টার্ম	-15004
গারের	-15005
▁পৌলের	-15006
▁breath	-15007
▁লাফিয়ে	-15008
▁পরস্পরের	-15009
▁CEO	-15010
▁চিন্তার	-15011
One	-15012
assion	-15013
▁Kabir	-15014
▁compar	-15015
▁William	-15016
▁টাওয়ার	-15017
▁commitment	-15018
▁ব্যক্তিগতভাবে	-15019
To	-15020
▁ধ্যান	-15021
▁resigned	-15022
addy	-15023
▁হিজ	-15024
water	-15025
▁fool	-15026
▁meat	-15027
▁clashes	-15028
▁emerged	-15029
udes	-15030
▁চেহারা	-15031
▁প্রসারিত	-15032
ING	-15033
▁বিস্ফোরণের	-15034
▁কবির	-15035
▁পিছু	-15036
▁বর্ণিত	-15037
▁মির্জা	-15038
▁Palestin	-15039
▁ঘটিয়ে	-15040
▁California	-15041
▁zone	-15042
▁sorry	-15043
▁gathering	-15044
▁প্রহরীদুর্গ	-15045
Our	-15046
▁ফেরা	-15047
▁parliamentary	-15048
িপুর	-15049
▁fighters	-15050
৪৪	-15051
রক্ষক	-15052
▁Chap	-15053
▁সেবার	-15054
▁Janata	-15055
▁খাম	-15056
▁ওয়েল	-15057
▁বাসের	-15058
▁বাইবেলে	-15059
▁সিদ্ধান্তে	-15060
▁৬৫	-15061
▁সুম	-15062
▁gang	-15063
▁খ্রীষ্টীয়	-15064
▁notification	-15065
▁du	-15066
▁টম	-15067
▁Lah	-15068
ভ্রষ্ট	-15069
▁owned	-15070
▁Saf	-15071
▁dia	-15072
peror	-15073
▁করাই	-15074
▁দেখিয়েছিলেন	-15075
▁আনুগত্য	-15076
বাণী	-15077
iation	-15078
▁exists	-15079
outheast	-15080
▁আন্দোলনে	-15081
▁পরিপ্রেক্ষিতে	-15082
▁Vid	-15083
▁Madras	-15084
ঘরে	-15085
ভীর	-15086
achel	-15087
▁Colle	-15088
▁heads	-15089
▁উদ্যোগে	-15090
▁জৈব	-15091
▁সিরিয়ার	-15092
▁rub	-15093
▁ঘাঁ	-15094
▁রানে	-15095
▁ships	-15096
▁নিজেরাই	-15097
▁discharged	-15098
▁স্মার্টফোন	-15099
রাগ	-15100
▁কেহ	-15101
▁theme	-15102
▁Jun	-15103
aduate	-15104
▁বেলায়	-15105
▁integrity	-15106
▁আরবি	-15107
▁reaching	-15108
▁Gupta	-15109
▁glory	-15110
▁herit	-15111
▁বিপ্লব	-15112
▁tong	-15113
▁disappointed	-15114
▁রসূলের	-15115
▁retired	-15116
▁ক্ষতিকর	-15117
▁imprisonment	-15118
▁Micro	-15119
▁conscious	-15120
▁Sunil	-15121
▁সমিতি	-15122
▁সহকারে	-15123
▁publish	-15124
▁কমান্ডার	-15125
▁লোকসভায়	-15126
ques	-15127
▁মূসা	-15128
▁ভবনের	-15129
ologies	-15130
▁External	-15131
▁yesterday	-15132
▁মহারাষ্ট্রের	-15133
রান	-15134
▁হলুদ	-15135
▁portion	-15136
ছিস	-15137
টিয়া	-15138
▁একদিনের	-15139
▁translated	-15140
যোহন	-15141
▁Thak	-15142
▁টেলিভিশ	-15143
▁offering	-15144
▁বঙ্গবন্ধু	-15145
rad	-15146
ুরো	-15147
""?"	-15148
▁Ltd	-15149
▁কবর	-15150
▁prayed	-15151
▁Italian	-15152
▁চাঁদ	-15153
pective	-15154
▁consideration	-15155
xual	-15156
▁Num	-15157
IL	-15158
▁rans	-15159
▁আরবের	-15160
▁Support	-15161
▁attract	-15162
▁গলা	-15163
▁অনুগত	-15164
▁স্বাস্থ্যের	-15165
ডো	-15166
▁34	-15167
৬০	-15168
▁countrys	-15169
ন্ডল	-15170
▁swit	-15171
▁জিতেছে	-15172
▁evident	-15173
রিতে	-15174
▁Scient	-15175
▁দুশ্চিন	-15176
্যাঁ	-15177
▁আলোর	-15178
▁Chris	-15179
▁Liter	-15180
▁পর্বে	-15181
▁নামেও	-15182
▁ডিজাইন	-15183
▁তিনজনকে	-15184
আইসি	-15185
▁মিশনার	-15186
্ণ	-15187
can	-15188
চেল	-15189
▁ফার্ম	-15190
▁রাজত্ব	-15191
িঝ	-15192
▁টিকিট	-15193
▁argument	-15194
arant	-15195
▁Sach	-15196
▁পণ্যের	-15197
নিয়	-15198
▁ধরন	-15199
orough	-15200
▁ইকবাল	-15201
▁struck	-15202
▁লক্ষ্ম	-15203
▁ব্যাঙ্কের	-15204
▁অভিযুক্তকে	-15205
▁Report	-15206
▁scholars	-15207
▁মেয়া	-15208
▁Olympics	-15209
▁অর্জনের	-15210
▁বিছ	-15211
▁মহেন্দ্র	-15212
▁কার্যালয়	-15213
ংকর	-15214
▁Syrian	-15215
▁চু	-15216
aming	-15217
▁reforms	-15218
▁অবহিত	-15219
▁শিরোনাম	-15220
rend	-15221
enses	-15222
▁শাখার	-15223
▁ভয়ঙ্কর	-15224
▁ষষ্ঠ	-15225
▁neighbours	-15226
▁বিশ্বযুদ্ধের	-15227
▁ছত্র	-15228
▁জ্বল	-15229
▁সোজা	-15230
▁আব্বাস	-15231
▁category	-15232
▁ইত	-15233
▁মস্তি	-15234
▁মানবিক	-15235
▁conducting	-15236
েন্ডার	-15237
▁Kejri	-15238
fire	-15239
ণ্ডল	-15240
যিহো	-15241
বদন্ত	-15242
▁Fort	-15243
▁jump	-15244
▁Apple	-15245
▁alcoh	-15246
াকি	-15247
▁deterior	-15248
▁উদ্যোগের	-15249
তোমার	-15250
▁পেশায়	-15251
▁SP	-15252
ীতিক	-15253
▁রয়্যাল	-15254
▁সংখ্যার	-15255
ূলে	-15256
মাধ্যমের	-15257
▁গভীরভাবে	-15258
▁স্বার্থে	-15259
attisgarh	-15260
▁ঘাটতি	-15261
▁প্রদেশে	-15262
mohan	-15263
▁দণ্ড	-15264
▁cells	-15265
▁শীর্ষে	-15266
িস্তানের	-15267
কোত্তর	-15268
▁টেমপ্লেট	-15269
▁Mot	-15270
erving	-15271
▁খানিক	-15272
▁sevent	-15273
ients	-15274
▁বললঃ	-15275
▁হাফ	-15276
▁Seven	-15277
▁নারীরা	-15278
▁frame	-15279
▁জোড়া	-15280
▁মহাপরি	-15281
▁খাঁ	-15282
▁কায়ে	-15283
সিংহ	-15284
▁titled	-15285
সুল	-15286
▁rup	-15287
▁ডার	-15288
▁আর্মেন	-15289
▁অ্যালবাম	-15290
▁passenger	-15291
▁ভাস্ক	-15292
▁bullet	-15293
▁explan	-15294
▁Liberation	-15295
▁Uk	-15296
▁Blog	-15297
▁দূর্	-15298
▁glass	-15299
▁bowl	-15300
▁Golden	-15301
▁Amendment	-15302
▁Philippines	-15303
▁liqu	-15304
▁philosophy	-15305
AC	-15306
টপ	-15307
▁tow	-15308
▁knowing	-15309
▁মেগাপিক্স	-15310
হারে	-15311
maker	-15312
▁Kaif	-15313
▁রেলের	-15314
▁covenant	-15315
▁48	-15316
▁৫৫	-15317
▁বজ	-15318
▁টার	-15319
acific	-15320
▁conver	-15321
▁whoever	-15322
্তে	-15323
▁Broad	-15324
▁desires	-15325
▁illness	-15326
▁frequently	-15327
▁প্ল্যাট	-15328
99	-15329
▁মজার	-15330
▁ঠান্ডা	-15331
▁Maulana	-15332
▁পার্থিব	-15333
▁সাব্যস্ত	-15334
▁পেরেছিলেন	-15335
▁Akshay	-15336
▁Province	-15337
▁privilege	-15338
▁map	-15339
▁গর্ভ	-15340
▁10,	-15341
▁Argentina	-15342
বিনি	-15343
▁অমর	-15344
▁রাত্র	-15345
mas	-15346
ভঙ্গ	-15347
▁5:1	-15348
▁গোলে	-15349
▁Space	-15350
▁শব্দের	-15351
বলে	-15352
রিচ	-15353
▁Mass	-15354
▁Prom	-15355
▁Thom	-15356
▁পার্ব	-15357
▁কর্ণাটক	-15358
▁প্রযোজনা	-15359
▁মানবজাতির	-15360
ুনের	-15361
্টোর	-15362
▁বিবাহিত	-15363
isted	-15364
▁প্যান	-15365
▁চিত্রনাট্য	-15366
▁terrible	-15367
hs	-15368
▁ভেসে	-15369
5%	-15370
▁ox	-15371
ভাগে	-15372
▁nav	-15373
রাজ্য	-15374
▁Green	-15375
▁উৎসবের	-15376
▁আধিকারিকরা	-15377
▁স্থানান্তর	-15378
▁দাঁড়িয়েছে	-15379
rier	-15380
▁ফর্ম	-15381
▁কয়লা	-15382
▁Vietnam	-15383
▁ম্যাগাজ	-15384
▁সমীক্ষা	-15385
▁ফেব্রুয়ার	-15386
▁hyd	-15387
itary	-15388
▁আসবেন	-15389
▁দফতরের	-15390
▁hide	-15391
▁নির্দেশিকা	-15392
স্তান	-15393
▁bright	-15394
herd	-15395
▁Without	-15396
▁retire	-15397
▁আলিয়া	-15398
▁heritage	-15399
▁ওয়াদা	-15400
▁পুরুষের	-15401
▁subjects	-15402
▁কিংবদন্ত	-15403
▁150	-15404
▁বোম	-15405
▁নিপ	-15406
▁asks	-15407
member	-15408
▁factors	-15409
▁personally	-15410
▁forgiveness	-15411
▁personality	-15412
▁এখ	-15413
alam	-15414
▁spreading	-15415
▁সৃষ্টিকর্ত	-15416
▁Path	-15417
▁নাগাদ	-15418
▁vig	-15419
▁হেড	-15420
▁payment	-15421
▁কূটনৈতিক	-15422
ড়াচ্ছে	-15423
▁letters	-15424
▁সিরিয়া	-15425
▁সংখ্যায়	-15426
arkar	-15427
▁batting	-15428
▁Kim	-15429
arkhand	-15430
▁gate	-15431
▁পাইলট	-15432
ylon	-15433
Am	-15434
▁লিখতে	-15435
▁ascertained	-15436
:"	-15437
সো	-15438
▁Policy	-15439
▁অগ্রগামী	-15440
▁৫৯	-15441
▁figures	-15442
▁জনপ্রিয়তা	-15443
▁৭৫	-15444
শ্যক	-15445
জনদের	-15446
▁গ্রহ	-15447
▁ভ্যান	-15448
▁Bureau	-15449
▁Municip	-15450
▁visiting	-15451
িসহ	-15452
▁জী	-15453
▁পিপ	-15454
▁জুটি	-15455
▁Writ	-15456
▁টেকন	-15457
▁repent	-15458
▁Kejriwal	-15459
▁ধোঁ	-15460
ials	-15461
▁তেজ	-15462
▁duties	-15463
▁মিলেছে	-15464
▁অন্যেরা	-15465
▁Raw	-15466
▁Camp	-15467
jah	-15468
ঞ্ছ	-15469
বিব	-15470
star	-15471
▁guy	-15472
▁পিঠ	-15473
▁Free	-15474
▁ফরি	-15475
▁সামাল	-15476
▁সর্বজ্ঞ	-15477
▁spiritually	-15478
লীগের	-15479
▁cooper	-15480
▁এনআরসি	-15481
▁Similarly	-15482
ন্না	-15483
istrate	-15484
▁AS	-15485
খানি	-15486
▁ইউসু	-15487
▁innoc	-15488
▁spark	-15489
▁আবদ্ধ	-15490
▁স্টেশনে	-15491
▁লিপিবদ্ধ	-15492
otic	-15493
▁ছায়া	-15494
▁beauty	-15495
▁stones	-15496
▁রয়েছি	-15497
▁ছুট	-15498
▁হোল	-15499
স্থানীয়	-15500
▁painful	-15501
▁দ্বন্দ্ব	-15502
▁ফিট	-15503
▁পরিমাপ	-15504
▁চেয়েছিল	-15505
▁sale	-15506
▁stable	-15507
▁motorcy	-15508
▁মানচিত্র	-15509
বন্দি	-15510
▁যুবককে	-15511
▁বাধ্যতামূলক	-15512
ৃশ	-15513
▁উপকরণ	-15514
▁প্রত্যেকেই	-15515
▁Investigation	-15516
▁কৌত	-15517
▁Ranveer	-15518
▁presidential	-15519
শয়	-15520
▁মনি	-15521
▁পর্ষ	-15522
▁extend	-15523
▁কার্যকরী	-15524
▁নজরে	-15525
▁সামর্থ	-15526
ৌক	-15527
hend	-15528
াহ্ম	-15529
▁কানে	-15530
▁pursu	-15531
▁Forces	-15532
▁তাহাদের	-15533
cribed	-15534
▁খবরের	-15535
▁appealed	-15536
▁দূত	-15537
▁যতটা	-15538
ামিটার	-15539
▁balance	-15540
▁দুঃখজনক	-15541
▁valid	-15542
▁সেঞ্চ	-15543
▁সদ্য	-15544
▁Use	-15545
▁ছত্ত	-15546
▁১৯৯১	-15547
iments	-15548
▁marty	-15549
itled	-15550
▁sweet	-15551
পাকিস্তান	-15552
▁departments	-15553
▁intelligence	-15554
▁202	-15555
▁ব্যাব	-15556
▁protesting	-15557
ingh	-15558
▁2006	-15559
▁rare	-15560
▁AF	-15561
▁রেলপথ	-15562
▁blessed	-15563
▁আত্মঘাতী	-15564
▁পূর্বাভাস	-15565
▁trials	-15566
▁পৌরসভা	-15567
▁blessing	-15568
▁আত্মহত্যার	-15569
▁প্রিমিয়ার	-15570
▁কট	-15571
look	-15572
mail	-15573
▁১৮৮	-15574
▁ছোটো	-15575
▁bought	-15576
▁attending	-15577
▁আকর্ষণীয়	-15578
▁আদমশুম	-15579
▁penalty	-15580
▁clar	-15581
▁Street	-15582
▁transp	-15583
▁appreciation	-15584
▁righteousness	-15585
orious	-15586
▁আন্তঃ	-15587
▁Han	-15588
▁iron	-15589
▁গায়	-15590
estion	-15591
▁pride	-15592
রাষ্ট্রপতি	-15593
▁গণতন্ত্রের	-15594
aria	-15595
atur	-15596
বিএস	-15597
্লীল	-15598
lo	-15599
obile	-15600
কিছুর	-15601
▁Ashok	-15602
▁Ibrahim	-15603
▁smaller	-15604
▁overcome	-15605
▁Hen	-15606
▁সামগ্র	-15607
সিপি	-15608
▁অনিল	-15609
onents	-15610
▁Obama	-15611
[...]
