<unk>	0
<s>	0
</s>	0
en	-0
er	-1
in	-2
▁a	-3
▁t	-4
▁d	-5
ch	-6
es	-7
on	-8
▁th	-9
un	-10
it	-11
is	-12
▁s	-13
▁w	-14
at	-15
ie	-16
or	-17
an	-18
▁the	-19
re	-20
▁b	-21
▁o	-22
al	-23
ar	-24
▁in	-25
▁f	-26
ich	-27
▁m	-28
te	-29
ion	-30
▁e	-31
▁an	-32
ur	-33
as	-34
le	-35
▁p	-36
▁c	-37
▁un	-38
▁h	-39
us	-40
▁S	-41
ent	-42
ge	-43
▁of	-44
ro	-45
▁n	-46
▁v	-47
ing	-48
ung	-49
▁and	-50
▁to	-51
▁A	-52
ll	-53
ed	-54
▁die	-55
om	-56
▁der	-57
▁und	-58
▁E	-59
▁I	-60
ig	-61
st	-62
ic	-63
▁be	-64
▁M	-65
▁is	-66
▁D	-67
▁T	-68
▁ein	-69
▁B	-70
▁P	-71
ir	-72
▁z	-73
im	-74
▁g	-75
el	-76
ut	-77
ra	-78
ter	-79
em	-80
il	-81
ten	-82
▁W	-83
ol	-84
ation	-85
der	-86
eit	-87
et	-88
▁F	-89
▁l	-90
am	-91
den	-92
▁re	-93
▁G	-94
hr	-95
ies	-96
um	-97
op	-98
▁K	-99
ct	-100
▁H	-101
sch	-102
▁R	-103
ul	-104
▁k	-105
uf	-106
▁C	-107
ber	-108
iv	-109
lich	-110
de	-111
▁V	-112
▁for	-113
ab	-114
ot	-115
ür	-116
isch	-117
icht	-118
ier	-119
gen	-120
▁Th	-121
▁on	-122
▁das	-123
▁zu	-124
▁L	-125
ere	-126
▁den	-127
ly	-128
est	-129
ess	-130
▁that	-131
os	-132
and	-133
id	-134
▁U	-135
ce	-136
omm	-137
ein	-138
ers	-139
▁pro	-140
▁al	-141
ow	-142
▁wh	-143
ach	-144
▁von	-145
▁r	-146
▁ge	-147
ort	-148
▁im	-149
uch	-150
▁st	-151
ith	-152
▁y	-153
▁In	-154
▁wir	-155
kt	-156
▁N	-157
if	-158
▁con	-159
▁ist	-160
▁ver	-161
▁er	-162
▁with	-163
ver	-164
▁auf	-165
▁we	-166
▁für	-167
urop	-168
ay	-169
ill	-170
▁des	-171
▁it	-172
ve	-173
▁mit	-174
▁are	-175
ad	-176
ts	-177
▁Z	-178
▁1	-179
ind	-180
▁as	-181
ck	-182
▁so	-183
▁de	-184
▁The	-185
▁ne	-186
iss	-187
▁(	-188
▁yo	-189
▁dies	-190
▁St	-191
end	-192
af	-193
▁Europ	-194
pp	-195
ate	-196
ment	-197
ik	-198
th	-199
▁se	-200
qu	-201
▁2	-202
ist	-203
ungen	-204
la	-205
▁Un	-206
ischen	-207
nen	-208
men	-209
ib	-210
▁Ver	-211
▁als	-212
ust	-213
▁eine	-214
ak	-215
▁ex	-216
ant	-217
ne	-218
▁dem	-219
for	-220
▁this	-221
ah	-222
ity	-223
▁O	-224
▁ha	-225
ien	-226
ive	-227
ial	-228
▁An	-229
▁Sie	-230
▁or	-231
▁j	-232
art	-233
▁nicht	-234
▁J	-235
pe	-236
▁wer	-237
und	-238
ug	-239
▁co	-240
▁not	-241
ann	-242
über	-243
ste	-244
00	-245
▁-	-246
▁sich	-247
▁all	-248
▁le	-249
än	-250
ub	-251
ff	-252
▁werden	-253
tel	-254
▁Re	-255
▁by	-256
we	-257
▁have	-258
▁dass	-259
rom	-260
ag	-261
igen	-262
▁at	-263
igh	-264
▁es	-265
ass	-266
ens	-267
▁aus	-268
ain	-269
all	-270
uld	-271
▁Die	-272
▁you	-273
▁sh	-274
up	-275
▁will	-276
sp	-277
▁ab	-278
od	-279
▁com	-280
▁uns	-281
iel	-282
ern	-283
▁über	-284
aus	-285
▁i	-286
ure	-287
▁me	-288
ze	-289
▁which	-290
age	-291
ions	-292
ommiss	-293
▁Pr	-294
ran	-295
ted	-296
▁was	-297
▁auch	-298
▁Sch	-299
ben	-300
lie	-301
▁from	-302
▁Europe	-303
ahr	-304
hen	-305
hal	-306
ungs	-307
du	-308
och	-309
ard	-310
▁um	-311
▁Be	-312
ould	-313
▁sind	-314
▁sch	-315
▁We	-316
▁us	-317
tern	-318
▁Pro	-319
tr	-320
▁ch	-321
ommission	-322
ident	-323
og	-324
▁pr	-325
▁ent	-326
fer	-327
▁vor	-328
▁wird	-329
uss	-330
▁En	-331
▁has	-332
esch	-333
ue	-334
▁hab	-335
schaf	-336
ip	-337
iz	-338
mer	-339
ft	-340
port	-341
▁wor	-342
ine	-343
gr	-344
ön	-345
ss	-346
▁en	-347
ud	-348
▁res	-349
ang	-350
llen	-351
oc	-352
ous	-353
ische	-354
▁Er	-355
ick	-356
ok	-357
▁Par	-358
▁wie	-359
▁da	-360
enn	-361
ast	-362
ät	-363
our	-364
▁he	-365
urch	-366
▁can	-367
▁man	-368
me	-369
ise	-370
able	-371
etz	-372
▁am	-373
err	-374
form	-375
ige	-376
ire	-377
keit	-378
▁hat	-379
▁sein	-380
▁ich	-381
▁Ar	-382
ap	-383
ost	-384
pr	-385
▁oder	-386
ert	-387
ament	-388
▁our	-389
ore	-390
ia	-391
otel	-392
be	-393
cc	-394
erv	-395
▁comp	-396
▁zur	-397
ult	-398
▁also	-399
beit	-400
▁European	-401
ations	-402
▁haben	-403
▁sie	-404
▁"	-405
▁Mit	-406
ational	-407
ction	-408
ical	-409
heit	-410
ru	-411
ition	-412
▁ad	-413
ese	-414
lichen	-415
ish	-416
▁Aus	-417
ice	-418
lo	-419
ated	-420
he	-421
out	-422
are	-423
dern	-424
▁Ein	-425
▁bei	-426
▁do	-427
▁einer	-428
▁kön	-429
ome	-430
olit	-431
rit	-432
se	-433
aten	-434
tz	-435
ther	-436
hl	-437
▁Wir	-438
▁200	-439
▁Ge	-440
ord	-441
ark	-442
fü	-443
ieren	-444
pt	-445
ect	-446
▁unter	-447
▁.	-448
ün	-449
▁Parl	-450
her	-451
▁nach	-452
▁qu	-453
ac	-454
schaft	-455
▁einen	-456
ht	-457
ms	-458
▁part	-459
ign	-460
är	-461
tet	-462
iert	-463
elt	-464
▁your	-465
ight	-466
▁its	-467
▁Union	-468
vel	-469
ates	-470
oun	-471
ake	-472
▁te	-473
tra	-474
▁Das	-475
ear	-476
▁reg	-477
ite	-478
▁durch	-479
▁gro	-480
▁Fra	-481
ank	-482
ian	-483
au	-484
ger	-485
▁Ber	-486
fen	-487
▁su	-488
yste	-489
▁sp	-490
▁but	-491
▁It	-492
▁wur	-493
ember	-494
ary	-495
▁go	-496
▁ro	-497
▁ag	-498
ide	-499
cial	-500
▁Vor	-501
▁Ich	-502
▁können	-503
▁Ab	-504
oll	-505
▁there	-506
liche	-507
▁Mr	-508
gt	-509
per	-510
äs	-511
con	-512
▁app	-513
▁3	-514
ose	-515
ör	-516
hre	-517
▁ste	-518
▁Commission	-519
anz	-520
▁dar	-521
▁EU	-522
cht	-523
▁Herr	-524
▁tra	-525
▁war	-526
ual	-527
chen	-528
rie	-529
▁19	-530
cl	-531
ime	-532
▁spe	-533
▁would	-534
eren	-535
▁mö	-536
▁more	-537
ance	-538
tw	-539
▁–	-540
ile	-541
ail	-542
▁zum	-543
▁their	-544
ov	-545
▁einem	-546
ommen	-547
▁been	-548
mp	-549
▁gen	-550
▁bes	-551
▁cont	-552
reat	-553
ute	-554
glich	-555
imm	-556
uß	-557
ase	-558
▁Al	-559
ong	-560
ame	-561
act	-562
▁Europä	-563
chte	-564
chn	-565
▁ar	-566
utz	-567
ild	-568
▁Te	-569
gra	-570
▁kann	-571
▁This	-572
▁fin	-573
ück	-574
ble	-575
oss	-576
▁diese	-577
ack	-578
▁one	-579
▁De	-580
che	-581
üss	-582
▁Le	-583
▁acc	-584
▁nur	-585
ont	-586
▁dis	-587
ugh	-588
one	-589
ents	-590
▁coun	-591
▁Ch	-592
▁per	-593
▁Unter	-594
▁comm	-595
▁Sp	-596
sten	-597
ges	-598
gan	-599
hn	-600
▁Auf	-601
▁should	-602
▁alle	-603
▁bet	-604
ahl	-605
▁Hotel	-606
▁work	-607
▁pl	-608
▁Gr	-609
wer	-610
ution	-611
lic	-612
ike	-613
▁new	-614
▁Der	-615
ierung	-616
geb	-617
▁,	-618
▁up	-619
eine	-620
▁cl	-621
ob	-622
ely	-623
zu	-624
▁Se	-625
land	-626
hmen	-627
auf	-628
ree	-629
▁For	-630
▁Jahr	-631
hren	-632
ktion	-633
äsident	-634
▁out	-635
▁dieser	-636
igkeit	-637
▁Pres	-638
av	-639
▁ob	-640
to	-641
ner	-642
ld	-643
olle	-644
▁jed	-645
ons	-646
reich	-647
pl	-648
▁pre	-649
▁countr	-650
▁very	-651
▁Dies	-652
ings	-653
▁ind	-654
▁must	-655
▁Es	-656
▁inter	-657
▁zw	-658
▁who	-659
▁Kommission	-660
▁other	-661
bar	-662
ke	-663
▁daß	-664
▁noch	-665
▁produ	-666
ities	-667
ähr	-668
formation	-669
▁ma	-670
▁ev	-671
▁they	-672
▁pe	-673
▁weit	-674
▁need	-675
ink	-676
mit	-677
gram	-678
ces	-679
pro	-680
wo	-681
ors	-682
▁wurde	-683
ater	-684
ments	-685
tell	-686
▁no	-687
▁ber	-688
schen	-689
▁mehr	-690
▁soll	-691
▁only	-692
▁intern	-693
▁year	-694
▁fe	-695
▁President	-696
▁bec	-697
rat	-698
▁cons	-699
▁supp	-700
gel	-701
▁like	-702
▁str	-703
▁aber	-704
ple	-705
olog	-706
oin	-707
glie	-708
ystem	-709
▁time	-710
▁wenn	-711
▁about	-712
▁5	-713
üssen	-714
▁Präsident	-715
▁polit	-716
teil	-717
fe	-718
pos	-719
▁4	-720
ible	-721
▁any	-722
..	-723
entr	-724
erm	-725
ious	-726
assen	-727
ced	-728
▁Y	-729
uen	-730
leich	-731
▁prov	-732
).	-733
▁ges	-734
▁sehr	-735
ange	-736
▁Reg	-737
velop	-738
xt	-739
▁müssen	-740
lin	-741
▁tran	-742
ally	-743
ry	-744
ität	-745
enz	-746
ject	-747
▁unser	-748
nah	-749
▁wo	-750
▁eff	-751
alt	-752
cess	-753
▁sow	-754
hnen	-755
▁ra	-756
iament	-757
ütz	-758
arbeit	-759
▁Arbeit	-760
▁these	-761
onder	-762
ient	-763
▁Parlament	-764
ammen	-765
▁rec	-766
▁serv	-767
▁sol	-768
▁Mitglie	-769
▁dire	-770
fahr	-771
▁off	-772
io	-773
ular	-774
ans	-775
▁Member	-776
fore	-777
▁vie	-778
atz	-779
own	-780
▁hin	-781
ied	-782
ibt	-783
led	-784
ility	-785
▁import	-786
usammen	-787
ring	-788
▁So	-789
▁diesem	-790
stit	-791
▁Men	-792
als	-793
äl	-794
ider	-795
irst	-796
erson	-797
ph	-798
ople	-799
ause	-800
ures	-801
aaten	-802
ßen	-803
igt	-804
▁gegen	-805
▁if	-806
▁develop	-807
cy	-808
ism	-809
▁such	-810
▁la	-811
▁Um	-812
halten	-813
wend	-814
fol	-815
▁report	-816
fl	-817
▁ihre	-818
ook	-819
änd	-820
▁act	-821
ays	-822
▁Europäischen	-823
unden	-824
wn	-825
sche	-826
▁pol	-827
▁Ma	-828
▁gr	-829
iger	-830
iven	-831
▁bis	-832
etzt	-833
▁sub	-834
ative	-835
ateg	-836
dition	-837
ks	-838
ific	-839
▁rel	-840
▁Parliament	-841
▁ins	-842
▁Zeit	-843
▁over	-844
▁my	-845
itu	-846
ale	-847
wor	-848
▁20	-849
nehmen	-850
▁into	-851
▁people	-852
▁were	-853
▁ihr	-854
▁Ne	-855
führ	-856
kte	-857
▁well	-858
str	-859
cre	-860
iden	-861
ices	-862
▁gem	-863
▁Ü	-864
▁international	-865
ken	-866
▁best	-867
▁As	-868
erg	-869
▁some	-870
),	-871
▁viel	-872
ement	-873
...	-874
▁möchte	-875
bs	-876
▁what	-877
▁use	-878
lung	-879
acht	-880
cil	-881
enden	-882
▁inv	-883
isten	-884
▁Mitglied	-885
conom	-886
▁Mar	-887
ene	-888
▁dif	-889
▁States	-890
▁hier	-891
▁mark	-892
▁Or	-893
▁sa	-894
arge	-895
icher	-896
▁high	-897
fr	-898
▁her	-899
▁Coun	-900
▁eines	-901
uropä	-902
▁Im	-903
amen	-904
▁Über	-905
▁hotel	-906
▁kn	-907
rei	-908
ou	-909
very	-910
▁bed	-911
ory	-912
▁countries	-913
▁first	-914
▁loc	-915
ull	-916
▁than	-917
▁gew	-918
▁incl	-919
▁vom	-920
▁most	-921
ention	-922
olitik	-923
zeit	-924
▁Me	-925
▁hel	-926
▁wicht	-927
▁when	-928
▁dec	-929
▁tr	-930
▁his	-931
▁lie	-932
▁partic	-933
itte	-934
pect	-935
iet	-936
▁under	-937
esent	-938
▁vers	-939
▁them	-940
ace	-941
inn	-942
ards	-943
ating	-944
ages	-945
▁Council	-946
▁Kon	-947
▁dam	-948
▁Q	-949
les	-950
▁just	-951
itz	-952
▁Menschen	-953
sicht	-954
ett	-955
▁Entw	-956
▁polic	-957
▁sowie	-958
▁wel	-959
▁ele	-960
▁Bericht	-961
▁He	-962
▁now	-963
▁again	-964
▁europä	-965
abe	-966
▁support	-967
ond	-968
änder	-969
att	-970
tre	-971
▁aut	-972
▁dieses	-973
▁gu	-974
▁bas	-975
▁important	-976
ights	-977
lä	-978
▁make	-979
ats	-980
äch	-981
ween	-982
▁Land	-983
els	-984
▁gibt	-985
▁pla	-986
halt	-987
▁econom	-988
▁many	-989
ues	-990
▁how	-991
▁room	-992
essen	-993
kl	-994
kommen	-995
▁between	-996
stütz	-997
▁ass	-998
▁Comm	-999
ho	-1000
fin	-1001
▁Nach	-1002
▁propos	-1003
je	-1004
hand	-1005
▁6	-1006
oth	-1007
▁requ	-1008
▁mo	-1009
wir	-1010
halb	-1011
▁fr	-1012
fter	-1013
any	-1014
issen	-1015
▁techn	-1016
ives	-1017
igung	-1018
▁poss	-1019
▁because	-1020
ös	-1021
ließ	-1022
staaten	-1023
ence	-1024
ural	-1025
▁'	-1026
▁zwischen	-1027
ware	-1028
▁leg	-1029
bst	-1030
▁Bed	-1031
ters	-1032
▁Verb	-1033
▁take	-1034
▁fre	-1035
▁bereit	-1036
legen	-1037
öglich	-1038
zie	-1039
▁kon	-1040
▁world	-1041
▁Entwick	-1042
▁Pl	-1043
▁Fl	-1044
ublic	-1045
▁market	-1046
▁pos	-1047
tschaft	-1048
uer	-1049
ote	-1050
ful	-1051
▁cre	-1052
arm	-1053
dr	-1054
▁muss	-1055
mal	-1056
▁Ent	-1057
oint	-1058
ever	-1059
cted	-1060
rough	-1061
blem	-1062
▁fo	-1063
▁find	-1064
zial	-1065
weit	-1066
off	-1067
▁sel	-1068
▁Intern	-1069
min	-1070
ath	-1071
ict	-1072
amp	-1073
lear	-1074
hör	-1075
▁op	-1076
▁unsere	-1077
▁son	-1078
▁par	-1079
▁national	-1080
ount	-1081
▁All	-1082
▁good	-1083
omp	-1084
dit	-1085
▁where	-1086
▁keine	-1087
dem	-1088
▁Ges	-1089
▁min	-1090
ality	-1091
▁Ihre	-1092
▁great	-1093
▁bie	-1094
▁hand	-1095
▁US	-1096
▁av	-1097
vern	-1098
nis	-1099
▁nat	-1100
▁Ihnen	-1101
▁two	-1102
▁Art	-1103
rag	-1104
▁Min	-1105
eschä	-1106
▁information	-1107
uring	-1108
▁emp	-1109
urn	-1110
▁Produ	-1111
▁„	-1112
rä	-1113
rauch	-1114
achen	-1115
▁rem	-1116
▁every	-1117
öff	-1118
▁einz	-1119
▁verb	-1120
▁made	-1121
▁years	-1122
▁had	-1123
▁conc	-1124
ße	-1125
▁Grund	-1126
ium	-1127
▁anderen	-1128
stand	-1129
amil	-1130
▁mein	-1131
rol	-1132
sel	-1133
hm	-1134
unkt	-1135
▁even	-1136
▁end	-1137
schie	-1138
aut	-1139
▁through	-1140
laub	-1141
fort	-1142
▁If	-1143
▁Europa	-1144
▁way	-1145
air	-1146
cept	-1147
▁199	-1148
▁iss	-1149
▁system	-1150
geben	-1151
▁Ä	-1152
▁those	-1153
▁product	-1154
▁get	-1155
ischer	-1156
▁Zusammen	-1157
ision	-1158
chten	-1159
lish	-1160
▁Mitgliedstaaten	-1161
forder	-1162
▁see	-1163
ession	-1164
▁Fin	-1165
gend	-1166
▁Rat	-1167
ereich	-1168
▁sc	-1169
ren	-1170
ält	-1171
gung	-1172
▁weiter	-1173
▁ange	-1174
stell	-1175
ister	-1176
ower	-1177
ws	-1178
▁Am	-1179
▁7	-1180
immer	-1181
weise	-1182
▁immer	-1183
lag	-1184
ganis	-1185
day	-1186
▁policy	-1187
▁order	-1188
▁may	-1189
ys	-1190
ows	-1191
ina	-1192
erein	-1193
▁tak	-1194
▁..	-1195
▁Seit	-1196
▁direct	-1197
ußer	-1198
lick	-1199
▁Wenn	-1200
▁disc	-1201
ument	-1202
uman	-1203
▁dann	-1204
▁10	-1205
▁Ex	-1206
hne	-1207
ster	-1208
▁right	-1209
▁[	-1210
unity	-1211
▁ac	-1212
ituation	-1213
▁Vorsch	-1214
spr	-1215
rif	-1216
▁being	-1217
▁8	-1218
ivers	-1219
▁“	-1220
▁fact	-1221
alls	-1222
ital	-1223
▁beste	-1224
▁beg	-1225
ited	-1226
▁num	-1227
▁Bes	-1228
chts	-1229
isen	-1230
▁rest	-1231
▁ke	-1232
▁There	-1233
eration	-1234
▁belie	-1235
▁particular	-1236
▁appro	-1237
▁wieder	-1238
▁diesen	-1239
nahmen	-1240
000	-1241
▁differ	-1242
▁damit	-1243
▁Wh	-1244
▁Haus	-1245
▁cent	-1246
gest	-1247
nung	-1248
▁cour	-1249
▁ger	-1250
▁car	-1251
ionen	-1252
istr	-1253
ior	-1254
▁trans	-1255
▁zwe	-1256
▁includ	-1257
com	-1258
▁wurden	-1259
vor	-1260
▁Bereich	-1261
▁ganz	-1262
▁own	-1263
▁gesch	-1264
▁On	-1265
bal	-1266
▁Welt	-1267
eins	-1268
▁fü	-1269
aur	-1270
▁Gro	-1271
isse	-1272
icherheit	-1273
▁process	-1274
part	-1275
ough	-1276
▁Frau	-1277
▁resp	-1278
itt	-1279
▁Des	-1280
iness	-1281
eln	-1282
▁del	-1283
▁know	-1284
adt	-1285
▁mon	-1286
get	-1287
ade	-1288
read	-1289
innen	-1290
zeich	-1291
atter	-1292
▁Ihr	-1293
▁cur	-1294
trag	-1295
ouse	-1296
▁Diese	-1297
old	-1298
ändern	-1299
▁bus	-1300
gramm	-1301
stitution	-1302
▁At	-1303
elle	-1304
▁area	-1305
▁quest	-1306
▁exp	-1307
▁main	-1308
zen	-1309
ler	-1310
10	-1311
▁ph	-1312
oy	-1313
▁kein	-1314
schieden	-1315
▁unserer	-1316
itä	-1317
▁Hand	-1318
▁bu	-1319
az	-1320
ool	-1321
▁agre	-1322
hin	-1323
alk	-1324
▁Con	-1325
rechen	-1326
▁Geb	-1327
▁real	-1328
round	-1329
▁help	-1330
▁here	-1331
▁habe	-1332
ix	-1333
schafts	-1334
▁sm	-1335
▁...	-1336
▁sondern	-1337
▁Zu	-1338
▁9	-1339
▁stand	-1340
▁You	-1341
▁after	-1342
▁Gem	-1343
▁deb	-1344
▁comple	-1345
▁seine	-1346
▁Inter	-1347
▁Her	-1348
eth	-1349
▁jedoch	-1350
leg	-1351
▁political	-1352
piel	-1353
▁form	-1354
ests	-1355
ince	-1356
tegr	-1357
gesch	-1358
▁Europäische	-1359
urs	-1360
ruck	-1361
▁public	-1362
▁place	-1363
▁ide	-1364
▁gut	-1365
▁incre	-1366
▁Information	-1367
eld	-1368
▁concern	-1369
▁prote	-1370
▁possible	-1371
mittel	-1372
ved	-1373
▁same	-1374
ende	-1375
ently	-1376
▁Bar	-1377
▁Bür	-1378
▁sim	-1379
ax	-1380
ktiv	-1381
▁ausge	-1382
▁etw	-1383
▁clear	-1384
▁wür	-1385
▁ser	-1386
iron	-1387
bens	-1388
öglichkeit	-1389
schließ	-1390
ines	-1391
ierte	-1392
▁could	-1393
▁neue	-1394
ata	-1395
▁human	-1396
▁Ind	-1397
tens	-1398
▁Man	-1399
▁want	-1400
eral	-1401
▁heute	-1402
▁bef	-1403
▁Br	-1404
▁dr	-1405
▁Fre	-1406
▁Ste	-1407
fach	-1408
line	-1409
▁contin	-1410
▁say	-1411
▁number	-1412
lagen	-1413
nder	-1414
▁offer	-1415
▁economic	-1416
▁est	-1417
▁person	-1418
▁does	-1419
▁gleich	-1420
ven	-1421
▁then	-1422
▁development	-1423
▁Teil	-1424
▁opp	-1425
ertain	-1426
▁within	-1427
isk	-1428
▁effect	-1429
▁Unternehmen	-1430
use	-1431
▁wen	-1432
ßnahmen	-1433
▁rights	-1434
iti	-1435
▁Kolle	-1436
ustr	-1437
ants	-1438
tellt	-1439
osten	-1440
uro	-1441
raft	-1442
▁Fr	-1443
▁Änder	-1444
▁bereits	-1445
▁Fran	-1446
▁Str	-1447
alen	-1448
▁avail	-1449
ics	-1450
▁15	-1451
▁transp	-1452
▁exam	-1453
▁fest	-1454
▁selbst	-1455
▁Schl	-1456
▁against	-1457
yp	-1458
▁ohne	-1459
ähl	-1460
▁much	-1461
aup	-1462
▁mich	-1463
hip	-1464
▁Pre	-1465
▁sur	-1466
▁fund	-1467
▁both	-1468
▁val	-1469
▁used	-1470
▁Entwicklung	-1471
bes	-1472
▁Bet	-1473
▁vis	-1474
erk	-1475
ma	-1476
lage	-1477
ander	-1478
▁How	-1479
▁therefore	-1480
icult	-1481
▁lang	-1482
▁prof	-1483
▁ihrer	-1484
ock	-1485
▁wichtig	-1486
licher	-1487
utions	-1488
lobal	-1489
stru	-1490
▁level	-1491
▁Germ	-1492
▁sollte	-1493
▁sign	-1494
loy	-1495
fern	-1496
▁hist	-1497
▁var	-1498
ierten	-1499
erung	-1500
▁region	-1501
▁Is	-1502
▁med	-1503
▁neuen	-1504
setz	-1505
▁europäischen	-1506
ife	-1507
viron	-1508
que	-1509
▁equ	-1510
ftware	-1511
ustom	-1512
▁Hin	-1513
ds	-1514
ulation	-1515
▁pra	-1516
▁bring	-1517
▁Wie	-1518
ivid	-1519
▁fun	-1520
▁Vers	-1521
ständ	-1522
▁Jahren	-1523
▁play	-1524
ep	-1525
▁Richt	-1526
aff	-1527
▁full	-1528
ux	-1529
äre	-1530
satz	-1531
▁cr	-1532
▁andere	-1533
▁provid	-1534
br	-1535
▁bo	-1536
▁social	-1537
reichen	-1538
▁country	-1539
öffent	-1540
urg	-1541
ically	-1542
fahren	-1543
agement	-1544
▁zwei	-1545
eng	-1546
▁eigen	-1547
▁bre	-1548
ittee	-1549
öß	-1550
net	-1551
way	-1552
▁conf	-1553
▁view	-1554
wert	-1555
kun	-1556
▁denn	-1557
▁think	-1558
▁finan	-1559
cur	-1560
▁group	-1561
its	-1562
▁last	-1563
▁letz	-1564
▁without	-1565
▁point	-1566
▁18	-1567
▁still	-1568
vironment	-1569
wick	-1570
▁exper	-1571
work	-1572
▁Kl	-1573
mb	-1574
ichte	-1575
äng	-1576
ets	-1577
▁meas	-1578
▁ens	-1579
under	-1580
par	-1581
▁denen	-1582
immt	-1583
over	-1584
eut	-1585
▁Mon	-1586
kehr	-1587
▁12	-1588
▁Sicherheit	-1589
▁sollten	-1590
▁oper	-1591
▁consider	-1592
▁adv	-1593
iver	-1594
esse	-1595
▁different	-1596
▁services	-1597
▁Frage	-1598
▁finden	-1599
▁Gen	-1600
▁long	-1601
▁access	-1602
▁Fe	-1603
gar	-1604
▁gemeins	-1605
▁priv	-1606
ffen	-1607
▁mod	-1608
nahme	-1609
▁möglich	-1610
▁opt	-1611
lichkeit	-1612
fra	-1613
entral	-1614
ists	-1615
esen	-1616
▁Part	-1617
▁verschieden	-1618
wort	-1619
ohl	-1620
▁spec	-1621
ER	-1622
ize	-1623
▁ers	-1624
res	-1625
ondere	-1626
ährend	-1627
hor	-1628
▁down	-1629
▁Person	-1630
▁prin	-1631
ness	-1632
ationen	-1633
▁govern	-1634
zeug	-1635
▁free	-1636
▁att	-1637
ritt	-1638
ollow	-1639
man	-1640
▁available	-1641
▁gel	-1642
▁cap	-1643
richt	-1644
ope	-1645
▁Bürger	-1646
▁require	-1647
aking	-1648
▁unterstütz	-1649
▁able	-1650
▁back	-1651
war	-1652
uture	-1653
ude	-1654
▁Daten	-1655
orte	-1656
▁bietet	-1657
hol	-1658
ibility	-1659
akt	-1660
▁Tra	-1661
▁kle	-1662
ready	-1663
atur	-1664
▁curr	-1665
▁Kont	-1666
zahl	-1667
pf	-1668
ised	-1669
urther	-1670
ability	-1671
iß	-1672
▁special	-1673
▁business	-1674
alth	-1675
▁dazu	-1676
ting	-1677
ience	-1678
vers	-1679
yn	-1680
ystems	-1681
▁Dem	-1682
▁small	-1683
▁before	-1684
▁look	-1685
ator	-1686
▁liegt	-1687
▁viele	-1688
ispiel	-1689
afür	-1690
▁allen	-1691
▁machen	-1692
▁Kommiss	-1693
▁custom	-1694
ppen	-1695
ienst	-1696
▁ben	-1697
▁Aut	-1698
▁weil	-1699
▁already	-1700
▁pers	-1701
gem	-1702
▁future	-1703
▁gest	-1704
▁aller	-1705
▁believe	-1706
loss	-1707
▁Mittel	-1708
▁ze	-1709
ders	-1710
▁air	-1711
ahmen	-1712
▁cor	-1713
aben	-1714
une	-1715
▁bek	-1716
ward	-1717
ins	-1718
tem	-1719
ahre	-1720
press	-1721
ktur	-1722
▁Stand	-1723
ased	-1724
cond	-1725
ilt	-1726
ctor	-1727
▁som	-1728
▁hal	-1729
ctions	-1730
▁seiner	-1731
]]	-1732
zug	-1733
▁course	-1734
▁open	-1735
ves	-1736
▁today	-1737
▁könn	-1738
▁darauf	-1739
▁That	-1740
kten	-1741
gramme	-1742
▁project	-1743
esell	-1744
ante	-1745
jor	-1746
ismus	-1747
agen	-1748
▁set	-1749
annt	-1750
▁design	-1751
welt	-1752
▁Möglichkeit	-1753
▁too	-1754
▁But	-1755
▁jetzt	-1756
▁Ziel	-1757
▁inst	-1758
äh	-1759
▁Ro	-1760
ving	-1761
▁cann	-1762
▁products	-1763
äß	-1764
▁service	-1765
▁et	-1766
▁Them	-1767
aher	-1768
▁Finanz	-1769
▁größ	-1770
▁eing	-1771
▁environment	-1772
▁To	-1773
▁fl	-1774
omen	-1775
ron	-1776
imin	-1777
itiz	-1778
▁respons	-1779
hält	-1780
▁Lage	-1781
▁cannot	-1782
ica	-1783
▁Rahmen	-1784
▁fac	-1785
▁certain	-1786
nisse	-1787
cr	-1788
zus	-1789
curity	-1790
come	-1791
▁data	-1792
▁geht	-1793
▁geb	-1794
▁Maßnahmen	-1795
▁prev	-1796
mar	-1797
öl	-1798
tend	-1799
other	-1800
▁schon	-1801
lease	-1802
▁Med	-1803
▁einfach	-1804
aterial	-1805
olution	-1806
▁mir	-1807
▁int	-1808
▁Informationen	-1809
▁follow	-1810
okrat	-1811
▁seit	-1812
▁redu	-1813
▁fra	-1814
▁bro	-1815
ately	-1816
▁case	-1817
▁And	-1818
▁bin	-1819
chie	-1820
▁0	-1821
▁individ	-1822
operation	-1823
▁Mein	-1824
iving	-1825
los	-1826
▁neg	-1827
▁offers	-1828
▁kl	-1829
▁Verein	-1830
▁einige	-1831
▁Rechts	-1832
co	-1833
olid	-1834
▁dafür	-1835
▁regard	-1836
▁[[	-1837
klär	-1838
▁eas	-1839
▁Energ	-1840
▁put	-1841
▁&	-1842
▁impro	-1843
abei	-1844
▁question	-1845
tain	-1846
ars	-1847
orn	-1848
▁Gemein	-1849
raph	-1850
▁Herrn	-1851
affen	-1852
▁Commissioner	-1853
red	-1854
▁voll	-1855
▁art	-1856
ungsant	-1857
ential	-1858
ätz	-1859
▁ter	-1860
▁Tran	-1861
ccess	-1862
EN	-1863
▁je	-1864
iber	-1865
▁Pol	-1866
ually	-1867
▁Internet	-1868
ervice	-1869
▁Russ	-1870
▁integr	-1871
isierung	-1872
ified	-1873
folg	-1874
ilit	-1875
eich	-1876
▁financial	-1877
▁city	-1878
imes	-1879
▁reas	-1880
▁imple	-1881
▁change	-1882
▁repr	-1883
▁posit	-1884
▁Amer	-1885
▁Aussch	-1886
▁Stadt	-1887
▁during	-1888
grund	-1889
▁%	-1890
allen	-1891
ichten	-1892
▁Zimmer	-1893
▁rev	-1894
▁citiz	-1895
utes	-1896
▁zurück	-1897
▁ihren	-1898
llt	-1899
üh	-1900
▁far	-1901
anden	-1902
▁activ	-1903
ünd	-1904
▁problem	-1905
▁prom	-1906
ahn	-1907
▁invest	-1908
▁day	-1909
lex	-1910
ucht	-1911
▁fol	-1912
ove	-1913
▁said	-1914
▁deut	-1915
▁allem	-1916
▁Jahre	-1917
▁imp	-1918
cing	-1919
ichter	-1920
inen	-1921
▁nun	-1922
▁large	-1923
▁global	-1924
amm	-1925
ather	-1926
▁Uns	-1927
▁stat	-1928
uchen	-1929
▁means	-1930
▁achie	-1931
▁issue	-1932
▁2009	-1933
▁energ	-1934
200	-1935
▁Wor	-1936
kunft	-1937
▁proposal	-1938
▁saf	-1939
▁Sh	-1940
bsite	-1941
▁example	-1942
aum	-1943
▁el	-1944
▁ask	-1945
iele	-1946
ily	-1947
▁Bei	-1948
lossen	-1949
scheid	-1950
äm	-1951
▁Ö	-1952
▁meine	-1953
isl	-1954
▁zusammen	-1955
reib	-1956
▁quality	-1957
ways	-1958
▁major	-1959
▁cost	-1960
nov	-1961
20	-1962
▁applic	-1963
so	-1964
▁member	-1965
besondere	-1966
▁modern	-1967
▁famil	-1968
▁entsp	-1969
heiten	-1970
halts	-1971
▁gef	-1972
▁Für	-1973
▁meet	-1974
▁since	-1975
▁besch	-1976
illion	-1977
punkt	-1978
▁present	-1979
udget	-1980
gress	-1981
▁situation	-1982
▁rooms	-1983
▁besonder	-1984
▁strateg	-1985
aupt	-1986
▁debate	-1987
▁necess	-1988
iend	-1989
▁Go	-1990
ites	-1991
ether	-1992
▁verfü	-1993
▁However	-1994
unter	-1995
▁wollen	-1996
▁sicher	-1997
▁unseren	-1998
ized	-1999
amer	-2000
führt	-2001
ird	-2002
antwort	-2003
▁Kin	-2004
▁Gew	-2005
▁Pal	-2006
aat	-2007
▁Eine	-2008
org	-2009
▁Bo	-2010
▁einge	-2011
▁technolog	-2012
▁Ad	-2013
ilities	-2014
leist	-2015
ash	-2016
▁child	-2017
oren	-2018
ktionen	-2019
▁Our	-2020
▁Kommissar	-2021
ule	-2022
▁contr	-2023
▁amend	-2024
fts	-2025
▁common	-2026
blems	-2027
▁che	-2028
▁würde	-2029
▁eng	-2030
eschäft	-2031
▁With	-2032
angen	-2033
▁Spe	-2034
pre	-2035
▁each	-2036
▁adop	-2037
▁Best	-2038
licht	-2039
▁pass	-2040
▁including	-2041
etzen	-2042
haf	-2043
▁Gesch	-2044
▁Ph	-2045
fass	-2046
▁gar	-2047
▁power	-2048
▁Committee	-2049
▁Ger	-2050
▁compet	-2051
omat	-2052
▁Wer	-2053
ache	-2054
▁Eng	-2055
immung	-2056
ell	-2057
▁Arbeits	-2058
▁citizens	-2059
▁Parlaments	-2060
reit	-2061
▁colle	-2062
▁Politik	-2063
▁ref	-2064
cip	-2065
vention	-2066
▁während	-2067
tellen	-2068
▁30	-2069
▁stehen	-2070
iff	-2071
▁etwas	-2072
genommen	-2073
▁three	-2074
opp	-2075
aurant	-2076
bed	-2077
ablish	-2078
▁stay	-2079
▁Form	-2080
▁sagen	-2081
tt	-2082
▁Ur	-2083
▁found	-2084
▁allow	-2085
▁author	-2086
ining	-2087
▁areas	-2088
gew	-2089
ipp	-2090
▁object	-2091
▁cult	-2092
▁respect	-2093
ains	-2094
▁next	-2095
▁Vorschlag	-2096
▁measures	-2097
gangen	-2098
▁Und	-2099
orth	-2100
▁Euro	-2101
▁doch	-2102
▁stud	-2103
▁Res	-2104
▁sozial	-2105
▁/	-2106
▁Bild	-2107
▁give	-2108
oten	-2109
▁organis	-2110
▁few	-2111
zept	-2112
zw	-2113
ordnung	-2114
▁br	-2115
ugen	-2116
▁rece	-2117
▁democ	-2118
ode	-2119
ands	-2120
▁ensure	-2121
uge	-2122
1.	-2123
▁result	-2124
▁discuss	-2125
linie	-2126
▁komm	-2127
asch	-2128
rache	-2129
▁erm	-2130
ught	-2131
▁further	-2132
▁provide	-2133
▁histor	-2134
ürlich	-2135
▁energy	-2136
▁thank	-2137
▁pres	-2138
ination	-2139
▁Länder	-2140
▁tun	-2141
schaften	-2142
▁Deut	-2143
▁wissen	-2144
▁taken	-2145
▁erst	-2146
gleich	-2147
▁insbesondere	-2148
▁success	-2149
▁Mill	-2150
In	-2151
▁fil	-2152
falls	-2153
▁mus	-2154
unde	-2155
▁Unterstütz	-2156
▁dra	-2157
▁agreement	-2158
▁build	-2159
▁cal	-2160
▁Durch	-2161
▁erhalten	-2162
▁control	-2163
▁kom	-2164
stellung	-2165
anken	-2166
schl	-2167
▁addition	-2168
iate	-2169
▁Lös	-2170
▁einmal	-2171
▁Verfü	-2172
agt	-2173
ek	-2174
▁waren	-2175
indet	-2176
▁employ	-2177
ziel	-2178
▁grow	-2179
itor	-2180
▁China	-2181
▁öffent	-2182
▁det	-2183
trä	-2184
▁Fall	-2185
▁pay	-2186
▁Qu	-2187
lungs	-2188
▁Qual	-2189
▁außer	-2190
▁establish	-2191
gre	-2192
▁position	-2193
igin	-2194
ases	-2195
▁Problem	-2196
▁read	-2197
ilfe	-2198
por	-2199
▁Rest	-2200
▁abs	-2201
legt	-2202
itäten	-2203
▁kommen	-2204
▁Kunden	-2205
▁Ital	-2206
cken	-2207
▁Zug	-2208
gang	-2209
▁Bl	-2210
chnolog	-2211
ditions	-2212
▁law	-2213
igten	-2214
▁vo	-2215
▁Group	-2216
uff	-2217
▁beim	-2218
ohn	-2219
▁come	-2220
▁link	-2221
▁du	-2222
ules	-2223
pend	-2224
▁pop	-2225
▁opport	-2226
▁inde	-2227
jekt	-2228
ling	-2229
▁sk	-2230
▁Markt	-2231
bo	-2232
arte	-2233
arn	-2234
aren	-2235
▁ersten	-2236
▁shall	-2237
▁problems	-2238
ums	-2239
▁ho	-2240
▁Mus	-2241
▁25	-2242
ements	-2243
▁verw	-2244
rop	-2245
ross	-2246
▁Zusammenarbeit	-2247
▁company	-2248
▁necessary	-2249
uten	-2250
▁Unterstützung	-2251
▁did	-2252
igkeiten	-2253
▁Schw	-2254
▁schw	-2255
▁14	-2256
▁terr	-2257
▁lassen	-2258
arten	-2259
utzen	-2260
▁|	-2261
▁princip	-2262
politik	-2263
esser	-2264
unic	-2265
ruct	-2266
▁key	-2267
▁begr	-2268
fre	-2269
▁drei	-2270
ott	-2271
med	-2272
▁given	-2273
▁Spiel	-2274
ises	-2275
lemen	-2276
umen	-2277
▁legisl	-2278
▁budget	-2279
▁Namen	-2280
▁groß	-2281
▁ä	-2282
▁security	-2283
▁X	-2284
▁pract	-2285
fung	-2286
tschafts	-2287
▁em	-2288
bau	-2289
elf	-2290
AT	-2291
▁Cl	-2292
▁geben	-2293
▁Mad	-2294
▁invol	-2295
fang	-2296
ichts	-2297
glichen	-2298
▁health	-2299
▁wirk	-2300
esellschaft	-2301
örder	-2302
▁hope	-2303
▁Umwelt	-2304
▁La	-2305
▁Änderungsant	-2306
▁ret	-2307
▁Proble	-2308
▁why	-2309
▁however	-2310
▁second	-2311
▁Stra	-2312
▁entwick	-2313
ising	-2314
▁char	-2315
lungen	-2316
▁lead	-2317
orgen	-2318
AN	-2319
▁verl	-2320
bewer	-2321
joy	-2322
iety	-2323
asse	-2324
burg	-2325
iter	-2326
ively	-2327
▁while	-2328
isation	-2329
▁Tr	-2330
▁Recht	-2331
wards	-2332
▁cooperation	-2333
ared	-2334
▁besteht	-2335
fte	-2336
urz	-2337
▁bl	-2338
gether	-2339
▁16	-2340
▁wirtschaft	-2341
lect	-2342
nell	-2343
rodu	-2344
führung	-2345
▁located	-2346
▁wish	-2347
ave	-2348
▁ander	-2349
▁Deb	-2350
▁start	-2351
▁Dienst	-2352
▁gra	-2353
orm	-2354
▁life	-2355
▁protection	-2356
▁ir	-2357
▁implement	-2358
▁Tag	-2359
schied	-2360
ES	-2361
▁tradition	-2362
IN	-2363
▁refer	-2364
▁Ländern	-2365
ches	-2366
ury	-2367
▁always	-2368
altung	-2369
▁führen	-2370
▁needs	-2371
▁complete	-2372
▁Sw	-2373
ald	-2374
▁Ko	-2375
wendung	-2376
▁Geschä	-2377
von	-2378
▁steht	-2379
▁writ	-2380
▁sehen	-2381
text	-2382
▁seinen	-2383
ried	-2384
▁17	-2385
zieh	-2386
▁Fragen	-2387
▁Da	-2388
▁Vol	-2389
▁inform	-2390
▁vote	-2391
▁System	-2392
▁They	-2393
▁Port	-2394
kon	-2395
▁Red	-2396
earch	-2397
▁statt	-2398
▁comb	-2399
ique	-2400
▁beh	-2401
ty	-2402
ogen	-2403
▁House	-2404
häng	-2405
▁Besch	-2406
ppe	-2407
▁sens	-2408
öt	-2409
▁Ob	-2410
▁diff	-2411
▁United	-2412
▁Bel	-2413
▁akt	-2414
▁Dar	-2415
▁better	-2416
▁wäre	-2417
cell	-2418
kre	-2419
ätze	-2420
stellen	-2421
▁mult	-2422
▁Beit	-2423
ustrie	-2424
ivil	-2425
dress	-2426
ettbewer	-2427
▁dabei	-2428
▁tre	-2429
ichterst	-2430
ca	-2431
zess	-2432
tion	-2433
äd	-2434
ctive	-2435
▁action	-2436
▁interest	-2437
schein	-2438
gaben	-2439
by	-2440
▁account	-2441
▁Kollegen	-2442
▁Lebens	-2443
▁Not	-2444
alle	-2445
ialog	-2446
▁glaub	-2447
arch	-2448
iation	-2449
▁net	-2450
▁gehör	-2451
spro	-2452
zü	-2453
▁men	-2454
▁2010	-2455
▁hö	-2456
▁legal	-2457
▁2008	-2458
bereich	-2459
▁fiel	-2460
▁Kr	-2461
ämp	-2462
▁using	-2463
▁letzten	-2464
▁cho	-2465
iste	-2466
▁fav	-2467
rechte	-2468
▁worden	-2469
▁Community	-2470
sequ	-2471
▁Energie	-2472
cher	-2473
▁Regierung	-2474
▁Kom	-2475
▁defin	-2476
uft	-2477
▁muß	-2478
enten	-2479
blick	-2480
ikan	-2481
iod	-2482
less	-2483
▁Bedeut	-2484
obil	-2485
▁ble	-2486
ierungs	-2487
▁mov	-2488
undheit	-2489
▁consum	-2490
▁sing	-2491
rän	-2492
eite	-2493
gehen	-2494
ingungen	-2495
▁reach	-2496
clus	-2497
St	-2498
▁Sk	-2499
▁based	-2500
▁around	-2501
▁13	-2502
▁Was	-2503
▁conne	-2504
ustry	-2505
▁transport	-2506
ölk	-2507
▁großen	-2508
▁Ser	-2509
gabe	-2510
iges	-2511
▁50	-2512
▁deren	-2513
▁Mrs	-2514
abil	-2515
▁Verfügung	-2516
asser	-2517
▁große	-2518
gestellt	-2519
▁Rom	-2520
▁welche	-2521
▁What	-2522
▁terms	-2523
▁working	-2524
genden	-2525
▁current	-2526
markt	-2527
▁add	-2528
▁Entscheid	-2529
▁met	-2530
ify	-2531
▁Gu	-2532
▁Bedeutung	-2533
▁USA	-2534
▁rep	-2535
pecial	-2536
▁inner	-2537
ervor	-2538
▁Seite	-2539
ged	-2540
▁production	-2541
▁short	-2542
▁Ergeb	-2543
▁Famil	-2544
▁become	-2545
▁rapp	-2546
▁Region	-2547
▁Hier	-2548
lev	-2549
▁whether	-2550
racht	-2551
▁When	-2552
uments	-2553
▁less	-2554
▁particularly	-2555
isher	-2556
▁crit	-2557
▁non	-2558
eder	-2559
offe	-2560
▁centre	-2561
▁These	-2562
▁individual	-2563
▁extre	-2564
▁together	-2565
▁def	-2566
▁difficult	-2567
▁bel	-2568
▁visit	-2569
▁another	-2570
of	-2571
▁Aber	-2572
▁lim	-2573
▁near	-2574
▁sl	-2575
load	-2576
▁Fol	-2577
uter	-2578
ünst	-2579
hof	-2580
ferenz	-2581
▁International	-2582
▁dist	-2583
▁state	-2584
▁24	-2585
▁1.	-2586
kauf	-2587
▁Schutz	-2588
bild	-2589
immen	-2590
▁trade	-2591
▁water	-2592
▁zahl	-2593
osition	-2594
druck	-2595
▁clos	-2596
▁Auch	-2597
igent	-2598
▁him	-2599
▁100	-2600
▁research	-2601
▁Kinder	-2602
▁Als	-2603
▁Bus	-2604
anies	-2605
▁ear	-2606
▁care	-2607
▁rapporte	-2608
▁Tur	-2609
▁children	-2610
▁Ben	-2611
▁Regel	-2612
▁Beispiel	-2613
▁bene	-2614
▁notwend	-2615
▁contrib	-2616
▁Air	-2617
▁whole	-2618
▁exist	-2619
▁Vertrag	-2620
bene	-2621
▁beach	-2622
▁Berichterst	-2623
pecially	-2624
tellung	-2625
▁tour	-2626
▁issues	-2627
room	-2628
▁local	-2629
▁jeder	-2630
▁Mal	-2631
▁bieten	-2632
ners	-2633
▁hervor	-2634
akes	-2635
astr	-2636
▁UN	-2637
▁2007	-2638
bt	-2639
▁Thema	-2640
▁davon	-2641
▁conditions	-2642
iar	-2643
▁Service	-2644
arante	-2645
entrum	-2646
xim	-2647
▁Zahl	-2648
▁specific	-2649
▁friend	-2650
ots	-2651
leit	-2652
▁reason	-2653
▁richt	-2654
▁darüber	-2655
üt	-2656
ckt	-2657
▁entfern	-2658
ames	-2659
▁km	-2660
atte	-2661
▁Wirtschafts	-2662
▁erforder	-2663
▁enjoy	-2664
▁call	-2665
iew	-2666
ON	-2667
ultur	-2668
▁Stud	-2669
▁eben	-2670
▁aff	-2671
▁San	-2672
▁show	-2673
ording	-2674
▁subject	-2675
vest	-2676
orts	-2677
▁book	-2678
▁stellen	-2679
▁ann	-2680
▁bew	-2681
▁gegenüber	-2682
hö	-2683
rieden	-2684
kungen	-2685
▁address	-2686
▁No	-2687
▁daher	-2688
▁alles	-2689
▁systems	-2690
▁Gä	-2691
▁Probleme	-2692
ody	-2693
adies	-2694
ton	-2695
▁role	-2696
▁Frauen	-2697
▁tax	-2698
ika	-2699
▁various	-2700
ikel	-2701
ennt	-2702
▁schnell	-2703
▁Weise	-2704
▁brauch	-2705
ategor	-2706
ufen	-2707
▁El	-2708
▁Fahr	-2709
ours	-2710
ails	-2711
▁eigenen	-2712
▁run	-2713
▁EUR	-2714
▁Viel	-2715
▁experience	-2716
▁Lie	-2717
fäh	-2718
▁women	-2719
▁gesam	-2720
wirtschaft	-2721
▁organ	-2722
▁page	-2723
▁German	-2724
▁companies	-2725
veral	-2726
▁sowohl	-2727
▁Comp	-2728
▁old	-2729
▁step	-2730
▁ur	-2731
▁Wahl	-2732
▁Haushalts	-2733
▁Fort	-2734
▁sector	-2735
sen	-2736
isions	-2737
▁industry	-2738
isches	-2739
▁politischen	-2740
▁basis	-2741
▁guarante	-2742
hang	-2743
schutz	-2744
▁befindet	-2745
▁weitere	-2746
▁Mark	-2747
▁Lin	-2748
▁aim	-2749
▁Weg	-2750
▁näch	-2751
ength	-2752
row	-2753
▁benef	-2754
aster	-2755
roll	-2756
▁New	-2757
esehen	-2758
▁(1	-2759
▁könnte	-2760
▁occ	-2761
▁Ende	-2762
▁pat	-2763
▁Ihrer	-2764
▁dort	-2765
oney	-2766
▁erreichen	-2767
itiative	-2768
▁pack	-2769
gemein	-2770
▁comfort	-2771
▁beaut	-2772
▁origin	-2773
neten	-2774
irm	-2775
▁hatte	-2776
▁really	-2777
▁profession	-2778
▁meiner	-2779
thing	-2780
imate	-2781
▁deal	-2782
▁di	-2783
▁wirklich	-2784
chan	-2785
▁matter	-2786
▁natürlich	-2787
▁commit	-2788
geord	-2789
rift	-2790
50	-2791
lock	-2792
▁arbeit	-2793
reaty	-2794
▁nie	-2795
▁Fun	-2796
▁Haupt	-2797
▁col	-2798
▁typ	-2799
▁third	-2800
▁break	-2801
▁besonders	-2802
▁distr	-2803
ritte	-2804
▁tot	-2805
▁prior	-2806
▁bar	-2807
ably	-2808
▁month	-2809
riften	-2810
sk	-2811
gende	-2812
▁Zukunft	-2813
▁especially	-2814
▁Geschäfts	-2815
ived	-2816
▁staff	-2817
▁innov	-2818
▁Ausschuss	-2819
▁ihnen	-2820
▁members	-2821
▁close	-2822
▁government	-2823
▁Staaten	-2824
ances	-2825
▁period	-2826
▁done	-2827
til	-2828
▁gent	-2829
▁verschiedenen	-2830
ino	-2831
▁Gegen	-2832
▁doc	-2833
▁unterstützen	-2834
▁Forsch	-2835
▁Alle	-2836
reg	-2837
▁Mehr	-2838
▁proced	-2839
cellent	-2840
ifiz	-2841
ization	-2842
AR	-2843
▁11	-2844
▁entfernt	-2845
▁food	-2846
▁mot	-2847
▁Deutsch	-2848
finden	-2849
ünft	-2850
▁hoch	-2851
treten	-2852
▁Produkt	-2853
app	-2854
dings	-2855
▁innerhalb	-2856
▁Park	-2857
zuf	-2858
ograph	-2859
▁top	-2860
▁Zwe	-2861
ival	-2862
ething	-2863
ety	-2864
ima	-2865
▁personal	-2866
▁negot	-2867
ican	-2868
▁Situation	-2869
▁create	-2870
▁feat	-2871
▁Seiten	-2872
spl	-2873
werk	-2874
ides	-2875
ober	-2876
▁vielen	-2877
▁teil	-2878
▁location	-2879
▁:	-2880
▁turn	-2881
▁private	-2882
kung	-2883
ai	-2884
neh	-2885
▁Rolle	-2886
30	-2887
▁site	-2888
▁perform	-2889
▁instit	-2890
amt	-2891
▁Jan	-2892
▁represent	-2893
▁ple	-2894
asing	-2895
▁approach	-2896
▁press	-2897
icient	-2898
▁sum	-2899
raum	-2900
ichtet	-2901
IT	-2902
▁betr	-2903
▁Programm	-2904
▁enter	-2905
▁prop	-2906
▁zwar	-2907
".	-2908
▁gener	-2909
inter	-2910
▁soc	-2911
scheiden	-2912
indung	-2913
duc	-2914
▁Hotels	-2915
▁reform	-2916
▁Wettbewer	-2917
weisen	-2918
▁event	-2919
ences	-2920
oment	-2921
▁nor	-2922
▁welt	-2923
ension	-2924
▁internationalen	-2925
",	-2926
▁among	-2927
▁million	-2928
▁Fest	-2929
fast	-2930
▁job	-2931
▁single	-2932
▁Tour	-2933
▁poin	-2934
ec	-2935
uc	-2936
▁lo	-2937
▁itself	-2938
▁star	-2939
▁decision	-2940
zip	-2941
ordin	-2942
▁something	-2943
ults	-2944
▁bestimm	-2945
üd	-2946
▁Terr	-2947
iol	-2948
▁Gru	-2949
▁langu	-2950
▁möchten	-2951
lands	-2952
▁several	-2953
ühr	-2954
olf	-2955
▁Dire	-2956
▁struct	-2957
▁doub	-2958
ktor	-2959
▁general	-2960
eign	-2961
▁list	-2962
▁install	-2963
▁Afr	-2964
▁resour	-2965
ift	-2966
▁favour	-2967
uellen	-2968
▁Chr	-2969
▁Germany	-2970
eiten	-2971
ittle	-2972
ians	-2973
▁material	-2974
onds	-2975
▁rapporteur	-2976
▁Disk	-2977
▁Richtlinie	-2978
isis	-2979
oor	-2980
tember	-2981
▁town	-2982
▁Ihren	-2983
▁Software	-2984
▁aufge	-2985
▁Verbrauch	-2986
▁Op	-2987
▁direkt	-2988
ände	-2989
uth	-2990
▁making	-2991
▁continue	-2992
▁Woch	-2993
▁hinaus	-2994
▁dür	-2995
wh	-2996
atch	-2997
▁programme	-2998
rael	-2999
mework	-3000
▁resolution	-3001
▁gl	-3002
▁Abst	-3003
▁enc	-3004
wär	-3005
▁Strateg	-3006
▁least	-3007
mos	-3008
▁Nutz	-3009
ification	-3010
▁Su	-3011
eg	-3012
▁automat	-3013
▁accept	-3014
▁gentlemen	-3015
▁following	-3016
▁introdu	-3017
▁she	-3018
▁Kü	-3019
cel	-3020
sprache	-3021
iations	-3022
▁excellent	-3023
▁Wind	-3024
wä	-3025
▁progress	-3026
▁away	-3027
▁serious	-3028
▁peace	-3029
▁relations	-3030
▁going	-3031
▁let	-3032
▁often	-3033
▁kind	-3034
hens	-3035
▁opin	-3036
▁text	-3037
nehmer	-3038
erien	-3039
▁plan	-3040
▁home	-3041
ativen	-3042
IS	-3043
▁management	-3044
met	-3045
▁sup	-3046
ifen	-3047
▁2000	-3048
▁name	-3049
miss	-3050
▁Rück	-3051
▁erste	-3052
atives	-3053
auer	-3054
▁mar	-3055
▁understand	-3056
▁konn	-3057
▁family	-3058
▁directive	-3059
▁Can	-3060
▁tro	-3061
▁particip	-3062
▁offen	-3063
▁rules	-3064
bei	-3065
▁Uhr	-3066
let	-3067
▁ans	-3068
▁europäische	-3069
aps	-3070
gricult	-3071
räge	-3072
▁Transp	-3073
▁Berlin	-3074
▁Emp	-3075
iere	-3076
▁crisis	-3077
fehl	-3078
strument	-3079
iken	-3080
▁contact	-3081
oto	-3082
▁regul	-3083
▁anal	-3084
▁sett	-3085
CH	-3086
icle	-3087
ierungen	-3088
though	-3089
▁Kre	-3090
ksam	-3091
produ	-3092
▁My	-3093
▁Meinung	-3094
▁Frank	-3095
▁apart	-3096
icial	-3097
fect	-3098
▁mach	-3099
ype	-3100
▁Natur	-3101
▁feel	-3102
▁Gesundheit	-3103
weg	-3104
go	-3105
▁software	-3106
▁towards	-3107
▁money	-3108
▁forward	-3109
▁once	-3110
▁express	-3111
▁stark	-3112
leistungen	-3113
▁inc	-3114
▁einzel	-3115
▁Rep	-3116
▁price	-3117
▁klar	-3118
▁range	-3119
▁World	-3120
▁line	-3121
▁198	-3122
thers	-3123
▁welcome	-3124
▁Komm	-3125
achst	-3126
▁extrem	-3127
ony	-3128
ully	-3129
▁etc	-3130
▁fast	-3131
▁Univers	-3132
yl	-3133
etzung	-3134
▁Gra	-3135
pekt	-3136
▁things	-3137
▁absol	-3138
▁online	-3139
stück	-3140
▁little	-3141
prü	-3142
▁Invest	-3143
▁Met	-3144
▁recog	-3145
zogen	-3146
▁dest	-3147
airs	-3148
▁bal	-3149
voll	-3150
▁Zusammenhang	-3151
▁institutions	-3152
▁Gleich	-3153
▁hät	-3154
ference	-3155
teilung	-3156
▁communic	-3157
▁mention	-3158
▁ant	-3159
▁ident	-3160
▁Nov	-3161
ußen	-3162
-0	-3163
▁post	-3164
▁zus	-3165
▁Abgeord	-3166
▁Fisch	-3167
bet	-3168
▁until	-3169
ifft	-3170
itäts	-3171
unds	-3172
weis	-3173
▁Pe	-3174
▁situ	-3175
▁beiden	-3176
haus	-3177
istic	-3178
wand	-3179
▁milit	-3180
▁unserem	-3181
▁Gäste	-3182
esten	-3183
▁Madam	-3184
▁kommt	-3185
lik	-3186
▁stre	-3187
anges	-3188
enzen	-3189
▁walk	-3190
▁days	-3191
outh	-3192
ean	-3193
▁Span	-3194
▁Personen	-3195
asst	-3196
▁Partner	-3197
▁optim	-3198
▁National	-3199
▁customers	-3200
gän	-3201
▁finanz	-3202
DE	-3203
ured	-3204
▁strong	-3205
▁aid	-3206
▁Treaty	-3207
▁Artikel	-3208
▁Do	-3209
▁Hilfe	-3210
▁2006	-3211
mat	-3212
2.	-3213
vent	-3214
▁ess	-3215
▁Bank	-3216
▁entsprechen	-3217
ume	-3218
zimmer	-3219
läge	-3220
▁Entschließ	-3221
ison	-3222
▁Car	-3223
eu	-3224
▁increase	-3225
lean	-3226
▁2.	-3227
tract	-3228
idence	-3229
▁agree	-3230
atten	-3231
ieten	-3232
▁App	-3233
OR	-3234
▁bestehen	-3235
▁Mo	-3236
iesen	-3237
▁Technolog	-3238
▁opportunity	-3239
ommend	-3240
▁Schluss	-3241
leicht	-3242
ächst	-3243
fassung	-3244
▁Verantwort	-3245
▁Jul	-3246
▁weltweit	-3247
AS	-3248
▁keep	-3249
▁Fil	-3250
▁rather	-3251
▁Ums	-3252
idency	-3253
yr	-3254
▁growth	-3255
na	-3256
ennen	-3257
rech	-3258
▁activities	-3259
▁mind	-3260
ocus	-3261
▁hard	-3262
half	-3263
▁Dieses	-3264
▁Sep	-3265
liches	-3266
▁function	-3267
▁ve	-3268
▁quite	-3269
edom	-3270
▁stellt	-3271
▁Members	-3272
stra	-3273
äuf	-3274
▁Lösung	-3275
▁check	-3276
▁bringen	-3277
▁bzw	-3278
mäß	-3279
weil	-3280
▁Demokrat	-3281
▁Organis	-3282
▁il	-3283
crip	-3284
▁ja	-3285
▁ren	-3286
ales	-3287
baren	-3288
▁seem	-3289
side	-3290
ließen	-3291
▁Weit	-3292
▁positive	-3293
han	-3294
▁War	-3295
Pro	-3296
vorsch	-3297
▁provided	-3298
▁Präsidentin	-3299
ha	-3300
▁Leben	-3301
annten	-3302
▁stär	-3303
▁try	-3304
▁begrü	-3305
▁resources	-3306
▁elect	-3307
▁Kultur	-3308
▁tas	-3309
▁big	-3310
ply	-3311
▁sw	-3312
▁Bas	-3313
▁führ	-3314
aden	-3315
▁partners	-3316
▁sug	-3317
ären	-3318
▁weniger	-3319
ller	-3320
▁daran	-3321
▁dev	-3322
▁mean	-3323
▁indem	-3324
▁Sc	-3325
▁might	-3326
rolle	-3327
▁Minister	-3328
▁behalf	-3329
▁treat	-3330
forderungen	-3331
eits	-3332
erecht	-3333
▁gilt	-3334
letz	-3335
▁land	-3336
ined	-3337
▁fully	-3338
▁etwa	-3339
▁Char	-3340
reiche	-3341
▁port	-3342
ideo	-3343
▁gewähr	-3344
apan	-3345
▁qual	-3346
ücksicht	-3347
▁Deshalb	-3348
▁class	-3349
ämlich	-3350
▁Cent	-3351
hnt	-3352
the	-3353
mosph	-3354
▁jeden	-3355
▁gesagt	-3356
▁four	-3357
ona	-3358
▁include	-3359
frage	-3360
▁spiel	-3361
abhäng	-3362
-1	-3363
zeitig	-3364
▁nämlich	-3365
alität	-3366
wohl	-3367
▁lab	-3368
▁signific	-3369
iful	-3370
▁bitte	-3371
▁gute	-3372
▁yet	-3373
▁umf	-3374
legenheit	-3375
ager	-3376
ählen	-3377
▁Sozial	-3378
onger	-3379
▁value	-3380
▁State	-3381
▁Ass	-3382
plan	-3383
ühren	-3384
amental	-3385
stadt	-3386
bon	-3387
▁ideal	-3388
▁park	-3389
▁persön	-3390
itions	-3391
einander	-3392
▁After	-3393
▁having	-3394
fert	-3395
▁Rates	-3396
▁Kosten	-3397
▁ladies	-3398
▁pur	-3399
komm	-3400
▁September	-3401
ception	-3402
▁Erfahr	-3403
prochen	-3404
▁sogar	-3405
▁entscheiden	-3406
▁technology	-3407
▁Ort	-3408
▁Europas	-3409
▁Produkte	-3410
▁mag	-3411
▁Per	-3412
▁genau	-3413
setzung	-3414
▁field	-3415
hunder	-3416
ratic	-3417
▁Preis	-3418
telle	-3419
ij	-3420
▁admin	-3421
ächlich	-3422
▁proposals	-3423
▁bor	-3424
▁Millionen	-3425
ops	-3426
▁amendments	-3427
▁Nor	-3428
recht	-3429
▁u	-3430
wendet	-3431
völk	-3432
▁along	-3433
▁Geld	-3434
▁gerade	-3435
▁kurz	-3436
▁educ	-3437
uh	-3438
OM	-3439
self	-3440
▁remain	-3441
▁erfolg	-3442
▁framework	-3443
▁times	-3444
illa	-3445
iten	-3446
▁left	-3447
▁nehmen	-3448
▁tem	-3449
tragen	-3450
roffen	-3451
▁solution	-3452
▁)	-3453
▁Projekt	-3454
▁bekannt	-3455
▁Austr	-3456
▁log	-3457
▁kosten	-3458
▁Text	-3459
armon	-3460
ingen	-3461
lei	-3462
fully	-3463
▁safety	-3464
▁minutes	-3465
▁Priv	-3466
▁Gar	-3467
▁erwar	-3468
▁recommend	-3469
▁Ange	-3470
▁Grün	-3471
▁costs	-3472
▁above	-3473
racy	-3474
▁light	-3475
▁speak	-3476
▁easy	-3477
▁economy	-3478
▁Tod	-3479
▁Punkt	-3480
verb	-3481
▁ihn	-3482
stant	-3483
ativ	-3484
iberal	-3485
▁arch	-3486
▁others	-3487
▁adopted	-3488
▁Jahres	-3489
▁taking	-3490
▁essential	-3491
alten	-3492
▁politische	-3493
▁unterschied	-3494
▁ebenfalls	-3495
▁Israel	-3496
ledge	-3497
▁week	-3498
▁Tats	-3499
oph	-3500
▁Zugang	-3501
▁Tür	-3502
most	-3503
▁strength	-3504
▁meisten	-3505
anst	-3506
lement	-3507
ethod	-3508
▁ihm	-3509
▁recht	-3510
▁flo	-3511
handlungen	-3512
▁Web	-3513
▁gemacht	-3514
▁creat	-3515
▁Fraktion	-3516
▁Dank	-3517
inge	-3518
▁makes	-3519
wahl	-3520
▁pa	-3521
▁seinem	-3522
▁ü	-3523
unst	-3524
▁content	-3525
ana	-3526
▁viol	-3527
▁Wirtschaft	-3528
▁led	-3529
▁entire	-3530
▁charac	-3531
▁Bezug	-3532
za	-3533
▁dessen	-3534
▁opinion	-3535
▁tool	-3536
▁40	-3537
▁Dieser	-3538
▁besser	-3539
iben	-3540
ports	-3541
iers	-3542
▁bank	-3543
▁verbunden	-3544
▁called	-3545
▁Sta	-3546
▁gehen	-3547
▁verst	-3548
▁darf	-3549
▁Unsere	-3550
tag	-3551
ysteme	-3552
▁bath	-3553
▁Janu	-3554
bare	-3555
▁agricult	-3556
▁anges	-3557
achten	-3558
▁return	-3559
▁constru	-3560
▁never	-3561
▁flex	-3562
▁website	-3563
▁legislation	-3564
▁unterstützt	-3565
reen	-3566
▁Kap	-3567
nete	-3568
▁One	-3569
▁focus	-3570
▁wesent	-3571
▁Institution	-3572
aurants	-3573
sh	-3574
▁Deutschland	-3575
▁Zust	-3576
reicht	-3577
▁application	-3578
▁Komp	-3579
▁term	-3580
▁ak	-3581
ruktur	-3582
▁2005	-3583
▁Rechte	-3584
iled	-3585
word	-3586
gebung	-3587
▁results	-3588
ested	-3589
igr	-3590
▁wahr	-3591
igital	-3592
▁provides	-3593
ric	-3594
▁Pat	-3595
▁sure	-3596
ünf	-3597
▁points	-3598
aged	-3599
sweise	-3600
▁darin	-3601
ane	-3602
atis	-3603
ostel	-3604
▁nah	-3605
ser	-3606
▁deliver	-3607
▁projects	-3608
▁freedom	-3609
aussch	-3610
▁building	-3611
vernment	-3612
▁due	-3613
▁attention	-3614
▁fair	-3615
▁beginn	-3616
▁Sa	-3617
▁policies	-3618
AL	-3619
▁programm	-3620
erst	-3621
benso	-3622
▁Antw	-3623
arian	-3624
▁Entwicklungs	-3625
▁concerned	-3626
▁Buch	-3627
▁Sel	-3628
▁Gl	-3629
▁heart	-3630
▁pot	-3631
▁standard	-3632
▁Ide	-3633
uz	-3634
ül	-3635
▁responsibility	-3636
▁glaube	-3637
▁öffentlichen	-3638
oting	-3639
▁Frei	-3640
▁beautiful	-3641
▁past	-3642
▁Den	-3643
▁risk	-3644
▁simply	-3645
ators	-3646
ufact	-3647
irc	-3648
amb	-3649
▁dürfen	-3650
▁Sub	-3651
iner	-3652
▁einigen	-3653
▁cover	-3654
▁derzeit	-3655
▁Wasser	-3656
▁rela	-3657
▁mass	-3658
▁appropr	-3659
reiben	-3660
▁Co	-3661
▁nichts	-3662
mitted	-3663
▁Qualität	-3664
now	-3665
▁perfect	-3666
▁questions	-3667
▁Meer	-3668
▁Verkehr	-3669
ished	-3670
▁Just	-3671
▁Gemeinschaft	-3672
▁schaffen	-3673
▁Website	-3674
▁team	-3675
▁groups	-3676
▁young	-3677
hing	-3678
▁importance	-3679
▁Sol	-3680
▁Nicht	-3681
▁Mär	-3682
▁dom	-3683
▁Hö	-3684
▁Flug	-3685
ients	-3686
berg	-3687
▁bit	-3688
▁abge	-3689
▁moder	-3690
▁sollen	-3691
▁effective	-3692
wür	-3693
▁Nä	-3694
▁society	-3695
The	-3696
schließlich	-3697
bour	-3698
▁Rei	-3699
ustain	-3700
ding	-3701
ampf	-3702
afen	-3703
EL	-3704
▁Beschäft	-3705
▁Früh	-3706
ceed	-3707
ringen	-3708
▁context	-3709
zentr	-3710
▁ihrem	-3711
▁head	-3712
▁Jahrhunder	-3713
▁Pra	-3714
▁brauchen	-3715
▁Angeb	-3716
▁known	-3717
▁Fir	-3718
▁keinen	-3719
▁nationalen	-3720
ada	-3721
gesehen	-3722
▁greater	-3723
▁TV	-3724
▁Restaurant	-3725
▁holid	-3726
▁Prof	-3727
▁sea	-3728
▁Aussprache	-3729
zustellen	-3730
rimin	-3731
arbeiten	-3732
wärt	-3733
▁Verbraucher	-3734
▁environmental	-3735
▁Tre	-3736
▁handelt	-3737
▁Verw	-3738
▁strategy	-3739
▁2004	-3740
spolitik	-3741
▁total	-3742
▁method	-3743
▁continu	-3744
unkte	-3745
▁Kolleg	-3746
verkehr	-3747
▁Groß	-3748
▁industr	-3749
rieg	-3750
istan	-3751
▁zusätz	-3752
utzt	-3753
äus	-3754
▁Cont	-3755
▁version	-3756
▁verbess	-3757
onnen	-3758
▁standards	-3759
EC	-3760
▁natural	-3761
uelle	-3762
emp	-3763
pflicht	-3764
leben	-3765
iqu	-3766
▁Sal	-3767
▁principle	-3768
itive	-3769
▁road	-3770
▁table	-3771
▁weiterhin	-3772
äter	-3773
unächst	-3774
▁arr	-3775
▁Christ	-3776
▁attra	-3777
▁verste	-3778
ziehen	-3779
unehmen	-3780
cen	-3781
▁rad	-3782
▁talk	-3783
fs	-3784
▁II	-3785
▁words	-3786
▁betrifft	-3787
eutet	-3788
▁send	-3789
▁Ebene	-3790
▁miss	-3791
▁Sitz	-3792
astru	-3793
hib	-3794
▁Fortsch	-3795
▁increasing	-3796
uell	-3797
▁Dr	-3798
haltung	-3799
ette	-3800
▁challen	-3801
▁required	-3802
▁institution	-3803
OS	-3804
ning	-3805
▁lea	-3806
frastru	-3807
acy	-3808
▁central	-3809
▁versch	-3810
▁Far	-3811
▁views	-3812
unities	-3813
▁heraus	-3814
▁significant	-3815
▁Design	-3816
isiert	-3817
bereit	-3818
▁manufact	-3819
▁reserv	-3820
zeichnet	-3821
ided	-3822
▁wenig	-3823
▁erklär	-3824
▁Bem	-3825
ulture	-3826
▁house	-3827
rach	-3828
▁moment	-3829
▁Zus	-3830
staat	-3831
wach	-3832
▁bedeutet	-3833
▁Leist	-3834
▁23	-3835
onen	-3836
▁training	-3837
▁sei	-3838
useum	-3839
▁deutlich	-3840
▁clearly	-3841
▁benöt	-3842
▁Cas	-3843
▁macht	-3844
stoff	-3845
▁authorities	-3846
▁deshalb	-3847
▁meeting	-3848
▁solche	-3849
▁music	-3850
▁Abstimmung	-3851
▁quick	-3852
▁unver	-3853
▁infl	-3854
ex	-3855
ims	-3856
ban	-3857
▁cla	-3858
▁besten	-3859
▁Apr	-3860
▁don	-3861
▁user	-3862
änger	-3863
term	-3864
cal	-3865
läss	-3866
spruch	-3867
▁recent	-3868
▁demand	-3869
▁relax	-3870
▁breakfast	-3871
An	-3872
▁parl	-3873
atal	-3874
▁komple	-3875
icro	-3876
▁aufgrund	-3877
▁pub	-3878
anze	-3879
bung	-3880
▁network	-3881
vo	-3882
▁interess	-3883
genda	-3884
▁May	-3885
▁capital	-3886
schluss	-3887
▁Gesetz	-3888
▁extra	-3889
ritten	-3890
▁Bezieh	-3891
▁learn	-3892
▁Wohn	-3893
▁regional	-3894
iting	-3895
▁lar	-3896
▁achieve	-3897
züglich	-3898
▁würden	-3899
fall	-3900
mals	-3901
▁sour	-3902
▁fa	-3903
▁aspect	-3904
▁wichtige	-3905
▁night	-3906
aging	-3907
äsent	-3908
▁Will	-3909
▁share	-3910
▁Klima	-3911
▁Gesellschaft	-3912
▁November	-3913
▁Dok	-3914
▁fish	-3915
erous	-3916
▁technical	-3917
▁Besuch	-3918
▁Schul	-3919
ari	-3920
▁oft	-3921
cent	-3922
▁mat	-3923
▁distrib	-3924
yle	-3925
▁according	-3926
▁clean	-3927
▁via	-3928
▁pages	-3929
▁Kunst	-3930
▁Ag	-3931
gesetzt	-3932
▁nature	-3933
▁appear	-3934
▁internal	-3935
hörden	-3936
▁Bro	-3937
▁Japan	-3938
▁Mitarbeit	-3939
▁beispiel	-3940
▁Menschenrechte	-3941
▁imm	-3942
▁fundamental	-3943
ri	-3944
▁directly	-3945
▁longer	-3946
▁months	-3947
gelegt	-3948
▁findet	-3949
jen	-3950
▁facilities	-3951
ones	-3952
▁side	-3953
▁Umsetzung	-3954
▁though	-3955
▁Windows	-3956
▁prec	-3957
platz	-3958
▁Von	-3959
▁verein	-3960
▁Demokratie	-3961
▁employment	-3962
▁nächsten	-3963
▁proposed	-3964
▁Ju	-3965
▁enough	-3966
wohn	-3967
▁obl	-3968
change	-3969
▁solutions	-3970
▁Bevölk	-3971
▁responsible	-3972
örderung	-3973
ender	-3974
elves	-3975
▁ern	-3976
unch	-3977
/200	-3978
▁Betrie	-3979
▁Ansicht	-3980
▁gewährle	-3981
▁cultural	-3982
AP	-3983
▁First	-3984
▁history	-3985
▁Richtung	-3986
▁erne	-3987
▁vorgesch	-3988
▁interests	-3989
gency	-3990
▁Brit	-3991
▁subs	-3992
▁guests	-3993
ker	-3994
▁test	-3995
▁requirements	-3996
▁nutzen	-3997
AD	-3998
▁vol	-3999
▁Herren	-4000
▁character	-4001
kämp	-4002
ption	-4003
▁currently	-4004
▁lange	-4005
▁betre	-4006
▁Industrie	-4007
▁Auss	-4008
orted	-4009
▁prevent	-4010
▁maintain	-4011
ief	-4012
▁vier	-4013
▁Ira	-4014
▁Nähe	-4015
▁April	-4016
ffe	-4017
▁civil	-4018
▁Such	-4019
frist	-4020
ließlich	-4021
▁regions	-4022
umente	-4023
▁events	-4024
▁Ha	-4025
ither	-4026
▁assist	-4027
▁Stat	-4028
▁terror	-4029
ables	-4030
▁Bü	-4031
istischen	-4032
▁Kar	-4033
▁mount	-4034
▁allerdings	-4035
▁thems	-4036
rank	-4037
▁involved	-4038
tes	-4039
IC	-4040
▁themselves	-4041
ube	-4042
gru	-4043
▁sustain	-4044
drück	-4045
verständ	-4046
▁000	-4047
60	-4048
▁parties	-4049
▁web	-4050
ellen	-4051
▁Fehl	-4052
▁Verantwortung	-4053
▁sy	-4054
▁apply	-4055
▁illeg	-4056
▁sele	-4057
hem	-4058
▁Ir	-4059
▁bil	-4060
stehen	-4061
▁recogn	-4062
▁anim	-4063
▁Insel	-4064
2,	-4065
▁Wachst	-4066
▁zie	-4067
▁needed	-4068
wirkungen	-4069
▁Selbst	-4070
▁Struktur	-4071
▁Bedingungen	-4072
heim	-4073
lauf	-4074
▁Anwendung	-4075
▁live	-4076
▁competition	-4077
esented	-4078
▁happen	-4079
teile	-4080
irt	-4081
llig	-4082
▁Benutz	-4083
▁foreign	-4084
▁hoffe	-4085
aper	-4086
▁extremely	-4087
▁voted	-4088
▁gegeben	-4089
richtung	-4090
US	-4091
▁gemeinsamen	-4092
▁Fern	-4093
▁201	-4094
▁implementation	-4095
▁force	-4096
▁Wert	-4097
▁Entscheidung	-4098
cies	-4099
folgt	-4100
▁request	-4101
▁Please	-4102
▁From	-4103
▁notwendig	-4104
▁democracy	-4105
▁century	-4106
▁station	-4107
▁197	-4108
mbH	-4109
bank	-4110
▁efforts	-4111
▁Gebiet	-4112
▁guarantee	-4113
▁beispielsweise	-4114
▁Raum	-4115
▁Jun	-4116
▁upon	-4117
val	-4118
▁Ziele	-4119
▁fight	-4120
.0	-4121
▁camp	-4122
ta	-4123
▁AG	-4124
▁jeweil	-4125
▁item	-4126
▁language	-4127
cke	-4128
ürz	-4129
▁Tages	-4130
ired	-4131
ele	-4132
▁2003	-4133
▁kont	-4134
▁Bau	-4135
▁Kons	-4136
dam	-4137
▁ago	-4138
▁Druck	-4139
▁Grundlage	-4140
urf	-4141
ommod	-4142
▁dank	-4143
▁gehört	-4144
peten	-4145
▁Soc	-4146
▁Vorschläge	-4147
ynam	-4148
▁Interesse	-4149
▁bedeut	-4150
üssel	-4151
▁wohl	-4152
▁Trans	-4153
linien	-4154
▁Pf	-4155
▁changes	-4156
▁vielleicht	-4157
▁caus	-4158
▁kleinen	-4159
has	-4160
uk	-4161
ienen	-4162
▁Erfolg	-4163
ublik	-4164
▁please	-4165
▁Nord	-4166
▁Paris	-4167
▁sozialen	-4168
obile	-4169
▁prep	-4170
inzip	-4171
▁Dam	-4172
▁Off	-4173
bel	-4174
▁Einz	-4175
▁GmbH	-4176
▁disk	-4177
▁verwendet	-4178
lied	-4179
rench	-4180
▁low	-4181
▁expect	-4182
▁charge	-4183
▁enthalten	-4184
▁Musik	-4185
▁erziel	-4186
▁demokrat	-4187
▁circ	-4188
▁contain	-4189
▁developed	-4190
▁separ	-4191
▁Ihrem	-4192
▁Parte	-4193
ragen	-4194
▁wind	-4195
atory	-4196
▁ermöglich	-4197
▁Wieder	-4198
key	-4199
igur	-4200
▁sprechen	-4201
grif	-4202
▁bevor	-4203
▁Bil	-4204
▁corre	-4205
▁farm	-4206
arf	-4207
▁zust	-4208
▁Außen	-4209
▁regulation	-4210
▁neu	-4211
▁Eur	-4212
▁Tele	-4213
igungs	-4214
vert	-4215
▁Krit	-4216
▁Verfahren	-4217
rup	-4218
amous	-4219
▁Stre	-4220
▁protect	-4221
jekte	-4222
▁Wort	-4223
▁Russia	-4224
istration	-4225
sichtlich	-4226
-,	-4227
schn	-4228
▁soon	-4229
▁Daher	-4230
chs	-4231
▁lot	-4232
onstr	-4233
▁Einsatz	-4234
deut	-4235
▁comfortable	-4236
▁Tro	-4237
ano	-4238
▁Reihe	-4239
würd	-4240
▁Geschichte	-4241
▁Aug	-4242
▁erreicht	-4243
▁ö	-4244
▁Wel	-4245
▁mess	-4246
▁cases	-4247
▁pool	-4248
tended	-4249
▁By	-4250
▁Kön	-4251
▁Außer	-4252
▁negotiations	-4253
handlung	-4254
ama	-4255
crib	-4256
andid	-4257
ips	-4258
nehm	-4259
▁maxim	-4260
▁werde	-4261
▁Cour	-4262
play	-4263
gliche	-4264
best	-4265
▁berücksicht	-4266
▁comes	-4267
▁situated	-4268
immungen	-4269
▁More	-4270
▁halten	-4271
▁Date	-4272
▁targe	-4273
▁Heraus	-4274
▁nam	-4275
▁Möglichkeiten	-4276
bl	-4277
▁Frieden	-4278
▁either	-4279
▁Book	-4280
teilt	-4281
ense	-4282
▁markets	-4283
▁Prot	-4284
▁previous	-4285
ipped	-4286
▁Bre	-4287
▁erfü	-4288
▁Mot	-4289
orge	-4290
dle	-4291
arbeitung	-4292
▁restaurant	-4293
ätzen	-4294
▁einges	-4295
teilen	-4296
merksam	-4297
hes	-4298
geln	-4299
▁Netz	-4300
hend	-4301
itionen	-4302
prise	-4303
▁developing	-4304
▁France	-4305
▁Blick	-4306
lling	-4307
▁Debatte	-4308
estern	-4309
▁everything	-4310
aler	-4311
▁übern	-4312
▁Damen	-4313
▁Erweit	-4314
▁indic	-4315
gern	-4316
inner	-4317
▁Öff	-4318
▁created	-4319
bildung	-4320
▁South	-4321
▁ausgest	-4322
ump	-4323
▁minim	-4324
TM	-4325
▁60	-4326
abel	-4327
▁final	-4328
▁surround	-4329
TO	-4330
stall	-4331
▁Aktiv	-4332
auen	-4333
zeigt	-4334
▁Arbeitspl	-4335
▁21	-4336
istet	-4337
▁Cor	-4338
mut	-4339
▁Erklär	-4340
▁arbeiten	-4341
▁unique	-4342
date	-4343
▁fünf	-4344
rieben	-4345
▁improve	-4346
▁states	-4347
▁amb	-4348
▁Presidency	-4349
▁Schwe	-4350
▁Wissen	-4351
attet	-4352
▁höch	-4353
erseits	-4354
▁Hinblick	-4355
▁könnten	-4356
▁verschiedene	-4357
▁later	-4358
▁vorgeschlagen	-4359
▁Hoch	-4360
▁prices	-4361
▁mer	-4362
▁pict	-4363
ging	-4364
▁€	-4365
▁Mod	-4366
▁Mont	-4367
▁education	-4368
▁accommod	-4369
trie	-4370
▁Kle	-4371
▁schwier	-4372
▁Integr	-4373
anten	-4374
iable	-4375
mark	-4376
▁Steuer	-4377
▁French	-4378
unik	-4379
▁immed	-4380
RO	-4381
usst	-4382
▁true	-4383
▁konkre	-4384
urt	-4385
▁additional	-4386
▁‘	-4387
▁Sport	-4388
▁almost	-4389
ichen	-4390
▁altern	-4391
gegen	-4392
▁stor	-4393
haps	-4394
▁bleiben	-4395
▁included	-4396
▁gemeinsame	-4397
▁que	-4398
haft	-4399
▁monitor	-4400
▁democratic	-4401
▁living	-4402
ka	-4403
▁verfügt	-4404
▁thus	-4405
eless	-4406
ipment	-4407
ulate	-4408
▁Room	-4409
▁cut	-4410
▁analys	-4411
onn	-4412
▁actually	-4413
chnik	-4414
▁ermöglicht	-4415
igte	-4416
▁Minuten	-4417
▁contract	-4418
▁Institutionen	-4419
spräsident	-4420
▁fort	-4421
▁Plan	-4422
▁climate	-4423
▁Diskuss	-4424
bahn	-4425
▁Auswirkungen	-4426
▁idea	-4427
▁file	-4428
int	-4429
pendent	-4430
ibr	-4431
▁seen	-4432
▁schrift	-4433
ißt	-4434
▁travel	-4435
ingt	-4436
▁Platz	-4437
kra	-4438
▁wide	-4439
rechts	-4440
▁Aff	-4441
▁Kraft	-4442
▁document	-4443
▁EC	-4444
ielle	-4445
▁program	-4446
vin	-4447
▁Kir	-4448
wegen	-4449
ikt	-4450
ental	-4451
fil	-4452
▁encour	-4453
▁Änderungsantrag	-4454
▁Unser	-4455
▁Lis	-4456
▁Doch	-4457
IP	-4458
▁join	-4459
▁lack	-4460
▁Rechn	-4461
▁Apart	-4462
▁Prozess	-4463
▁akzept	-4464
lack	-4465
lle	-4466
▁receive	-4467
▁hatten	-4468
▁tats	-4469
▁hold	-4470
jenigen	-4471
▁vollständ	-4472
mm	-4473
▁knowledge	-4474
laden	-4475
▁zeigt	-4476
▁Forschung	-4477
ilar	-4478
ires	-4479
▁type	-4480
ommer	-4481
▁Strategie	-4482
▁Tatsache	-4483
mail	-4484
▁dialog	-4485
▁appropriate	-4486
barkeit	-4487
ios	-4488
▁erforderlich	-4489
rachten	-4490
▁Sicherheits	-4491
ester	-4492
▁funds	-4493
▁führt	-4494
▁Dis	-4495
hinder	-4496
▁schein	-4497
▁bisher	-4498
▁official	-4499
▁held	-4500
▁Beg	-4501
▁enl	-4502
▁Frühstück	-4503
▁euro	-4504
frei	-4505
▁Ausdruck	-4506
▁vill	-4507
ogra	-4508
▁27	-4509
▁procedure	-4510
▁Landes	-4511
▁Ant	-4512
''	-4513
▁allgemein	-4514
▁Nie	-4515
setzen	-4516
zer	-4517
iellen	-4518
▁Rad	-4519
▁outside	-4520
▁Regionen	-4521
▁gesamten	-4522
▁happ	-4523
▁assoc	-4524
adurch	-4525
▁Ergebnis	-4526
folgen	-4527
▁Abgeordneten	-4528
▁Iran	-4529
▁Webs	-4530
auber	-4531
iance	-4532
▁thing	-4533
▁erwä	-4534
▁Arch	-4535
ctors	-4536
anced	-4537
▁publish	-4538
▁angeb	-4539
:00	-4540
▁Vertre	-4541
▁designed	-4542
▁workers	-4543
feld	-4544
▁school	-4545
▁Portug	-4546
▁ebenso	-4547
▁einzelnen	-4548
▁Familien	-4549
ound	-4550
▁darum	-4551
▁propert	-4552
▁suggest	-4553
ams	-4554
▁funktion	-4555
atisf	-4556
des	-4557
▁rate	-4558
▁Erst	-4559
▁Schritt	-4560
ternal	-4561
fragen	-4562
stead	-4563
▁Kolleginnen	-4564
▁majority	-4565
▁features	-4566
ork	-4567
▁Com	-4568
ood	-4569
oper	-4570
ießen	-4571
▁Lond	-4572
öglichen	-4573
▁famous	-4574
▁professional	-4575
▁Du	-4576
▁danken	-4577
99	-4578
ählt	-4579
iews	-4580
▁später	-4581
▁Funktion	-4582
▁relev	-4583
▁entwickelt	-4584
▁Hers	-4585
▁hon	-4586
▁American	-4587
imme	-4588
ko	-4589
clud	-4590
orf	-4591
▁throughout	-4592
▁Dec	-4593
cep	-4594
jähr	-4595
▁early	-4596
▁communication	-4597
▁Binnen	-4598
▁Mitglieder	-4599
isieren	-4600
▁Fund	-4601
▁cop	-4602
fel	-4603
▁five	-4604
▁draw	-4605
otos	-4606
▁denke	-4607
▁General	-4608
▁answer	-4609
▁looking	-4610
änden	-4611
▁angenommen	-4612
▁exclus	-4613
igration	-4614
ländern	-4615
mitteln	-4616
va	-4617
▁customer	-4618
▁impact	-4619
indest	-4620
▁Außerdem	-4621
▁West	-4622
verfahren	-4623
▁betra	-4624
ässt	-4625
oid	-4626
▁behand	-4627
iens	-4628
▁takes	-4629
▁emphas	-4630
▁transl	-4631
▁hours	-4632
▁download	-4633
▁space	-4634
▁Denn	-4635
▁Version	-4636
▁Zur	-4637
▁works	-4638
▁doing	-4639
enken	-4640
▁Antwort	-4641
fähigkeit	-4642
▁potential	-4643
▁across	-4644
▁strengthen	-4645
▁wider	-4646
▁Verhandlungen	-4647
▁Bereichen	-4648
▁Acc	-4649
▁normal	-4650
.00	-4651
▁1,	-4652
▁enable	-4653
▁internationale	-4654
arbeitet	-4655
▁jedem	-4656
cer	-4657
ült	-4658
▁links	-4659
cure	-4660
▁certainly	-4661
▁Ris	-4662
ändert	-4663
▁Gemeinschafts	-4664
▁Mil	-4665
▁ever	-4666
▁univers	-4667
pression	-4668
▁date	-4669
▁parts	-4670
▁consequ	-4671
▁proper	-4672
▁North	-4673
▁*	-4674
▁weiß	-4675
kämpfung	-4676
kn	-4677
▁hätte	-4678
▁Position	-4679
▁Währ	-4680
1,	-4681
▁konnte	-4682
▁gemeinsam	-4683
▁befinden	-4684
▁aud	-4685
▁Zum	-4686
▁August	-4687
liegen	-4688
▁Staats	-4689
▁äußer	-4690
▁Dialog	-4691
kr	-4692
▁colleag	-4693
▁solid	-4694
zif	-4695
▁Vereinigten	-4696
▁guest	-4697
ET	-4698
▁users	-4699
▁vorh	-4700
uren	-4701
onom	-4702
▁London	-4703
▁setzen	-4704
▁traditional	-4705
prä	-4706
▁investment	-4707
▁gleichzeitig	-4708
▁took	-4709
▁neues	-4710
bru	-4711
rad	-4712
▁mechan	-4713
ällen	-4714
ösen	-4715
▁weiteren	-4716
▁Handels	-4717
▁record	-4718
▁Beziehungen	-4719
▁ca	-4720
erei	-4721
hab	-4722
▁Luft	-4723
▁divers	-4724
▁Führ	-4725
▁erhö	-4726
chsel	-4727
▁umfassen	-4728
▁Pak	-4729
▁Zentrum	-4730
▁eth	-4731
▁existing	-4732
▁Bevölkerung	-4733
▁concerns	-4734
▁Pa	-4735
.000	-4736
▁amount	-4737
▁resol	-4738
▁complex	-4739
stre	-4740
▁Nat	-4741
▁eigent	-4742
▁hinter	-4743
ügen	-4744
aly	-4745
▁Werk	-4746
▁heißt	-4747
▁programmes	-4748
ille	-4749
▁erhe	-4750
▁Turkey	-4751
▁original	-4752
ias	-4753
▁connection	-4754
teid	-4755
hung	-4756
uted	-4757
▁Terror	-4758
▁cross	-4759
kei	-4760
▁Kos	-4761
oking	-4762
▁Süd	-4763
▁Vertra	-4764
▁zuf	-4765
halte	-4766
▁Abkommen	-4767
▁lat	-4768
▁Leit	-4769
AM	-4770
▁Let	-4771
ava	-4772
griff	-4773
alter	-4774
▁neben	-4775
▁relig	-4776
▁Programme	-4777
▁mentioned	-4778
wie	-4779
aring	-4780
äss	-4781
▁Online	-4782
▁Interessen	-4783
▁concerning	-4784
▁Proz	-4785
ini	-4786
sehen	-4787
länder	-4788
▁model	-4789
range	-4790
fortun	-4791
▁80	-4792
▁although	-4793
▁tele	-4794
▁Flugh	-4795
▁America	-4796
orre	-4797
▁jede	-4798
▁parliament	-4799
▁Hol	-4800
▁Aufgabe	-4801
▁writing	-4802
▁Government	-4803
▁helfen	-4804
▁reasons	-4805
▁lux	-4806
▁aktiv	-4807
▁absolute	-4808
lang	-4809
▁vö	-4810
ara	-4811
AC	-4812
▁Beitrag	-4813
▁Court	-4814
affung	-4815
▁Inform	-4816
▁Handel	-4817
▁arg	-4818
▁demonstr	-4819
ande	-4820
richtungen	-4821
ball	-4822
▁decisions	-4823
▁Förderung	-4824
▁leading	-4825
▁aware	-4826
▁completely	-4827
▁card	-4828
esh	-4829
▁PC	-4830
ole	-4831
face	-4832
▁built	-4833
▁nothing	-4834
▁Türkei	-4835
ipl	-4836
▁related	-4837
▁gegenwärt	-4838
▁Kontrolle	-4839
▁English	-4840
▁CD	-4841
▁joint	-4842
temp	-4843
▁extens	-4844
▁Verpflicht	-4845
▁Mor	-4846
▁gelten	-4847
▁game	-4848
▁beit	-4849
esserung	-4850
▁Themen	-4851
▁gestellt	-4852
▁friendly	-4853
▁half	-4854
▁community	-4855
▁Schlussel	-4856
▁empf	-4857
▁High	-4858
zös	-4859
ayer	-4860
▁Sy	-4861
▁Fuß	-4862
▁Liste	-4863
▁rund	-4864
▁wichtigen	-4865
▁intens	-4866
▁conflic	-4867
▁Mag	-4868
▁kleine	-4869
arity	-4870
üsse	-4871
iddle	-4872
formen	-4873
▁meinen	-4874
▁Stabil	-4875
hlen	-4876
ox	-4877
▁basic	-4878
▁Einzel	-4879
▁unseres	-4880
ba	-4881
amera	-4882
▁assess	-4883
▁enlarge	-4884
▁committee	-4885
▁Wettbewerbs	-4886
▁prakt	-4887
▁See	-4888
ED	-4889
▁Febru	-4890
▁culture	-4891
▁practice	-4892
una	-4893
▁front	-4894
▁Verbindung	-4895
▁holiday	-4896
▁Erweiterung	-4897
orten	-4898
▁population	-4899
quis	-4900
uffer	-4901
▁includes	-4902
▁military	-4903
ush	-4904
ological	-4905
führen	-4906
▁Barcel	-4907
▁internet	-4908
odell	-4909
▁schwer	-4910
▁agreements	-4911
▁digital	-4912
▁Kampf	-4913
grat	-4914
more	-4915
▁verd	-4916
ID	-4917
fluss	-4918
▁spr	-4919
itable	-4920
▁consult	-4921
▁allows	-4922
SE	-4923
▁gab	-4924
gangenen	-4925
▁becom	-4926
▁liegen	-4927
inden	-4928
▁media	-4929
termin	-4930
spe	-4931
▁Reform	-4932
Re	-4933
▁oblig	-4934
lant	-4935
lies	-4936
▁gestimmt	-4937
▁spezie	-4938
nissen	-4939
▁erinn	-4940
bedingungen	-4941
▁commer	-4942
▁jedes	-4943
▁Ausschusses	-4944
▁advant	-4945
gl	-4946
▁objectives	-4947
▁-,	-4948
▁search	-4949
zunehmen	-4950
▁1999	-4951
▁bleibt	-4952
▁Since	-4953
▁Sup	-4954
▁conclus	-4955
▁err	-4956
▁body	-4957
▁choice	-4958
osen	-4959
istrat	-4960
licken	-4961
zeugen	-4962
ills	-4963
▁bekommen	-4964
▁Rel	-4965
▁wa	-4966
▁Konferenz	-4967
▁Vis	-4968
iterran	-4969
len	-4970
itness	-4971
Mail	-4972
▁Che	-4973
▁wegen	-4974
▁received	-4975
▁values	-4976
▁jobs	-4977
▁Verordnung	-4978
▁wün	-4979
▁simple	-4980
älle	-4981
iated	-4982
▁Entschließung	-4983
annte	-4984
▁IS	-4985
▁emer	-4986
▁transfer	-4987
rachen	-4988
ovo	-4989
vement	-4990
alien	-4991
▁nahe	-4992
struments	-4993
▁satisf	-4994
▁Pass	-4995
▁fail	-4996
ying	-4997
▁Lux	-4998
▁established	-4999
▁warm	-5000
▁$	-5001
▁Thank	-5002
▁poor	-5003
ason	-5004
▁Nutzung	-5005
▁prim	-5006
▁angem	-5007
▁bess	-5008
▁computer	-5009
▁Volk	-5010
▁Lisbon	-5011
▁plann	-5012
▁equipment	-5013
.,	-5014
▁package	-5015
▁Now	-5016
jahr	-5017
▁Home	-5018
geschlossen	-5019
mbol	-5020
▁Kop	-5021
ördern	-5022
▁richtig	-5023
ery	-5024
▁regarding	-5025
▁Behörden	-5026
▁capac	-5027
▁performance	-5028
▁sag	-5029
▁center	-5030
▁Strand	-5031
▁move	-5032
such	-5033
pite	-5034
ikanischen	-5035
▁lok	-5036
▁wunder	-5037
ourn	-5038
ón	-5039
▁harmon	-5040
▁Prior	-5041
▁applications	-5042
▁Notwend	-5043
▁erlaub	-5044
abon	-5045
▁Ze	-5046
▁Augen	-5047
öst	-5048
▁Serv	-5049
rab	-5050
▁Volks	-5051
sitz	-5052
▁gerne	-5053
▁jud	-5054
▁files	-5055
ico	-5056
▁Liss	-5057
▁wichtigsten	-5058
▁image	-5059
▁durchge	-5060
▁Damit	-5061
▁attack	-5062
dom	-5063
ennung	-5064
▁initi	-5065
vious	-5066
▁verantwort	-5067
▁Mitarbeiter	-5068
▁pleas	-5069
pected	-5070
▁agricultural	-5071
pass	-5072
eden	-5073
▁purch	-5074
uck	-5075
▁Aufent	-5076
uclear	-5077
essour	-5078
▁sun	-5079
▁broad	-5080
▁unabhäng	-5081
▁objective	-5082
▁Urlaub	-5083
▁quickly	-5084
▁spend	-5085
▁Cons	-5086
erve	-5087
▁+	-5088
icles	-5089
▁Forder	-5090
▁credit	-5091
▁mehrere	-5092
inne	-5093
▁Krise	-5094
▁hinsichtlich	-5095
▁Ober	-5096
▁Here	-5097
▁reports	-5098
▁stop	-5099
▁cru	-5100
▁keyword	-5101
▁wonder	-5102
▁Reise	-5103
▁face	-5104
▁below	-5105
▁herr	-5106
flä	-5107
▁IT	-5108
osed	-5109
▁goods	-5110
▁Frankreich	-5111
▁sound	-5112
▁Imm	-5113
gesamt	-5114
este	-5115
▁Verbesserung	-5116
▁Affairs	-5117
▁Imp	-5118
öhn	-5119
▁fran	-5120
imension	-5121
▁Sant	-5122
▁ganze	-5123
▁ganzen	-5124
▁einger	-5125
▁22	-5126
Ver	-5127
stellungen	-5128
▁nachhalt	-5129
▁wobei	-5130
▁party	-5131
wide	-5132
seit	-5133
▁Bitte	-5134
▁Lissabon	-5135
▁Gruppe	-5136
▁industrial	-5137
▁Auswahl	-5138
nern	-5139
undes	-5140
▁Ukra	-5141
▁south	-5142
▁Wochen	-5143
▁enthält	-5144
▁self	-5145
▁ermöglichen	-5146
▁leaders	-5147
▁trotz	-5148
▁Bad	-5149
▁experien	-5150
ften	-5151
chter	-5152
Fra	-5153
▁option	-5154
▁benefit	-5155
ernen	-5156
▁note	-5157
▁Veranst	-5158
statt	-5159
▁huge	-5160
ros	-5161
▁sense	-5162
brigen	-5163
▁popular	-5164
▁schön	-5165
▁contains	-5166
emb	-5167
teller	-5168
▁achieved	-5169
,000	-5170
▁treatment	-5171
▁Amend	-5172
▁code	-5173
gef	-5174
aving	-5175
▁seems	-5176
erc	-5177
ps	-5178
▁Gree	-5179
gelt	-5180
▁City	-5181
▁Link	-5182
▁initiative	-5183
▁indeed	-5184
▁East	-5185
schließend	-5186
▁passen	-5187
oo	-5188
entwick	-5189
▁garant	-5190
erweise	-5191
iveness	-5192
▁Wachstum	-5193
lla	-5194
mann	-5195
▁beein	-5196
opping	-5197
▁Sim	-5198
▁rail	-5199
▁zeigen	-5200
wander	-5201
▁Binnenmarkt	-5202
lam	-5203
▁leben	-5204
▁recently	-5205
sterreich	-5206
▁Dokument	-5207
lassen	-5208
▁Schaffung	-5209
äum	-5210
▁Anfang	-5211
otion	-5212
▁grund	-5213
▁ill	-5214
istische	-5215
möglichkeit	-5216
▁Pan	-5217
▁Gelegenheit	-5218
▁spac	-5219
▁los	-5220
▁''	-5221
▁Macht	-5222
put	-5223
▁carry	-5224
▁correct	-5225
fahrt	-5226
▁Chin	-5227
mor	-5228
▁vict	-5229
▁Standard	-5230
▁double	-5231
▁engine	-5232
▁Barcelona	-5233
▁Bef	-5234
▁congrat	-5235
▁mittel	-5236
▁verg	-5237
itect	-5238
▁veh	-5239
▁beginning	-5240
▁Finally	-5241
▁ruh	-5242
▁dialogue	-5243
kennen	-5244
▁Club	-5245
ienste	-5246
iment	-5247
▁highly	-5248
▁!	-5249
▁Fach	-5250
▁Up	-5251
▁nice	-5252
▁Global	-5253
oppel	-5254
▁28	-5255
▁Gebä	-5256
▁levels	-5257
itel	-5258
fonds	-5259
haupt	-5260
▁June	-5261
▁Gewalt	-5262
VD	-5263
▁floor	-5264
▁oil	-5265
▁spielen	-5266
▁frü	-5267
▁Innov	-5268
fon	-5269
▁Les	-5270
pid	-5271
▁efficient	-5272
▁Social	-5273
▁presented	-5274
▁series	-5275
wertungen	-5276
▁Verwendung	-5277
▁Some	-5278
▁heut	-5279
▁everyone	-5280
ßt	-5281
▁Darüber	-5282
bre	-5283
▁scient	-5284
En	-5285
▁equipped	-5286
▁völlig	-5287
▁Ergebnisse	-5288
▁successful	-5289
stances	-5290
▁governments	-5291
▁Central	-5292
▁click	-5293
▁integration	-5294
▁garden	-5295
ostels	-5296
ätigkeit	-5297
▁Personal	-5298
vorschriften	-5299
▁Management	-5300
icien	-5301
▁active	-5302
▁Angebot	-5303
▁verbessern	-5304
▁comprom	-5305
▁super	-5306
▁Amster	-5307
/9	-5308
▁Team	-5309
▁Voraus	-5310
▁Notwendigkeit	-5311
▁ut	-5312
▁3.	-5313
▁einzig	-5314
fortunately	-5315
▁exchange	-5316
▁red	-5317
lace	-5318
fordert	-5319
▁Kern	-5320
▁Zweit	-5321
▁lässt	-5322
▁kulture	-5323
▁increased	-5324
anzen	-5325
▁grundlegen	-5326
▁Liefer	-5327
▁Mich	-5328
▁Material	-5329
▁furn	-5330
▁carried	-5331
▁Anzahl	-5332
utt	-5333
▁whose	-5334
▁Ho	-5335
ley	-5336
organis	-5337
▁frei	-5338
PE	-5339
▁Leg	-5340
mehr	-5341
▁consumers	-5342
▁stage	-5343
onse	-5344
▁Tage	-5345
▁tw	-5346
▁sent	-5347
▁Second	-5348
abor	-5349
40	-5350
örper	-5351
▁principles	-5352
ering	-5353
ützen	-5354
ature	-5355
▁verwenden	-5356
▁500	-5357
▁Akt	-5358
▁age	-5359
isted	-5360
▁block	-5361
schw	-5362
lier	-5363
▁higher	-5364
▁agreed	-5365
▁Post	-5366
RE	-5367
▁guten	-5368
▁gefähr	-5369
atell	-5370
iko	-5371
▁soziale	-5372
izien	-5373
▁Zeitpunkt	-5374
ued	-5375
▁eigene	-5376
▁dre	-5377
▁Woche	-5378
unt	-5379
aufen	-5380
OL	-5381
just	-5382
▁sex	-5383
▁verfügen	-5384
imming	-5385
aint	-5386
▁office	-5387
hoben	-5388
bie	-5389
▁dang	-5390
action	-5391
pose	-5392
▁Bud	-5393
▁großer	-5394
buch	-5395
▁bathroom	-5396
▁reviews	-5397
will	-5398
ania	-5399
▁stra	-5400
▁profit	-5401
▁amendment	-5402
IL	-5403
▁asked	-5404
▁direction	-5405
▁coll	-5406
wise	-5407
▁rat	-5408
anner	-5409
▁Bra	-5410
▁häuf	-5411
▁expl	-5412
..."	-5413
ape	-5414
atic	-5415
▁Further	-5416
▁subsid	-5417
loyment	-5418
icherung	-5419
▁choose	-5420
▁Ferien	-5421
▁supply	-5422
aschinen	-5423
▁commercial	-5424
▁Russland	-5425
▁exc	-5426
▁Solid	-5427
▁Miss	-5428
▁traff	-5429
▁seek	-5430
▁verfüg	-5431
▁commitment	-5432
griffen	-5433
▁similar	-5434
▁six	-5435
▁meinem	-5436
träge	-5437
▁fördern	-5438
spiel	-5439
▁Business	-5440
ja	-5441
▁Berg	-5442
▁Integration	-5443
▁schö	-5444
klus	-5445
umb	-5446
▁Lösungen	-5447
▁obtain	-5448
xis	-5449
atast	-5450
▁Produktion	-5451
▁diskut	-5452
▁anzu	-5453
scht	-5454
▁Mac	-5455
▁perhaps	-5456
▁196	-5457
▁tell	-5458
▁Jugend	-5459
mitt	-5460
apt	-5461
▁Ham	-5462
▁künft	-5463
▁Wein	-5464
▁shows	-5465
rid	-5466
▁gesamte	-5467
▁zunächst	-5468
verständlich	-5469
▁Män	-5470
iglich	-5471
▁Therefore	-5472
agn	-5473
▁mal	-5474
▁Dan	-5475
▁influen	-5476
▁pan	-5477
▁rates	-5478
minister	-5479
▁news	-5480
▁matters	-5481
▁Tat	-5482
▁gehören	-5483
▁avoid	-5484
▁aspects	-5485
ahren	-5486
▁Änderungen	-5487
▁obs	-5488
▁stress	-5489
▁added	-5490
▁shown	-5491
▁atmosph	-5492
IM	-5493
▁Maß	-5494
inger	-5495
ängt	-5496
▁gleichen	-5497
gn	-5498
usion	-5499
▁nuclear	-5500
ufficient	-5501
▁Beschäftigung	-5502
▁Develop	-5503
▁rein	-5504
▁innovative	-5505
▁bi	-5506
▁former	-5507
▁promote	-5508
▁hotels	-5509
standen	-5510
▁thanks	-5511
äst	-5512
▁vorhanden	-5513
▁Juni	-5514
▁Krieg	-5515
▁Sil	-5516
osp	-5517
fält	-5518
▁dynam	-5519
▁Eigen	-5520
▁came	-5521
▁tatsächlich	-5522
▁considered	-5523
pflich	-5524
▁Pers	-5525
greifen	-5526
▁Log	-5527
▁speed	-5528
▁gelegen	-5529
▁Dez	-5530
▁Net	-5531
▁Rot	-5532
▁ständ	-5533
eff	-5534
▁Article	-5535
irit	-5536
lass	-5537
▁sorgen	-5538
▁Inde	-5539
▁Mai	-5540
▁effects	-5541
▁Wahr	-5542
▁Hinter	-5543
▁veröffent	-5544
▁Of	-5545
▁lik	-5546
akter	-5547
▁Get	-5548
cks	-5549
▁latest	-5550
▁possibility	-5551
essourcen	-5552
lös	-5553
▁opportunities	-5554
▁Micro	-5555
▁eindeut	-5556
artige	-5557
öffnet	-5558
▁Golf	-5559
Sch	-5560
▁verstär	-5561
▁geführt	-5562
▁Regierungen	-5563
▁schriftlich	-5564
▁Initiative	-5565
▁Erfahrung	-5566
ously	-5567
▁Zw	-5568
▁Beschl	-5569
▁Herzen	-5570
▁Balk	-5571
▁Mehrheit	-5572
▁Debian	-5573
▁Während	-5574
ierenden	-5575
li	-5576
ends	-5577
owers	-5578
▁behind	-5579
ored	-5580
▁depend	-5581
ausch	-5582
▁condition	-5583
▁Nieder	-5584
▁erk	-5585
▁Einführung	-5586
cript	-5587
zub	-5588
▁Stellung	-5589
▁Col	-5590
▁sofort	-5591
▁Sum	-5592
ology	-5593
▁ernst	-5594
ausschuss	-5595
▁Well	-5596
▁entwickeln	-5597
▁Arg	-5598
ilen	-5599
▁Program	-5600
▁materials	-5601
icy	-5602
▁setting	-5603
▁Don	-5604
▁draft	-5605
okoll	-5606
▁phys	-5607
astic	-5608
▁Lat	-5609
▁providing	-5610
▁reached	-5611
▁af	-5612
és	-5613
▁creation	-5614
ühm	-5615
▁Organisation	-5616
arent	-5617
▁Dabei	-5618
▁review	-5619
▁größten	-5620
itting	-5621
▁easily	-5622
where	-5623
▁König	-5624
▁äußerst	-5625
▁accommodation	-5626
▁Republic	-5627
▁verstehen	-5628
▁26	-5629
▁ten	-5630
▁external	-5631
alu	-5632
▁leicht	-5633
ki	-5634
▁atmosphere	-5635
unsch	-5636
▁Ru	-5637
▁summer	-5638
▁90	-5639
gene	-5640
▁prepared	-5641
▁response	-5642
▁relevant	-5643
▁IN	-5644
iles	-5645
▁Spain	-5646
▁death	-5647
zeugt	-5648
iction	-5649
otes	-5650
▁size	-5651
▁reduce	-5652
▁Transport	-5653
▁Aud	-5654
▁Lauf	-5655
▁Weiter	-5656
▁hoff	-5657
▁exhib	-5658
arily	-5659
kraft	-5660
▁Öffent	-5661
▁criter	-5662
▁somit	-5663
▁schle	-5664
▁deta	-5665
ächt	-5666
▁Amsterdam	-5667
▁sustainable	-5668
idel	-5669
▁gewährleisten	-5670
▁lediglich	-5671
▁pressure	-5672
▁decided	-5673
▁hohen	-5674
▁Agr	-5675
uffet	-5676
5,	-5677
▁Italy	-5678
▁à	-5679
▁geschlossen	-5680
.1	-5681
rechend	-5682
▁Convention	-5683
rang	-5684
▁Install	-5685
▁elekt	-5686
itzen	-5687
▁prepar	-5688
▁verpflich	-5689
▁Konfl	-5690
▁Ratspräsident	-5691
▁Umgebung	-5692
istics	-5693
▁condu	-5694
▁capacity	-5695
ney	-5696
▁Loc	-5697
quare	-5698
▁Höhe	-5699
▁gebracht	-5700
uel	-5701
▁Kontakt	-5702
▁Ins	-5703
oz	-5704
▁terra	-5705
entlich	-5706
uern	-5707
▁Rev	-5708
▁coming	-5709
▁beteil	-5710
▁prob	-5711
▁=	-5712
▁300	-5713
▁video	-5714
▁erfolgreich	-5715
▁submitted	-5716
▁Oct	-5717
▁actions	-5718
ibilities	-5719
▁style	-5720
▁Familie	-5721
ierter	-5722
▁70	-5723
ounts	-5724
▁gives	-5725
▁Aktion	-5726
estens	-5727
▁wirtschaftliche	-5728
▁places	-5729
stellt	-5730
▁anderer	-5731
▁Informations	-5732
▁Ents	-5733
▁Vereinbar	-5734
▁details	-5735
▁concept	-5736
▁neigh	-5737
▁Sprache	-5738
▁regular	-5739
▁gross	-5740
creen	-5741
▁sites	-5742
▁remains	-5743
▁Kommunik	-5744
▁property	-5745
volle	-5746
▁vern	-5747
▁dep	-5748
▁Gemeins	-5749
ulgar	-5750
iately	-5751
▁employe	-5752
altungs	-5753
▁Standpunkt	-5754
kommens	-5755
▁enlargement	-5756
▁Cal	-5757
maßnahmen	-5758
▁bestimmte	-5759
rig	-5760
▁suffer	-5761
▁ww	-5762
son	-5763
▁Sicht	-5764
▁closed	-5765
▁cause	-5766
▁Wettbewerb	-5767
▁Komprom	-5768
sy	-5769
tent	-5770
▁priority	-5771
▁British	-5772
industrie	-5773
rehens	-5774
Be	-5775
▁Erachten	-5776
▁www	-5777
▁une	-5778
▁Neben	-5779
▁erschein	-5780
emin	-5781
▁ausgestattet	-5782
▁December	-5783
▁Kommissarin	-5784
Te	-5785
▁Erachtens	-5786
▁meines	-5787
▁Bekämpfung	-5788
▁Eing	-5789
▁zweite	-5790
roat	-5791
iture	-5792
▁display	-5793
▁Africa	-5794
resp	-5795
▁Party	-5796
▁Dinge	-5797
▁Kosovo	-5798
▁Vertrags	-5799
▁leave	-5800
▁balance	-5801
hil	-5802
zeuge	-5803
▁announ	-5804
▁fal	-5805
▁island	-5806
▁train	-5807
▁Freiheit	-5808
rief	-5809
▁bestimmten	-5810
▁March	-5811
▁York	-5812
▁Adr	-5813
▁Also	-5814
▁billion	-5815
▁Folgen	-5816
▁zahlreiche	-5817
▁amer	-5818
bert	-5819
▁describ	-5820
▁architect	-5821
▁Ukraine	-5822
▁register	-5823
▁obwohl	-5824
▁WTO	-5825
eting	-5826
▁funding	-5827
▁partner	-5828
▁Aspe	-5829
▁Dom	-5830
▁limited	-5831
▁consumer	-5832
▁Stad	-5833
mented	-5834
ündet	-5835
lav	-5836
▁Fehler	-5837
adem	-5838
▁vorgesehen	-5839
▁assistance	-5840
▁Museum	-5841
▁movement	-5842
▁Open	-5843
▁decl	-5844
▁Booking	-5845
▁Italien	-5846
setzungen	-5847
▁forms	-5848
▁discover	-5849
▁Okt	-5850
▁neuer	-5851
▁Fortschritte	-5852
▁dring	-5853
▁Aktivitäten	-5854
rec	-5855
▁erhält	-5856
inal	-5857
atastrop	-5858
▁Ke	-5859
sprün	-5860
▁x	-5861
legenheiten	-5862
▁Spa	-5863
▁tragen	-5864
ugs	-5865
▁highl	-5866
iterranean	-5867
3,	-5868
▁Wohl	-5869
▁Fed	-5870
▁else	-5871
▁scheint	-5872
▁Enter	-5873
▁Jed	-5874
▁Überein	-5875
ieg	-5876
▁sport	-5877
urr	-5878
selves	-5879
▁transparen	-5880
▁prot	-5881
▁woll	-5882
▁supported	-5883
uert	-5884
▁entde	-5885
terne	-5886
schnitt	-5887
▁ähn	-5888
ategories	-5889
▁Opt	-5890
▁ground	-5891
'.	-5892
▁green	-5893
▁brought	-5894
mäßig	-5895
▁sagte	-5896
system	-5897
ghan	-5898
itzer	-5899
▁Instrument	-5900
mission	-5901
die	-5902
bus	-5903
wertung	-5904
▁Western	-5905
▁regulations	-5906
▁north	-5907
▁independent	-5908
▁rule	-5909
▁vorlie	-5910
▁erweit	-5911
▁außerdem	-5912
PL	-5913
▁Dezember	-5914
iciency	-5915
▁allein	-5916
▁gewor	-5917
▁versuchen	-5918
▁virt	-5919
▁administrat	-5920
stitute	-5921
ournal	-5922
▁Medien	-5923
▁ko	-5924
cle	-5925
▁hor	-5926
hindern	-5927
▁effe	-5928
▁limit	-5929
▁quiet	-5930
▁bestät	-5931
▁Bestimmungen	-5932
▁foot	-5933
ehen	-5934
gesellschaft	-5935
reibung	-5936
▁solchen	-5937
▁creating	-5938
etimes	-5939
geber	-5940
here	-5941
▁Stelle	-5942
▁dadurch	-5943
▁unterst	-5944
▁pleased	-5945
▁Jahrhundert	-5946
Fraktion	-5947
▁fig	-5948
▁ord	-5949
▁construction	-5950
NG	-5951
▁erster	-5952
▁Af	-5953
▁Gruppen	-5954
stein	-5955
▁Preise	-5956
▁purpose	-5957
▁restaurants	-5958
▁gemäß	-5959
▁Gefahr	-5960
▁variety	-5961
▁Italian	-5962
▁zweiten	-5963
▁repe	-5964
ader	-5965
▁Stunden	-5966
3.	-5967
uis	-5968
5.	-5969
▁apartment	-5970
▁1998	-5971
▁mobile	-5972
▁January	-5973
ützt	-5974
Off	-5975
▁Har	-5976
▁discussion	-5977
▁Oper	-5978
▁französ	-5979
▁airport	-5980
▁einzige	-5981
▁friends	-5982
▁lic	-5983
anischen	-5984
▁Verkehrs	-5985
▁Di	-5986
Pl	-5987
▁Nur	-5988
▁Benutzer	-5989
▁hohe	-5990
ilos	-5991
page	-5992
▁fix	-5993
▁hy	-5994
▁insgesamt	-5995
▁Jo	-5996
▁expla	-5997
▁message	-5998
merksamkeit	-5999
▁deep	-6000
▁became	-6001
ena	-6002
▁instead	-6003
▁aufgenommen	-6004
▁erheb	-6005
▁produced	-6006
▁largest	-6007
ategorien	-6008
▁exec	-6009
▁wid	-6010
▁Privat	-6011
möglichkeiten	-6012
▁sus	-6013
▁renov	-6014
endes	-6015
unternehmen	-6016
▁King	-6017
▁Aufmerksamkeit	-6018
isters	-6019
ritts	-6020
▁Staat	-6021
▁Last	-6022
▁thous	-6023
▁vergangenen	-6024
▁Punkte	-6025
▁Erklärung	-6026
▁Bildung	-6027
▁relationship	-6028
stag	-6029
besch	-6030
▁2002	-6031
igungen	-6032
▁October	-6033
▁Unterk	-6034
▁Sl	-6035
▁chem	-6036
▁alten	-6037
▁bein	-6038
▁study	-6039
▁conference	-6040
ero	-6041
▁stability	-6042
▁Basis	-6043
▁schließlich	-6044
▁ways	-6045
▁Entscheidungen	-6046
aft	-6047
▁obvious	-6048
▁gee	-6049
▁host	-6050
▁interesting	-6051
▁Ged	-6052
arenz	-6053
▁accord	-6054
▁regards	-6055
kont	-6056
ürf	-6057
▁29	-6058
▁effort	-6059
▁Det	-6060
bewertungen	-6061
cement	-6062
▁board	-6063
▁Alt	-6064
lare	-6065
▁measure	-6066
▁Camp	-6067
▁steps	-6068
yond	-6069
▁safe	-6070
legung	-6071
▁Services	-6072
▁einschließlich	-6073
▁2001	-6074
räfte	-6075
▁started	-6076
▁Down	-6077
▁Ter	-6078
▁März	-6079
▁rich	-6080
▁dat	-6081
coming	-6082
porate	-6083
▁allowed	-6084
▁determin	-6085
▁ändern	-6086
▁fishing	-6087
▁Star	-6088
▁Gal	-6089
▁procedures	-6090
wa	-6091
▁activity	-6092
▁genießen	-6093
ronic	-6094
conomic	-6095
falt	-6096
▁Exper	-6097
▁Mart	-6098
▁task	-6099
▁Film	-6100
cker	-6101
▁produce	-6102
▁jün	-6103
▁vertreten	-6104
ämt	-6105
▁medium	-6106
▁hous	-6107
▁Rights	-6108
▁instrument	-6109
▁fisher	-6110
ugg	-6111
etary	-6112
2)	-6113
▁status	-6114
▁Prü	-6115
▁Oktober	-6116
80	-6117
angt	-6118
▁Anforderungen	-6119
▁konzentr	-6120
ades	-6121
▁Organ	-6122
▁Pap	-6123
▁keiner	-6124
▁Today	-6125
▁div	-6126
▁Schweiz	-6127
anlage	-6128
▁Flughafen	-6129
▁Küche	-6130
▁Server	-6131
▁hervorra	-6132
▁operation	-6133
▁Berichts	-6134
▁accep	-6135
▁purs	-6136
prises	-6137
▁legislative	-6138
▁Abend	-6139
▁source	-6140
dra	-6141
utter	-6142
isp	-6143
▁compromise	-6144
▁Em	-6145
bor	-6146
altet	-6147
▁fall	-6148
▁Ed	-6149
▁Zeich	-6150
▁Cap	-6151
▁morgen	-6152
▁contribution	-6153
▁Öffentlichkeit	-6154
zone	-6155
▁liberal	-6156
▁tä	-6157
▁provisions	-6158
▁dut	-6159
overty	-6160
▁Vorschriften	-6161
▁relation	-6162
Ar	-6163
▁Städ	-6164
EP	-6165
▁damage	-6166
▁exact	-6167
▁Diskussion	-6168
▁betroffen	-6169
▁Anwend	-6170
▁beschäft	-6171
oder	-6172
▁mor	-6173
▁disp	-6174
FR	-6175
länd	-6176
soft	-6177
▁Kan	-6178
▁Democ	-6179
▁Stär	-6180
“,	-6181
itude	-6182
letzt	-6183
Mit	-6184
▁san	-6185
▁Unternehmens	-6186
ibil	-6187
see	-6188
▁Site	-6189
▁written	-6190
enntnis	-6191
▁Grenzen	-6192
▁Sm	-6193
▁Bundes	-6194
polit	-6195
▁instruments	-6196
▁Landwirtschaft	-6197
▁Every	-6198
▁Erzeug	-6199
▁Gip	-6200
▁word	-6201
ivity	-6202
▁Bereiche	-6203
▁Spanish	-6204
▁Transparenz	-6205
▁Wider	-6206
▁labour	-6207
▁forder	-6208
▁leisten	-6209
kosten	-6210
▁dise	-6211
lines	-6212
ienten	-6213
▁Juli	-6214
▁compon	-6215
▁fehl	-6216
▁appe	-6217
▁Arbeitnehmer	-6218
▁erwarten	-6219
itial	-6220
▁konnten	-6221
▁leider	-6222
▁giving	-6223
▁Development	-6224
annen	-6225
▁Ele	-6226
▁häufig	-6227
▁distance	-6228
▁eingesetzt	-6229
▁überw	-6230
▁village	-6231
ühungen	-6232
▁Tagesordnung	-6233
▁kit	-6234
oker	-6235
dienst	-6236
▁eigentlich	-6237
▁ourselves	-6238
24	-6239
▁Tex	-6240
▁Bilder	-6241
▁Gesundheits	-6242
▁gain	-6243
▁During	-6244
ford	-6245
▁criteria	-6246
▁Empfehl	-6247
▁statement	-6248
▁historical	-6249
▁conven	-6250
▁pen	-6251
▁loss	-6252
.)	-6253
▁Prinzip	-6254
rats	-6255
▁got	-6256
▁Ansatz	-6257
▁Anfrage	-6258
▁Ist	-6259
▁minor	-6260
▁regel	-6261
ifik	-6262
ira	-6263
▁wenige	-6264
▁documents	-6265
▁Belg	-6266
▁Präsidenten	-6267
▁Inn	-6268
▁klein	-6269
▁genommen	-6270
▁geworden	-6271
▁Nationen	-6272
▁prefer	-6273
lichkeiten	-6274
▁Hung	-6275
ateral	-6276
▁evalu	-6277
▁violence	-6278
▁Portugal	-6279
works	-6280
▁Ere	-6281
▁eleg	-6282
▁zentr	-6283
▁comprehens	-6284
▁durchgeführt	-6285
▁verm	-6286
▁mem	-6287
▁won	-6288
▁launch	-6289
▁Kur	-6290
▁Je	-6291
▁Systems	-6292
▁finally	-6293
▁mountain	-6294
▁firm	-6295
▁She	-6296
▁structure	-6297
ato	-6298
iete	-6299
cret	-6300
▁Mult	-6301
freund	-6302
▁interpre	-6303
▁Real	-6304
▁benefits	-6305
▁Neu	-6306
▁base	-6307
▁Investitionen	-6308
wesen	-6309
▁gran	-6310
▁Villa	-6311
▁types	-6312
ground	-6313
forderung	-6314
uche	-6315
▁Sommer	-6316
orgt	-6317
▁fell	-6318
▁unmittel	-6319
▁Linux	-6320
▁depart	-6321
fun	-6322
▁berühm	-6323
▁Cost	-6324
▁July	-6325
25	-6326
orgung	-6327
▁benötigen	-6328
cture	-6329
▁brit	-6330
▁nied	-6331
▁Sinne	-6332
ograf	-6333
▁film	-6334
▁gele	-6335
ierende	-6336
▁Schwier	-6337
▁path	-6338
▁Sign	-6339
▁Auftrag	-6340
▁Januar	-6341
▁suchen	-6342
ought	-6343
▁immediately	-6344
▁Ost	-6345
uls	-6346
▁Computer	-6347
bin	-6348
▁constant	-6349
▁bra	-6350
▁edit	-6351
Office	-6352
▁Many	-6353
▁Gründen	-6354
▁Ta	-6355
▁aktuellen	-6356
▁CO	-6357
▁worth	-6358
▁west	-6359
▁höher	-6360
▁elements	-6361
ummer	-6362
▁highest	-6363
▁wine	-6364
ST	-6365
▁freund	-6366
▁Untersuch	-6367
▁Afghan	-6368
▁ihres	-6369
▁Veränder	-6370
▁europäischer	-6371
▁distribution	-6372
▁Firma	-6373
▁angesichts	-6374
▁Bulgar	-6375
drücklich	-6376
▁observ	-6377
▁Iraq	-6378
▁gas	-6379
▁threat	-6380
▁transparency	-6381
▁Hel	-6382
▁section	-6383
▁Although	-6384
EM	-6385
ört	-6386
fordern	-6387
▁wichtiger	-6388
enew	-6389
▁perfe	-6390
▁kannst	-6391
▁Free	-6392
▁grat	-6393
▁ult	-6394
▁Vorsitz	-6395
wind	-6396
anted	-6397
▁Metho	-6398
▁lower	-6399
zwe	-6400
leitet	-6401
▁kennen	-6402
ieht	-6403
▁Auto	-6404
urance	-6405
▁employees	-6406
▁gefunden	-6407
▁integrated	-6408
▁weder	-6409
zeichnung	-6410
▁useful	-6411
▁bezüglich	-6412
house	-6413
no	-6414
OT	-6415
▁Rede	-6416
▁Java	-6417
teuer	-6418
▁Flor	-6419
idge	-6420
▁equal	-6421
▁dein	-6422
▁Tradition	-6423
▁stock	-6424
▁Projekte	-6425
zusch	-6426
zt	-6427
▁agenda	-6428
▁1997	-6429
▁numerous	-6430
▁Auffassung	-6431
▁gre	-6432
▁alternative	-6433
▁geschaffen	-6434
▁Nr	-6435
▁late	-6436
▁reading	-6437
orning	-6438
▁affect	-6439
▁select	-6440
▁University	-6441
▁vorge	-6442
▁ursprün	-6443
▁parking	-6444
▁cy	-6445
ücken	-6446
▁zeit	-6447
eks	-6448
▁Meine	-6449
▁Aufenthalt	-6450
cription	-6451
▁applied	-6452
▁Innen	-6453
ammlung	-6454
aign	-6455
▁drive	-6456
▁Ol	-6457
▁Gott	-6458
▁challenges	-6459
▁elections	-6460
▁Sache	-6461
▁helpful	-6462
▁DVD	-6463
ängen	-6464
▁halte	-6465
mosphäre	-6466
▁reality	-6467
head	-6468
▁sonst	-6469
▁Lebensmittel	-6470
▁Your	-6471
▁Mann	-6472
▁mis	-6473
leb	-6474
▁Centre	-6475
bezogen	-6476
▁consist	-6477
▁hom	-6478
▁coast	-6479
iker	-6480
▁emb	-6481
▁Furthermore	-6482
ais	-6483
▁apartments	-6484
ral	-6485
▁processes	-6486
▁poverty	-6487
▁Solidar	-6488
▁Mobil	-6489
▁payment	-6490
wortern	-6491
▁Koh	-6492
▁Beginn	-6493
Un	-6494
▁tools	-6495
äte	-6496
▁round	-6497
▁eher	-6498
▁daily	-6499
▁emiss	-6500
▁ski	-6501
▁consequences	-6502
zehn	-6503
elten	-6504
front	-6505
▁übrigen	-6506
▁Präsidentschaft	-6507
▁teach	-6508
ym	-6509
▁erneut	-6510
▁unemp	-6511
achtung	-6512
legation	-6513
▁saying	-6514
▁offering	-6515
70	-6516
▁sieht	-6517
▁Regeln	-6518
▁überprü	-6519
▁tim	-6520
▁occas	-6521
▁bem	-6522
phone	-6523
▁begrüße	-6524
▁crucial	-6525
▁diejenigen	-6526
▁solidarity	-6527
▁treffen	-6528
▁Heute	-6529
▁bringt	-6530
mö	-6531
▁mut	-6532
ünde	-6533
▁analysis	-6534
▁Gast	-6535
▁bad	-6536
▁Term	-6537
zuführen	-6538
▁drink	-6539
▁Ereign	-6540
ünstler	-6541
UR	-6542
▁beyond	-6543
▁schl	-6544
sprozess	-6545
park	-6546
richten	-6547
▁entsprechenden	-6548
11	-6549
▁Beteil	-6550
▁Armut	-6551
▁perman	-6552
▁legit	-6553
▁ign	-6554
aktion	-6555
▁pal	-6556
▁Bahn	-6557
▁Straßen	-6558
engen	-6559
▁phot	-6560
izin	-6561
sprü	-6562
▁Änderung	-6563
ogle	-6564
▁Are	-6565
▁ziehen	-6566
kom	-6567
▁undert	-6568
▁persons	-6569
ören	-6570
back	-6571
▁paid	-6572
▁Mos	-6573
folge	-6574
▁beitragen	-6575
▁wissenschaft	-6576
▁öffentliche	-6577
▁erfahren	-6578
ione	-6579
afe	-6580
▁humanit	-6581
entur	-6582
▁offered	-6583
▁van	-6584
▁conflict	-6585
hesion	-6586
▁Aufgaben	-6587
▁colleagues	-6588
▁spirit	-6589
ded	-6590
▁plant	-6591
▁thought	-6592
anging	-6593
▁goes	-6594
▁infrastru	-6595
rü	-6596
spricht	-6597
scheinlich	-6598
▁hinzu	-6599
hilfe	-6600
ares	-6601
▁Bemühungen	-6602
IA	-6603
▁Fällen	-6604
▁practical	-6605
▁entsprechend	-6606
▁illegal	-6607
▁Linie	-6608
▁Folge	-6609
▁happy	-6610
▁Vertreter	-6611
▁Beruf	-6612
▁las	-6613
▁Spezial	-6614
▁Monaten	-6615
▁langfrist	-6616
▁Zentral	-6617
▁Mediterranean	-6618
wser	-6619
losen	-6620
▁vergessen	-6621
▁sufficient	-6622
▁Agrar	-6623
▁zehn	-6624
▁ideas	-6625
▁Ven	-6626
▁Winter	-6627
▁kur	-6628
▁TH	-6629
vors	-6630
6,	-6631
▁Bedürf	-6632
gy	-6633
leistung	-6634
▁hil	-6635
▁requires	-6636
▁früher	-6637
▁Gas	-6638
schließen	-6639
ula	-6640
▁Nachbar	-6641
▁Mer	-6642
fühl	-6643
▁verhindern	-6644
iability	-6645
▁»	-6646
ya	-6647
▁ban	-6648
▁Kor	-6649
fo	-6650
wart	-6651
obby	-6652
iveau	-6653
▁curren	-6654
▁kil	-6655
▁Kredit	-6656
othe	-6657
view	-6658
▁forces	-6659
▁Ba	-6660
▁exception	-6661
ye	-6662
▁har	-6663
angeb	-6664
▁Restaurants	-6665
▁ausgezeich	-6666
▁4.	-6667
▁Bürgern	-6668
▁2,	-6669
ola	-6670
▁genannten	-6671
PS	-6672
vere	-6673
▁getan	-6674
ücht	-6675
▁unbe	-6676
▁krit	-6677
▁weak	-6678
▁Dritt	-6679
▁Sitzung	-6680
sych	-6681
ocol	-6682
▁Republik	-6683
▁organisations	-6684
▁Directive	-6685
based	-6686
strumente	-6687
▁Wunsch	-6688
▁Ressourcen	-6689
heben	-6690
▁behandelt	-6691
▁pie	-6692
▁spee	-6693
▁minimum	-6694
▁Verl	-6695
schlag	-6696
craft	-6697
▁hätten	-6698
▁weeks	-6699
{{	-6700
estic	-6701
▁doubt	-6702
▁advantage	-6703
▁Völk	-6704
▁frequ	-6705
▁tomor	-6706
tellten	-6707
cia	-6708
▁erfolgt	-6709
4,	-6710
cape	-6711
Europ	-6712
▁präsent	-6713
▁Tagen	-6714
▁tomorrow	-6715
▁congratulate	-6716
▁Test	-6717
▁vorher	-6718
▁modified	-6719
DF	-6720
ifel	-6721
▁Las	-6722
▁Even	-6723
▁jüng	-6724
▁historic	-6725
▁anderem	-6726
hold	-6727
▁Behandlung	-6728
▁Val	-6729
▁Palest	-6730
▁waste	-6731
▁implemented	-6732
öße	-6733
▁Public	-6734
▁Eigent	-6735
▁beant	-6736
▁hear	-6737
▁partnership	-6738
▁secure	-6739
▁nimmt	-6740
programm	-6741
▁sales	-6742
▁Security	-6743
ordination	-6744
▁Video	-6745
ilosoph	-6746
irl	-6747
▁clients	-6748
▁shopping	-6749
23	-6750
▁Human	-6751
▁relating	-6752
ibe	-6753
▁renew	-6754
ischem	-6755
▁reference	-6756
üge	-6757
gewiesen	-6758
ürger	-6759
▁starting	-6760
esellschaften	-6761
▁published	-6762
▁buy	-6763
▁bedroom	-6764
▁ol	-6765
▁Microsoft	-6766
▁monitoring	-6767
▁lines	-6768
▁reich	-6769
▁versucht	-6770
▁restr	-6771
▁Milliar	-6772
▁paar	-6773
▁morning	-6774
▁besondere	-6775
änge	-6776
▁lives	-6777
wün	-6778
▁growing	-6779
vis	-6780
▁Gerichts	-6781
▁comprehensive	-6782
▁caused	-6783
▁syn	-6784
▁Austria	-6785
▁reduction	-6786
▁Inhalt	-6787
▁uner	-6788
▁efficiency	-6789
▁Amendment	-6790
▁operating	-6791
▁Stock	-6792
▁Vergangen	-6793
▁Bürgerinnen	-6794
▁Kn	-6795
▁Hal	-6796
▁Werte	-6797
▁circum	-6798
▁jen	-6799
icken	-6800
▁Gest	-6801
pective	-6802
▁ausreich	-6803
▁usw	-6804
▁anti	-6805
frastruktur	-6806
▁wr	-6807
▁fordern	-6808
schreit	-6809
▁ready	-6810
▁Ak	-6811
▁Mc	-6812
▁Atmosphäre	-6813
▁Betrieb	-6814
▁maximum	-6815
▁Gebäude	-6816
▁Anstr	-6817
theless	-6818
▁machine	-6819
▁Bot	-6820
▁accordance	-6821
▁sechs	-6822
▁meaning	-6823
▁Erfahrungen	-6824
zielle	-6825
ungsver	-6826
hafte	-6827
▁End	-6828
▁ful	-6829
▁35	-6830
nungen	-6831
▁Cop	-6832
▁campaign	-6833
▁mü	-6834
▁Forschungs	-6835
▁Grand	-6836
ategie	-6837
▁recon	-6838
schö	-6839
▁Mass	-6840
▁Aller	-6841
▁Finanzierung	-6842
SS	-6843
▁server	-6844
▁mitt	-6845
▁options	-6846
▁Nacht	-6847
▁überhaupt	-6848
▁Natürlich	-6849
▁gewesen	-6850
gruppe	-6851
▁unbed	-6852
▁sports	-6853
Die	-6854
▁Minder	-6855
oon	-6856
▁Green	-6857
▁While	-6858
▁initial	-6859
▁günst	-6860
ulated	-6861
▁pain	-6862
▁street	-6863
We	-6864
altungen	-6865
▁erfüllen	-6866
▁Gef	-6867
▁anything	-6868
ret	-6869
bas	-6870
ichert	-6871
pool	-6872
▁Pet	-6873
▁erklärt	-6874
▁ded	-6875
standing	-6876
▁Ess	-6877
▁folgen	-6878
stitutional	-6879
▁warum	-6880
▁194	-6881
▁sometimes	-6882
▁urg	-6883
▁zahlreichen	-6884
▁sal	-6885
ado	-6886
▁Initi	-6887
▁berücksichtigt	-6888
▁Altern	-6889
▁begin	-6890
▁Erd	-6891
ius	-6892
itation	-6893
book	-6894
▁rapid	-6895
▁Protokoll	-6896
▁technologies	-6897
▁Dav	-6898
▁border	-6899
▁critic	-6900
▁größer	-6901
▁players	-6902
▁mensch	-6903
pack	-6904
itch	-6905
atterin	-6906
atform	-6907
▁Del	-6908
▁offiz	-6909
alyse	-6910
▁Id	-6911
▁pictures	-6912
▁advert	-6913
lim	-6914
▁extent	-6915
▁charm	-6916
▁betreff	-6917
▁Verteid	-6918
▁gerecht	-6919
▁sämt	-6920
▁probably	-6921
▁Praxis	-6922
LA	-6923
▁Lassen	-6924
▁began	-6925
▁Center	-6926
▁chance	-6927
▁languages	-6928
▁Bu	-6929
▁ones	-6930
▁́	-6931
▁Hy	-6932
izienz	-6933
▁swimming	-6934
▁Gel	-6935
▁terrorism	-6936
fläche	-6937
▁remov	-6938
▁Aspekte	-6939
zy	-6940
▁worldwide	-6941
▁export	-6942
▁farmers	-6943
▁Vergangenheit	-6944
▁stimmen	-6945
▁richtige	-6946
▁Conference	-6947
▁staat	-6948
▁bur	-6949
▁welches	-6950
}}	-6951
▁eingeb	-6952
▁sav	-6953
utive	-6954
ichern	-6955
▁Terrorismus	-6956
▁methods	-6957
▁counter	-6958
mus	-6959
▁Herz	-6960
▁Technologie	-6961
board	-6962
ufe	-6963
▁Menschenrechts	-6964
▁Dat	-6965
▁Fäh	-6966
▁jeweiligen	-6967
▁interested	-6968
▁Mand	-6969
legten	-6970
▁voting	-6971
▁größte	-6972
ällt	-6973
▁Airport	-6974
▁challenge	-6975
ifically	-6976
▁verpflichtet	-6977
▁Spanien	-6978
▁email	-6979
▁decor	-6980
▁transparent	-6981
▁lands	-6982
▁sectors	-6983
grenz	-6984
▁respond	-6985
oke	-6986
▁einheit	-6987
itten	-6988
▁John	-6989
▁stets	-6990
▁Hoff	-6991
▁Doppel	-6992
iding	-6993
▁tourist	-6994
▁adopt	-6995
izes	-6996
▁Start	-6997
sc	-6998
izing	-6999
▁scientific	-7000
▁Tor	-7001
▁cast	-7002
▁seines	-7003
▁historischen	-7004
▁Zweitens	-7005
▁wanted	-7006
CO	-7007
▁symbol	-7008
▁Rats	-7009
zeiten	-7010
▁Bal	-7011
▁bill	-7012
”.	-7013
▁Ac	-7014
IV	-7015
▁arrange	-7016
▁Gran	-7017
▁ehem	-7018
▁reflect	-7019
▁PH	-7020
▁wählen	-7021
▁Est	-7022
▁les	-7023
▁Waren	-7024
ktive	-7025
vollen	-7026
▁candid	-7027
▁bald	-7028
▁valid	-7029
igation	-7030
karte	-7031
▁wach	-7032
▁Opfer	-7033
▁Gene	-7034
▁cert	-7035
▁games	-7036
▁Viele	-7037
▁außerhalb	-7038
▁Lang	-7039
▁motor	-7040
sam	-7041
▁Vergleich	-7042
enze	-7043
▁accepted	-7044
▁Schritte	-7045
reland	-7046
▁release	-7047
▁zuständ	-7048
▁selection	-7049
nungs	-7050
▁beträ	-7051
ränkt	-7052
▁businesses	-7053
▁rele	-7054
▁exerc	-7055
▁apprec	-7056
ichtlich	-7057
▁befür	-7058
▁modernen	-7059
▁11.	-7060
abkommen	-7061
▁Frankf	-7062
▁Eas	-7063
▁zumindest	-7064
▁verantwortlich	-7065
figur	-7066
fence	-7067
enh	-7068
▁Berat	-7069
9,	-7070
wel	-7071
▁Zivil	-7072
meer	-7073
poses	-7074
losigkeit	-7075
▁despite	-7076
SP	-7077
▁Hil	-7078
▁powers	-7079
▁gemein	-7080
▁Chinese	-7081
▁Firmen	-7082
):	-7083
▁Tem	-7084
▁blo	-7085
▁upd	-7086
tempt	-7087
▁folgt	-7088
▁SM	-7089
▁fine	-7090
▁Google	-7091
iell	-7092
▁Vertrauen	-7093
▁kam	-7094
▁tät	-7095
verage	-7096
▁lay	-7097
▁walking	-7098
iant	-7099
▁Spieler	-7100
▁influence	-7101
▁visitors	-7102
▁lies	-7103
▁Angelegenheit	-7104
▁Garten	-7105
▁vollständig	-7106
▁verab	-7107
zul	-7108
▁NAT	-7109
▁expert	-7110
▁heutigen	-7111
▁genu	-7112
▁genug	-7113
▁images	-7114
▁verkauf	-7115
▁remember	-7116
▁schützen	-7117
hilfen	-7118
▁enorm	-7119
▁trying	-7120
▁Ireland	-7121
6.	-7122
',	-7123
ämpfen	-7124
▁raised	-7125
▁5.	-7126
/0	-7127
atalog	-7128
▁glo	-7129
▁lost	-7130
▁Chance	-7131
▁persönlichen	-7132
4.	-7133
▁separate	-7134
▁competit	-7135
▁Dazu	-7136
▁Swiss	-7137
▁coup	-7138
▁Angelegenheiten	-7139
▁Gre	-7140
künft	-7141
▁absolutely	-7142
▁Schwierigkeiten	-7143
raten	-7144
▁Dann	-7145
▁fant	-7146
▁ris	-7147
▁«	-7148
▁Parteien	-7149
barer	-7150
lose	-7151
▁elegant	-7152
akte	-7153
▁stärker	-7154
affe	-7155
urb	-7156
▁komp	-7157
erkennung	-7158
Pr	-7159
hers	-7160
anda	-7161
▁technischen	-7162
▁substant	-7163
▁Download	-7164
ids	-7165
▁Tier	-7166
▁Sen	-7167
▁erlaubt	-7168
▁Einwander	-7169
▁Regierungs	-7170
▁prü	-7171
▁folgenden	-7172
konom	-7173
▁heav	-7174
▁anders	-7175
▁erinnern	-7176
imed	-7177
▁ausschließlich	-7178
▁Drit	-7179
werte	-7180
▁crimin	-7181
▁bessere	-7182
▁Allerdings	-7183
▁demands	-7184
▁Mess	-7185
▁AC	-7186
quem	-7187
omb	-7188
▁deutschen	-7189
how	-7190
▁Annahme	-7191
▁Nun	-7192
8,	-7193
handel	-7194
▁Ord	-7195
▁UK	-7196
gesetz	-7197
hältnis	-7198
▁Voll	-7199
zusetzen	-7200
▁borders	-7201
icket	-7202
▁Hinsicht	-7203
▁insp	-7204
▁Play	-7205
▁Prem	-7206
▁spezif	-7207
▁affe	-7208
▁Landwir	-7209
anc	-7210
▁unten	-7211
▁).	-7212
ologie	-7213
▁angemessen	-7214
hotel	-7215
▁club	-7216
tere	-7217
▁honour	-7218
▁namely	-7219
▁fields	-7220
▁Sam	-7221
▁erwartet	-7222
chtet	-7223
▁Flex	-7224
▁manufactur	-7225
▁slow	-7226
▁Secondly	-7227
12	-7228
▁Moreover	-7229
▁listen	-7230
▁Liberal	-7231
▁Prozent	-7232
▁zweit	-7233
5-0	-7234
bit	-7235
▁anerk	-7236
mel	-7237
ga	-7238
▁gek	-7239
ION	-7240
sätze	-7241
rieb	-7242
▁changed	-7243
gehend	-7244
▁vital	-7245
▁strategic	-7246
▁effiz	-7247
▁Ihres	-7248
▁getroffen	-7249
▁Falls	-7250
▁Einrichtung	-7251
▁Einige	-7252
zulegen	-7253
▁verurs	-7254
attle	-7255
▁Islam	-7256
gült	-7257
▁overall	-7258
lemente	-7259
▁jähr	-7260
enk	-7261
ruption	-7262
abr	-7263
▁trip	-7264
▁innovation	-7265
▁Sonder	-7266
▁195	-7267
krise	-7268
▁übernehmen	-7269
▁menu	-7270
▁Modell	-7271
▁Gold	-7272
▁annual	-7273
▁allgemeinen	-7274
▁kitchen	-7275
▁Soll	-7276
▁fire	-7277
▁calls	-7278
▁sil	-7279
▁representatives	-7280
▁zukünft	-7281
▁Stellen	-7282
▁italien	-7283
tert	-7284
▁Cy	-7285
last	-7286
▁Russian	-7287
▁Pla	-7288
indungen	-7289
▁Kapital	-7290
▁proceed	-7291
ighted	-7292
bezieh	-7293
▁season	-7294
ätzlich	-7295
▁gesetz	-7296
▁Produktions	-7297
engungen	-7298
▁jun	-7299
▁Generation	-7300
star	-7301
▁worked	-7302
▁Prä	-7303
▁initiatives	-7304
amin	-7305
▁gesehen	-7306
iertel	-7307
▁yourself	-7308
▁Supp	-7309
ollar	-7310
▁privaten	-7311
aters	-7312
ziert	-7313
▁wiederhol	-7314
ielt	-7315
▁Agre	-7316
Hotel	-7317
▁simpl	-7318
rogen	-7319
▁Only	-7320
▁processing	-7321
▁Arbeitsplätze	-7322
▁wrong	-7323
sprechen	-7324
▁player	-7325
gruppen	-7326
▁Österreich	-7327
▁intended	-7328
aries	-7329
EG	-7330
used	-7331
vorsitz	-7332
▁bitten	-7333
▁Afghanistan	-7334
▁negative	-7335
▁heard	-7336
▁begrüßen	-7337
▁Solidarität	-7338
....	-7339
▁expressed	-7340
bum	-7341
mand	-7342
immern	-7343
▁—	-7344
ulations	-7345
▁offens	-7346
▁evening	-7347
isely	-7348
▁beginnen	-7349
▁darstellt	-7350
▁Tal	-7351
▁track	-7352
▁ehemal	-7353
▁Georg	-7354
▁vertra	-7355
▁Verwaltung	-7356
wan	-7357
▁setzt	-7358
▁angeboten	-7359
▁zudem	-7360
▁accession	-7361
▁Anges	-7362
▁Ang	-7363
▁cas	-7364
wes	-7365
▁Verfassung	-7366
▁plans	-7367
ita	-7368
inens	-7369
lymp	-7370
▁award	-7371
eignet	-7372
▁Mitte	-7373
▁occup	-7374
ördert	-7375
▁Sü	-7376
▁banks	-7377
▁Its	-7378
▁natür	-7379
▁committed	-7380
▁endlich	-7381
▁automatisch	-7382
▁bestimmt	-7383
sicherheit	-7384
itts	-7385
▁ability	-7386
▁bir	-7387
QL	-7388
▁cities	-7389
▁angene	-7390
ión	-7391
uses	-7392
▁flexible	-7393
IF	-7394
▁150	-7395
ildet	-7396
▁Mün	-7397
▁Obwohl	-7398
iente	-7399
▁cell	-7400
hood	-7401
▁eindeutig	-7402
▁Milliarden	-7403
▁falls	-7404
▁Erstens	-7405
▁länd	-7406
bringen	-7407
▁dipl	-7408
▁Trotz	-7409
▁Konzept	-7410
ystemen	-7411
▁Antrag	-7412
▁target	-7413
nel	-7414
▁NATO	-7415
▁traffic	-7416
▁talking	-7417
▁Glaub	-7418
▁restrict	-7419
di	-7420
▁love	-7421
▁Einfluss	-7422
▁letzte	-7423
auern	-7424
zeichen	-7425
▁Eind	-7426
▁News	-7427
ruit	-7428
▁Ausgang	-7429
imat	-7430
ifizierung	-7431
▁goal	-7432
▁fresh	-7433
▁Wissenschaft	-7434
▁datab	-7435
▁Wo	-7436
▁deine	-7437
▁Hause	-7438
▁photo	-7439
▁People	-7440
▁placed	-7441
▁Slo	-7442
▁tal	-7443
stoffe	-7444
▁God	-7445
ories	-7446
▁sinn	-7447
cluded	-7448
▁alone	-7449
▁concentr	-7450
ustausch	-7451
▁Freiz	-7452
▁running	-7453
gere	-7454
▁Hostels	-7455
15	-7456
▁hot	-7457
▁rom	-7458
▁dringend	-7459
▁mainly	-7460
▁entgegen	-7461
▁jem	-7462
▁bemü	-7463
▁spect	-7464
▁Falle	-7465
▁Krank	-7466
13	-7467
▁Leute	-7468
▁beide	-7469
kaufs	-7470
ras	-7471
set	-7472
▁families	-7473
▁autom	-7474
idelines	-7475
▁element	-7476
▁länger	-7477
für	-7478
▁planning	-7479
▁terrace	-7480
▁cohesion	-7481
▁Acht	-7482
▁fear	-7483
▁improved	-7484
▁Bur	-7485
acc	-7486
▁bege	-7487
agraph	-7488
▁opening	-7489
▁tit	-7490
reise	-7491
▁verme	-7492
▁Mex	-7493
grams	-7494
ples	-7495
▁Erk	-7496
//	-7497
▁remind	-7498
▁Zustimmung	-7499
▁Verpflichtungen	-7500
gebiet	-7501
▁anc	-7502
▁ethn	-7503
19	-7504
▁Schwer	-7505
▁justice	-7506
▁approved	-7507
▁Anstrengungen	-7508
itzt	-7509
▁Dub	-7510
Le	-7511
▁kaum	-7512
▁dan	-7513
uly	-7514
▁Tätigkeit	-7515
ores	-7516
▁confirm	-7517
ibly	-7518
hrte	-7519
▁brand	-7520
▁größere	-7521
Al	-7522
▁fas	-7523
▁reforms	-7524
▁reag	-7525
▁Kompromiss	-7526
▁Amb	-7527
▁Ausschuß	-7528
▁Grie	-7529
▁students	-7530
▁increasingly	-7531
▁whom	-7532
▁benutzt	-7533
▁conclusion	-7534
▁comments	-7535
▁currency	-7536
▁Verhalten	-7537
▁attempt	-7538
▁affected	-7539
▁feature	-7540
▁genannt	-7541
▁hol	-7542
tritt	-7543
▁Bade	-7544
▁decide	-7545
▁irgend	-7546
ückt	-7547
▁Roma	-7548
▁Gesamt	-7549
ils	-7550
bourg	-7551
▁Organisationen	-7552
▁administrative	-7553
▁Son	-7554
▁umfang	-7555
▁circumstances	-7556
itory	-7557
▁genutzt	-7558
▁laws	-7559
zeigen	-7560
▁komfort	-7561
quate	-7562
▁bilden	-7563
▁suitable	-7564
▁Nachfol	-7565
angs	-7566
gers	-7567
pliz	-7568
▁zusätzliche	-7569
bü	-7570
▁collection	-7571
ifying	-7572
glied	-7573
▁regime	-7574
▁discrimin	-7575
▁Anerkennung	-7576
▁Nations	-7577
▁provision	-7578
▁inn	-7579
▁4-	-7580
las	-7581
▁bezahl	-7582
▁emissions	-7583
etten	-7584
▁unbedingt	-7585
▁automatically	-7586
AG	-7587
▁touch	-7588
▁Cr	-7589
aschine	-7590
▁reduced	-7591
▁eingehen	-7592
▁cele	-7593
▁Bon	-7594
▁belieb	-7595
▁Überwach	-7596
▁Kauf	-7597
▁box	-7598
▁AL	-7599
▁Idee	-7600
ses	-7601
▁moderne	-7602
▁Qualitäts	-7603
▁phone	-7604
▁entspricht	-7605
▁Bi	-7606
▁überzeugt	-7607
▁priorities	-7608
wenden	-7609
▁delivery	-7610
▁Costa	-7611
▁mill	-7612
▁Dre	-7613
▁oben	-7614
▁Et	-7615
▁Immobil	-7616
”,	-7617
endence	-7618
▁entstehen	-7619
▁feed	-7620
▁vorgelegt	-7621
enty	-7622
▁entschieden	-7623
▁confidence	-7624
▁contribute	-7625
▁gesetzt	-7626
▁erkennen	-7627
▁administration	-7628
“.	-7629
▁Öl	-7630
▁gegr	-7631
7,	-7632
▁Schiff	-7633
▁unemployment	-7634
▁supports	-7635
lichung	-7636
▁structural	-7637
▁intell	-7638
▁Cre	-7639
▁kürz	-7640
▁stabil	-7641
▁Wahlen	-7642
▁extensive	-7643
ray	-7644
▁cos	-7645
TV	-7646
▁gere	-7647
▁extend	-7648
brit	-7649
ago	-7650
▁1990	-7651
igran	-7652
▁Besonder	-7653
▁po	-7654
▁says	-7655
laufen	-7656
▁ersch	-7657
reiber	-7658
▁ensuring	-7659
▁infrastructure	-7660
▁unterb	-7661
bad	-7662
▁Durchführung	-7663
alled	-7664
▁"...	-7665
▁ce	-7666
struktur	-7667
zech	-7668
▁Licht	-7669
▁elektron	-7670
2-	-7671
▁zufrieden	-7672
▁militär	-7673
▁berücksichtigen	-7674
▁coordin	-7675
verläss	-7676
▁Wann	-7677
▁His	-7678
▁Haft	-7679
▁Holz	-7680
▁participation	-7681
▁auszu	-7682
▁rise	-7683
▁ed	-7684
▁wesentlich	-7685
▁vorsch	-7686
fälle	-7687
▁Boden	-7688
artigen	-7689
▁angegeben	-7690
://	-7691
▁Vereinbarung	-7692
▁scope	-7693
▁encourage	-7694
ev	-7695
iano	-7696
▁IP	-7697
▁powerful	-7698
▁Ev	-7699
▁Bran	-7700
▁victims	-7701
▁Elekt	-7702
ael	-7703
1)	-7704
▁anz	-7705
▁Autom	-7706
▁specifically	-7707
izenz	-7708
▁manner	-7709
aming	-7710
▁Kriterien	-7711
ästinens	-7712
▁;	-7713
ING	-7714
▁Körper	-7715
▁medic	-7716
▁occur	-7717
▁played	-7718
entwicklung	-7719
iums	-7720
▁herz	-7721
▁mid	-7722
▁Rh	-7723
▁crime	-7724
elte	-7725
▁speziell	-7726
▁Alp	-7727
▁voraus	-7728
▁Nah	-7729
haften	-7730
▁Osten	-7731
▁fellow	-7732
ongs	-7733
▁Ausbildung	-7734
▁aktuelle	-7735
▁Garant	-7736
▁Sea	-7737
▁Bestand	-7738
▁Indeed	-7739
▁Ra	-7740
▁Sing	-7741
▁gezeigt	-7742
Ch	-7743
▁electronic	-7744
aria	-7745
daten	-7746
omet	-7747
ampag	-7748
▁AN	-7749
▁mindestens	-7750
▁bewusst	-7751
án	-7752
benen	-7753
ündung	-7754
▁Waffen	-7755
▁mehreren	-7756
▁Kommunikation	-7757
fu	-7758
▁tabled	-7759
zentrum	-7760
▁Spr	-7761
▁purposes	-7762
▁Anspruch	-7763
▁Wik	-7764
▁Ern	-7765
▁herunter	-7766
gewöhn	-7767
azz	-7768
▁introduced	-7769
rel	-7770
▁plus	-7771
▁verfügbar	-7772
▁demokratischen	-7773
▁hochwert	-7774
▁Lab	-7775
▁agriculture	-7776
my	-7777
▁Mitteilung	-7778
endet	-7779
esearch	-7780
iler	-7781
▁danke	-7782
äden	-7783
▁erreich	-7784
inian	-7785
▁black	-7786
▁nachdem	-7787
▁Abschluss	-7788
▁Any	-7789
▁church	-7790
▁hund	-7791
▁quant	-7792
afft	-7793
odies	-7794
wirken	-7795
lying	-7796
▁repla	-7797
▁Agenda	-7798
arus	-7799
laus	-7800
▁entsprechende	-7801
▁Archite	-7802
▁hinweisen	-7803
▁effectively	-7804
▁getting	-7805
▁Ann	-7806
▁Ident	-7807
▁larger	-7808
fiz	-7809
▁wonderful	-7810
IG	-7811
orea	-7812
▁Vorteile	-7813
▁Each	-7814
▁Agreement	-7815
▁sources	-7816
▁Bemerk	-7817
▁IM	-7818
time	-7819
▁detailed	-7820
▁Regional	-7821
▁Ander	-7822
▁animals	-7823
▁nöt	-7824
aktiv	-7825
▁screen	-7826
▁served	-7827
▁glauben	-7828
▁Partei	-7829
▁aimed	-7830
▁platform	-7831
▁harm	-7832
▁ship	-7833
▁mm	-7834
▁Stabilität	-7835
▁usually	-7836
gerungen	-7837
zeichnen	-7838
ham	-7839
▁referred	-7840
▁Besucher	-7841
▁competitive	-7842
8.	-7843
▁beschlossen	-7844
▁fert	-7845
▁Enterprise	-7846
▁Olymp	-7847
▁Schaden	-7848
▁Zwischen	-7849
▁functions	-7850
amber	-7851
ickets	-7852
anlagen	-7853
▁ec	-7854
▁Währung	-7855
mon	-7856
▁client	-7857
▁erwähnt	-7858
▁nationale	-7859
▁summit	-7860
▁Sand	-7861
idents	-7862
▁gesprochen	-7863
iat	-7864
▁Glück	-7865
▁Hintergrund	-7866
▁Most	-7867
▁euch	-7868
▁Policy	-7869
schuld	-7870
öm	-7871
▁dedic	-7872
mack	-7873
▁Mio	-7874
▁pleasant	-7875
▁Inhalte	-7876
CD	-7877
▁globalen	-7878
▁motion	-7879
9.	-7880
▁white	-7881
▁wert	-7882
▁Sprachen	-7883
▁exactly	-7884
▁installation	-7885
▁serve	-7886
idential	-7887
rans	-7888
▁zentral	-7889
▁Liber	-7890
▁rural	-7891
▁sort	-7892
▁angesprochen	-7893
IR	-7894
▁Serb	-7895
ideos	-7896
▁Tab	-7897
esents	-7898
▁Board	-7899
▁Frankfurt	-7900
uit	-7901
▁Abs	-7902
▁Einsch	-7903
▁Asia	-7904
letter	-7905
▁Koordin	-7906
▁besonderen	-7907
▁kontroll	-7908
▁risks	-7909
▁Zeichen	-7910
▁institutional	-7911
▁Irak	-7912
▁protected	-7913
▁Innovation	-7914
avi	-7915
▁Som	-7916
do	-7917
▁Mensch	-7918
▁poll	-7919
▁prem	-7920
ault	-7921
▁reception	-7922
spunkt	-7923
▁precisely	-7924
▁Fakt	-7925
▁dead	-7926
▁India	-7927
▁akzeptieren	-7928
oted	-7929
▁Nahr	-7930
▁sitting	-7931
zieht	-7932
called	-7933
itzerland	-7934
▁Reformen	-7935
udem	-7936
ounge	-7937
▁Assoc	-7938
▁sicherzustellen	-7939
PT	-7940
▁competen	-7941
▁chann	-7942
▁luxur	-7943
▁Dol	-7944
▁According	-7945
▁einzus	-7946
▁eingerichtet	-7947
sm	-7948
▁Arab	-7949
▁becoming	-7950
▁vac	-7951
▁stated	-7952
▁2020	-7953
oom	-7954
▁Griechen	-7955
▁otherwise	-7956
▁facilit	-7957
▁police	-7958
▁represents	-7959
▁camera	-7960
hle	-7961
fahrens	-7962
ibilität	-7963
uts	-7964
▁Cast	-7965
law	-7966
▁Schlaf	-7967
▁Fot	-7968
äher	-7969
▁Kind	-7970
▁geeignet	-7971
ologischen	-7972
▁Czech	-7973
▁wants	-7974
▁Fischerei	-7975
▁discussed	-7976
stieg	-7977
▁mand	-7978
▁budgetary	-7979
ingu	-7980
▁Homepage	-7981
▁wahrscheinlich	-7982
weder	-7983
▁Motor	-7984
▁temper	-7985
wegung	-7986
▁developments	-7987
unkten	-7988
▁bestehenden	-7989
▁--	-7990
agegen	-7991
▁discussions	-7992
▁verz	-7993
führer	-7994
▁Middle	-7995
▁Paul	-7996
ida	-7997
▁Us	-7998
▁Salz	-7999
gree	-8000
▁benutzen	-8001
▁likely	-8002
▁Reserv	-8003
äuser	-8004
▁Roman	-8005
▁Bew	-8006
▁zug	-8007
▁erzielt	-8008
▁Ausgaben	-8009
▁Eff	-8010
▁Komfort	-8011
ield	-8012
quality	-8013
▁mix	-8014
▁convin	-8015
ipt	-8016
▁Sektor	-8017
jected	-8018
▁spacious	-8019
▁Schließlich	-8020
▁Card	-8021
enhagen	-8022
uber	-8023
▁domin	-8024
▁Karte	-8025
▁conver	-8026
▁Zudem	-8027
▁Then	-8028
▁programs	-8029
▁Zunächst	-8030
▁auth	-8031
▁trä	-8032
▁ehr	-8033
▁Industr	-8034
wasser	-8035
▁managed	-8036
▁thousands	-8037
atively	-8038
▁Konflikt	-8039
▁February	-8040
▁Verfass	-8041
ala	-8042
mas	-8043
▁watch	-8044
▁forget	-8045
▁sold	-8046
▁rechts	-8047
▁Aufnahme	-8048
uisine	-8049
▁expens	-8050
▁freuen	-8051
unk	-8052
▁wood	-8053
▁remark	-8054
▁festgelegt	-8055
▁Schengen	-8056
▁möglicherweise	-8057
▁Haltung	-8058
▁Haushalt	-8059
▁Code	-8060
▁ausgew	-8061
amente	-8062
▁metres	-8063
▁entry	-8064
▁expand	-8065
▁Prov	-8066
▁Wellness	-8067
▁assessment	-8068
▁covered	-8069
▁?	-8070
▁zuletzt	-8071
▁Great	-8072
icks	-8073
achtet	-8074
üste	-8075
▁Exp	-8076
IE	-8077
▁compl	-8078
▁Prote	-8079
▁paper	-8080
schiede	-8081
▁critical	-8082
▁Luxem	-8083
aste	-8084
▁umgesetzt	-8085
▁corresp	-8086
▁expected	-8087
jo	-8088
▁jene	-8089
▁notwendigen	-8090
90	-8091
▁Kenntnis	-8092
▁prüfen	-8093
categories	-8094
▁guidelines	-8095
▁Other	-8096
▁Vorbereit	-8097
▁Beitritts	-8098
▁inside	-8099
▁geändert	-8100
▁provider	-8101
rum	-8102
▁followed	-8103
▁finanziellen	-8104
▁actual	-8105
▁mil	-8106
▁selected	-8107
▁anderes	-8108
▁hoffen	-8109
▁Anpass	-8110
ücke	-8111
bu	-8112
ensions	-8113
▁defend	-8114
▁erfüllt	-8115
werke	-8116
▁earlier	-8117
▁closely	-8118
▁dienen	-8119
▁introduction	-8120
▁Turk	-8121
inu	-8122
▁radio	-8123
▁winter	-8124
ente	-8125
posed	-8126
▁Unterkategorien	-8127
ureau	-8128
▁bequem	-8129
▁ergreifen	-8130
▁weap	-8131
▁debt	-8132
▁centr	-8133
▁medical	-8134
▁Nutzen	-8135
▁iP	-8136
▁freien	-8137
▁listed	-8138
▁Schlüssel	-8139
▁votes	-8140
ungsantrag	-8141
▁Richtlinien	-8142
▁enterprises	-8143
umin	-8144
Sp	-8145
▁Milit	-8146
▁Research	-8147
kap	-8148
▁Monate	-8149
ulieren	-8150
▁unters	-8151
▁Geh	-8152
▁Straße	-8153
▁Funktionen	-8154
▁Technologien	-8155
▁Rooms	-8156
ailing	-8157
uropa	-8158
▁impress	-8159
▁jederzeit	-8160
präsident	-8161
▁beziehen	-8162
▁scen	-8163
▁Why	-8164
▁spread	-8165
Sh	-8166
▁Tar	-8167
▁buildings	-8168
cers	-8169
▁networks	-8170
werten	-8171
▁Ap	-8172
▁disapp	-8173
▁Tun	-8174
▁accomp	-8175
ulierung	-8176
▁wünschen	-8177
▁vermeiden	-8178
▁lösen	-8179
▁Zweck	-8180
▁Economic	-8181
asts	-8182
denken	-8183
▁trust	-8184
▁schwierig	-8185
▁Fle	-8186
DP	-8187
▁Produkten	-8188
levision	-8189
▁Power	-8190
▁Fischere	-8191
britann	-8192
gets	-8193
▁improving	-8194
▁Click	-8195
▁fahren	-8196
▁electric	-8197
ads	-8198
▁Umst	-8199
ishing	-8200
▁ausger	-8201
▁Klein	-8202
▁braucht	-8203
▁linked	-8204
▁ade	-8205
▁Stil	-8206
▁einzu	-8207
▁opened	-8208
▁Kindern	-8209
▁color	-8210
▁45	-8211
▁operations	-8212
either	-8213
▁graph	-8214
▁territor	-8215
▁Av	-8216
▁gleiche	-8217
▁supporting	-8218
▁ries	-8219
vements	-8220
▁süd	-8221
▁400	-8222
▁explo	-8223
onym	-8224
mod	-8225
▁Haup	-8226
jekten	-8227
▁Vielfalt	-8228
atik	-8229
▁immigration	-8230
▁understanding	-8231
▁unc	-8232
▁Arten	-8233
band	-8234
▁speech	-8235
cause	-8236
reiten	-8237
▁Dateien	-8238
▁Verwaltungs	-8239
▁verbessert	-8240
▁Ja	-8241
▁Suche	-8242
▁ged	-8243
rahmen	-8244
aves	-8245
scher	-8246
freiheit	-8247
gu	-8248
sta	-8249
chnologie	-8250
roh	-8251
▁exclusive	-8252
▁uses	-8253
▁multip	-8254
▁telephone	-8255
▁Found	-8256
wirk	-8257
▁comment	-8258
▁degree	-8259
▁stattfinden	-8260
▁Meter	-8261
▁Charakter	-8262
▁Apartments	-8263
▁Infrastruktur	-8264
▁frag	-8265
▁kostenlos	-8266
▁Greece	-8267
▁considerable	-8268
▁beds	-8269
etze	-8270
ktiven	-8271
▁went	-8272
▁fallen	-8273
▁Switzerland	-8274
gencies	-8275
▁compens	-8276
▁marketing	-8277
▁map	-8278
▁prä	-8279
▁Pack	-8280
▁Installation	-8281
▁Sinn	-8282
inc	-8283
▁multil	-8284
▁tempor	-8285
▁sicherlich	-8286
bruch	-8287
▁Office	-8288
▁Frem	-8289
▁Einrichtungen	-8290
▁lesen	-8291
▁hands	-8292
▁substantial	-8293
▁Break	-8294
iques	-8295
TA	-8296
▁entit	-8297
crete	-8298
union	-8299
▁(3	-8300
▁Moment	-8301
ometer	-8302
clude	-8303
▁compar	-8304
▁Bush	-8305
möglich	-8306
istence	-8307
▁Rein	-8308
▁empfehl	-8309
konferenz	-8310
▁Standards	-8311
punkte	-8312
imb	-8313
igem	-8314
▁Menge	-8315
▁gemüt	-8316
▁acqu	-8317
kunfts	-8318
▁abst	-8319
▁Prag	-8320
ora	-8321
▁tourism	-8322
▁save	-8323
▁Grundsatz	-8324
▁presence	-8325
▁shower	-8326
▁gave	-8327
▁6.	-8328
itors	-8329
/2	-8330
▁destro	-8331
▁Wege	-8332
▁abzu	-8333
▁darunter	-8334
▁gelangen	-8335
▁gern	-8336
het	-8337
▁Telefon	-8338
▁effizient	-8339
▁jeweils	-8340
▁properly	-8341
istrib	-8342
▁picture	-8343
prüfung	-8344
▁gewün	-8345
▁cuisine	-8346
▁Barro	-8347
▁components	-8348
▁playing	-8349
▁scr	-8350
▁Top	-8351
can	-8352
ussels	-8353
7.	-8354
▁Stimme	-8355
▁erzielen	-8356
▁angezeigt	-8357
▁brief	-8358
leitung	-8359
▁htt	-8360
▁Ky	-8361
▁entweder	-8362
▁Forderung	-8363
▁Station	-8364
olden	-8365
▁bott	-8366
atoren	-8367
▁delay	-8368
▁items	-8369
▁convenient	-8370
nach	-8371
▁Sehens	-8372
▁purchase	-8373
ikanische	-8374
▁fisheries	-8375
▁photograph	-8376
gemeine	-8377
uting	-8378
▁EAD	-8379
▁duty	-8380
▁animal	-8381
sper	-8382
▁Vereinten	-8383
▁door	-8384
prechen	-8385
▁founded	-8386
▁experts	-8387
chmal	-8388
▁Street	-8389
zieren	-8390
▁Belarus	-8391
▁erhöhen	-8392
▁coordination	-8393
▁Februar	-8394
▁dramat	-8395
▁entirely	-8396
▁Großbritann	-8397
ütze	-8398
▁ergän	-8399
▁ausdrücklich	-8400
▁übernachten	-8401
maß	-8402
▁Wirk	-8403
wohner	-8404
▁ging	-8405
▁Abschließend	-8406
gebaut	-8407
▁format	-8408
preis	-8409
▁sole	-8410
▁incor	-8411
▁Status	-8412
itter	-8413
stelle	-8414
lad	-8415
▁alloc	-8416
Aus	-8417
itze	-8418
▁authority	-8419
▁typical	-8420
▁Lehr	-8421
▁mobil	-8422
▁Lib	-8423
▁Phil	-8424
▁strict	-8425
▁refuge	-8426
▁stärk	-8427
▁teilweise	-8428
▁wären	-8429
▁Völker	-8430
▁gekommen	-8431
▁generally	-8432
▁competitiveness	-8433
▁untern	-8434
▁besuchen	-8435
▁presidency	-8436
▁NI	-8437
gment	-8438
schul	-8439
▁grenz	-8440
▁ISO	-8441
▁Arbeiten	-8442
▁Techn	-8443
▁Bereit	-8444
▁willing	-8445
▁difficulties	-8446
▁Klimawand	-8447
▁alte	-8448
▁welcher	-8449
▁sagt	-8450
▁tack	-8451
▁dealing	-8452
▁technische	-8453
▁coffe	-8454
▁plants	-8455
tempor	-8456
▁Büro	-8457
vey	-8458
räft	-8459
▁ständig	-8460
ennis	-8461
▁elimin	-8462
▁sho	-8463
▁Never	-8464
▁Datei	-8465
gal	-8466
▁Netzwerk	-8467
aw	-8468
club	-8469
▁Brussels	-8470
▁interpret	-8471
ünen	-8472
▁komplett	-8473
▁kommenden	-8474
▁Guest	-8475
▁combat	-8476
▁stimme	-8477
schlossen	-8478
▁hosp	-8479
▁wollte	-8480
ura	-8481
▁permanent	-8482
▁Fore	-8483
▁betonen	-8484
▁komplex	-8485
▁Plen	-8486
▁Poland	-8487
▁chines	-8488
▁nieder	-8489
▁dispos	-8490
▁constit	-8491
▁3,	-8492
▁erstellt	-8493
plätze	-8494
▁criminal	-8495
▁Sow	-8496
▁relate	-8497
RA	-8498
gewicht	-8499
try	-8500
▁Kol	-8501
▁zuvor	-8502
▁Pakistan	-8503
EA	-8504
▁verur	-8505
▁detail	-8506
▁Teile	-8507
▁psych	-8508
▁organisation	-8509
▁recognis	-8510
▁3-	-8511
▁193	-8512
▁Bos	-8513
▁Wien	-8514
▁Health	-8515
▁Because	-8516
erstellen	-8517
▁Leistungen	-8518
km	-8519
sb	-8520
rägen	-8521
▁Veränderungen	-8522
füll	-8523
▁suc	-8524
Er	-8525
▁shops	-8526
▁informieren	-8527
▁funktioniert	-8528
▁Over	-8529
▁klare	-8530
ünden	-8531
▁peaceful	-8532
dis	-8533
overy	-8534
▁handeln	-8535
ossible	-8536
▁vehicles	-8537
▁Berichte	-8538
mär	-8539
▁facing	-8540
fachen	-8541
16	-8542
▁Instrumente	-8543
ee	-8544
▁Sach	-8545
▁lernen	-8546
▁moral	-8547
▁Initiativen	-8548
inary	-8549
▁Heil	-8550
▁thinking	-8551
▁machines	-8552
ries	-8553
▁calc	-8554
▁Bay	-8555
▁Unabhäng	-8556
▁é	-8557
ua	-8558
▁Name	-8559
▁Madrid	-8560
▁paragraph	-8561
▁Banken	-8562
II	-8563
▁sand	-8564
▁darstellen	-8565
aken	-8566
▁Abgeordnete	-8567
ameter	-8568
▁Verständ	-8569
umn	-8570
▁speaking	-8571
▁fragen	-8572
▁meetings	-8573
MU	-8574
▁resort	-8575
▁percent	-8576
▁SP	-8577
ishes	-8578
▁Eisen	-8579
▁sauber	-8580
▁Unfortunately	-8581
▁ober	-8582
▁adjust	-8583
▁Absatz	-8584
▁Dienste	-8585
▁),	-8586
▁http	-8587
▁applies	-8588
▁Zeitraum	-8589
▁Schn	-8590
portion	-8591
▁Leider	-8592
▁Webseite	-8593
▁consideration	-8594
▁average	-8595
▁trave	-8596
umm	-8597
tete	-8598
▁refle	-8599
▁Vill	-8600
▁Systeme	-8601
▁district	-8602
yer	-8603
-2	-8604
▁becomes	-8605
▁Act	-8606
▁russ	-8607
▁Engagement	-8608
▁numbers	-8609
▁income	-8610
-20	-8611
▁Band	-8612
▁bear	-8613
▁Out	-8614
inding	-8615
▁Begriff	-8616
schech	-8617
▁hour	-8618
4-0	-8619
▁Jetzt	-8620
▁gefordert	-8621
▁Kal	-8622
ova	-8623
▁dagegen	-8624
▁Kurz	-8625
IB	-8626
bew	-8627
▁Grenz	-8628
allel	-8629
▁fixed	-8630
▁Maschinen	-8631
▁Environment	-8632
▁Wander	-8633
▁told	-8634
▁opposition	-8635
▁EADS	-8636
iking	-8637
▁practices	-8638
hnung	-8639
▁Zeiten	-8640
▁durchaus	-8641
▁konkrete	-8642
SL	-8643
like	-8644
▁dro	-8645
▁Gipfel	-8646
▁PHP	-8647
▁promotion	-8648
oman	-8649
▁sorg	-8650
▁wenigen	-8651
▁domestic	-8652
▁schem	-8653
▁verring	-8654
▁Herstellung	-8655
▁stärken	-8656
▁Under	-8657
hrase	-8658
▁succeed	-8659
▁flexibility	-8660
▁instru	-8661
▁sle	-8662
embly	-8663
ashion	-8664
lern	-8665
▁Mir	-8666
▁Mount	-8667
öffnen	-8668
▁erleben	-8669
▁unternehmen	-8670
▁jur	-8671
▁Übergang	-8672
▁Mitgliedstaat	-8673
▁gradu	-8674
▁resist	-8675
▁Vielen	-8676
▁Angaben	-8677
▁Kritik	-8678
▁bodies	-8679
▁Fonds	-8680
▁Casino	-8681
▁GN	-8682
egu	-8683
▁orient	-8684
aker	-8685
ranken	-8686
▁contra	-8687
rich	-8688
▁Bern	-8689
haben	-8690
▁Mö	-8691
▁aims	-8692
▁volle	-8693
▁gewährleistet	-8694
hörde	-8695
▁IC	-8696
pper	-8697
▁himself	-8698
qualität	-8699
leistungs	-8700
▁eingesch	-8701
▁Origin	-8702
yes	-8703
ißen	-8704
▁propose	-8705
▁lif	-8706
illing	-8707
▁myself	-8708
▁Vien	-8709
▁wirks	-8710
▁Black	-8711
▁lokalen	-8712
iro	-8713
▁Mel	-8714
▁defined	-8715
!!	-8716
▁signal	-8717
▁Wass	-8718
Str	-8719
führten	-8720
▁Hauses	-8721
▁superv	-8722
▁Immobilien	-8723
▁Gebieten	-8724
▁Risiko	-8725
▁establishment	-8726
▁veröffentlicht	-8727
▁fle	-8728
▁Once	-8729
▁Anteil	-8730
▁absolut	-8731
▁Worte	-8732
▁advanced	-8733
▁rent	-8734
▁Tool	-8735
cknow	-8736
▁Kil	-8737
▁trägt	-8738
esterday	-8739
isierten	-8740
▁erklären	-8741
LE	-8742
▁middle	-8743
▁easier	-8744
▁freue	-8745
▁politics	-8746
▁7.	-8747
waren	-8748
isms	-8749
▁liebe	-8750
▁Einigung	-8751
▁fit	-8752
▁hält	-8753
▁claim	-8754
▁Non	-8755
bericht	-8756
fa	-8757
▁hinzuf	-8758
▁Saf	-8759
▁database	-8760
▁Roy	-8761
▁Königreich	-8762
uba	-8763
14	-8764
▁früh	-8765
worten	-8766
▁benötigt	-8767
▁signed	-8768
▁promoting	-8769
▁erfolgen	-8770
haber	-8771
wagen	-8772
▁clar	-8773
▁finanzielle	-8774
opol	-8775
ée	-8776
▁Herausforderung	-8777
utin	-8778
▁Regelung	-8779
tte	-8780
▁Warum	-8781
▁failure	-8782
▁Sehenswürd	-8783
▁pros	-8784
▁informed	-8785
ando	-8786
known	-8787
lisch	-8788
free	-8789
▁financing	-8790
öder	-8791
▁zul	-8792
accept	-8793
▁parliamentary	-8794
▁conduct	-8795
etter	-8796
▁Lo	-8797
▁Versuch	-8798
ibet	-8799
▁verwende	-8800
▁acknow	-8801
▁erscheint	-8802
▁seriously	-8803
▁experienced	-8804
▁Ul	-8805
▁ancient	-8806
▁glob	-8807
schung	-8808
▁Stellungnahme	-8809
▁multi	-8810
▁Atlant	-8811
▁Sonnen	-8812
▁Modern	-8813
▁gering	-8814
hy	-8815
▁Ratsvorsitz	-8816
iche	-8817
▁Rechnung	-8818
18	-8819
lägen	-8820
▁voice	-8821
flanzen	-8822
▁Technik	-8823
wogen	-8824
pendence	-8825
▁Kingdom	-8826
▁nächste	-8827
▁Prioritäten	-8828
▁Forderungen	-8829
▁Super	-8830
▁anyone	-8831
▁dennoch	-8832
making	-8833
▁coffee	-8834
▁translation	-8835
year	-8836
▁Zweifel	-8837
▁Klicken	-8838
▁geograph	-8839
▁möglichst	-8840
▁Asyl	-8841
lösung	-8842
▁Kenn	-8843
▁Santa	-8844
▁length	-8845
▁Hafen	-8846
üg	-8847
]],	-8848
kle	-8849
▁dangerous	-8850
▁Gewähr	-8851
▁Bib	-8852
▁Breakfast	-8853
▁Brüssel	-8854
▁Einhaltung	-8855
▁konzentrieren	-8856
qual	-8857
▁hop	-8858
▁Mechan	-8859
da	-8860
▁beru	-8861
▁Aufbau	-8862
▁Jahrhunderts	-8863
▁rech	-8864
▁cooper	-8865
▁Rum	-8866
▁Colle	-8867
▁positions	-8868
▁sty	-8869
▁imag	-8870
▁Stein	-8871
▁estate	-8872
▁Note	-8873
icians	-8874
▁klass	-8875
▁gegenseit	-8876
▁Titel	-8877
▁Achtung	-8878
▁klicken	-8879
▁structures	-8880
▁19.	-8881
▁Private	-8882
▁celebr	-8883
▁erstellen	-8884
▁differences	-8885
▁Analyse	-8886
▁connected	-8887
▁1996	-8888
▁studies	-8889
▁organiz	-8890
▁associated	-8891
▁difference	-8892
▁Kirche	-8893
▁models	-8894
▁Harmon	-8895
▁Flücht	-8896
▁stable	-8897
SC	-8898
▁Dennoch	-8899
▁übertragen	-8900
▁concrete	-8901
▁Fen	-8902
iegel	-8903
▁Geist	-8904
▁defence	-8905
ris	-8906
▁Formen	-8907
▁zerst	-8908
box	-8909
llos	-8910
▁appears	-8911
ibrary	-8912
▁withdra	-8913
▁instance	-8914
▁natur	-8915
▁Association	-8916
peratur	-8917
arta	-8918
▁welcom	-8919
▁Forum	-8920
▁Nahrungs	-8921
▁Allgemein	-8922
▁oppos	-8923
▁tut	-8924
▁houses	-8925
▁unge	-8926
▁verfolgen	-8927
▁happened	-8928
▁Mittelmeer	-8929
▁implementing	-8930
sport	-8931
▁Aspekt	-8932
▁neighbour	-8933
▁unto	-8934
▁combination	-8935
▁nennen	-8936
▁safegu	-8937
verkehrs	-8938
▁Sekt	-8939
erman	-8940
▁persönlich	-8941
▁Nachfolgend	-8942
DA	-8943
greif	-8944
deck	-8945
ifiziert	-8946
▁beaches	-8947
räume	-8948
▁adoption	-8949
▁Rec	-8950
reifen	-8951
▁humanitarian	-8952
zeption	-8953
--	-8954
▁names	-8955
▁Freund	-8956
▁statements	-8957
▁Alex	-8958
yright	-8959
▁amerikanischen	-8960
▁Gemeinsamen	-8961
▁gegründet	-8962
▁carefully	-8963
▁approxim	-8964
▁accur	-8965
licherweise	-8966
▁courses	-8967
▁umfasst	-8968
▁Leistung	-8969
▁Terrasse	-8970
ENT	-8971
▁article	-8972
▁endgült	-8973
▁condem	-8974
▁geleistet	-8975
▁betrachtet	-8976
ading	-8977
▁Lesung	-8978
▁spielt	-8979
▁unaccept	-8980
▁legen	-8981
ategory	-8982
▁pet	-8983
▁booking	-8984
zwischen	-8985
▁Währungs	-8986
▁collabor	-8987
▁21.	-8988
▁manage	-8989
karten	-8990
▁Firstly	-8991
▁exhibition	-8992
▁impossible	-8993
tenance	-8994
leiten	-8995
▁verlassen	-8996
zz	-8997
ae	-8998
▁täglich	-8999
▁producers	-9000
▁immediate	-9001
▁agencies	-9002
Ne	-9003
▁Christian	-9004
rollen	-9005
liefer	-9006
aby	-9007
▁spent	-9008
▁Hall	-9009
▁vere	-9010
▁reducing	-9011
▁Saint	-9012
▁denken	-9013
▁positiv	-9014
▁arrival	-9015
▁diskutieren	-9016
body	-9017
Es	-9018
▁verloren	-9019
▁television	-9020
zeugung	-9021
▁indire	-9022
▁ausges	-9023
arischen	-9024
iffer	-9025
person	-9026
▁schönen	-9027
▁evidence	-9028
▁adapt	-9029
▁guarantees	-9030
▁unan	-9031
▁truly	-9032
▁attractive	-9033
▁Paket	-9034
▁Justice	-9035
▁calling	-9036
▁Kompeten	-9037
▁Irish	-9038
▁leader	-9039
▁reasonable	-9040
hindert	-9041
ny	-9042
▁Messe	-9043
▁fulfil	-9044
stimmung	-9045
ww	-9046
▁Texte	-9047
orient	-9048
▁announced	-9049
kor	-9050
▁Katastrop	-9051
▁unabhängig	-9052
▁described	-9053
▁recognition	-9054
läuf	-9055
▁cred	-9056
▁behaup	-9057
Ab	-9058
ruf	-9059
door	-9060
▁Sorge	-9061
ista	-9062
▁Großbritannien	-9063
sized	-9064
regel	-9065
▁Trade	-9066
▁erforderlichen	-9067
▁Umfang	-9068
▁AK	-9069
▁Ideen	-9070
▁Zugrif	-9071
arter	-9072
ilder	-9073
ointed	-9074
ohlen	-9075
▁Hamburg	-9076
▁feststellen	-9077
künd	-9078
älter	-9079
▁shared	-9080
▁begrenz	-9081
▁alt	-9082
▁au	-9083
▁Komple	-9084
▁Strom	-9085
▁architecture	-9086
▁Lam	-9087
▁satell	-9088
organisation	-9089
▁Fernse	-9090
European	-9091
▁Wicht	-9092
▁compla	-9093
ido	-9094
ärm	-9095
▁genuine	-9096
▁erleich	-9097
▁hören	-9098
▁Stärkung	-9099
▁mist	-9100
▁released	-9101
lück	-9102
▁excess	-9103
▁background	-9104
▁abgeschlossen	-9105
▁Wün	-9106
ador	-9107
▁charged	-9108
▁garantiert	-9109
▁ahead	-9110
preise	-9111
▁Vielzahl	-9112
▁arbeitet	-9113
▁territory	-9114
▁Hard	-9115
▁Ruhe	-9116
▁advance	-9117
active	-9118
▁Anwendungen	-9119
▁win	-9120
▁Due	-9121
▁00	-9122
ugos	-9123
▁availability	-9124
▁discrimination	-9125
▁Finn	-9126
okraten	-9127
▁entertain	-9128
▁improvement	-9129
äck	-9130
wissen	-9131
▁einiger	-9132
▁taste	-9133
▁monetary	-9134
▁possibilities	-9135
▁wishes	-9136
▁bemer	-9137
meld	-9138
▁überprüfen	-9139
▁Gleichzeitig	-9140
▁cards	-9141
▁forest	-9142
oring	-9143
▁enth	-9144
▁trag	-9145
▁Kommissions	-9146
▁Hersteller	-9147
temporary	-9148
▁kulturellen	-9149
www	-9150
ränken	-9151
▁Prime	-9152
▁membership	-9153
sprogramm	-9154
äten	-9155
▁Defin	-9156
gas	-9157
raucher	-9158
▁(2	-9159
▁relaxing	-9160
▁hingewiesen	-9161
▁•	-9162
auftrag	-9163
jährigen	-9164
posit	-9165
condition	-9166
▁stell	-9167
▁Konz	-9168
▁Vo	-9169
Innen	-9170
▁owners	-9171
▁unacceptable	-9172
iscal	-9173
irus	-9174
▁nearby	-9175
▁Patienten	-9176
▁continued	-9177
nam	-9178
▁spl	-9179
▁consumption	-9180
▁tätig	-9181
ologische	-9182
üter	-9183
▁Wand	-9184
▁tasks	-9185
iendly	-9186
ensus	-9187
▁Sehr	-9188
▁isol	-9189
▁Entwicklungen	-9190
rem	-9191
grade	-9192
▁Dorf	-9193
▁Polize	-9194
▁bezeichnet	-9195
upp	-9196
krieg	-9197
itious	-9198
▁Überwachung	-9199
Script	-9200
cts	-9201
▁miteinander	-9202
▁Wald	-9203
icking	-9204
▁desire	-9205
▁participate	-9206
▁skills	-9207
▁glass	-9208
▁Tourismus	-9209
▁ausreichend	-9210
▁una	-9211
▁Polen	-9212
gestimmt	-9213
▁Aussicht	-9214
▁Künstler	-9215
gypt	-9216
▁Wall	-9217
▁Barroso	-9218
▁ow	-9219
▁unz	-9220
istisch	-9221
▁continues	-9222
▁figures	-9223
▁introduce	-9224
▁sn	-9225
▁trading	-9226
▁Seine	-9227
▁England	-9228
▁cars	-9229
▁richtigen	-9230
▁delic	-9231
▁combined	-9232
▁Poker	-9233
▁greatest	-9234
haltet	-9235
weist	-9236
▁Michael	-9237
▁Element	-9238
▁effektiv	-9239
.”	-9240
▁occasion	-9241
▁expend	-9242
▁generation	-9243
Kon	-9244
olo	-9245
▁haup	-9246
▁Typ	-9247
▁Democrats	-9248
▁ST	-9249
▁Schön	-9250
Date	-9251
ía	-9252
bieter	-9253
▁strongly	-9254
führungen	-9255
▁completed	-9256
▁Wi	-9257
▁MP	-9258
▁attach	-9259
▁allowing	-9260
▁profitieren	-9261
▁Rand	-9262
▁vernünft	-9263
▁Ausfl	-9264
▁Zuständ	-9265
▁packages	-9266
▁Versch	-9267
▁except	-9268
▁Afrika	-9269
▁unfortunately	-9270
▁Beach	-9271
▁weiterer	-9272
sequent	-9273
▁devices	-9274
▁unless	-9275
▁conv	-9276
▁24-	-9277
gegeben	-9278
▁Foundation	-9279
aration	-9280
▁Verletz	-9281
▁African	-9282
▁Heimat	-9283
%.	-9284
▁raise	-9285
▁Entwurf	-9286
▁surrounding	-9287
5-	-9288
eto	-9289
olz	-9290
ireless	-9291
▁Mat	-9292
▁entitled	-9293
road	-9294
▁zahlen	-9295
▁eingeführt	-9296
▁norm	-9297
bindung	-9298
▁Ear	-9299
▁Rome	-9300
▁Bedürfnisse	-9301
▁Main	-9302
▁transition	-9303
▁Effe	-9304
▁Europeans	-9305
zig	-9306
partner	-9307
assung	-9308
ilst	-9309
:0	-9310
▁Mun	-9311
▁enables	-9312
▁mission	-9313
government	-9314
öss	-9315
17	-9316
▁gewinnen	-9317
▁beauty	-9318
ema	-9319
bere	-9320
▁Problemen	-9321
▁attractions	-9322
▁Digital	-9323
▁Check	-9324
▁Irland	-9325
▁sale	-9326
▁Festival	-9327
▁Turkish	-9328
▁aufmerksam	-9329
leihen	-9330
▁religious	-9331
▁Anw	-9332
▁command	-9333
▁Rechnungs	-9334
▁Diskrimin	-9335
▁pure	-9336
uble	-9337
▁Work	-9338
▁konstru	-9339
▁erf	-9340
▁Dollar	-9341
▁square	-9342
▁registered	-9343
utch	-9344
▁meters	-9345
▁economies	-9346
kan	-9347
▁burden	-9348
▁Live	-9349
▁river	-9350
▁Teilnehmer	-9351
viel	-9352
▁born	-9353
▁micro	-9354
chnet	-9355
▁überall	-9356
▁Beitritt	-9357
pa	-9358
▁geschehen	-9359
äumen	-9360
);	-9361
chem	-9362
Ge	-9363
▁vul	-9364
▁regionalen	-9365
▁Kurs	-9366
▁vert	-9367
▁appeal	-9368
▁Nether	-9369
▁Verst	-9370
▁danach	-9371
▁Muse	-9372
▁beginnt	-9373
▁Anlagen	-9374
stands	-9375
comm	-9376
▁fruit	-9377
▁relativ	-9378
UT	-9379
▁Bewertung	-9380
▁insurance	-9381
▁closer	-9382
windigkeit	-9383
öse	-9384
reten	-9385
▁entstanden	-9386
andidaten	-9387
▁Beschreibung	-9388
ikal	-9389
▁einsetzen	-9390
▁vorliegenden	-9391
▁dedicated	-9392
▁asyl	-9393
▁spezielle	-9394
▁Fel	-9395
▁window	-9396
rüst	-9397
▁Bis	-9398
allery	-9399
▁Drogen	-9400
▁Angesichts	-9401
LAN	-9402
▁Links	-9403
▁Führung	-9404
▁sämtliche	-9405
▁urban	-9406
▁surface	-9407
▁Foto	-9408
▁Verpflichtung	-9409
▁unterstütze	-9410
▁üb	-9411
▁exercise	-9412
tzeit	-9413
kräfte	-9414
hören	-9415
▁THE	-9416
▁bestätigt	-9417
ih	-9418
brauch	-9419
▁zentrale	-9420
▁(200	-9421
▁Vienna	-9422
▁Verteidigung	-9423
▁besitzt	-9424
▁Globalisierung	-9425
▁liter	-9426
▁Leistungs	-9427
▁Mik	-9428
▁Partnerschaft	-9429
omas	-9430
▁union	-9431
▁keinerlei	-9432
bieten	-9433
▁gegenwärtig	-9434
▁Justiz	-9435
▁asylum	-9436
▁holidays	-9437
▁verfolgt	-9438
ags	-9439
cont	-9440
▁kons	-9441
▁Elemente	-9442
▁Custom	-9443
version	-9444
▁Griechenland	-9445
▁earth	-9446
▁Po	-9447
▁Regulation	-9448
rochen	-9449
▁enormous	-9450
▁Europäer	-9451
▁32	-9452
▁Fotos	-9453
▁folgende	-9454
▁grenzüber	-9455
ram	-9456
▁button	-9457
fle	-9458
ürk	-9459
▁einst	-9460
▁Priorität	-9461
▁individuals	-9462
▁Gerichtshof	-9463
▁französischen	-9464
▁Support	-9465
linge	-9466
atever	-9467
asil	-9468
▁PDF	-9469
sektor	-9470
▁Very	-9471
▁Media	-9472
ausschusses	-9473
▁Fortschritt	-9474
▁perspective	-9475
▁sides	-9476
pal	-9477
▁USB	-9478
afr	-9479
▁niedr	-9480
▁Altstadt	-9481
▁dir	-9482
▁beteiligt	-9483
rate	-9484
▁romant	-9485
bring	-9486
▁claims	-9487
▁totally	-9488
▁politischer	-9489
▁vollkommen	-9490
onia	-9491
inder	-9492
▁advertising	-9493
MS	-9494
▁ök	-9495
isierte	-9496
▁10.	-9497
▁Lake	-9498
▁vision	-9499
▁gestalten	-9500
EO	-9501
▁Meiner	-9502
▁nütz	-9503
▁notice	-9504
▁reservation	-9505
▁kept	-9506
▁meant	-9507
▁stim	-9508
▁installed	-9509
▁forced	-9510
▁railway	-9511
▁reliable	-9512
▁Mü	-9513
höhung	-9514
steht	-9515
technik	-9516
▁CH	-9517
▁großes	-9518
▁haupts	-9519
▁offensichtlich	-9520
▁Deutsche	-9521
▁äuß	-9522
aktionen	-9523
▁größeren	-9524
▁establishing	-9525
▁Syn	-9526
zust	-9527
mögen	-9528
▁20.	-9529
▁Worten	-9530
▁gram	-9531
▁einver	-9532
zep	-9533
▁session	-9534
▁Foreign	-9535
▁granted	-9536
▁learning	-9537
teten	-9538
▁einfache	-9539
▁nom	-9540
▁para	-9541
▁luxury	-9542
▁confir	-9543
▁Federal	-9544
▁Nav	-9545
▁shop	-9546
imit	-9547
▁court	-9548
45	-9549
istik	-9550
▁diss	-9551
▁story	-9552
▁ergeben	-9553
▁storage	-9554
systeme	-9555
▁2009.	-9556
▁failed	-9557
▁convinced	-9558
▁compared	-9559
▁Mond	-9560
▁Nevertheless	-9561
ague	-9562
▁empfehlen	-9563
▁Urs	-9564
▁Another	-9565
▁Mutter	-9566
▁Regelungen	-9567
▁qualit	-9568
▁gegenwärtigen	-9569
▁Stadtz	-9570
▁stands	-9571
▁grant	-9572
inde	-9573
rance	-9574
enkt	-9575
▁geeig	-9576
▁device	-9577
▁garantieren	-9578
▁urgent	-9579
▁Control	-9580
▁extended	-9581
▁highlight	-9582
▁Grunde	-9583
▁memory	-9584
▁reprodu	-9585
▁warten	-9586
▁dauer	-9587
▁biggest	-9588
▁spending	-9589
mittag	-9590
▁geschützt	-9591
▁gutes	-9592
▁Tisch	-9593
attform	-9594
▁mountains	-9595
▁Back	-9596
▁seven	-9597
▁höchste	-9598
▁buffet	-9599
▁genet	-9600
▁solcher	-9601
▁forth	-9602
Ser	-9603
▁Maße	-9604
xts	-9605
▁conclusions	-9606
▁Meeres	-9607
▁science	-9608
▁Beteiligung	-9609
▁verbundenen	-9610
▁Company	-9611
itage	-9612
▁passed	-9613
▁Jeder	-9614
▁por	-9615
eller	-9616
▁beige	-9617
▁veget	-9618
▁grunds	-9619
Das	-9620
▁magn	-9621
▁Wechsel	-9622
▁zusätzlich	-9623
▁Netherlands	-9624
▁Day	-9625
▁internationaler	-9626
▁ru	-9627
erma	-9628
▁umfassende	-9629
▁Eindruck	-9630
▁prison	-9631
reisen	-9632
▁chair	-9633
▁controls	-9634
ey	-9635
athed	-9636
▁Option	-9637
▁kü	-9638
▁golf	-9639
stattung	-9640
Fi	-9641
ibel	-9642
▁hum	-9643
uchten	-9644
▁31	-9645
ipping	-9646
onial	-9647
▁Data	-9648
▁beinhaltet	-9649
▁Budget	-9650
holung	-9651
hlt	-9652
▁lä	-9653
▁unable	-9654
olge	-9655
▁formal	-9656
▁Verz	-9657
▁Indien	-9658
▁Austrian	-9659
▁Market	-9660
▁corporate	-9661
▁Van	-9662
▁advice	-9663
▁contrary	-9664
▁enfor	-9665
hebung	-9666
▁factors	-9667
prinzip	-9668
▁moving	-9669
▁finance	-9670
▁motiv	-9671
▁fern	-9672
▁aufzu	-9673
▁White	-9674
▁Rob	-9675
▁Gebrauch	-9676
iam	-9677
▁ID	-9678
▁rob	-9679
▁tief	-9680
alia	-9681
ilot	-9682
reibt	-9683
iode	-9684
äfen	-9685
▁Cam	-9686
▁wesentlichen	-9687
▁Bill	-9688
▁Haut	-9689
oram	-9690
▁Vertrie	-9691
▁core	-9692
▁unit	-9693
▁liber	-9694
▁cra	-9695
▁Croat	-9696
▁sogen	-9697
▁tried	-9698
▁Eastern	-9699
▁disease	-9700
▁Martin	-9701
▁definition	-9702
▁ausführ	-9703
▁Mindest	-9704
▁Special	-9705
▁registr	-9706
▁dimension	-9707
ancial	-9708
▁drawn	-9709
▁Universität	-9710
▁Größe	-9711
▁Gründe	-9712
▁perfectly	-9713
▁leb	-9714
actions	-9715
▁legitim	-9716
▁PPE	-9717
lägt	-9718
verein	-9719
▁Todes	-9720
schrift	-9721
▁laid	-9722
▁pour	-9723
heits	-9724
▁müs	-9725
iertes	-9726
▁weapons	-9727
▁Latin	-9728
igrants	-9729
▁Märkte	-9730
istor	-9731
▁artists	-9732
▁expression	-9733
det	-9734
▁earn	-9735
▁Monat	-9736
▁scale	-9737
▁maintenance	-9738
ammer	-9739
▁mode	-9740
ington	-9741
500	-9742
▁intervention	-9743
▁Städte	-9744
So	-9745
▁Presse	-9746
▁saw	-9747
▁Peter	-9748
▁Nutzer	-9749
▁chosen	-9750
▁Greek	-9751
▁commitments	-9752
▁guide	-9753
▁destroy	-9754
Sterne	-9755
▁diplomat	-9756
▁Erklärungen	-9757
▁na	-9758
-3	-9759
stät	-9760
▁Unterkunft	-9761
worfen	-9762
reck	-9763
▁unf	-9764
▁Dus	-9765
▁Fitness	-9766
with	-9767
▁Lizenz	-9768
iced	-9769
UN	-9770
:30	-9771
▁Opp	-9772
▁freie	-9773
▁condemn	-9774
▁steigen	-9775
▁Third	-9776
▁teilnehmen	-9777
▁enor	-9778
enntnisse	-9779
ügel	-9780
▁Vermitt	-9781
▁wunderschö	-9782
▁Palace	-9783
▁beglück	-9784
▁candidate	-9785
Ber	-9786
ario	-9787
leun	-9788
▁>	-9789
▁neither	-9790
älfte	-9791
▁Trek	-9792
▁jour	-9793
▁investig	-9794
aket	-9795
ancy	-9796
▁Ans	-9797
setzt	-9798
▁Studio	-9799
uung	-9800
EW	-9801
log	-9802
vorschlag	-9803
▁match	-9804
straße	-9805
▁Front	-9806
▁Mas	-9807
▁rightly	-9808
mittelt	-9809
▁honourable	-9810
▁korre	-9811
▁beglückwün	-9812
▁interface	-9813
▁betrachten	-9814
▁spa	-9815
Ex	-9816
▁erh	-9817
äufer	-9818
▁Unabhängigkeit	-9819
liothe	-9820
▁Gegensatz	-9821
▁8.	-9822
glieder	-9823
▁Constitution	-9824
System	-9825
▁route	-9826
▁agency	-9827
▁Ve	-9828
▁obligations	-9829
▁Relig	-9830
nehmern	-9831
▁Wiederauf	-9832
wechsel	-9833
▁outcome	-9834
bald	-9835
idung	-9836
▁AR	-9837
▁achieving	-9838
▁Where	-9839
▁Thus	-9840
▁Kohäs	-9841
▁definit	-9842
▁Institute	-9843
▁balcon	-9844
fallen	-9845
▁kos	-9846
▁dient	-9847
▁chemical	-9848
bett	-9849
ternen	-9850
▁Quest	-9851
▁Yet	-9852
▁ambitious	-9853
▁speziellen	-9854
apers	-9855
▁Karten	-9856
▁Fire	-9857
▁secret	-9858
jet	-9859
▁sched	-9860
alty	-9861
ichtete	-9862
▁Marken	-9863
▁outstanding	-9864
▁colour	-9865
▁Studien	-9866
sequently	-9867
erap	-9868
▁sam	-9869
▁langen	-9870
▁obviously	-9871
versorgung	-9872
▁Aktionen	-9873
26	-9874
▁Bla	-9875
▁Beschäftigungs	-9876
SQL	-9877
▁ECU	-9878
aub	-9879
umer	-9880
anische	-9881
▁weight	-9882
▁Verständnis	-9883
uters	-9884
itar	-9885
▁situations	-9886
▁gelungen	-9887
▁constantly	-9888
▁Flexibilität	-9889
trib	-9890
gibt	-9891
▁Sä	-9892
look	-9893
▁analy	-9894
▁Ereignisse	-9895
▁photos	-9896
uzz	-9897
▁ep	-9898
wortet	-9899
▁festge	-9900
▁flight	-9901
▁erhöht	-9902
▁Wür	-9903
▁colleague	-9904
fähig	-9905
ending	-9906
▁fiscal	-9907
governmental	-9908
▁Reich	-9909
▁update	-9910
▁title	-9911
▁organised	-9912
iov	-9913
klang	-9914
ickt	-9915
▁rock	-9916
▁limits	-9917
era	-9918
▁daraus	-9919
▁Apparte	-9920
▁election	-9921
endum	-9922
▁36	-9923
▁Pool	-9924
▁patent	-9925
▁someone	-9926
▁sensitive	-9927
orial	-9928
▁sell	-9929
▁dur	-9930
▁erfre	-9931
▁continuing	-9932
▁correspond	-9933
istry	-9934
▁Resort	-9935
▁surrounded	-9936
▁minute	-9937
▁distin	-9938
▁payments	-9939
▁britischen	-9940
üb	-9941
▁Anlage	-9942
▁Beim	-9943
▁Bahnhof	-9944
▁#	-9945
abilities	-9946
▁vehicle	-9947
▁vergleich	-9948
▁informiert	-9949
onenten	-9950
▁compat	-9951
▁Ganz	-9952
▁cheap	-9953
▁elected	-9954
▁starke	-9955
Reg	-9956
▁Fert	-9957
▁geöffnet	-9958
▁schöne	-9959
knü	-9960
down	-9961
▁equality	-9962
▁Erde	-9963
▁defic	-9964
isure	-9965
▁umwelt	-9966
▁yesterday	-9967
NL	-9968
▁Kopf	-9969
▁Hinweis	-9970
▁privile	-9971
▁asking	-9972
▁Ros	-9973
▁Emiss	-9974
▁Gent	-9975
▁Süden	-9976
▁Zahlen	-9977
▁revolution	-9978
▁benach	-9979
management	-9980
▁successfully	-9981
▁Realität	-9982
▁lauf	-9983
▁Nachdem	-9984
▁Lord	-9985
ifications	-9986
▁Empfehlungen	-9987
▁Mitteln	-9988
Ein	-9989
▁store	-9990
▁Jac	-9991
reitung	-9992
lichem	-9993
▁näher	-9994
▁goals	-9995
▁Summit	-9996
▁reject	-9997
▁Verkauf	-9998
▁sem	-9999
▁contents	-10000
▁wealth	-10001
elbe	-10002
▁Good	-10003
▁tie	-10004
▁Niveau	-10005
▁Agency	-10006
▁Garden	-10007
▁accessible	-10008
De	-10009
▁organization	-10010
auso	-10011
▁Beschluss	-10012
▁75	-10013
oret	-10014
▁1995	-10015
▁Datenschutz	-10016
▁Betriebs	-10017
▁Wirkung	-10018
ismen	-10019
▁Fraktionen	-10020
▁Alban	-10021
▁category	-10022
gefähr	-10023
▁expenditure	-10024
▁Sur	-10025
▁exklus	-10026
▁Ausland	-10027
DR	-10028
▁Slow	-10029
▁surv	-10030
reitet	-10031
▁bound	-10032
ipe	-10033
atures	-10034
▁massive	-10035
▁Hoffnung	-10036
▁recommendations	-10037
ähren	-10038
▁Feld	-10039
▁Agentur	-10040
8)	-10041
▁Botschaft	-10042
enswert	-10043
tellect	-10044
fest	-10045
▁Schm	-10046
▁guter	-10047
ktivität	-10048
▁aircraft	-10049
▁Dimension	-10050
utzung	-10051
▁race	-10052
▁Farben	-10053
ategorie	-10054
▁sorgfält	-10055
▁grie	-10056
▁Gesprä	-10057
▁Weitere	-10058
▁überein	-10059
▁species	-10060
▁einverstanden	-10061
kurr	-10062
▁Programms	-10063
▁rig	-10064
▁philosoph	-10065
▁physical	-10066
▁allgemeine	-10067
▁Mail	-10068
▁Kontroll	-10069
▁hauptsächlich	-10070
▁mittl	-10071
▁rasch	-10072
▁independence	-10073
▁Journal	-10074
▁Architektur	-10075
apter	-10076
▁Beihilfen	-10077
Or	-10078
igned	-10079
▁balanced	-10080
▁Kooperation	-10081
▁EN	-10082
▁Hor	-10083
▁labor	-10084
▁einsch	-10085
▁12.	-10086
handels	-10087
▁Located	-10088
▁Voraussetzungen	-10089
erry	-10090
▁Militär	-10091
ansion	-10092
▁Vorteil	-10093
▁gehalten	-10094
▁Liberalisierung	-10095
▁satellite	-10096
▁beachten	-10097
▁Gaz	-10098
▁treten	-10099
▁acts	-10100
▁nar	-10101
gerung	-10102
▁geschieht	-10103
▁dé	-10104
▁ideale	-10105
▁merely	-10106
wers	-10107
▁2010.	-10108
▁Gebiete	-10109
unehm	-10110
▁Andre	-10111
▁targets	-10112
▁consists	-10113
▁furnished	-10114
▁festgestellt	-10115
obility	-10116
▁außerord	-10117
▁Palestinian	-10118
▁niemand	-10119
▁manchmal	-10120
▁intention	-10121
▁pun	-10122
▁türk	-10123
▁möglichen	-10124
abl	-10125
cast	-10126
▁lake	-10127
▁Marketing	-10128
▁reve	-10129
gbarkeit	-10130
▁Gut	-10131
otten	-10132
▁mittels	-10133
▁herzlich	-10134
▁Gesetzgebung	-10135
▁einzigen	-10136
▁contained	-10137
ela	-10138
▁Entsp	-10139
▁changing	-10140
▁communities	-10141
▁ap	-10142
▁("	-10143
abled	-10144
bination	-10145
▁Nik	-10146
▁Risiken	-10147
▁approximately	-10148
Bahn	-10149
▁III	-10150
▁Gegenteil	-10151
▁Arbeitsmarkt	-10152
▁contemporary	-10153
ünfte	-10154
▁preserv	-10155
▁dete	-10156
▁jüngsten	-10157
▁jungen	-10158
▁unternommen	-10159
▁dynamic	-10160
▁ausländ	-10161
▁spricht	-10162
iffe	-10163
rupt	-10164
▁Grundrechte	-10165
eind	-10166
▁waiting	-10167
▁landscape	-10168
▁sage	-10169
▁gebe	-10170
▁sobald	-10171
▁enhan	-10172
75	-10173
bürger	-10174
▁vorgeschlagenen	-10175
wachst	-10176
▁putting	-10177
▁Treffen	-10178
▁prevention	-10179
▁Erwart	-10180
▁Square	-10181
▁participants	-10182
▁(19	-10183
wurf	-10184
inning	-10185
zil	-10186
▁grounds	-10187
▁disposal	-10188
▁kaufen	-10189
▁smaller	-10190
▁Beob	-10191
imal	-10192
▁mechanism	-10193
▁Zoll	-10194
EU	-10195
odurch	-10196
▁übernommen	-10197
cap	-10198
▁bars	-10199
▁submit	-10200
▁bringing	-10201
▁schneller	-10202
verse	-10203
▁prospect	-10204
▁erfordert	-10205
▁swe	-10206
▁Bedarf	-10207
▁Teilen	-10208
GO	-10209
▁Experten	-10210
▁glad	-10211
▁leads	-10212
annung	-10213
▁slight	-10214
▁pointed	-10215
artner	-10216
real	-10217
▁Syr	-10218
▁nationaler	-10219
▁Blog	-10220
dict	-10221
▁quot	-10222
ählten	-10223
▁guaranteed	-10224
▁fraud	-10225
▁Manager	-10226
▁Männer	-10227
▁gewiss	-10228
▁resulting	-10229
▁Both	-10230
▁planned	-10231
▁selten	-10232
information	-10233
▁0.	-10234
▁Pic	-10235
▁Those	-10236
▁Island	-10237
▁blog	-10238
▁teilen	-10239
▁Vom	-10240
▁webs	-10241
vereign	-10242
▁convention	-10243
▁count	-10244
▁damals	-10245
▁persönliche	-10246
inent	-10247
▁Schne	-10248
▁Enjoy	-10249
▁Phase	-10250
▁Fischer	-10251
▁Alliance	-10252
▁Mitgliedern	-10253
▁dig	-10254
▁cool	-10255
▁sovereign	-10256
▁abhäng	-10257
▁MEP	-10258
▁Rules	-10259
▁write	-10260
cting	-10261
▁Ban	-10262
ulating	-10263
▁Politiker	-10264
▁Teilnahme	-10265
▁factor	-10266
▁Hauptstadt	-10267
▁Sprach	-10268
▁zunehm	-10269
utr	-10270
▁Los	-10271
▁Bestandteil	-10272
▁strengthening	-10273
▁gewünsch	-10274
▁Touristen	-10275
▁regelmäßig	-10276
▁seeking	-10277
▁vieler	-10278
▁Bol	-10279
▁wachs	-10280
▁causes	-10281
▁operate	-10282
▁Mitglieds	-10283
▁capable	-10284
▁zugleich	-10285
▁pill	-10286
endung	-10287
wiesen	-10288
asen	-10289
▁Prüfung	-10290
ränkungen	-10291
▁Friedens	-10292
App	-10293
oster	-10294
▁Chem	-10295
]].	-10296
wegs	-10297
▁Jose	-10298
▁acceptable	-10299
▁betroffenen	-10300
TP	-10301
akete	-10302
▁anbieten	-10303
arium	-10304
▁andererseits	-10305
▁beob	-10306
▁berecht	-10307
▁id	-10308
istenz	-10309
▁wodurch	-10310
▁medizin	-10311
▁250	-10312
CC	-10313
utzer	-10314
▁Via	-10315
▁conclude	-10316
▁pleasure	-10317
artet	-10318
vely	-10319
cco	-10320
ermaßen	-10321
▁nachhaltige	-10322
hel	-10323
ausende	-10324
krat	-10325
▁ung	-10326
▁brings	-10327
Adr	-10328
ints	-10329
▁retain	-10330
ventions	-10331
▁praktisch	-10332
▁Sun	-10333
2010	-10334
ques	-10335
▁Gesam	-10336
▁examples	-10337
▁nav	-10338
▁underg	-10339
▁zählen	-10340
▁Niederl	-10341
rant	-10342
▁registration	-10343
▁Energy	-10344
▁vorschlagen	-10345
▁manufacturing	-10346
▁print	-10347
()	-10348
richtlinie	-10349
▁lov	-10350
▁valu	-10351
▁Sweden	-10352
▁Repr	-10353
▁gemeinschaft	-10354
ifellos	-10355
ky	-10356
iene	-10357
kurs	-10358
▁verk	-10359
▁letter	-10360
▁4,	-10361
▁Cypr	-10362
▁Chamber	-10363
▁recovery	-10364
▁argument	-10365
mo	-10366
▁schn	-10367
▁Maria	-10368
ssystem	-10369
-200	-10370
▁identity	-10371
Gen	-10372
▁assum	-10373
gesellschaften	-10374
▁Lag	-10375
▁Royal	-10376
▁toler	-10377
▁Landschaft	-10378
▁beschäftigt	-10379
cling	-10380
▁band	-10381
▁fashion	-10382
▁Erhöhung	-10383
▁JavaScript	-10384
▁spaces	-10385
inations	-10386
▁Klimaanlage	-10387
▁Lu	-10388
▁Eth	-10389
▁nearly	-10390
▁Koordinierung	-10391
nes	-10392
▁explain	-10393
▁Effizienz	-10394
▁Prakt	-10395
▁Nichtraucher	-10396
▁association	-10397
▁zunehmend	-10398
▁Überprüfung	-10399
▁safeguard	-10400
▁surpr	-10401
▁Hälfte	-10402
▁18.	-10403
▁acht	-10404
▁zone	-10405
▁Kaffe	-10406
iot	-10407
ablen	-10408
")	-10409
odes	-10410
▁weg	-10411
eshalb	-10412
▁OS	-10413
▁erneuer	-10414
▁Merk	-10415
▁sichern	-10416
uttle	-10417
▁kleiner	-10418
▁2009,	-10419
▁echte	-10420
ermal	-10421
▁decades	-10422
▁fuel	-10423
hann	-10424
▁Gefühl	-10425
▁Anpassung	-10426
▁wichtigste	-10427
istungs	-10428
▁Zuf	-10429
iring	-10430
▁Internationalen	-10431
▁Fax	-10432
▁adequate	-10433
▁Glas	-10434
▁Vorbereitung	-10435
▁traditionellen	-10436
▁multiple	-10437
▁governance	-10438
7)	-10439
▁Ebenso	-10440
▁password	-10441
▁Bosn	-10442
▁siehe	-10443
SV	-10444
aschen	-10445
▁irgende	-10446
car	-10447
▁Welche	-10448
▁Pflicht	-10449
▁Gedanken	-10450
ierend	-10451
▁Korea	-10452
alys	-10453
mlich	-10454
▁Schwar	-10455
▁incorpor	-10456
▁Admin	-10457
▁SD	-10458
▁sieben	-10459
▁proportion	-10460
fers	-10461
zwungen	-10462
ource	-10463
▁Dort	-10464
▁sets	-10465
▁trend	-10466
▁Inc	-10467
▁steel	-10468
▁Charter	-10469
▁Akte	-10470
▁grammat	-10471
▁Einkaufs	-10472
▁withdraw	-10473
▁requested	-10474
▁BM	-10475
▁southern	-10476
lebt	-10477
splan	-10478
▁consensus	-10479
▁regret	-10480
▁nations	-10481
PC	-10482
▁River	-10483
ão	-10484
▁Thanks	-10485
▁School	-10486
▁attacks	-10487
ktop	-10488
▁Publik	-10489
▁patients	-10490
organisationen	-10491
▁Ferienwohn	-10492
▁truth	-10493
▁Class	-10494
▁optimal	-10495
▁thereby	-10496
▁ta	-10497
sprüche	-10498
▁besseren	-10499
▁amt	-10500
äume	-10501
▁Pop	-10502
▁Dutch	-10503
▁Laufe	-10504
▁divid	-10505
▁Streit	-10506
▁vulner	-10507
▁discussing	-10508
▁versions	-10509
▁Ausnahme	-10510
▁liability	-10511
issens	-10512
▁Absicht	-10513
▁Tom	-10514
▁attend	-10515
▁driving	-10516
ktions	-10517
▁addressed	-10518
▁hergestellt	-10519
station	-10520
▁elegan	-10521
▁Apartment	-10522
place	-10523
selben	-10524
▁seitens	-10525
▁testing	-10526
▁190	-10527
▁Norden	-10528
▁Romania	-10529
Der	-10530
▁Morgen	-10531
gin	-10532
▁consolid	-10533
▁industries	-10534
▁lau	-10535
üben	-10536
iquid	-10537
legte	-10538
sprach	-10539
▁kinds	-10540
▁Ordnung	-10541
▁deutsche	-10542
▁primary	-10543
▁primarily	-10544
▁representative	-10545
otenzial	-10546
▁Tit	-10547
▁Press	-10548
iling	-10549
▁fällt	-10550
▁explan	-10551
▁Details	-10552
▁Zimmern	-10553
▁weiteres	-10554
▁copy	-10555
▁Methode	-10556
▁sec	-10557
▁Diskriminierung	-10558
aces	-10559
lichten	-10560
asten	-10561
▁Berücksicht	-10562
▁previously	-10563
▁inhab	-10564
▁respekt	-10565
▁п	-10566
fangen	-10567
▁Rich	-10568
▁diskutiert	-10569
sid	-10570
ress	-10571
▁Eltern	-10572
▁Tai	-10573
▁afford	-10574
▁Old	-10575
gänglich	-10576
▁blue	-10577
▁vielfält	-10578
▁betrie	-10579
▁reinfor	-10580
▁Übern	-10581
▁schools	-10582
▁talks	-10583
▁Methoden	-10584
produktion	-10585
▁Veröffent	-10586
▁master	-10587
▁kürzlich	-10588
▁{{	-10589
▁begann	-10590
icherungs	-10591
ror	-10592
▁Liebe	-10593
▁Direkt	-10594
position	-10595
phrase	-10596
▁disch	-10597
▁expensive	-10598
kunden	-10599
▁Autor	-10600
▁mail	-10601
▁Inseln	-10602
▁jemand	-10603
▁Veranstaltungen	-10604
iest	-10605
ampagne	-10606
▁remove	-10607
▁Rumän	-10608
▁Rund	-10609
enture	-10610
▁junge	-10611
▁phase	-10612
▁Rotary	-10613
▁Pin	-10614
▁Aufgrund	-10615
35	-10616
▁aktual	-10617
▁9.	-10618
▁Dublin	-10619
▁authent	-10620
▁Gästen	-10621
▁kontext	-10622
▁finde	-10623
▁evaluation	-10624
86	-10625
▁verteid	-10626
zeß	-10627
▁Two	-10628
lesen	-10629
bereiche	-10630
▁willkommen	-10631
▁Stadtzentrum	-10632
rist	-10633
pielt	-10634
▁Nice	-10635
▁reagieren	-10636
▁Obama	-10637
▁orders	-10638
▁eight	-10639
▁\	-10640
▁fif	-10641
▁akzeptiert	-10642
▁globale	-10643
icon	-10644
▁einzelne	-10645
entscheid	-10646
▁turned	-10647
nahm	-10648
▁bio	-10649
sein	-10650
▁lag	-10651
lebnis	-10652
▁Willen	-10653
▁Sonn	-10654
ädt	-10655
▁demokratische	-10656
border	-10657
▁Dach	-10658
▁Graf	-10659
▁dealt	-10660
▁Angriff	-10661
▁determined	-10662
atlant	-10663
gramms	-10664
tellectual	-10665
▁audio	-10666
▁journal	-10667
▁Anliegen	-10668
▁ländlichen	-10669
▁Bildungs	-10670
▁Freizeit	-10671
iser	-10672
▁zunehmen	-10673
▁Revolution	-10674
▁gewählt	-10675
going	-10676
▁flow	-10677
▁named	-10678
▁Financial	-10679
MO	-10680
▁dah	-10681
ported	-10682
ahnen	-10683
▁sinnvoll	-10684
▁fried	-10685
▁delivered	-10686
iern	-10687
▁diesbe	-10688
rest	-10689
BS	-10690
licit	-10691
▁books	-10692
ungsverfahren	-10693
▁mel	-10694
▁waters	-10695
▁nation	-10696
▁Tiere	-10697
▁mutual	-10698
kret	-10699
▁behandeln	-10700
▁Jean	-10701
▁capt	-10702
strategie	-10703
igern	-10704
▁bere	-10705
zahlung	-10706
▁corner	-10707
▁opposite	-10708
ady	-10709
▁betont	-10710
▁Provin	-10711
▁Prodi	-10712
▁angeht	-10713
▁anerkannt	-10714
▁800	-10715
▁genü	-10716
▁Autob	-10717
▁Verbesser	-10718
▁Verhältnis	-10719
iegen	-10720
▁voc	-10721
▁cook	-10722
▁bran	-10723
▁extreme	-10724
▁Bio	-10725
▁amongst	-10726
ciliation	-10727
▁Fähigkeit	-10728
▁Valle	-10729
ancen	-10730
▁Zustand	-10731
▁prepare	-10732
▁Zahlungs	-10733
▁Rem	-10734
▁Formular	-10735
▁verstärkt	-10736
▁berühmten	-10737
cin	-10738
verw	-10739
▁5-	-10740
▁Wegen	-10741
▁bon	-10742
▁Alter	-10743
▁positiven	-10744
iry	-10745
▁Mach	-10746
▁Flash	-10747
▁doll	-10748
▁nochmals	-10749
▁diversity	-10750
▁Que	-10751
▁vorbe	-10752
▁Church	-10753
lege	-10754
▁gespe	-10755
▁Reaktion	-10756
▁mechanisms	-10757
unsten	-10758
▁begonnen	-10759
▁unanim	-10760
kund	-10761
▁Argent	-10762
▁griech	-10763
▁bewegen	-10764
sph	-10765
▁Einklang	-10766
▁dritten	-10767
UM	-10768
▁onto	-10769
TE	-10770
cluding	-10771
▁investments	-10772
metho	-10773
▁belong	-10774
enter	-10775
▁snow	-10776
▁Vision	-10777
▁Jahrzehn	-10778
tten	-10779
▁wall	-10780
▁systemat	-10781
▁qualified	-10782
▁Despite	-10783
nd	-10784
oß	-10785
plant	-10786
griffe	-10787
▁führenden	-10788
▁accounts	-10789
▁territorial	-10790
▁sicherstellen	-10791
▁dry	-10792
▁́s	-10793
▁manufacturers	-10794
tehen	-10795
▁imper	-10796
▁vielmehr	-10797
▁Umständen	-10798
Tra	-10799
▁Fälle	-10800
▁Sud	-10801
▁thre	-10802
▁diverse	-10803
▁feeling	-10804
aks	-10805
▁urge	-10806
▁Unterschiede	-10807
▁5,	-10808
▁Express	-10809
▁Minderheiten	-10810
▁Follow	-10811
▁umgeben	-10812
▁consultation	-10813
▁OF	-10814
▁Ton	-10815
▁pension	-10816
absicht	-10817
▁Minutes	-10818
▁repeated	-10819
▁Patent	-10820
hrt	-10821
▁Jes	-10822
▁spät	-10823
▁leiden	-10824
▁Klimawandel	-10825
▁gesellschaft	-10826
dete	-10827
▁exceed	-10828
▁parallel	-10829
▁technological	-10830
anger	-10831
▁Stunde	-10832
grundlage	-10833
▁leadership	-10834
▁Fenster	-10835
▁moved	-10836
▁noise	-10837
EF	-10838
▁Win	-10839
▁skin	-10840
▁48	-10841
▁grand	-10842
▁bureau	-10843
▁charming	-10844
▁15.	-10845
▁verlieren	-10846
▁marked	-10847
▁hall	-10848
jection	-10849
▁Flä	-10850
bereitet	-10851
iary	-10852
reis	-10853
▁attemp	-10854
stoffen	-10855
▁fand	-10856
▁David	-10857
▁Fluss	-10858
sec	-10859
▁Champ	-10860
▁Os	-10861
essor	-10862
gence	-10863
Chr	-10864
imately	-10865
kop	-10866
akers	-10867
▁attitude	-10868
▁ehemaligen	-10869
folgerungen	-10870
▁Bor	-10871
zur	-10872
lles	-10873
▁überzeugen	-10874
zed	-10875
▁Ca	-10876
▁Kong	-10877
▁barr	-10878
▁meist	-10879
▁Report	-10880
▁schlecht	-10881
▁Wachstums	-10882
iana	-10883
▁Stück	-10884
fügt	-10885
4-	-10886
▁zuverläss	-10887
folio	-10888
▁120	-10889
▁zustimmen	-10890
▁Verfügbarkeit	-10891
▁0,	-10892
▁spot	-10893
erungs	-10894
▁rejected	-10895
▁Law	-10896
▁User	-10897
▁beruf	-10898
▁runs	-10899
▁ergriffen	-10900
▁existence	-10901
▁derzeitigen	-10902
▁eye	-10903
▁improvements	-10904
▁Diskussionen	-10905
▁Einwanderung	-10906
▁1980	-10907
▁knows	-10908
fertigt	-10909
termine	-10910
venue	-10911
ieties	-10912
▁Kollege	-10913
▁compliance	-10914
▁TO	-10915
orgnis	-10916
▁inten	-10917
▁Freude	-10918
kehren	-10919
ulted	-10920
▁Pflanzen	-10921
▁reply	-10922
▁Spiele	-10923
▁helping	-10924
igerung	-10925
▁Handeln	-10926
▁experiences	-10927
zahlt	-10928
▁Grenze	-10929
▁Johann	-10930
▁Kombination	-10931
▁vorgenommen	-10932
▁100%	-10933
▁17.	-10934
▁starken	-10935
öp	-10936
izont	-10937
struction	-10938
uries	-10939
▁lock	-10940
▁Schäden	-10941
gro	-10942
▁befassen	-10943
▁significantly	-10944
▁Dienstleistungs	-10945
▁Lou	-10946
jährige	-10947
▁Unterschied	-10948
▁blood	-10949
▁schließen	-10950
▁gewisse	-10951
▁Lö	-10952
▁seien	-10953
▁dele	-10954
▁Bedenken	-10955
▁Egypt	-10956
▁Before	-10957
▁Brazil	-10958
▁Adresse	-10959
▁Erwach	-10960
▁fordert	-10961
▁600	-10962
▁Ref	-10963
▁shape	-10964
berecht	-10965
▁wiederum	-10966
▁wait	-10967
▁heavy	-10968
stat	-10969
▁requests	-10970
▁Dadurch	-10971
▁Gesetze	-10972
gg	-10973
igence	-10974
▁Freunde	-10975
▁stone	-10976
SA	-10977
fare	-10978
▁streets	-10979
▁Know	-10980
asters	-10981
sichts	-10982
▁nötig	-10983
oples	-10984
▁Swed	-10985
▁Munich	-10986
▁bildet	-10987
mechan	-10988
▁2008.	-10989
▁Perspekt	-10990
▁leisure	-10991
ikte	-10992
▁Balt	-10993
▁Präs	-10994
▁competence	-10995
▁fed	-10996
▁recommended	-10997
▁abgele	-10998
▁arms	-10999
gebracht	-11000
ès	-11001
▁permit	-11002
▁unterschiedlich	-11003
itime	-11004
▁Satell	-11005
▁betreffen	-11006
▁konkreten	-11007
▁Take	-11008
▁transform	-11009
▁Theater	-11010
akten	-11011
▁Roh	-11012
▁höchst	-11013
TER	-11014
▁Kunde	-11015
owned	-11016
▁laut	-11017
▁privacy	-11018
▁landwirtschaft	-11019
▁launched	-11020
▁straight	-11021
▁birth	-11022
▁expertise	-11023
▁politisch	-11024
ст	-11025
uropäischen	-11026
▁cm	-11027
▁treated	-11028
▁speakers	-11029
füllung	-11030
eds	-11031
▁läuft	-11032
ispiele	-11033
▁München	-11034
meister	-11035
▁welchen	-11036
▁Untersuchung	-11037
lechter	-11038
▁Jack	-11039
▁Time	-11040
ikas	-11041
▁binding	-11042
iating	-11043
▁Angebote	-11044
▁consistent	-11045
uver	-11046
▁bedrooms	-11047
▁obligation	-11048
größ	-11049
▁Kreat	-11050
geht	-11051
▁rot	-11052
▁EG	-11053
▁piece	-11054
▁drugs	-11055
▁configur	-11056
▁presentation	-11057
▁switch	-11058
schaffen	-11059
▁expectations	-11060
pped	-11061
▁Rub	-11062
▁felt	-11063
▁recognise	-11064
istribution	-11065
▁compensation	-11066
▁Schwerpunkt	-11067
▁websites	-11068
▁keines	-11069
heber	-11070
▁Strukturfonds	-11071
▁destination	-11072
▁Holl	-11073
▁Amerika	-11074
▁Eigenschaften	-11075
▁Kyoto	-11076
▁units	-11077
▁sanctions	-11078
▁subsidiar	-11079
▁spok	-11080
stände	-11081
▁Antworten	-11082
▁Voraussetzung	-11083
wood	-11084
▁Komment	-11085
zubauen	-11086
▁parad	-11087
klärung	-11088
▁fir	-11089
ameras	-11090
▁Skype	-11091
▁Schloss	-11092
geiz	-11093
▁Grundsätze	-11094
▁emphasis	-11095
▁sleep	-11096
▁Englisch	-11097
▁Vielleicht	-11098
▁engag	-11099
abilität	-11100
▁furniture	-11101
▁Bek	-11102
▁Zul	-11103
▁flat	-11104
▁Premier	-11105
züg	-11106
▁Sound	-11107
▁dishes	-11108
▁lose	-11109
▁vess	-11110
▁Instit	-11111
▁umfass	-11112
▁basiert	-11113
▁wirksam	-11114
reb	-11115
teen	-11116
▁Erwä	-11117
▁browser	-11118
uj	-11119
beziehung	-11120
▁extension	-11121
▁represented	-11122
vak	-11123
▁default	-11124
handlungs	-11125
▁Dra	-11126
ährt	-11127
urm	-11128
▁output	-11129
▁Menü	-11130
uds	-11131
▁Fac	-11132
▁genauso	-11133
▁Definition	-11134
▁comply	-11135
▁Allgemeinen	-11136
sparte	-11137
▁kompliz	-11138
▁sprach	-11139
▁entlang	-11140
fä	-11141
▁Gewinn	-11142
▁Dokumente	-11143
▁Hong	-11144
▁resolve	-11145
onte	-11146
▁Paper	-11147
▁Straf	-11148
▁verlangen	-11149
▁substances	-11150
iform	-11151
lause	-11152
▁applicable	-11153
▁Karl	-11154
stance	-11155
▁Westen	-11156
▁Signal	-11157
▁exists	-11158
▁sights	-11159
▁gestern	-11160
▁abhängig	-11161
▁fantastic	-11162
9)	-11163
hop	-11164
▁relatively	-11165
theit	-11166
▁beiz	-11167
▁wild	-11168
ichteten	-11169
▁stations	-11170
▁bezieht	-11171
▁Use	-11172
ischung	-11173
▁Kranken	-11174
AB	-11175
▁Sein	-11176
▁dict	-11177
▁proud	-11178
,"	-11179
atre	-11180
▁trees	-11181
▁zeich	-11182
formance	-11183
▁trial	-11184
▁Airbus	-11185
AV	-11186
▁Radio	-11187
▁Datenbank	-11188
▁kor	-11189
▁deiner	-11190
▁older	-11191
▁Technology	-11192
DS	-11193
▁helps	-11194
▁thor	-11195
bahnhof	-11196
▁operators	-11197
▁Leitlinien	-11198
grad	-11199
▁Div	-11200
▁Rock	-11201
▁entered	-11202
otte	-11203
▁spezial	-11204
ettbewerbs	-11205
uste	-11206
▁taxes	-11207
▁articles	-11208
▁dog	-11209
▁Tibet	-11210
▁error	-11211
▁wichtiges	-11212
▁keeping	-11213
▁trotzdem	-11214
▁reicht	-11215
▁refugees	-11216
▁objects	-11217
▁appreciate	-11218
▁adj	-11219
▁vast	-11220
iè	-11221
zza	-11222
▁rare	-11223
▁approval	-11224
abling	-11225
▁Maßnahme	-11226
ossen	-11227
▁umfassenden	-11228
▁liefern	-11229
rote	-11230
▁Zusatz	-11231
▁Bewegung	-11232
▁Schulden	-11233
ifall	-11234
▁alter	-11235
▁geist	-11236
▁latter	-11237
▁Bestell	-11238
wirt	-11239
spar	-11240
▁tests	-11241
▁emphasise	-11242
netz	-11243
▁Genehm	-11244
▁führte	-11245
▁16.	-11246
▁senden	-11247
▁advantages	-11248
▁Dafür	-11249
▁centres	-11250
▁Bör	-11251
▁cold	-11252
▁Sanktionen	-11253
▁regionale	-11254
rechten	-11255
▁discharge	-11256
▁hoher	-11257
tragung	-11258
▁ziemlich	-11259
krit	-11260
▁affairs	-11261
▁Austausch	-11262
▁whatever	-11263
▁Ministers	-11264
▁italienischen	-11265
▁Action	-11266
27	-11267
▁Tim	-11268
schule	-11269
▁Küste	-11270
▁favor	-11271
▁Zugriff	-11272
▁wenden	-11273
antly	-11274
▁whilst	-11275
▁bekannten	-11276
▁arrangements	-11277
▁mini	-11278
▁Empfehlung	-11279
▁Verbrechen	-11280
▁sod	-11281
▁od	-11282
▁Atom	-11283
▁Monte	-11284
Mitglied	-11285
▁estim	-11286
▁Wahrheit	-11287
▁engineering	-11288
▁temperature	-11289
▁Fremden	-11290
▁delegation	-11291
▁Il	-11292
usal	-11293
▁hair	-11294
läne	-11295
▁Hans	-11296
▁obst	-11297
service	-11298
▁unmittelbar	-11299
hard	-11300
▁Exec	-11301
▁Registr	-11302
▁respective	-11303
▁plug	-11304
▁entre	-11305
▁eur	-11306
ätzung	-11307
▁dinner	-11308
▁helped	-11309
▁Offen	-11310
▁whe	-11311
ilding	-11312
▁ye	-11313
▁Master	-11314
▁happens	-11315
what	-11316
▁außergewöhn	-11317
oßen	-11318
▁texts	-11319
▁Berufs	-11320
ati	-11321
ergie	-11322
▁Essen	-11323
Th	-11324
ochen	-11325
▁erhältlich	-11326
▁adap	-11327
▁finding	-11328
▁involving	-11329
▁Umweltschutz	-11330
▁Amts	-11331
▁Verträge	-11332
▁religi	-11333
▁entertainment	-11334
▁Malt	-11335
▁maß	-11336
region	-11337
▁PR	-11338
▁Player	-11339
▁Landwirte	-11340
code	-11341
▁peoples	-11342
▁Besitz	-11343
▁personally	-11344
▁suffering	-11345
▁Klim	-11346
politischen	-11347
▁historische	-11348
▁Set	-11349
▁bedarf	-11350
behörden	-11351
maschinen	-11352
▁foll	-11353
ask	-11354
▁Konsequ	-11355
uchte	-11356
reds	-11357
▁politicians	-11358
▁angep	-11359
▁höhere	-11360
▁Strategien	-11361
▁disaster	-11362
▁Plaza	-11363
▁Suite	-11364
▁Beweis	-11365
▁danger	-11366
▁complic	-11367
▁exclusively	-11368
vol	-11369
▁naturally	-11370
prech	-11371
▁1000	-11372
uy	-11373
▁thorough	-11374
▁erweitert	-11375
▁falsch	-11376
▁Safety	-11377
unktions	-11378
wareness	-11379
▁reichen	-11380
▁covers	-11381
▁Profession	-11382
,”	-11383
▁valuable	-11384
▁Strategy	-11385
▁Schule	-11386
▁tours	-11387
▁engl	-11388
amerika	-11389
▁kommun	-11390
▁Welcome	-11391
▁beschrieben	-11392
trächt	-11393
▁entspannen	-11394
4)	-11395
▁diseases	-11396
▁spectac	-11397
ér	-11398
vec	-11399
okument	-11400
▁Original	-11401
▁zuge	-11402
quellen	-11403
flug	-11404
▁verf	-11405
▁Ferner	-11406
▁beträgt	-11407
▁gather	-11408
▁firstly	-11409
▁eröffnet	-11410
▁Baum	-11411
▁recognised	-11412
isc	-11413
tellte	-11414
rüstung	-11415
▁museum	-11416
gelassen	-11417
ani	-11418
▁Cook	-11419
▁gült	-11420
▁spring	-11421
▁Refer	-11422
▁13.	-11423
▁intend	-11424
▁Pay	-11425
▁zusätzlichen	-11426
▁Fahrzeug	-11427
▁weltweiten	-11428
▁Fer	-11429
▁breat	-11430
fällen	-11431
▁Disc	-11432
▁Turn	-11433
▁Angel	-11434
acher	-11435
▁opposed	-11436
,00	-11437
uführen	-11438
isory	-11439
▁künftig	-11440
▁entdecken	-11441
▁Ep	-11442
izz	-11443
neter	-11444
▁journey	-11445
▁erscheinen	-11446
▁threaten	-11447
▁Delegation	-11448
▁util	-11449
▁strugg	-11450
▁koordin	-11451
▁mobility	-11452
▁inf	-11453
flächen	-11454
▁Gesicht	-11455
▁confirmed	-11456
▁fill	-11457
▁pick	-11458
▁Materialien	-11459
▁intellectual	-11460
zin	-11461
west	-11462
▁MySQL	-11463
▁Show	-11464
▁grundlegenden	-11465
▁Studenten	-11466
▁Beratung	-11467
▁conserv	-11468
▁Tax	-11469
▁Swedish	-11470
▁outdoor	-11471
GB	-11472
▁hostels	-11473
▁Nachfrage	-11474
uden	-11475
▁Ungleich	-11476
baut	-11477
▁kurzem	-11478
▁Nachrichten	-11479
essene	-11480
▁solve	-11481
▁weather	-11482
kommt	-11483
▁Robert	-11484
▁Badezimmer	-11485
▁zugänglich	-11486
spruchs	-11487
▁residence	-11488
▁Mut	-11489
▁Heiz	-11490
▁repeat	-11491
idden	-11492
reuung	-11493
▁figure	-11494
▁Britain	-11495
▁schwierigen	-11496
▁renewable	-11497
▁interessiert	-11498
▁2011	-11499
▁cloth	-11500
ti	-11501
urd	-11502
üren	-11503
▁Erwartungen	-11504
obe	-11505
▁33	-11506
▁Director	-11507
▁obtained	-11508
▁dans	-11509
▁Mittelpunkt	-11510
Programm	-11511
▁gefördert	-11512
class	-11513
▁sofern	-11514
uens	-11515
uing	-11516
▁Franc	-11517
▁familiar	-11518
▁geprü	-11519
▁Eisenbahn	-11520
pers	-11521
chron	-11522
▁voller	-11523
oler	-11524
▁girl	-11525
gendes	-11526
▁Berichterstat	-11527
▁Studie	-11528
▁Wirklichkeit	-11529
▁millions	-11530
▁discovered	-11531
▁SO	-11532
▁faced	-11533
▁schönsten	-11534
▁exceptional	-11535
ingesch	-11536
▁Umgang	-11537
▁combating	-11538
ml	-11539
ikes	-11540
▁wesentliche	-11541
inken	-11542
▁Massen	-11543
ventionen	-11544
▁Schweden	-11545
▁Expl	-11546
▁laufen	-11547
▁1994	-11548
▁hilft	-11549
▁besitzen	-11550
▁exem	-11551
▁Hindern	-11552
▁bedeuten	-11553
▁directives	-11554
▁passengers	-11555
ichtbar	-11556
andon	-11557
bauen	-11558
deten	-11559
ändler	-11560
▁öffnen	-11561
▁eigenes	-11562
▁offices	-11563
urger	-11564
▁looks	-11565
ugnisse	-11566
▁Ambiente	-11567
▁involvement	-11568
hi	-11569
▁Wash	-11570
▁läng	-11571
▁Proced	-11572
▁direkte	-11573
▁jährlich	-11574
pol	-11575
▁Kategorie	-11576
▁Sens	-11577
▁determine	-11578
hme	-11579
win	-11580
▁chain	-11581
▁largely	-11582
▁kulturelle	-11583
▁Krie	-11584
▁geschrieben	-11585
▁Like	-11586
▁niemals	-11587
▁soft	-11588
actory	-11589
▁Frü	-11590
▁außen	-11591
▁einerseits	-11592
▁zweifellos	-11593
azine	-11594
stehenden	-11595
far	-11596
TS	-11597
95	-11598
▁Sov	-11599
▁creative	-11600
6)	-11601
▁obstac	-11602
▁GNU	-11603
▁Übersetzung	-11604
▁Agrarpolitik	-11605
erte	-11606
▁serves	-11607
▁hervorragende	-11608
▁weshalb	-11609
▁Music	-11610
▁Vir	-11611
▁Ohne	-11612
▁bureauc	-11613
dessen	-11614
▁protecting	-11615
▁durchzuführen	-11616
▁Dauer	-11617
▁enthus	-11618
▁verändert	-11619
▁eyes	-11620
▁Erinner	-11621
▁impressive	-11622
räften	-11623
▁ausgezeichnete	-11624
▁EP	-11625
▁Elect	-11626
▁letzt	-11627
▁zuerst	-11628
▁Kandidaten	-11629
▁natürlichen	-11630
lieben	-11631
▁couple	-11632
new	-11633
handelt	-11634
▁Govern	-11635
▁kombin	-11636
abwe	-11637
▁treaty	-11638
▁leaving	-11639
▁inzwischen	-11640
▁2008,	-11641
liefert	-11642
astronom	-11643
▁amounts	-11644
gesundheit	-11645
▁Kann	-11646
▁constructive	-11647
▁Puert	-11648
▁removed	-11649
▁officials	-11650
iva	-11651
weisung	-11652
MA	-11653
én	-11654
ito	-11655
kur	-11656
trieben	-11657
irk	-11658
▁rank	-11659
legungen	-11660
umping	-11661
3)	-11662
▁neuesten	-11663
▁Sad	-11664
örung	-11665
▁Grad	-11666
▁equally	-11667
trägen	-11668
▁criticism	-11669
▁increases	-11670
▁Ty	-11671
▁Temperatur	-11672
finanz	-11673
▁Anfragen	-11674
itäre	-11675
▁bemüht	-11676
icip	-11677
▁Papier	-11678
wendungen	-11679
▁Einstellung	-11680
▁Beispiele	-11681
▁strategies	-11682
▁Sund	-11683
▁reden	-11684
▁stattf	-11685
▁Farb	-11686
▁automatic	-11687
▁Verbesserungen	-11688
bek	-11689
▁newly	-11690
CS	-11691
▁Lim	-11692
▁happening	-11693
▁temporary	-11694
▁Veranstaltung	-11695
▁organizations	-11696
▁communications	-11697
▁Burg	-11698
tedly	-11699
▁incent	-11700
▁illustr	-11701
▁contributions	-11702
col	-11703
▁doesn	-11704
institution	-11705
inos	-11706
▁George	-11707
▁Luxembourg	-11708
opt	-11709
▁lovely	-11710
▁MS	-11711
erse	-11712
andal	-11713
▁Croatia	-11714
▁Instead	-11715
▁spanischen	-11716
22	-11717
▁betreffenden	-11718
▁Update	-11719
steuer	-11720
▁ausgezeichneten	-11721
▁stake	-11722
▁schwar	-11723
▁ruhigen	-11724
▁reserve	-11725
▁hospit	-11726
aal	-11727
achte	-11728
▁Meinungs	-11729
päck	-11730
▁Bauern	-11731
looking	-11732
▁interessant	-11733
▁license	-11734
▁preparation	-11735
▁mandate	-11736
▁installiert	-11737
▁laden	-11738
arl	-11739
cor	-11740
▁Alternative	-11741
adow	-11742
▁Stahl	-11743
verletz	-11744
▁handling	-11745
▁beträcht	-11746
▁Four	-11747
▁getr	-11748
▁ursprünglichen	-11749
Fl	-11750
gemäß	-11751
▁underm	-11752
▁verändern	-11753
einrichtungen	-11754
▁hit	-11755
ählte	-11756
▁Normen	-11757
▁impression	-11758
freie	-11759
▁gelegt	-11760
▁healthy	-11761
▁requirement	-11762
apest	-11763
▁offenen	-11764
oni	-11765
▁boat	-11766
▁Ladies	-11767
▁fühlen	-11768
▁qualifiz	-11769
▁remaining	-11770
▁в	-11771
▁Sauna	-11772
▁cancel	-11773
▁restrictions	-11774
▁schreiben	-11775
▁awareness	-11776
▁Überzeugung	-11777
aul	-11778
▁Mall	-11779
▁grundlegende	-11780
▁mur	-11781
▁Weiß	-11782
▁acquis	-11783
systems	-11784
▁gene	-11785
holders	-11786
▁Export	-11787
▁essen	-11788
▁Termin	-11789
entions	-11790
▁richten	-11791
▁contracts	-11792
/1	-11793
▁menschlichen	-11794
▁accom	-11795
▁einfachen	-11796
▁volume	-11797
-/	-11798
▁liberalisation	-11799
wachstum	-11800
▁Verk	-11801
▁gewalt	-11802
▁issued	-11803
▁älter	-11804
▁Nahrungsmittel	-11805
▁Kapaz	-11806
▁prohib	-11807
▁charges	-11808
▁advoc	-11809
▁2.0	-11810
grenzung	-11811
▁debates	-11812
▁Engine	-11813
▁Küsten	-11814
▁Bulgaria	-11815
▁aufzunehmen	-11816
▁characteristics	-11817
▁decis	-11818
▁kommer	-11819
▁balcony	-11820
▁fighting	-11821
schirm	-11822
▁sorgt	-11823
▁präsentiert	-11824
▁remote	-11825
▁Tagung	-11826
▁collective	-11827
rd	-11828
▁universal	-11829
▁rapporteurs	-11830
bil	-11831
▁cer	-11832
▁abroad	-11833
▁controll	-11834
stood	-11835
▁List	-11836
▁entscheidend	-11837
▁president	-11838
holen	-11839
▁musste	-11840
▁trifft	-11841
Se	-11842
eler	-11843
igsten	-11844
wirkung	-11845
▁Anti	-11846
▁dining	-11847
inational	-11848
▁Life	-11849
▁phen	-11850
rating	-11851
▁Nahen	-11852
▁anwes	-11853
▁funktionieren	-11854
▁prove	-11855
reichung	-11856
▁opinions	-11857
▁detaill	-11858
▁returned	-11859
▁Ungar	-11860
▁inhabit	-11861
TR	-11862
▁si	-11863
▁stimmt	-11864
not	-11865
▁Town	-11866
täus	-11867
49	-11868
unicip	-11869
▁Mangel	-11870
▁achten	-11871
▁abol	-11872
▁creates	-11873
▁surroundings	-11874
▁Aqu	-11875
▁dich	-11876
▁Their	-11877
enturen	-11878
▁Ausgangspunkt	-11879
behörde	-11880
ipel	-11881
▁GDP	-11882
märkte	-11883
▁Kroat	-11884
▁gezogen	-11885
▁extraordin	-11886
▁Reisen	-11887
TML	-11888
▁faith	-11889
nischen	-11890
▁resolutions	-11891
▁operational	-11892
Vers	-11893
▁Pia	-11894
▁Angst	-11895
▁coher	-11896
▁Caf	-11897
rohung	-11898
▁album	-11899
▁höchsten	-11900
▁abgelehnt	-11901
▁maintained	-11902
▁vous	-11903
▁niedrig	-11904
▁Viertel	-11905
▁USD	-11906
▁pattern	-11907
▁suite	-11908
▁sexual	-11909
iday	-11910
▁Armen	-11911
Adresse	-11912
▁Ausstattung	-11913
▁beraten	-11914
▁depends	-11915
▁2007.	-11916
▁lobby	-11917
angebot	-11918
▁ignor	-11919
▁identify	-11920
gä	-11921
▁Ren	-11922
▁commun	-11923
▁schließ	-11924
meldung	-11925
▁Secret	-11926
▁Garantie	-11927
▁Strukturen	-11928
▁Box	-11929
▁Jedes	-11930
gänge	-11931
▁umzusetzen	-11932
▁Harmonisierung	-11933
▁starten	-11934
isierungs	-11935
▁Hostelsclub	-11936
▁ausgesprochen	-11937
▁cry	-11938
▁sla	-11939
▁organisiert	-11940
▁künftigen	-11941
▁Wil	-11942
▁übernimmt	-11943
▁Ath	-11944
▁messages	-11945
▁Übereinstimmung	-11946
▁Steuern	-11947
loyed	-11948
▁Bucht	-11949
▁Wähl	-11950
▁Stabilitäts	-11951
äumt	-11952
▁cab	-11953
light	-11954
ittees	-11955
▁recommendation	-11956
td	-11957
▁walls	-11958
▁Japanese	-11959
▁Verfahrens	-11960
▁UNO	-11961
▁renovated	-11962
▁fee	-11963
▁Prop	-11964
▁breite	-11965
▁inspir	-11966
▁Inf	-11967
▁precise	-11968
▁Geschmack	-11969
▁decorated	-11970
▁dritte	-11971
▁Arme	-11972
▁volunt	-11973
▁traditions	-11974
▁verschiedener	-11975
85	-11976
▁classic	-11977
▁erlauben	-11978
material	-11979
▁riesigen	-11980
▁gratulieren	-11981
▁gets	-11982
zellen	-11983
▁veran	-11984
▁Marina	-11985
ucher	-11986
▁kurze	-11987
ateful	-11988
▁Optim	-11989
▁verursacht	-11990
▁gold	-11991
mes	-11992
▁soweit	-11993
▁schnelle	-11994
▁sin	-11995
▁Zentr	-11996
▁bekämpfen	-11997
ML	-11998
▁Geräte	-11999
▁gebaut	-12000
▁gewonnen	-12001
▁Year	-12002
macht	-12003
lastung	-12004
▁Thomas	-12005
forschung	-12006
▁Kommun	-12007
▁Festlegung	-12008
grenzen	-12009
▁Krisen	-12010
▁catalog	-12011
▁push	-12012
▁Punkten	-12013
▁battle	-12014
fined	-12015
▁ausgewogen	-12016
▁ausgeschlossen	-12017
▁dark	-12018
▁anstatt	-12019
▁GU	-12020
arma	-12021
▁Executive	-12022
oria	-12023
Produ	-12024
▁involve	-12025
▁AB	-12026
aling	-12027
▁Gentoo	-12028
▁gender	-12029
▁Canada	-12030
▁appoint	-12031
▁verlangt	-12032
modell	-12033
▁Nap	-12034
aller	-12035
▁youth	-12036
arkt	-12037
▁conflicts	-12038
rufen	-12039
inuier	-12040
▁sauna	-12041
▁zählt	-12042
▁14.	-12043
▁Through	-12044
▁Procedure	-12045
▁37	-12046
cles	-12047
center	-12048
▁facilitate	-12049
▁properties	-12050
zne	-12051
▁MEPs	-12052
▁owner	-12053
▁Konsens	-12054
▁perfekt	-12055
▁Behinder	-12056
▁leistungs	-12057
▁Vice	-12058
▁irre	-12059
▁Award	-12060
▁artist	-12061
▁gelöst	-12062
▁legend	-12063
▁Geschäft	-12064
anen	-12065
ighten	-12066
▁Agricult	-12067
▁Tschech	-12068
▁Tel	-12069
ziplin	-12070
▁Maastr	-12071
▁beseit	-12072
▁buchen	-12073
rent	-12074
▁gone	-12075
▁witness	-12076
▁regularly	-12077
ätigung	-12078
▁Gestaltung	-12079
werb	-12080
▁reserves	-12081
▁BSE	-12082
▁schafft	-12083
▁Hohen	-12084
▁Planung	-12085
▁drawing	-12086
▁Krankheiten	-12087
▁Sat	-12088
▁lautet	-12089
▁reported	-12090
▁uneingesch	-12091
▁Late	-12092
uliert	-12093
▁bezug	-12094
erechtigkeit	-12095
▁anschließen	-12096
aser	-12097
▁mögliche	-12098
▁angesehen	-12099
▁smo	-12100
▁Wild	-12101
▁Wolf	-12102
▁Brasil	-12103
▁hardware	-12104
▁auftreten	-12105
▁Zuständigkeit	-12106
▁alarm	-12107
▁fordere	-12108
▁Drittländern	-12109
ci	-12110
dire	-12111
▁annehmen	-12112
▁vacation	-12113
▁Internets	-12114
▁Ausführungen	-12115
gut	-12116
▁conducted	-12117
▁wettbewerbs	-12118
▁Ret	-12119
▁Ware	-12120
▁aftern	-12121
▁customs	-12122
▁Standort	-12123
▁Abschnitt	-12124
▁Bestellung	-12125
▁Vorschlägen	-12126
gie	-12127
azier	-12128
▁accompan	-12129
▁einzigartige	-12130
mitten	-12131
▁Farbe	-12132
▁aufgefordert	-12133
tele	-12134
▁Rumänien	-12135
cohol	-12136
▁cable	-12137
uite	-12138
▁transportation	-12139
▁Monetary	-12140
▁schne	-12141
▁Aktien	-12142
▁Word	-12143
▁abgesch	-12144
▁enh	-12145
einen	-12146
diction	-12147
iny	-12148
acion	-12149
▁geprä	-12150
ypern	-12151
▁meat	-12152
▁load	-12153
onymous	-12154
▁Polish	-12155
water	-12156
▁intensiv	-12157
▁performed	-12158
▁Anwendungs	-12159
▁Gegend	-12160
vant	-12161
▁hundreds	-12162
▁Vater	-12163
▁Ausstellung	-12164
▁parliaments	-12165
▁Balkan	-12166
ef	-12167
▁Prin	-12168
▁erör	-12169
▁consc	-12170
▁Indones	-12171
▁zugunsten	-12172
▁hervorheben	-12173
▁recip	-12174
erten	-12175
▁east	-12176
▁supposed	-12177
aun	-12178
äger	-12179
▁zentralen	-12180
▁parents	-12181
izer	-12182
rett	-12183
▁Polizei	-12184
uese	-12185
▁PRO	-12186
▁topic	-12187
▁Kilometer	-12188
weite	-12189
▁northern	-12190
▁phenomen	-12191
▁900	-12192
▁sehe	-12193
▁Lager	-12194
▁define	-12195
▁vereinbar	-12196
uers	-12197
berge	-12198
▁Cyprus	-12199
▁verständ	-12200
▁intensive	-12201
table	-12202
▁somewhat	-12203
▁iron	-12204
▁career	-12205
point	-12206
decken	-12207
▁erheblich	-12208
läut	-12209
▁Washington	-12210
▁Verring	-12211
▁Halb	-12212
▁worse	-12213
standards	-12214
▁durchführen	-12215
▁Problems	-12216
▁beabsicht	-12217
▁Noch	-12218
▁Regen	-12219
ährung	-12220
▁einig	-12221
▁bekomm	-12222
▁WLAN	-12223
essions	-12224
▁metal	-12225
64	-12226
lieb	-12227
udes	-12228
führte	-12229
▁Nic	-12230
▁contrast	-12231
▁avec	-12232
istern	-12233
▁Inner	-12234
▁holding	-12235
▁zut	-12236
▁dates	-12237
▁seeing	-12238
▁follows	-12239
▁Himm	-12240
▁Regime	-12241
▁mitten	-12242
▁regulatory	-12243
▁verstanden	-12244
▁displayed	-12245
▁zuständigen	-12246
orca	-12247
▁kurzen	-12248
▁Fähigkeiten	-12249
▁beglückwünschen	-12250
▁amaz	-12251
▁abandon	-12252
▁terrorist	-12253
▁Zwei	-12254
▁joined	-12255
▁Tatsächlich	-12256
▁präz	-12257
▁Verd	-12258
▁Ausführung	-12259
banken	-12260
osis	-12261
▁visa	-12262
wald	-12263
▁Eis	-12264
▁Hilfs	-12265
▁collect	-12266
▁unfor	-12267
ruppen	-12268
▁Block	-12269
▁erwähn	-12270
▁Struct	-12271
▁zufolge	-12272
▁früheren	-12273
▁nachhaltigen	-12274
▁interior	-12275
▁frequently	-12276
▁Brand	-12277
▁Umfeld	-12278
▁updated	-12279
▁zurückge	-12280
▁parlament	-12281
OW	-12282
▁Straß	-12283
▁towns	-12284
▁connections	-12285
ivals	-12286
▁schwed	-12287
▁stylish	-12288
deb	-12289
stanz	-12290
▁Gener	-12291
▁Kontext	-12292
▁Mold	-12293
▁Geheim	-12294
▁Camping	-12295
▁bestätigen	-12296
▁ultimately	-12297
но	-12298
▁Jer	-12299
▁Blut	-12300
▁faster	-12301
▁Erholung	-12302
▁Urspr	-12303
▁islands	-12304
▁answers	-12305
▁continent	-12306
▁techniques	-12307
aj	-12308
▁Max	-12309
▁verbringen	-12310
asche	-12311
▁noted	-12312
aled	-12313
▁ought	-12314
▁father	-12315
▁ungefähr	-12316
▁Temp	-12317
▁Vorbe	-12318
▁label	-12319
▁kontinuier	-12320
▁Arbeitsplätzen	-12321
schiedet	-12322
▁minority	-12323
▁deals	-12324
ältigen	-12325
▁sodass	-12326
▁Zentralbank	-12327
▁bud	-12328
▁({{	-12329
▁ehrgeiz	-12330
▁Einheit	-12331
▁verabschiedet	-12332
▁Rent	-12333
reffen	-12334
unning	-12335
▁Schatten	-12336
liste	-12337
beauftrag	-12338
▁Gleichgewicht	-12339
28	-12340
igend	-12341
iessen	-12342
▁Sonne	-12343
lared	-12344
▁unent	-12345
▁notwendige	-12346
ete	-12347
▁AP	-12348
▁Viet	-12349
▁Ausgabe	-12350
▁organized	-12351
▁Protection	-12352
CHT	-12353
▁derart	-12354
bro	-12355
care	-12356
wechs	-12357
schäd	-12358
▁mother	-12359
▁aktuell	-12360
iera	-12361
▁Taiwan	-12362
▁settings	-12363
bart	-12364
▁emergency	-12365
lässlich	-12366
ifies	-12367
▁Empf	-12368
▁worry	-12369
▁Übereinkommen	-12370
▁Anton	-12371
▁trib	-12372
▁demanding	-12373
kreis	-12374
▁Automobil	-12375
▁KMU	-12376
▁Sony	-12377
▁Subsid	-12378
ergeb	-12379
minuten	-12380
▁ausgestatte	-12381
▁Polit	-12382
orter	-12383
zeichnis	-12384
▁Trag	-12385
passen	-12386
▁Dusche	-12387
▁destru	-12388
ößen	-12389
▁drop	-12390
iftung	-12391
▁Wird	-12392
▁react	-12393
▁driver	-12394
▁Audio	-12395
▁gewissen	-12396
fuhr	-12397
▁ethnic	-12398
ausend	-12399
▁Drittens	-12400
▁grateful	-12401
wing	-12402
orama	-12403
▁Plenum	-12404
▁Websites	-12405
▁50%	-12406
▁derartige	-12407
▁ster	-12408
minute	-12409
organ	-12410
▁hostel	-12411
▁bottom	-12412
▁anspruchs	-12413
ties	-12414
related	-12415
▁behavi	-12416
▁bezahlen	-12417
▁Prüf	-12418
▁öffentlich	-12419
▁Buchung	-12420
▁electricity	-12421
pen	-12422
iffen	-12423
▁Arbeitsplatz	-12424
▁interessante	-12425
usted	-12426
▁heat	-12427
▁ermut	-12428
▁drug	-12429
▁invite	-12430
Man	-12431
▁divided	-12432
▁produziert	-12433
▁Kas	-12434
▁Gewicht	-12435
▁Training	-12436
▁castle	-12437
▁migration	-12438
▁entschlossen	-12439
▁Vermögen	-12440
oli	-12441
▁Är	-12442
▁Infl	-12443
otive	-12444
▁Europol	-12445
▁HD	-12446
▁heritage	-12447
▁Prinzipien	-12448
aine	-12449
▁beschränkt	-12450
ación	-12451
Christ	-12452
▁Earth	-12453
▁tail	-12454
▁Redner	-12455
▁Funds	-12456
▁visual	-12457
на	-12458
▁seat	-12459
▁delighted	-12460
▁entwickelten	-12461
liothek	-12462
▁expansion	-12463
entwurf	-12464
▁Luf	-12465
▁Ersatz	-12466
▁producing	-12467
üler	-12468
▁Klar	-12469
▁windows	-12470
▁Anbieter	-12471
▁verhindert	-12472
▁quarter	-12473
▁statistics	-12474
ahrt	-12475
iox	-12476
▁Fü	-12477
züge	-12478
▁magnific	-12479
▁Verringerung	-12480
▁multinational	-12481
▁Ski	-12482
▁arrive	-12483
▁courage	-12484
attung	-12485
▁vorange	-12486
▁Speicher	-12487
cean	-12488
▁hängt	-12489
▁verleihen	-12490
▁entdeck	-12491
▁entrance	-12492
▁tourists	-12493
33	-12494
▁wines	-12495
▁widely	-12496
▁ausgezeichnet	-12497
▁welfare	-12498
▁Kat	-12499
▁Partnern	-12500
▁Deutschen	-12501
▁Schlafzimmer	-12502
It	-12503
▁2-	-12504
▁2007,	-12505
▁relaxation	-12506
▁österreich	-12507
▁Einbeziehung	-12508
ikaner	-12509
▁Kohäsion	-12510
▁münd	-12511
▁unmöglich	-12512
▁ausgesetzt	-12513
▁suites	-12514
▁Congress	-12515
▁channels	-12516
▁investors	-12517
▁freiwill	-12518
▁Food	-12519
▁geprüft	-12520
▁serviert	-12521
tendlich	-12522
▁visible	-12523
▁geä	-12524
▁protocol	-12525
▁pollution	-12526
▁individuell	-12527
well	-12528
▁Budapest	-12529
gemeinschaft	-12530
29	-12531
nor	-12532
▁Freiheiten	-12533
uminium	-12534
▁involves	-12535
▁Faktoren	-12536
▁jetz	-12537
▁Schuld	-12538
▁string	-12539
▁library	-12540
▁refr	-12541
▁valley	-12542
▁proof	-12543
▁locations	-12544
erkennen	-12545
▁DE	-12546
rovers	-12547
▁Legal	-12548
▁Führer	-12549
▁direkten	-12550
▁aufnehmen	-12551
gestellten	-12552
örd	-12553
schm	-12554
▁protest	-12555
▁Beziehung	-12556
**	-12557
kontrolle	-12558
bi	-12559
arat	-12560
▁geboten	-12561
▁Whether	-12562
▁Gründung	-12563
▁entsteht	-12564
▁starts	-12565
▁contacts	-12566
▁declaration	-12567
▁inhabitants	-12568
▁maintaining	-12569
▁Krimin	-12570
▁welchem	-12571
▁subsidies	-12572
icans	-12573
▁Partners	-12574
▁oral	-12575
imedia	-12576
▁geboren	-12577
▁kontakt	-12578
▁kurzfrist	-12579
▁Fair	-12580
▁cash	-12581
etzten	-12582
▁Mexico	-12583
▁symp	-12584
▁ticket	-12585
▁flights	-12586
▁presents	-12587
▁bestimmen	-12588
▁Bö	-12589
izza	-12590
▁Quark	-12591
▁pieces	-12592
▁visiting	-12593
▁ball	-12594
▁Prague	-12595
▁interv	-12596
▁explore	-12597
▁Geschäfte	-12598
iga	-12599
▁Vier	-12600
▁Network	-12601
▁erreichbar	-12602
▁Edition	-12603
▁exciting	-12604
▁Portuguese	-12605
▁verschw	-12606
▁AV	-12607
▁Ziffer	-12608
▁supplement	-12609
TC	-12610
▁Hof	-12611
▁sac	-12612
iented	-12613
▁abgestimmt	-12614
▁Haftung	-12615
stud	-12616
▁proved	-12617
▁kämpfen	-12618
▁passiert	-12619
▁afternoon	-12620
▁beeindruck	-12621
▁Holid	-12622
▁indicated	-12623
▁wollten	-12624
▁collaboration	-12625
AF	-12626
▁NGO	-12627
isses	-12628
▁staatlichen	-12629
oden	-12630
kohol	-12631
onien	-12632
hörigen	-12633
ätigkeiten	-12634
▁Framework	-12635
▁understood	-12636
▁Feuer	-12637
▁focused	-12638
arr	-12639
▁2010,	-12640
▁Semin	-12641
▁stars	-12642
▁bilateral	-12643
▁antw	-12644
▁corresponding	-12645
▁Förder	-12646
▁stored	-12647
würdigkeit	-12648
▁careful	-12649
▁Vorschlags	-12650
▁demonstrate	-12651
▁Author	-12652
▁showing	-12653
▁Besonders	-12654
ibar	-12655
▁signs	-12656
▁visited	-12657
▁Pact	-12658
▁demonstrated	-12659
UNG	-12660
▁AD	-12661
▁legt	-12662
▁mitge	-12663
▁Gerichte	-12664
ochter	-12665
▁Tarif	-12666
▁Access	-12667
▁Verbot	-12668
icer	-12669
▁cosy	-12670
▁Abhäng	-12671
▁gardens	-12672
▁geltenden	-12673
▁definiert	-12674
▁Franz	-12675
maschine	-12676
▁newsp	-12677
▁OR	-12678
▁Nos	-12679
agers	-12680
▁IV	-12681
▁planet	-12682
▁department	-12683
oub	-12684
▁Beiträge	-12685
▁geräum	-12686
▁Subsidiar	-12687
level	-12688
▁spoken	-12689
▁Wünsche	-12690
▁vollständige	-12691
▁drivers	-12692
▁Bemerkungen	-12693
▁Ltd	-12694
▁gezwungen	-12695
gor	-12696
▁ER	-12697
▁erleichtern	-12698
▁Zypern	-12699
▁sorgfältig	-12700
▁tatsäch	-12701
▁king	-12702
▁Brenn	-12703
life	-12704
▁depending	-12705
▁Kreuz	-12706
▁Baltic	-12707
▁Slovak	-12708
▁Wesent	-12709
▁mostly	-12710
▁verwand	-12711
ulf	-12712
▁hervorge	-12713
▁Copenhagen	-12714
werks	-12715
▁Hostel	-12716
▁trop	-12717
▁ferner	-12718
▁Kompetenz	-12719
mäßigen	-12720
21	-12721
▁awa	-12722
▁Gesetzes	-12723
ausschuß	-12724
▁ausgeführt	-12725
rical	-12726
▁wann	-12727
häuser	-12728
national	-12729
▁ven	-12730
aching	-12731
▁preis	-12732
▁stopp	-12733
▁Deswegen	-12734
▁accident	-12735
ées	-12736
ruh	-12737
Room	-12738
▁rub	-12739
▁fitness	-12740
▁westlichen	-12741
cons	-12742
▁begrüßt	-12743
▁cutting	-12744
▁input	-12745
▁Individ	-12746
▁hinzufügen	-12747
vertre	-12748
▁Werbung	-12749
▁Projekten	-12750
▁Mode	-12751
▁Kräfte	-12752
▁Sorgen	-12753
▁accompanied	-12754
NS	-12755
▁Aktual	-12756
▁commission	-12757
aux	-12758
▁fab	-12759
günst	-12760
▁Gemeinde	-12761
Spe	-12762
▁nine	-12763
▁höheren	-12764
tein	-12765
▁Games	-12766
▁worksh	-12767
▁Fleisch	-12768
pg	-12769
scheidet	-12770
ography	-12771
▁lebens	-12772
▁Vereinbarungen	-12773
etzte	-12774
weile	-12775
▁Orte	-12776
▁Asien	-12777
▁kostet	-12778
mäßige	-12779
▁ordnungs	-12780
▁categories	-12781
▁34	-12782
▁facility	-12783
oot	-12784
▁personnel	-12785
liers	-12786
▁Boot	-12787
▁finished	-12788
arische	-12789
▁verehrte	-12790
▁inflation	-12791
zent	-12792
undert	-12793
▁Friday	-12794
▁vorlegen	-12795
▁Verbindungen	-12796
▁Persön	-12797
▁Spazier	-12798
▁38	-12799
▁Ungarn	-12800
▁Maastricht	-12801
▁gespeichert	-12802
▁1970	-12803
▁theme	-12804
▁solange	-12805
▁echten	-12806
▁copyright	-12807
▁restruct	-12808
▁Situ	-12809
▁–,	-12810
▁distingu	-12811
▁jegliche	-12812
klass	-12813
▁privat	-12814
▁settlement	-12815
▁95	-12816
produkte	-12817
▁beschleun	-12818
▁chinesischen	-12819
ammeln	-12820
schluß	-12821
▁Schweizer	-12822
▁concluded	-12823
▁spectacular	-12824
▁sad	-12825
▁Adobe	-12826
▁Einwohner	-12827
▁spezifischen	-12828
▁Gesellschaften	-12829
▁didn	-12830
▁SMEs	-12831
ulin	-12832
▁Ferr	-12833
langen	-12834
▁ongoing	-12835
▁verringern	-12836
▁individuelle	-12837
▁Gipf	-12838
▁angemessene	-12839
estr	-12840
▁nahezu	-12841
▁controlled	-12842
▁effectiveness	-12843
▁lounge	-12844
▁Dass	-12845
▁prosper	-12846
▁Jede	-12847
Service	-12848
▁Konzer	-12849
▁erinnert	-12850
▁era	-12851
▁Road	-12852
▁Dynam	-12853
▁Freit	-12854
▁bemühen	-12855
▁explicit	-12856
▁Betr	-12857
geräte	-12858
holm	-12859
pping	-12860
▁sah	-12861
immungs	-12862
▁Balkon	-12863
36	-12864
▁Mem	-12865
▁committees	-12866
pet	-12867
ounter	-12868
▁dream	-12869
▁fertig	-12870
▁Israeli	-12871
▁Ext	-12872
▁breit	-12873
▁Child	-12874
▁termin	-12875
▁Außenpolitik	-12876
▁Format	-12877
igu	-12878
ifest	-12879
▁tar	-12880
▁bilater	-12881
fit	-12882
ôtel	-12883
▁Dev	-12884
▁Wei	-12885
teilungen	-12886
100	-12887
rak	-12888
iforn	-12889
▁flag	-12890
▁plenty	-12891
▁heating	-12892
▁heutige	-12893
▁printing	-12894
▁nachzu	-12895
▁smooth	-12896
▁Führungs	-12897
▁replaced	-12898
▁Webseiten	-12899
%,	-12900
▁raw	-12901
ughter	-12902
mens	-12903
▁Naz	-12904
▁Canon	-12905
▁Videos	-12906
▁carbon	-12907
▁resistance	-12908
▁Kamera	-12909
▁Interess	-12910
▁documentation	-12911
bsp	-12912
ulpt	-12913
▁1992	-12914
ulen	-12915
arters	-12916
▁Verpack	-12917
schriften	-12918
▁Mobilität	-12919
▁UR	-12920
▁Symbol	-12921
▁Question	-12922
▁palästinens	-12923
▁Equ	-12924
▁Genau	-12925
▁Putin	-12926
usehen	-12927
▁citizen	-12928
ás	-12929
▁autonom	-12930
▁übrigens	-12931
▁Amendments	-12932
ameters	-12933
▁nights	-12934
▁Perhaps	-12935
▁Identität	-12936
▁6,	-12937
cepts	-12938
▁Bars	-12939
iences	-12940
▁bestehende	-12941
▁Vict	-12942
▁films	-12943
▁minorities	-12944
▁Luc	-12945
hone	-12946
▁confer	-12947
▁occasions	-12948
▁Palästinens	-12949
▁educational	-12950
▁Liter	-12951
▁überras	-12952
▁foundation	-12953
IDS	-12954
▁rational	-12955
pap	-12956
ни	-12957
▁firms	-12958
fragt	-12959
▁awarded	-12960
▁trafficking	-12961
UL	-12962
▁James	-12963
Strategie	-12964
▁Vorgehen	-12965
▁Milch	-12966
nitten	-12967
▁behaviour	-12968
▁Investitions	-12969
hips	-12970
techn	-12971
▁View	-12972
▁definitely	-12973
▁Moz	-12974
ifizieren	-12975
}})	-12976
wege	-12977
▁Anmer	-12978
▁frame	-12979
herr	-12980
ignet	-12981
athol	-12982
▁Mikro	-12983
chnung	-12984
bildungs	-12985
▁tickets	-12986
▁Ten	-12987
sieht	-12988
▁crimes	-12989
aya	-12990
▁corruption	-12991
▁Gespräche	-12992
OP	-12993
klusive	-12994
▁streng	-12995
▁constitution	-12996
▁passenger	-12997
▁immigrants	-12998
schaffung	-12999
▁Niger	-13000
▁verdient	-13001
▁Kommunikations	-13002
▁WC	-13003
▁tackle	-13004
beziehungen	-13005
Star	-13006
bach	-13007
urlaub	-13008
▁letztlich	-13009
kter	-13010
teils	-13011
▁Michel	-13012
▁eingere	-13013
▁speaker	-13014
▁usual	-13015
gerufen	-13016
▁Legisl	-13017
▁assume	-13018
▁Gepäck	-13019
▁Vietnam	-13020
▁rapidly	-13021
▁behalten	-13022
▁recorded	-13023
▁180	-13024
▁verbind	-13025
▁grundsätzlich	-13026
iefer	-13027
▁Bord	-13028
▁Reis	-13029
▁Shop	-13030
▁Zert	-13031
▁assets	-13032
usse	-13033
▁berechtigt	-13034
▁Page	-13035
bekämpfung	-13036
▁Anschluss	-13037
▁Chancen	-13038
▁cycle	-13039
ups	-13040
erin	-13041
▁fem	-13042
▁overcome	-13043
▁gegebenen	-13044
▁neun	-13045
demark	-13046
▁prest	-13047
▁Sollten	-13048
▁competent	-13049
▁plen	-13050
hängen	-13051
▁adopting	-13052
▁arm	-13053
▁Dipl	-13054
▁woman	-13055
▁Ib	-13056
▁BIP	-13057
▁Zwecke	-13058
▁oblige	-13059
▁Rezeption	-13060
▁respected	-13061
▁Untersuchungen	-13062
mung	-13063
emble	-13064
▁compatible	-13065
▁gewährt	-13066
▁imposed	-13067
▁Alexander	-13068
▁verurteilt	-13069
liegt	-13070
▁Verbreitung	-13071
▁configuration	-13072
▁MB	-13073
▁seas	-13074
▁Beam	-13075
▁mittler	-13076
▁Description	-13077
▁thr	-13078
▁Provinz	-13079
▁desired	-13080
llo	-13081
▁Gefahren	-13082
▁Zielen	-13083
▁discre	-13084
kommunik	-13085
▁Besorgnis	-13086
▁65	-13087
▁centuries	-13088
▁flu	-13089
▁forg	-13090
▁uncertain	-13091
▁verbinden	-13092
▁Insbesondere	-13093
▁einfacher	-13094
Ad	-13095
▁Malta	-13096
▁Marktes	-13097
▁rechtlichen	-13098
Art	-13099
▁2006,	-13100
▁jenen	-13101
▁scheme	-13102
▁Dal	-13103
▁virtual	-13104
rates	-13105
▁routes	-13106
▁nunmehr	-13107
▁Politiken	-13108
▁containing	-13109
▁einheitlichen	-13110
Vert	-13111
▁ped	-13112
▁proven	-13113
▁replace	-13114
▁beschäftigen	-13115
▁organisieren	-13116
▁vorzu	-13117
ultural	-13118
▁profile	-13119
▁manufacturer	-13120
▁traditionelle	-13121
Wir	-13122
▁transactions	-13123
.-	-13124
chst	-13125
vertrag	-13126
hrten	-13127
▁Wart	-13128
▁facts	-13129
▁Respekt	-13130
itra	-13131
▁Given	-13132
▁Medik	-13133
▁Schrift	-13134
▁ersetzt	-13135
▁McC	-13136
▁sugar	-13137
▁Project	-13138
▁sending	-13139
▁Northern	-13140
ammt	-13141
▁Alles	-13142
technolog	-13143
▁appointed	-13144
▁Sollte	-13145
▁gespielt	-13146
▁destruction	-13147
▁beliebt	-13148
▁Argument	-13149
▁Hen	-13150
▁Energien	-13151
agg	-13152
eing	-13153
Lin	-13154
▁arrived	-13155
▁enjoyed	-13156
▁subsidiarity	-13157
▁55	-13158
▁Anre	-13159
betrieb	-13160
▁judicial	-13161
▁Vize	-13162
▁ice	-13163
▁Opposition	-13164
▁Preisen	-13165
üne	-13166
▁correctly	-13167
▁Serie	-13168
▁israel	-13169
▁letzter	-13170
▁weekend	-13171
ockt	-13172
▁possibly	-13173
▁milk	-13174
Intern	-13175
▁maritime	-13176
NA	-13177
freien	-13178
▁Water	-13179
▁popul	-13180
▁credibility	-13181
▁functioning	-13182
▁sud	-13183
▁ruhig	-13184
▁Indian	-13185
▁stronger	-13186
▁Browser	-13187
rep	-13188
▁Zür	-13189
▁transatlant	-13190
▁Plug	-13191
▁vorstellen	-13192
ardo	-13193
▁sen	-13194
▁forum	-13195
▁Belgium	-13196
▁Hungary	-13197
▁gallery	-13198
▁vorhandenen	-13199
▁beruht	-13200
örter	-13201
▁Begr	-13202
▁partly	-13203
▁conditioning	-13204
▁erfolgreiche	-13205
zneimit	-13206
▁professionals	-13207
▁rul	-13208
▁Kapitel	-13209
▁minister	-13210
▁Komponenten	-13211
▁installieren	-13212
▁shares	-13213
▁Verlust	-13214
dro	-13215
▁Salzburg	-13216
▁entscheidende	-13217
iese	-13218
▁Mrd	-13219
▁labe	-13220
▁Chair	-13221
lications	-13222
▁gestaltet	-13223
▁luxurious	-13224
▁fuer	-13225
▁Versand	-13226
oche	-13227
▁Vorstellung	-13228
▁IB	-13229
▁theoret	-13230
▁Bedien	-13231
▁courts	-13232
▁channel	-13233
▁declared	-13234
▁coal	-13235
stellungs	-13236
▁emerging	-13237
▁satisfied	-13238
Mod	-13239
▁Gaza	-13240
▁Kirk	-13241
▁bekräft	-13242
zneimittel	-13243
▁Werke	-13244
jan	-13245
Con	-13246
▁individuellen	-13247
▁Ku	-13248
dauer	-13249
ulich	-13250
▁Following	-13251
▁alcohol	-13252
town	-13253
▁lots	-13254
▁discip	-13255
▁außerordentlich	-13256
while	-13257
▁manager	-13258
▁Terra	-13259
viertel	-13260
▁Detail	-13261
▁dürfte	-13262
▁Automat	-13263
▁unverzüglich	-13264
▁Ker	-13265
ju	-13266
ained	-13267
▁Within	-13268
▁licens	-13269
▁Educ	-13270
▁stehenden	-13271
▁Structural	-13272
▁globalisation	-13273
wertet	-13274
▁erläut	-13275
▁horizont	-13276
▁Ill	-13277
useums	-13278
yside	-13279
▁certific	-13280
etheless	-13281
▁Werkzeug	-13282
39	-13283
▁Var	-13284
▁flood	-13285
▁Abkommens	-13286
▁Az	-13287
▁diagn	-13288
▁Fernseh	-13289
▁consent	-13290
▁Autobahn	-13291
uben	-13292
▁Bang	-13293
▁adults	-13294
DER	-13295
▁dign	-13296
gelöst	-13297
▁Städten	-13298
▁Rechtsstaat	-13299
ede	-13300
ativer	-13301
▁sit	-13302
▁Vern	-13303
▁inj	-13304
ivalent	-13305
▁Freunden	-13306
▁taxation	-13307
▁magnificent	-13308
▁Puerto	-13309
▁verwirk	-13310
Form	-13311
präch	-13312
▁Single	-13313
imp	-13314
▁Rechnungshof	-13315
▁constitutional	-13316
▁Pot	-13317
▁Ausmaß	-13318
▁Int	-13319
▁Tsch	-13320
▁jener	-13321
lehnung	-13322
▁rental	-13323
▁distributed	-13324
gess	-13325
▁Defiz	-13326
▁miles	-13327
▁Donner	-13328
▁aussprechen	-13329
▁EZ	-13330
▁reduzieren	-13331
▁died	-13332
▁Urheber	-13333
▁britische	-13334
waffen	-13335
▁attract	-13336
▁klaren	-13337
eta	-13338
▁Yes	-13339
▁Staff	-13340
▁fehlt	-13341
▁Bemerkung	-13342
▁Betrag	-13343
▁Kaffee	-13344
▁rechtzeit	-13345
▁suppliers	-13346
▁Erzeugnisse	-13347
WF	-13348
▁Fa	-13349
ernel	-13350
▁unfair	-13351
▁addresses	-13352
▁verstärken	-13353
▁Thurs	-13354
ündete	-13355
Des	-13356
▁exit	-13357
▁Kriegs	-13358
▁slightly	-13359
▁considering	-13360
▁encouraging	-13361
▁Kais	-13362
▁Spaß	-13363
ographic	-13364
▁Sektoren	-13365
unications	-13366
ziele	-13367
▁Oder	-13368
marquis	-13369
▁ursprünglich	-13370
▁Konsult	-13371
IX	-13372
anke	-13373
▁brut	-13374
▁Email	-13375
▁division	-13376
comp	-13377
orie	-13378
▁Verlauf	-13379
▁22.	-13380
▁kamen	-13381
▁hundred	-13382
▁angewand	-13383
▁angegebenen	-13384
▁USS	-13385
▁Who	-13386
▁Neue	-13387
gested	-13388
▁eastern	-13389
▁identified	-13390
uchs	-13391
▁schlägt	-13392
▁Wohlstand	-13393
iki	-13394
▁Sozialdem	-13395
athem	-13396
▁Optionen	-13397
▁bestimmter	-13398
▁Mitarbeitern	-13399
34	-13400
▁{	-13401
cho	-13402
▁surf	-13403
▁proposes	-13404
▁preparing	-13405
ührt	-13406
▁Pub	-13407
▁suspend	-13408
General	-13409
▁Gericht	-13410
behandlung	-13411
▁wiederholen	-13412
zut	-13413
▁700	-13414
▁vari	-13415
dienste	-13416
▁2000,	-13417
▁poten	-13418
▁Clear	-13419
▁luxuri	-13420
nex	-13421
▁Li	-13422
▁Bere	-13423
▁Blue	-13424
▁plays	-13425
▁Soviet	-13426
▁Betracht	-13427
▁BMW	-13428
▁Women	-13429
▁formed	-13430
▁großzüg	-13431
acks	-13432
▁Auge	-13433
▁Balkans	-13434
▁verbesser	-13435
▁Bereitstellung	-13436
mir	-13437
▁inclusion	-13438
▁verkaufen	-13439
▁Kopenhagen	-13440
▁eingereicht	-13441
▁extraordinary	-13442
▁Genehmigung	-13443
▁plenary	-13444
▁substance	-13445
▁betreffend	-13446
durch	-13447
regeln	-13448
▁AM	-13449
wirkt	-13450
▁Sche	-13451
▁Hamas	-13452
▁Works	-13453
▁Männern	-13454
▁providers	-13455
prene	-13456
uster	-13457
▁Reduz	-13458
▁Desk	-13459
▁deposit	-13460
▁Stimmen	-13461
▁Tochter	-13462
▁army	-13463
zentren	-13464
bleme	-13465
▁Event	-13466
▁bright	-13467
▁resolved	-13468
▁Kontrollen	-13469
anw	-13470
▁semin	-13471
160	-13472
▁FA	-13473
▁mac	-13474
▁2006.	-13475
▁Satz	-13476
▁GB	-13477
wählen	-13478
zonen	-13479
informationen	-13480
▁Roll	-13481
▁Apple	-13482
▁suit	-13483
ueller	-13484
▁russischen	-13485
idet	-13486
▁Exchange	-13487
erts	-13488
▁appeared	-13489
▁äußern	-13490
▁erhielt	-13491
Cl	-13492
▁Programmen	-13493
otic	-13494
▁Charta	-13495
▁Sunday	-13496
Med	-13497
▁Vene	-13498
▁amen	-13499
▁ensures	-13500
OC	-13501
▁Gegenstand	-13502
raf	-13503
kehrt	-13504
werken	-13505
▁Treat	-13506
▁Assembly	-13507
▁SAP	-13508
For	-13509
▁VAT	-13510
▁Parkplatz	-13511
▁Satur	-13512
▁Konstru	-13513
▁sensible	-13514
▁erfolgreichen	-13515
▁arab	-13516
▁thousand	-13517
▁AKP	-13518
▁honest	-13519
▁vorbereitet	-13520
▁Thirdly	-13521
▁empfangen	-13522
▁stil	-13523
▁Client	-13524
ziellen	-13525
▁duties	-13526
▁vieles	-13527
▁everyday	-13528
▁vermitteln	-13529
ра	-13530
▁Vel	-13531
▁sor	-13532
ancing	-13533
▁domain	-13534
gänger	-13535
▁erhebliche	-13536
CP	-13537
▁nahm	-13538
▁Philosoph	-13539
▁1993	-13540
▁Laut	-13541
strafe	-13542
▁Schulen	-13543
programme	-13544
▁artistic	-13545
▁Fundamental	-13546
ianz	-13547
schefs	-13548
▁enhance	-13549
▁actively	-13550
▁Bug	-13551
▁nutz	-13552
▁roads	-13553
▁functional	-13554
ademy	-13555
▁beigetragen	-13556
icing	-13557
iegelt	-13558
▁Mobile	-13559
▁Wetter	-13560
▁concepts	-13561
▁Lieferung	-13562
amo	-13563
▁Rule	-13564
▁eventually	-13565
▁Wohnung	-13566
rown	-13567
site	-13568
▁HTML	-13569
▁Valley	-13570
▁Charles	-13571
▁Sudan	-13572
▁EL	-13573
▁Sar	-13574
▁Leon	-13575
▁Rechtsgrundlage	-13576
▁7,	-13577
ökonom	-13578
bereiten	-13579
istent	-13580
▁partial	-13581
▁component	-13582
gener	-13583
▁musical	-13584
▁Investment	-13585
▁solely	-13586
▁zurückzu	-13587
inks	-13588
ville	-13589
▁assure	-13590
▁elsewhere	-13591
udi	-13592
▁Among	-13593
▁index	-13594
▁Zusätzlich	-13595
68	-13596
▁Beweg	-13597
▁Without	-13598
▁subjects	-13599
rock	-13600
▁theory	-13601
▁western	-13602
stes	-13603
▁31.	-13604
▁tea	-13605
▁Kongress	-13606
▁decisive	-13607
idad	-13608
▁Traum	-13609
▁auseinander	-13610
▁absence	-13611
itim	-13612
ingly	-13613
▁toba	-13614
▁euros	-13615
▁proposing	-13616
▁eingehalten	-13617
IK	-13618
ented	-13619
▁großem	-13620
65	-13621
’.	-13622
▁Chinas	-13623
▁fourth	-13624
obel	-13625
▁spoke	-13626
▁beteiligen	-13627
ín	-13628
▁jung	-13629
▁deter	-13630
▁Schluß	-13631
▁Krankheit	-13632
▁updates	-13633
ui	-13634
▁deleg	-13635
▁с	-13636
asion	-13637
▁authentic	-13638
▁Belast	-13639
▁drinks	-13640
lings	-13641
steigen	-13642
▁boost	-13643
▁Erstellung	-13644
▁intelligent	-13645
▁Ram	-13646
▁vary	-13647
▁nevertheless	-13648
dorf	-13649
▁della	-13650
▁deficit	-13651
▁strategischen	-13652
▁applying	-13653
▁carrying	-13654
▁supplies	-13655
▁anwesend	-13656
▁elektronischen	-13657
▁Kab	-13658
▁Dolom	-13659
▁Bedrohung	-13660
▁vulnerable	-13661
ROM	-13662
▁Mov	-13663
räumen	-13664
▁Mur	-13665
▁afr	-13666
▁wunderschönen	-13667
edy	-13668
ässig	-13669
uggage	-13670
▁compos	-13671
▁countryside	-13672
menade	-13673
▁Alpen	-13674
▁verantwortungs	-13675
ommerce	-13676
▁abziel	-13677
▁Francis	-13678
athedral	-13679
▁langsam	-13680
▁lokale	-13681
▁Newsletter	-13682
economic	-13683
▁Nachricht	-13684
▁amerikanische	-13685
▁Rena	-13686
▁stren	-13687
▁legitimate	-13688
▁Plane	-13689
▁ships	-13690
▁gekenn	-13691
aue	-13692
▁emotion	-13693
▁entscheidender	-13694
▁interpretation	-13695
▁catch	-13696
lösungen	-13697
▁verboten	-13698
Unter	-13699
ausschau	-13700
▁Zusch	-13701
▁stolz	-13702
▁bislang	-13703
▁beobachten	-13704
▁university	-13705
▁decre	-13706
▁wechsel	-13707
▁Mini	-13708
▁bedauer	-13709
▁connect	-13710
▁Sicherung	-13711
▁wrote	-13712
▁genannte	-13713
▁Schle	-13714
▁Staates	-13715
▁lessons	-13716
▁einzigartigen	-13717
▁Professor	-13718
▁Gewährleistung	-13719
endo	-13720
▁ing	-13721
▁excessive	-13722
▁ausgerichtet	-13723
▁handle	-13724
▁Thursday	-13725
▁suggestions	-13726
ieden	-13727
glichkeit	-13728
gehens	-13729
▁toile	-13730
▁Content	-13731
▁unvergess	-13732
endar	-13733
▁susp	-13734
▁warn	-13735
▁Übersetz	-13736
▁komme	-13737
▁vorrang	-13738
▁shipping	-13739
▁Lok	-13740
▁villages	-13741
▁generated	-13742
:5	-13743
▁description	-13744
▁roll	-13745
▁Empfang	-13746
▁packaging	-13747
▁integriert	-13748
▁Sav	-13749
▁Glaubwürdigkeit	-13750
▁Äg	-13751
parte	-13752
▁Sohn	-13753
▁anbel	-13754
gebiete	-13755
▁Objekt	-13756
▁impose	-13757
▁tobacco	-13758
▁aktivieren	-13759
▁gearbeitet	-13760
läuft	-13761
▁Amt	-13762
deckt	-13763
igert	-13764
▁Castle	-13765
bereichen	-13766
▁abuse	-13767
▁defect	-13768
urteilung	-13769
▁voluntary	-13770
▁Fußball	-13771
▁erzeugt	-13772
COM	-13773
estra	-13774
▁Zuge	-13775
▁kleines	-13776
▁acknowledge	-13777
▁Konsequenzen	-13778
▁greatly	-13779
▁Bulgarien	-13780
▁hyp	-13781
cision	-13782
▁solches	-13783
Im	-13784
mpt	-13785
▁Cho	-13786
▁preced	-13787
▁unforget	-13788
dh	-13789
▁Gi	-13790
▁philosophy	-13791
▁französische	-13792
▁Job	-13793
äusern	-13794
▁shock	-13795
▁topics	-13796
▁unw	-13797
leiter	-13798
▁director	-13799
▁10%	-13800
▁liefert	-13801
▁anbelangt	-13802
▁Pen	-13803
▁Pil	-13804
▁Ansichten	-13805
▁2005,	-13806
▁Besides	-13807
▁Stutt	-13808
▁uniform	-13809
▁verbindet	-13810
▁Überlegungen	-13811
▁Holiday	-13812
▁bereitgestellt	-13813
vi	-13814
▁Geträn	-13815
▁finish	-13816
▁gained	-13817
▁Konkurr	-13818
▁verkauft	-13819
▁liked	-13820
▁exports	-13821
▁schicken	-13822
He	-13823
▁Beschlüsse	-13824
▁lit	-13825
▁Budgets	-13826
▁lists	-13827
hältnisse	-13828
▁zuständig	-13829
▁Agriculture	-13830
tech	-13831
▁inklusive	-13832
▁Prom	-13833
ultane	-13834
▁ökonom	-13835
▁übersch	-13836
▁Darum	-13837
▁sozialer	-13838
▁·	-13839
▁PS	-13840
▁20%	-13841
▁Gang	-13842
asbourg	-13843
▁Gerät	-13844
▁verwe	-13845
▁Pos	-13846
▁Thail	-13847
▁Golden	-13848
▁Kroatien	-13849
▁Sterne	-13850
▁Geschwindigkeit	-13851
▁desk	-13852
▁ACP	-13853
▁Host	-13854
▁Made	-13855
▁narrow	-13856
▁konfront	-13857
▁Nam	-13858
▁weist	-13859
▁Travel	-13860
▁Edit	-13861
▁Anlass	-13862
▁leichter	-13863
▁Verletzung	-13864
oles	-13865
▁Freitag	-13866
▁Eigentum	-13867
iets	-13868
ipfel	-13869
▁song	-13870
▁periods	-13871
▁regarded	-13872
▁beantworten	-13873
utation	-13874
▁stammen	-13875
▁receiving	-13876
▁Übergangs	-13877
▁satisfaction	-13878
prozess	-13879
▁wiederholt	-13880
ktors	-13881
▁teams	-13882
▁pursue	-13883
werben	-13884
▁departure	-13885
▁Riv	-13886
▁Look	-13887
▁mittleren	-13888
▁Image	-13889
▁Monday	-13890
▁insist	-13891
▁personen	-13892
▁difficulty	-13893
▁Orient	-13894
▁housing	-13895
▁Hungarian	-13896
▁comparison	-13897
xy	-13898
▁erz	-13899
▁offiziellen	-13900
▁Kabel	-13901
▁Schon	-13902
alerie	-13903
▁geziel	-13904
▁voranz	-13905
▁Nachhalt	-13906
▁supplier	-13907
▁Pfer	-13908
chester	-13909
▁suggested	-13910
▁verteidigen	-13911
USS	-13912
folgung	-13913
▁Kollegin	-13914
▁Erfüllung	-13915
▁30.	-13916
▁Lobby	-13917
orse	-13918
▁Rab	-13919
▁invited	-13920
▁Vide	-13921
▁Güter	-13922
▁Anstieg	-13923
▁delicious	-13924
▁EM	-13925
seite	-13926
oration	-13927
▁specified	-13928
▁genügend	-13929
▁letztendlich	-13930
▁grav	-13931
liehen	-13932
▁banking	-13933
ärkt	-13934
▁Addition	-13935
▁attempts	-13936
▁Having	-13937
▁reservations	-13938
▁Common	-13939
▁Guests	-13940
▁Islands	-13941
▁panoram	-13942
▁weitgehend	-13943
▁Next	-13944
▁Treib	-13945
ordnungen	-13946
▁Schönheit	-13947
▁Sind	-13948
▁trademark	-13949
figuration	-13950
▁Cup	-13951
▁doors	-13952
▁relie	-13953
▁lift	-13954
▁Positionen	-13955
sie	-13956
▁sounds	-13957
▁Übrigen	-13958
▁forests	-13959
▁Flugzeug	-13960
orer	-13961
▁Frie	-13962
iensten	-13963
▁Augenblick	-13964
hört	-13965
▁Hardware	-13966
▁inmitten	-13967
▁(5	-13968
▁Bege	-13969
wahlen	-13970
▁Verzö	-13971
▁murder	-13972
▁Mission	-13973
▁Quellen	-13974
oul	-13975
▁Festpl	-13976
▁Schüler	-13977
weilen	-13978
▁Space	-13979
▁Tip	-13980
▁machte	-13981
▁colours	-13982
▁Potenzial	-13983
lager	-13984
▁root	-13985
äßt	-13986
achts	-13987
Software	-13988
LAF	-13989
andt	-13990
aders	-13991
▁savings	-13992
▁überprüft	-13993
▁herrscht	-13994
▁Verarbeitung	-13995
CE	-13996
▁mussten	-13997
üst	-13998
▁fan	-13999
ruppe	-14000
▁roof	-14001
rechter	-14002
spartei	-14003
▁hinweg	-14004
▁warrant	-14005
▁standing	-14006
etic	-14007
lined	-14008
▁Jung	-14009
afrika	-14010
▁scene	-14011
ixel	-14012
▁disabled	-14013
sa	-14014
▁module	-14015
▁wohnen	-14016
▁representation	-14017
effizienz	-14018
zung	-14019
▁Wäl	-14020
▁acting	-14021
geschichte	-14022
▁hart	-14023
▁shap	-14024
▁Entlastung	-14025
▁infr	-14026
▁Mountain	-14027
▁revision	-14028
EX	-14029
▁edge	-14030
ami	-14031
ila	-14032
riebe	-14033
▁nörd	-14034
▁erlebt	-14035
▁examine	-14036
▁Still	-14037
agements	-14038
▁enabling	-14039
aga	-14040
nummer	-14041
▁Beschwer	-14042
▁permitted	-14043
▁ou	-14044
derung	-14045
▁Hat	-14046
▁scre	-14047
usstsein	-14048
▁Einstellungen	-14049
▁Verg	-14050
▁bridge	-14051
▁Strasbourg	-14052
▁destroyed	-14053
▁tast	-14054
▁deutsch	-14055
▁Kulturen	-14056
▁entwickelte	-14057
▁Cub	-14058
▁gehe	-14059
▁Leiden	-14060
▁Sonntag	-14061
▁complement	-14062
▁vorzulegen	-14063
▁Stoffe	-14064
ierender	-14065
▁Meister	-14066
▁arguments	-14067
▁Grünen	-14068
▁ausgeb	-14069
▁Gerechtigkeit	-14070
tty	-14071
laut	-14072
▁reaction	-14073
lication	-14074
▁Ankunft	-14075
Rooms	-14076
▁burn	-14077
▁iPhone	-14078
▁breiten	-14079
▁resource	-14080
▁glück	-14081
▁info	-14082
▁ports	-14083
▁passion	-14084
anning	-14085
niveau	-14086
▁allzu	-14087
▁constitute	-14088
▁Reduzierung	-14089
▁Mitgliedschaft	-14090
iza	-14091
▁Attra	-14092
▁Entfern	-14093
Qu	-14094
▁batter	-14095
▁Wissens	-14096
enth	-14097
▁Tennis	-14098
▁realistic	-14099
gart	-14100
wiegend	-14101
▁Mittag	-14102
▁erstmals	-14103
▁Alger	-14104
▁Eingang	-14105
▁einzigart	-14106
cas	-14107
itale	-14108
▁sought	-14109
▁Übernachtung	-14110
ipher	-14111
▁Aben	-14112
▁paint	-14113
▁Donnerstag	-14114
ounted	-14115
zenten	-14116
▁Luxus	-14117
▁refers	-14118
▁Consult	-14119
▁welcoming	-14120
▁Federation	-14121
▁Korruption	-14122
▁investieren	-14123
rim	-14124
rog	-14125
▁horse	-14126
▁patient	-14127
▁Vorhaben	-14128
▁Herbst	-14129
BC	-14130
grammen	-14131
ränkung	-14132
sbuffet	-14133
Ben	-14134
▁Atlantic	-14135
▁religion	-14136
eten	-14137
knüp	-14138
▁Metro	-14139
▁Unternehmer	-14140
▁tend	-14141
▁Pfe	-14142
scale	-14143
▁bekommt	-14144
▁reduziert	-14145
▁Arzneimittel	-14146
▁aktive	-14147
▁stellte	-14148
▁ähnlich	-14149
▁cooperate	-14150
▁Ägyp	-14151
▁rising	-14152
▁MA	-14153
▁ju	-14154
▁kilomet	-14155
▁obliged	-14156
▁betreiben	-14157
▁bla	-14158
orgungs	-14159
▁Gerade	-14160
▁farming	-14161
weisungen	-14162
▁freedoms	-14163
▁confirmation	-14164
▁Wal	-14165
recher	-14166
▁Wählen	-14167
▁twenty	-14168
▁festival	-14169
werts	-14170
▁Bett	-14171
▁manual	-14172
▁gelingt	-14173
▁Praktiken	-14174
ESCO	-14175
▁tritt	-14176
▁Situated	-14177
run	-14178
▁Kontakte	-14179
onic	-14180
▁Einkommen	-14181
lers	-14182
▁Game	-14183
▁japan	-14184
▁kreat	-14185
ügigkeit	-14186
▁Quality	-14187
▁Gehminuten	-14188
▁Klaus	-14189
▁significance	-14190
▁cul	-14191
Applause	-14192
▁pas	-14193
zepte	-14194
▁tennis	-14195
▁federal	-14196
48	-14197
▁prosperity	-14198
▁unforgettable	-14199
▁unterscheiden	-14200
47	-14201
anne	-14202
▁poly	-14203
▁Hom	-14204
▁diesel	-14205
▁leaves	-14206
jpg	-14207
kultur	-14208
▁erwähnen	-14209
night	-14210
ranche	-14211
▁schwe	-14212
▁upper	-14213
▁killed	-14214
▁zukünftigen	-14215
Pres	-14216
ESS	-14217
übt	-14218
1-	-14219
van	-14220
▁Textil	-14221
▁publication	-14222
rein	-14223
▁Tourism	-14224
▁hierbei	-14225
▁Nein	-14226
▁instructions	-14227
▁hill	-14228
▁municip	-14229
▁führende	-14230
▁overview	-14231
zusammen	-14232
▁Schiffe	-14233
▁angepasst	-14234
▁AND	-14235
zesse	-14236
opolit	-14237
▁filter	-14238
▁paying	-14239
▁empfohlen	-14240
▁wireless	-14241
▁societies	-14242
▁einzusetzen	-14243
▁politically	-14244
ulse	-14245
mbuds	-14246
▁Poly	-14247
ieller	-14248
▁optimale	-14249
▁Katastrophe	-14250
▁Rio	-14251
▁25.	-14252
ricted	-14253
▁elector	-14254
▁PSE	-14255
▁Family	-14256
▁Gottes	-14257
▁Klasse	-14258
▁versichern	-14259
37	-14260
▁gründ	-14261
▁imports	-14262
▁welcomed	-14263
▁characters	-14264
▁Based	-14265
▁Saison	-14266
▁ersetzen	-14267
▁football	-14268
▁renowned	-14269
▁gefallen	-14270
cu	-14271
▁Sn	-14272
▁missing	-14273
▁directory	-14274
▁freundlich	-14275
▁Lounge	-14276
▁Finland	-14277
▁Vizepräsident	-14278
▁Gleichstellung	-14279
hlung	-14280
▁tranqu	-14281
▁gestattet	-14282
▁indirect	-14283
▁Stockholm	-14284
▁illegalen	-14285
▁einbezogen	-14286
har	-14287
▁Trotzdem	-14288
made	-14289
advant	-14290
▁harmonisation	-14291
▁Domin	-14292
▁radical	-14293
ianischen	-14294
▁vorgesehenen	-14295
poration	-14296
ski	-14297
▁Full	-14298
▁config	-14299
▁excurs	-14300
▁appearance	-14301
▁Schwimm	-14302
Is	-14303
▁trips	-14304
▁breach	-14305
▁cleaning	-14306
▁deswegen	-14307
ords	-14308
tung	-14309
▁ende	-14310
▁könnt	-14311
▁Prozesse	-14312
instrument	-14313
▁dependent	-14314
▁Tätigkeiten	-14315
▁unterstreichen	-14316
▁mi	-14317
utet	-14318
Über	-14319
▁legally	-14320
▁justified	-14321
▁durchschnitt	-14322
▁homes	-14323
▁obser	-14324
▁skiing	-14325
friendly	-14326
▁blind	-14327
▁neighb	-14328
▁getragen	-14329
▁verfügbaren	-14330
▁Plus	-14331
▁movie	-14332
emit	-14333
▁unn	-14334
ichtung	-14335
▁attrib	-14336
▁behaupten	-14337
rome	-14338
Beifall	-14339
▁Latein	-14340
auspiel	-14341
▁Tw	-14342
▁beendet	-14343
▁Ly	-14344
oubtedly	-14345
▁suffered	-14346
▁continuous	-14347
▁none	-14348
Server	-14349
auschen	-14350
ötz	-14351
▁umfassend	-14352
▁bedeutende	-14353
pfung	-14354
▁Secretary	-14355
▁remained	-14356
▁Brasilien	-14357
▁LateRooms	-14358
▁proceedings	-14359
▁anschließend	-14360
▁kontaktieren	-14361
▁Marke	-14362
▁begeg	-14363
▁Alltag	-14364
▁retail	-14365
▁ergänzen	-14366
▁relative	-14367
▁negotiating	-14368
stal	-14369
Datei	-14370
▁lunch	-14371
ulous	-14372
uverän	-14373
▁Auditors	-14374
ко	-14375
▁fans	-14376
▁Porto	-14377
▁manche	-14378
▁Veränderung	-14379
ureich	-14380
▁Präsent	-14381
▁surve	-14382
unge	-14383
cul	-14384
sprachen	-14385
▁Existenz	-14386
▁mitteilen	-14387
▁hilf	-14388
▁vollen	-14389
▁Sachen	-14390
▁Umsatz	-14391
▁konkret	-14392
▁specialist	-14393
gner	-14394
▁Fahrt	-14395
▁Situationen	-14396
▁entreprene	-14397
▁beeinträcht	-14398
▁looked	-14399
▁supervision	-14400
ро	-14401
öffnung	-14402
▁Ebenen	-14403
▁videos	-14404
▁referendum	-14405
▁hast	-14406
▁künftige	-14407
▁ansprechen	-14408
▁konzentriert	-14409
▁preventing	-14410
open	-14411
▁contributed	-14412
ni	-14413
annter	-14414
▁Eurozone	-14415
▁directed	-14416
▁Playa	-14417
▁spezifische	-14418
äne	-14419
▁Ergän	-14420
ätzt	-14421
▁Catal	-14422
▁surely	-14423
▁Vorgehens	-14424
▁konfrontiert	-14425
▁Por	-14426
▁carr	-14427
▁Zürich	-14428
drich	-14429
▁allocated	-14430
/2000	-14431
cribe	-14432
▁everybody	-14433
▁Place	-14434
▁Erlebnis	-14435
▁Weiteren	-14436
▁Plattform	-14437
iale	-14438
▁Millenn	-14439
weich	-14440
▁complicated	-14441
▁Belgien	-14442
▁größeres	-14443
▁langfristige	-14444
▁Freizügigkeit	-14445
▁verteilt	-14446
▁Wed	-14447
▁disadvant	-14448
iziente	-14449
ammelt	-14450
▁experim	-14451
▁geraten	-14452
▁Ausflüge	-14453
mot	-14454
illed	-14455
▁clubs	-14456
cession	-14457
▁Dres	-14458
fernen	-14459
▁herum	-14460
▁Venice	-14461
▁welcomes	-14462
baus	-14463
drückt	-14464
▁sharing	-14465
▁hervorgehoben	-14466
▁==	-14467
▁beings	-14468
▁hardly	-14469
rifft	-14470
▁manip	-14471
▁teile	-14472
▁Fahrzeuge	-14473
▁Socialist	-14474
▁Emb	-14475
▁offene	-14476
▁forthcoming	-14477
▁Funktions	-14478
▁Fein	-14479
grenze	-14480
▁tables	-14481
▁abstimmen	-14482
▁amenities	-14483
▁Widerstand	-14484
▁bisherigen	-14485
▁hospitality	-14486
#160	-14487
#160;	-14488
▁Joseph	-14489
▁asp	-14490
▁Ablehnung	-14491
▁Widerspruch	-14492
▁enabled	-14493
▁Rückkehr	-14494
burgh	-14495
▁Depart	-14496
▁Genießen	-14497
▁parameters	-14498
isa	-14499
▁eat	-14500
▁cuts	-14501
▁wellness	-14502
▁Betten	-14503
ICH	-14504
▁Vorder	-14505
▁Urlaubs	-14506
▁Perspektive	-14507
pay	-14508
▁Distr	-14509
▁Vort	-14510
▁Gefäng	-14511
▁checks	-14512
verwaltung	-14513
▁Education	-14514
▁movements	-14515
zuschließen	-14516
▁unterzeichnet	-14517
kapaz	-14518
immers	-14519
führungs	-14520
▁Spitzen	-14521
▁gebrauch	-14522
outs	-14523
▁Ruf	-14524
▁voran	-14525
▁lieber	-14526
▁Philipp	-14527
▁begrenzt	-14528
▁firmly	-14529
▁Jos	-14530
garten	-14531
▁erstre	-14532
ärten	-14533
▁Stability	-14534
▁Dor	-14535
llers	-14536
▁Vereinfach	-14537
Pal	-14538
▁Wähler	-14539
▁vorgeschlagene	-14540
▁compe	-14541
▁realise	-14542
mitglieder	-14543
▁genere	-14544
▁defe	-14545
▁Geburt	-14546
▁unterliegen	-14547
ubl	-14548
▁studio	-14549
32	-14550
▁geprägt	-14551
▁museums	-14552
▁Haushaltsplan	-14553
politische	-14554
▁originally	-14555
▁Abfall	-14556
▁Planeten	-14557
▁indicate	-14558
▁EX	-14559
▁rück	-14560
▁juris	-14561
▁cells	-14562
▁simultane	-14563
herstellung	-14564
▁enterprise	-14565
▁Passwort	-14566
▁romantic	-14567
luss	-14568
istischer	-14569
▁UNESCO	-14570
▁cancell	-14571
▁pharm	-14572
Me	-14573
plans	-14574
betten	-14575
ugoslaw	-14576
▁programming	-14577
greg	-14578
iversary	-14579
▁Allianz	-14580
uum	-14581
▁Korre	-14582
▁Sloven	-14583
bestimmungen	-14584
▁introducing	-14585
▁personenbezogen	-14586
ugt	-14587
abet	-14588
emark	-14589
▁Aufsichts	-14590
▁explained	-14591
eschäd	-14592
▁Armee	-14593
▁judge	-14594
▁ergibt	-14595
ußt	-14596
▁ine	-14597
▁absor	-14598
▁unzureich	-14599
▁Abschaffung	-14600
ijk	-14601
irs	-14602
spartner	-14603
▁ordinary	-14604
▁recognized	-14605
▁herunterladen	-14606
quer	-14607
▁Americans	-14608
▁acknowled	-14609
▁Ka	-14610
▁ere	-14611
▁Sammlung	-14612
▁ausgehen	-14613
▁Artik	-14614
ifferenz	-14615
▁barriers	-14616
▁Metall	-14617
das	-14618
▁Thailand	-14619
▁Australia	-14620
1⁄	-14621
bul	-14622
ugang	-14623
▁Gross	-14624
ypen	-14625
▁internen	-14626
▁ang	-14627
osing	-14628
technologie	-14629
▁Mak	-14630
eitigung	-14631
▁vessels	-14632
▁songs	-14633
▁hes	-14634
▁Resolution	-14635
▁Norm	-14636
▁2004,	-14637
▁Lernen	-14638
▁angest	-14639
DI	-14640
▁Oste	-14641
▁showed	-14642
▁Berliner	-14643
utral	-14644
▁Volkes	-14645
▁errors	-14646
▁Pension	-14647
staatlichen	-14648
lan	-14649
▁Kreis	-14650
▁Spann	-14651
▁finanziert	-14652
▁eingegangen	-14653
▁recy	-14654
▁tree	-14655
▁menschliche	-14656
utor	-14657
unruh	-14658
▁deserv	-14659
opes	-14660
▁COM	-14661
▁productivity	-14662
nimmt	-14663
obody	-14664
austausch	-14665
▁transmission	-14666
▁(*	-14667
▁Sob	-14668
▁Geneva	-14669
▁Medizin	-14670
▁langfristig	-14671
▁calm	-14672
▁angenehm	-14673
▁hochwertige	-14674
▁anhand	-14675
▁hearing	-14676
▁schlagen	-14677
38	-14678
▁therap	-14679
▁aufgebaut	-14680
▁obstacles	-14681
ji	-14682
▁CR	-14683
Daten	-14684
67	-14685
spolit	-14686
ophistic	-14687
▁Miß	-14688
▁Does	-14689
▁Anwender	-14690
▁Saturday	-14691
▁remarks	-14692
▁zukünftige	-14693
usch	-14694
▁Rod	-14695
▁behoben	-14696
▁Conf	-14697
outique	-14698
▁collected	-14699
conf	-14700
▁NGOs	-14701
▁Frist	-14702
▁Moroc	-14703
▁Consumer	-14704
▁Willkommen	-14705
▁sogenannten	-14706
▁CAP	-14707
▁Stoff	-14708
▁saved	-14709
schläge	-14710
▁Should	-14711
▁amazing	-14712
▁Entspannung	-14713
▁enthaltenen	-14714
dy	-14715
▁exclusion	-14716
▁Volksgesundheit	-14717
TH	-14718
smoking	-14719
▁combine	-14720
uage	-14721
▁Hot	-14722
▁1991	-14723
▁fees	-14724
▁Serbia	-14725
▁Suiten	-14726
▁imagine	-14727
▁festzulegen	-14728
▁CF	-14729
▁shar	-14730
▁modules	-14731
▁superior	-14732
▁anzuzeigen	-14733
▁umfangreiche	-14734
▁militärischen	-14735
▁rechten	-14736
▁gerichtet	-14737
▁Bevölkerungs	-14738
▁EZB	-14739
▁Euch	-14740
zahlen	-14741
▁vereinbart	-14742
osa	-14743
▁sustainability	-14744
grunde	-14745
▁whereas	-14746
▁sections	-14747
▁Dikt	-14748
▁Nachbarn	-14749
▁investigation	-14750
▁Civil	-14751
▁Valen	-14752
▁präsentieren	-14753
▁functionality	-14754
roc	-14755
▁1989	-14756
▁läßt	-14757
▁endorse	-14758
▁Stuttgart	-14759
beschreibung	-14760
▁spons	-14761
▁classes	-14762
Br	-14763
▁portug	-14764
▁nord	-14765
▁Abhängigkeit	-14766
▁besonderer	-14767
▁Entscheidungs	-14768
zell	-14769
▁splend	-14770
▁Dritten	-14771
▁Zeitung	-14772
▁accurate	-14773
▁turning	-14774
▁praktische	-14775
▁Schnell	-14776
▁Mallorca	-14777
▁Regierungschefs	-14778
▁Pläne	-14779
▁fascin	-14780
▁female	-14781
▁bedeutend	-14782
▁TR	-14783
reche	-14784
▁Erinnerung	-14785
abs	-14786
▁fleet	-14787
▁stocks	-14788
▁sichere	-14789
▁ride	-14790
schiff	-14791
▁Train	-14792
▁Culture	-14793
▁compact	-14794
▁concert	-14795
[...]
