<unk>	0
<s>	0
</s>	0
er	-0
en	-1
▁t	-2
in	-3
▁a	-4
he	-5
▁d	-6
on	-7
es	-8
▁s	-9
is	-10
ch	-11
▁the	-12
▁w	-13
at	-14
it	-15
re	-16
nd	-17
or	-18
an	-19
▁o	-20
▁b	-21
▁c	-22
▁f	-23
al	-24
▁p	-25
ar	-26
ed	-27
য়	-28
▁in	-29
▁m	-30
▁ক	-31
ার	-32
as	-33
ie	-34
ion	-35
ou	-36
▁of	-37
le	-38
▁h	-39
ing	-40
ro	-41
▁স	-42
ent	-43
un	-44
▁to	-45
▁e	-46
▁প	-47
▁n	-48
▁ব	-49
▁and	-50
ের	-51
ic	-52
▁S	-53
st	-54
্র	-55
el	-56
▁th	-57
il	-58
্য	-59
▁I	-60
▁T	-61
▁A	-62
om	-63
ich	-64
▁g	-65
▁এ	-66
▁u	-67
ur	-68
▁আ	-69
▁v	-70
▁is	-71
▁be	-72
▁ত	-73
ান	-74
ig	-75
▁M	-76
im	-77
▁l	-78
ol	-79
te	-80
▁B	-81
ra	-82
▁ন	-83
▁হ	-84
▁P	-85
্ত	-86
▁E	-87
▁কর	-88
id	-89
ter	-90
us	-91
▁ম	-92
ir	-93
▁re	-94
em	-95
ot	-96
ut	-97
▁D	-98
ct	-99
et	-100
ung	-101
▁W	-102
am	-103
ation	-104
▁দ	-105
▁und	-106
ve	-107
▁die	-108
▁der	-109
েন	-110
▁C	-111
▁H	-112
▁অ	-113
য়ে	-114
ul	-115
ere	-116
▁al	-117
▁for	-118
▁on	-119
ad	-120
▁য	-121
▁G	-122
▁F	-123
ver	-124
▁জ	-125
▁z	-126
ow	-127
▁ein	-128
কে	-129
est	-130
ly	-131
▁R	-132
▁that	-133
ce	-134
িন	-135
ge	-136
▁de	-137
▁y	-138
▁an	-139
▁The	-140
ies	-141
▁K	-142
▁wh	-143
▁প্র	-144
▁st	-145
ay	-146
ers	-147
▁k	-148
▁r	-149
▁ha	-150
os	-151
ten	-152
ছে	-153
রা	-154
ess	-155
▁pro	-156
িত	-157
র্	-158
▁(	-159
um	-160
ith	-161
বে	-162
ill	-163
▁con	-164
িক	-165
াল	-166
pe	-167
th	-168
▁you	-169
end	-170
hr	-171
▁L	-172
▁it	-173
▁se	-174
ts	-175
and	-176
ায়	-177
ri	-178
টি	-179
▁are	-180
▁N	-181
▁"	-182
▁as	-183
▁with	-184
িল	-185
▁U	-186
ber	-187
▁V	-188
uf	-189
ab	-190
▁বি	-191
▁শ	-192
দের	-193
▁un	-194
od	-195
ate	-196
▁1	-197
ld	-198
ak	-199
তে	-200
if	-201
্ব	-202
▁গ	-203
ort	-204
ist	-205
op	-206
▁ne	-207
omm	-208
se	-209
াম	-210
▁we	-211
▁was	-212
▁তা	-213
▁ভ	-214
▁not	-215
▁im	-216
ind	-217
▁চ	-218
ür	-219
ড়	-220
▁উ	-221
লে	-222
▁в	-223
ier	-224
iv	-225
▁আম	-226
icht	-227
▁he	-228
▁করে	-229
ck	-230
▁2	-231
▁das	-232
▁zu	-233
▁ও	-234
ell	-235
▁have	-236
ment	-237
▁den	-238
▁this	-239
uro	-240
ag	-241
▁п	-242
▁In	-243
pp	-244
▁নি	-245
্ট	-246
chen	-247
▁ex	-248
eit	-249
ru	-250
ain	-251
che	-252
▁at	-253
▁J	-254
▁এক	-255
lich	-256
্ষ	-257
nt	-258
▁-	-259
ity	-260
ant	-261
ia	-262
qu	-263
▁Th	-264
▁পর	-265
াস	-266
art	-267
▁or	-268
▁will	-269
▁su	-270
ach	-271
াক	-272
are	-273
▁O	-274
▁by	-275
তি	-276
rom	-277
ুল	-278
▁von	-279
ust	-280
ive	-281
igh	-282
ial	-283
ছিল	-284
ah	-285
ore	-286
▁has	-287
gen	-288
াই	-289
▁St	-290
▁Euro	-291
▁le	-292
ik	-293
▁als	-294
▁সম	-295
▁র	-296
▁ver	-297
▁н	-298
ff	-299
▁com	-300
▁me	-301
der	-302
▁des	-303
▁wir	-304
ould	-305
ens	-306
▁j	-307
▁er	-308
▁sh	-309
oc	-310
▁এব	-311
▁from	-312
ти	-313
▁all	-314
our	-315
▁থ	-316
ন্	-317
▁ist	-318
্যা	-319
all	-320
ine	-321
den	-322
▁না	-323
লা	-324
▁এবং	-325
▁Z	-326
▁auf	-327
▁দে	-328
▁für	-329
ice	-330
ud	-331
্থ	-332
iss	-333
ib	-334
uch	-335
▁ab	-336
ুর	-337
য়া	-338
00	-339
ure	-340
▁Un	-341
eh	-342
▁з	-343
▁mit	-344
▁wor	-345
ন্ত	-346
িয়ে	-347
ন্য	-348
kt	-349
ard	-350
▁do	-351
sch	-352
▁বা	-353
▁""	-354
pt	-355
▁ac	-356
ost	-357
▁ch	-358
ро	-359
▁খ	-360
""	-361
ast	-362
ions	-363
▁সে	-364
▁can	-365
▁হয়ে	-366
াত	-367
ern	-368
la	-369
ang	-370
▁dies	-371
iz	-372
বা	-373
▁তার	-374
▁с	-375
res	-376
িনি	-377
lic	-378
ben	-379
ft	-380
ির	-381
tern	-382
orm	-383
▁dem	-384
▁We	-385
▁res	-386
▁so	-387
ans	-388
▁ফ	-389
▁ই	-390
ident	-391
port	-392
▁go	-393
▁এই	-394
▁রা	-395
▁î	-396
িস	-397
্প	-398
▁Re	-399
▁which	-400
ire	-401
ok	-402
োন	-403
টা	-404
ঙ্	-405
ungen	-406
▁д	-407
ien	-408
ip	-409
▁pol	-410
ied	-411
▁es	-412
েশ	-413
ক্ষ	-414
ischen	-415
we	-416
ome	-417
og	-418
▁Y	-419
▁also	-420
▁no	-421
ass	-422
নে	-423
fer	-424
▁হয়	-425
▁ge	-426
▁Ver	-427
▁কা	-428
du	-429
▁eine	-430
▁He	-431
▁যে	-432
ong	-433
ov	-434
▁sa	-435
▁м	-436
ভা	-437
▁আর	-438
gh	-439
de	-440
out	-441
nen	-442
aus	-443
men	-444
ect	-445
▁comp	-446
her	-447
▁Europe	-448
ous	-449
▁been	-450
ub	-451
না	-452
▁ar	-453
কার	-454
▁Sie	-455
▁man	-456
▁An	-457
ра	-458
▁ad	-459
▁ল	-460
ছেন	-461
▁wer	-462
ight	-463
ime	-464
ated	-465
▁am	-466
দ্	-467
▁т	-468
oll	-469
ap	-470
ry	-471
ক্ত	-472
▁en	-473
age	-474
ide	-475
▁Wh	-476
নি	-477
▁ag	-478
▁nicht	-479
ко	-480
ult	-481
но	-482
ther	-483
ll	-484
▁us	-485
und	-486
▁sich	-487
িশ	-488
োগ	-489
চ্	-490
ile	-491
ical	-492
▁It	-493
▁করা	-494
▁fa	-495
ations	-496
▁pe	-497
ord	-498
▁তিনি	-499
▁sp	-500
ann	-501
ীয়	-502
ount	-503
▁werden	-504
ст	-505
über	-506
জন	-507
form	-508
▁în	-509
▁১	-510
ঙ্গ	-511
ents	-512
ধ্য	-513
েকে	-514
per	-515
ue	-516
one	-517
▁our	-518
▁cont	-519
ian	-520
ission	-521
ни	-522
▁ঘ	-523
▁inc	-524
▁জন্য	-525
▁কি	-526
▁dass	-527
ction	-528
▁যা	-529
▁your	-530
ear	-531
ary	-532
uss	-533
rit	-534
rou	-535
▁their	-536
▁were	-537
্ম	-538
..	-539
েল	-540
pl	-541
igen	-542
▁his	-543
▁সা	-544
বি	-545
ake	-546
▁থেকে	-547
ress	-548
▁there	-549
▁Die	-550
▁la	-551
ва	-552
▁Pro	-553
▁পার	-554
▁на	-555
▁aus	-556
ational	-557
▁part	-558
▁б	-559
▁they	-560
ise	-561
able	-562
▁uns	-563
го	-564
ame	-565
mer	-566
ew	-567
▁ধ	-568
ер	-569
ose	-570
на	-571
য়ার	-572
▁da	-573
ommission	-574
ition	-575
ли	-576
▁reg	-577
ungs	-578
▁по	-579
erv	-580
ні	-581
ze	-582
▁one	-583
▁Ind	-584
ark	-585
▁ব্য	-586
দ্ধ	-587
েই	-588
▁সং	-589
বার	-590
▁who	-591
ign	-592
arl	-593
তা	-594
ank	-595
ert	-596
▁über	-597
▁Ch	-598
▁Sch	-599
▁but	-600
্রী	-601
ুন	-602
▁sch	-603
▁dis	-604
ষ্ট	-605
iel	-606
স্থ	-607
con	-608
ss	-609
ren	-610
▁i	-611
▁auch	-612
ob	-613
ish	-614
▁pl	-615
▁পরি	-616
▁its	-617
▁European	-618
খন	-619
hal	-620
▁qu	-621
▁This	-622
▁pre	-623
ite	-624
vel	-625
rä	-626
ance	-627
▁ছ	-628
▁19	-629
▁জান	-630
ase	-631
▁বল	-632
িতে	-633
ри	-634
▁um	-635
ament	-636
▁them	-637
▁te	-638
ug	-639
▁ছিল	-640
ahr	-641
▁vor	-642
...	-643
মা	-644
▁কোন	-645
ick	-646
▁পা	-647
ть	-648
ac	-649
▁up	-650
গুল	-651
▁Ar	-652
cess	-653
▁ট	-654
ople	-655
ates	-656
▁sind	-657
▁work	-658
ারা	-659
▁would	-660
ater	-661
ne	-662
ual	-663
now	-664
▁তাঁ	-665
▁You	-666
ely	-667
▁more	-668
্তু	-669
▁out	-670
▁ent	-671
▁Be	-672
▁3	-673
ische	-674
wo	-675
রে	-676
ষ্	-677
ree	-678
▁і	-679
▁উপ	-680
▁tra	-681
▁তো	-682
▁said	-683
ен	-684
নের	-685
▁about	-686
▁wird	-687
▁comm	-688
▁int	-689
▁But	-690
▁হয়েছে	-691
▁200	-692
ack	-693
ces	-694
▁any	-695
▁bet	-696
me	-697
▁per	-698
itt	-699
▁২	-700
▁count	-701
▁dur	-702
▁দু	-703
্রে	-704
▁একটি	-705
ble	-706
ід	-707
ild	-708
▁spe	-709
au	-710
▁ev	-711
ein	-712
▁had	-713
ons	-714
ানে	-715
▁তাদের	-716
▁এর	-717
▁people	-718
▁Er	-719
▁ro	-720
ön	-721
▁কিন	-722
▁new	-723
esch	-724
ль	-725
্ড	-726
▁time	-727
▁ড	-728
▁tr	-729
reat	-730
▁De	-731
ram	-732
▁প্রতি	-733
ৃত	-734
▁other	-735
ont	-736
দি	-737
ister	-738
▁cl	-739
▁Europ	-740
▁pr	-741
▁হবে	-742
▁অব	-743
▁не	-744
▁অন	-745
▁আমি	-746
ät	-747
ike	-748
şi	-749
то	-750
▁app	-751
int	-752
ওয়া	-753
ink	-754
ail	-755
▁hat	-756
▁Al	-757
▁should	-758
ка	-759
▁Her	-760
▁know	-761
ence	-762
etz	-763
▁দেখ	-764
▁"""	-765
be	-766
ings	-767
▁what	-768
▁off	-769
ся	-770
▁কিন্তু	-771
▁করতে	-772
ook	-773
▁আমা	-774
ays	-775
▁বিশ	-776
во	-777
দেশ	-778
änd	-779
enn	-780
ever	-781
▁ich	-782
▁bec	-783
otel	-784
ound	-785
ement	-786
"""	-787
av	-788
▁need	-789
▁о	-790
▁dec	-791
▁Parl	-792
▁20	-793
vern	-794
াপ	-795
▁অভ	-796
▁oder	-797
yst	-798
▁ra	-799
্দ	-800
ীর	-801
gan	-802
স্ত	-803
ige	-804
keit	-805
ng	-806
▁ভার	-807
র্ত	-808
▁за	-809
▁করেন	-810
ors	-811
▁я	-812
cial	-813
্ন	-814
▁year	-815
▁zur	-816
▁মধ্য	-817
ric	-818
oh	-819
ুম	-820
▁rec	-821
▁Union	-822
▁মা	-823
beit	-824
▁acc	-825
fter	-826
що	-827
ла	-828
▁co	-829
irst	-830
ced	-831
ious	-832
▁şi	-833
ade	-834
▁act	-835
ute	-836
heit	-837
▁'	-838
▁বলে	-839
▁cons	-840
▁haben	-841
▁sie	-842
▁কার	-843
▁imp	-844
oss	-845
▁very	-846
▁নিয়ে	-847
ities	-848
ystem	-849
▁my	-850
ember	-851
ки	-852
ня	-853
▁আমরা	-854
),	-855
্চ	-856
কা	-857
▁Ab	-858
ner	-859
ভাবে	-860
▁ঘট	-861
▁her	-862
▁ma	-863
▁–	-864
lichen	-865
ন্দ	-866
ond	-867
resident	-868
▁over	-869
ছু	-870
ঙ্গে	-871
যোগ	-872
elt	-873
▁like	-874
very	-875
ally	-876
▁ви	-877
ালে	-878
ুক্ত	-879
▁under	-880
্ল	-881
rat	-882
থা	-883
িয়	-884
▁ob	-885
োর	-886
ত্ত	-887
oy	-888
aft	-889
ধান	-890
▁inter	-891
মন	-892
▁war	-893
▁Commission	-894
▁gen	-895
▁einer	-896
▁kön	-897
▁să	-898
▁only	-899
▁again	-900
▁সু	-901
ান্ত	-902
oun	-903
ution	-904
▁EU	-905
▁Mr	-906
ible	-907
▁Min	-908
▁wie	-909
."	-910
▁স্ব	-911
▁Se	-912
জে	-913
▁Aus	-914
▁আস	-915
পর	-916
▁polit	-917
ці	-918
▁আপ	-919
▁до	-920
vers	-921
tz	-922
▁আমাদের	-923
az	-924
▁How	-925
▁Wir	-926
ms	-927
▁inv	-928
▁5	-929
ject	-930
▁him	-931
ви	-932
fü	-933
ুরু	-934
▁নে	-935
rü	-936
▁pers	-937
▁some	-938
▁first	-939
▁There	-940
isch	-941
▁po	-942
ph	-943
▁নির্	-944
riv	-945
▁4	-946
liche	-947
▁two	-948
ii	-949
ছি	-950
man	-951
▁must	-952
▁sein	-953
▁rel	-954
▁ind	-955
্ক	-956
▁ভারত	-957
▁পুল	-958
▁.	-959
▁কিছু	-960
▁if	-961
▁Ein	-962
▁supp	-963
enden	-964
▁।	-965
▁prov	-966
fore	-967
্স	-968
▁nach	-969
leg	-970
▁unter	-971
▁“	-972
▁einen	-973
pect	-974
▁fin	-975
▁when	-976
land	-977
ui	-978
те	-979
aten	-980
▁into	-981
▁বিষ	-982
▁তারা	-983
af	-984
ло	-985
vernment	-986
▁що	-987
▁সঙ্গে	-988
▁у	-989
lect	-990
ড়া	-991
▁মধ্যে	-992
ough	-993
iert	-994
▁সব	-995
▁Das	-996
▁В	-997
▁ব্যব	-998
▁Le	-999
▁these	-1000
▁care	-1001
▁bei	-1002
hen	-1003
мо	-1004
ful	-1005
▁sc	-1006
ছিলেন	-1007
chn	-1008
).	-1009
▁produ	-1010
চ্ছে	-1011
▁আল	-1012
ene	-1013
ause	-1014
▁how	-1015
anz	-1016
ory	-1017
▁কে	-1018
▁Mit	-1019
lud	-1020
িয়া	-1021
xt	-1022
▁ke	-1023
▁did	-1024
amp	-1025
wn	-1026
▁import	-1027
velop	-1028
ale	-1029
rag	-1030
ath	-1031
ড়ে	-1032
ste	-1033
get	-1034
▁intern	-1035
্যান	-1036
▁про	-1037
▁দিয়ে	-1038
▁মান	-1039
та	-1040
▁dar	-1041
▁Te	-1042
olog	-1043
▁durch	-1044
stit	-1045
als	-1046
cy	-1047
ific	-1048
▁থাক	-1049
▁such	-1050
▁President	-1051
মে	-1052
▁পুলিশ	-1053
▁Sp	-1054
▁As	-1055
▁Ber	-1056
▁They	-1057
ів	-1058
▁trans	-1059
ient	-1060
▁রয়ে	-1061
eren	-1062
▁মু	-1063
▁অনু	-1064
cht	-1065
▁rep	-1066
▁wur	-1067
▁Ich	-1068
▁dif	-1069
▁ч	-1070
▁sub	-1071
▁রাজ	-1072
▁em	-1073
মান	-1074
му	-1075
▁können	-1076
ষ্ঠ	-1077
▁Fra	-1078
act	-1079
▁So	-1080
▁serv	-1081
▁Ge	-1082
▁India	-1083
gram	-1084
▁আমার	-1085
▁get	-1086
▁What	-1087
▁সম্প	-1088
▁,	-1089
gl	-1090
▁সর	-1091
▁sol	-1092
ke	-1093
ger	-1094
▁just	-1095
ular	-1096
▁তাঁর	-1097
▁Sh	-1098
▁bel	-1099
conom	-1100
▁а	-1101
▁than	-1102
ieren	-1103
tet	-1104
▁мо	-1105
▁সেই	-1106
▁For	-1107
▁dire	-1108
ood	-1109
är	-1110
▁ক্ষ	-1111
formation	-1112
▁কাজ	-1113
▁তবে	-1114
hre	-1115
ля	-1116
▁eff	-1117
▁rem	-1118
up	-1119
▁min	-1120
▁loc	-1121
াহ	-1122
▁করার	-1123
▁well	-1124
rough	-1125
প্র	-1126
ми	-1127
ре	-1128
▁ভা	-1129
ূর্	-1130
▁আগ	-1131
rie	-1132
oth	-1133
ures	-1134
red	-1135
▁কো	-1136
ital	-1137
জ্	-1138
ange	-1139
েয়ে	-1140
▁mö	-1141
ep	-1142
▁Vor	-1143
▁many	-1144
▁যায়	-1145
▁after	-1146
▁All	-1147
own	-1148
▁ter	-1149
▁কেন	-1150
▁gro	-1151
ন্ত্রী	-1152
cil	-1153
নার	-1154
ges	-1155
▁mod	-1156
▁zum	-1157
ries	-1158
▁অভি	-1159
ism	-1160
েষ	-1161
▁develop	-1162
ві	-1163
▁কী	-1164
sp	-1165
tsch	-1166
ily	-1167
▁ste	-1168
▁einem	-1169
▁world	-1170
imm	-1171
▁‘	-1172
ку	-1173
▁find	-1174
▁সি	-1175
ward	-1176
ди	-1177
urn	-1178
রের	-1179
les	-1180
রণ	-1181
▁মো	-1182
sel	-1183
▁বিশ্ব	-1184
ife	-1185
ма	-1186
ring	-1187
▁And	-1188
▁та	-1189
▁police	-1190
же	-1191
▁ass	-1192
▁includ	-1193
▁every	-1194
▁want	-1195
▁good	-1196
▁бу	-1197
ty	-1198
▁Pol	-1199
▁add	-1200
▁tak	-1201
ters	-1202
▁অন্য	-1203
িকে	-1204
ility	-1205
emb	-1206
uß	-1207
chte	-1208
fl	-1209
räs	-1210
▁Herr	-1211
▁report	-1212
▁বেশ	-1213
▁see	-1214
▁Europä	-1215
▁gu	-1216
▁most	-1217
ace	-1218
▁soc	-1219
resent	-1220
iew	-1221
▁nur	-1222
▁Reg	-1223
ন্ধ	-1224
াদ	-1225
pos	-1226
ative	-1227
▁রয়েছে	-1228
day	-1229
▁conc	-1230
utz	-1231
▁হল	-1232
▁kann	-1233
▁take	-1234
▁hel	-1235
entru	-1236
▁those	-1237
io	-1238
ween	-1239
▁ко	-1240
ওয়ার	-1241
▁diese	-1242
ider	-1243
itu	-1244
েত	-1245
▁সময়	-1246
▁কথা	-1247
ক্র	-1248
ating	-1249
▁then	-1250
▁made	-1251
▁pla	-1252
ör	-1253
ommen	-1254
▁being	-1255
▁econom	-1256
▁cent	-1257
াজ	-1258
▁201	-1259
▁দেশ	-1260
ellen	-1261
▁against	-1262
its	-1263
▁between	-1264
ices	-1265
▁disc	-1266
ле	-1267
গুলো	-1268
▁că	-1269
▁num	-1270
ased	-1271
ende	-1272
বাদ	-1273
ত্য	-1274
▁make	-1275
▁ap	-1276
▁[	-1277
▁pentru	-1278
▁fe	-1279
েস	-1280
iament	-1281
sten	-1282
ublic	-1283
র্থ	-1284
min	-1285
োক	-1286
▁bes	-1287
▁অনে	-1288
▁best	-1289
rib	-1290
িম	-1291
▁Hotel	-1292
ran	-1293
▁Is	-1294
▁say	-1295
▁ব্যা	-1296
▁Auf	-1297
▁leg	-1298
▁could	-1299
▁country	-1300
▁att	-1301
▁aut	-1302
ments	-1303
ht	-1304
schl	-1305
ahl	-1306
ks	-1307
▁euro	-1308
uc	-1309
▁ро	-1310
▁din	-1311
да	-1312
▁alle	-1313
▁now	-1314
▁may	-1315
ুদ্ধ	-1316
▁vers	-1317
▁২০	-1318
▁proble	-1319
▁use	-1320
▁government	-1321
▁Der	-1322
ংশ	-1323
old	-1324
চার	-1325
ited	-1326
▁important	-1327
▁Minister	-1328
খানে	-1329
▁6	-1330
থে	-1331
লের	-1332
িক্ষ	-1333
চিত	-1334
▁হিস	-1335
▁even	-1336
olle	-1337
сь	-1338
iven	-1339
▁Im	-1340
ুব	-1341
▁where	-1342
হা	-1343
ives	-1344
ision	-1345
▁years	-1346
och	-1347
ict	-1348
▁লা	-1349
হার	-1350
▁নাম	-1351
ma	-1352
▁med	-1353
ina	-1354
তো	-1355
▁bl	-1356
omp	-1357
▁high	-1358
জ্ঞ	-1359
hed	-1360
গ্র	-1361
лі	-1362
▁soll	-1363
বেন	-1364
по	-1365
▁Jahr	-1366
cept	-1367
▁সরকার	-1368
▁fl	-1369
räsident	-1370
ীন	-1371
▁dieser	-1372
▁op	-1373
lin	-1374
ove	-1375
igkeit	-1376
▁Es	-1377
ock	-1378
▁par	-1379
ower	-1380
▁system	-1381
▁partic	-1382
cur	-1383
▁প্রধান	-1384
▁ц	-1385
▁নেই	-1386
▁fam	-1387
ানের	-1388
lt	-1389
▁help	-1390
ats	-1391
মন্ত্রী	-1392
üss	-1393
▁through	-1394
▁support	-1395
▁way	-1396
▁jed	-1397
▁here	-1398
▁countries	-1399
rate	-1400
▁গ্র	-1401
▁because	-1402
▁ins	-1403
esh	-1404
ীব	-1405
ähr	-1406
িড	-1407
ural	-1408
alt	-1409
▁mat	-1410
els	-1411
▁Dies	-1412
ierung	-1413
glich	-1414
ues	-1415
▁fil	-1416
্যাল	-1417
ention	-1418
zu	-1419
▁However	-1420
auf	-1421
рі	-1422
রি	-1423
ului	-1424
ну	-1425
ilor	-1426
▁dist	-1427
▁Mar	-1428
▁mark	-1429
▁God	-1430
bar	-1431
▁does	-1432
att	-1433
ück	-1434
other	-1435
wer	-1436
▁zw	-1437
roup	-1438
ন্ত্র	-1439
▁cr	-1440
▁exp	-1441
▁daß	-1442
aj	-1443
সে	-1444
▁noch	-1445
ого	-1446
▁নয়	-1447
hip	-1448
gest	-1449
▁আই	-1450
rund	-1451
▁av	-1452
▁ihr	-1453
▁happ	-1454
geb	-1455
stand	-1456
▁States	-1457
▁Kommission	-1458
▁জন	-1459
ages	-1460
াকা	-1461
▁Pr	-1462
িব	-1463
▁lead	-1464
ral	-1465
▁right	-1466
ুষ	-1467
▁iss	-1468
▁ph	-1469
gt	-1470
থম	-1471
▁স্থ	-1472
▁long	-1473
▁tre	-1474
ved	-1475
▁অনেক	-1476
▁від	-1477
্লা	-1478
য়ের	-1479
▁resp	-1480
▁চল	-1481
▁Me	-1482
hing	-1483
▁cour	-1484
▁Parliament	-1485
▁weit	-1486
▁cre	-1487
▁end	-1488
▁belie	-1489
▁করেছে	-1490
ights	-1491
▁car	-1492
▁সহ	-1493
▁hand	-1494
orts	-1495
▁call	-1496
▁international	-1497
▁Am	-1498
ере	-1499
াত্র	-1500
▁wurde	-1501
▁১৯	-1502
га	-1503
way	-1504
ctor	-1505
তার	-1506
▁এটা	-1507
fe	-1508
▁দ্ব	-1509
▁mon	-1510
read	-1511
▁বলেন	-1512
▁ce	-1513
wick	-1514
▁mehr	-1515
▁differ	-1516
agen	-1517
aff	-1518
alk	-1519
ivers	-1520
▁play	-1521
▁poss	-1522
▁person	-1523
."""	-1524
পি	-1525
кі	-1526
▁beg	-1527
med	-1528
for	-1529
gy	-1530
▁কম	-1531
ince	-1532
▁set	-1533
্দ্র	-1534
েম	-1535
pro	-1536
▁ভাল	-1537
▁Man	-1538
▁aber	-1539
▁No	-1540
isten	-1541
▁Q	-1542
▁cu	-1543
uen	-1544
де	-1545
▁ser	-1546
ised	-1547
▁7	-1548
lear	-1549
ারে	-1550
▁এমন	-1551
▁এখন	-1552
▁situ	-1553
িকা	-1554
▁ges	-1555
▁requ	-1556
ktion	-1557
glied	-1558
ува	-1559
ather	-1560
▁think	-1561
pr	-1562
▁wenn	-1563
▁আছে	-1564
▁she	-1565
▁If	-1566
üssen	-1567
▁মহ	-1568
▁pos	-1569
▁Präsident	-1570
▁সাম	-1571
▁day	-1572
▁বিষয়	-1573
টে	-1574
▁যদি	-1575
▁real	-1576
▁polic	-1577
ently	-1578
▁back	-1579
▁কারণ	-1580
ract	-1581
ouse	-1582
emein	-1583
▁stud	-1584
lad	-1585
▁bu	-1586
▁cur	-1587
rum	-1588
▁10	-1589
স্থা	-1590
led	-1591
ool	-1592
area	-1593
ven	-1594
▁পারে	-1595
▁হচ্ছে	-1596
ieß	-1597
ins	-1598
eral	-1599
▁Comm	-1600
▁contin	-1601
▁Or	-1602
ষণ	-1603
ূল	-1604
mp	-1605
ness	-1606
ilit	-1607
uman	-1608
▁case	-1609
par	-1610
lement	-1611
▁শুরু	-1612
▁বির	-1613
▁conf	-1614
▁fre	-1615
▁organ	-1616
assen	-1617
ouncil	-1618
▁US	-1619
ollow	-1620
▁sehr	-1621
ines	-1622
▁On	-1623
▁কাছে	-1624
itte	-1625
arm	-1626
▁müssen	-1627
reich	-1628
াব	-1629
▁child	-1630
äh	-1631
ün	-1632
fic	-1633
omen	-1634
▁priv	-1635
imes	-1636
ken	-1637
ork	-1638
▁এটি	-1639
▁করেছেন	-1640
ache	-1641
কের	-1642
ional	-1643
▁একজন	-1644
bs	-1645
▁8	-1646
▁П	-1647
чи	-1648
▁state	-1649
ody	-1650
▁own	-1651
োধ	-1652
▁unser	-1653
nah	-1654
জি	-1655
mitt	-1656
ţi	-1657
▁sow	-1658
▁That	-1659
▁sm	-1660
প্ত	-1661
▁En	-1662
▁অধ	-1663
fen	-1664
мі	-1665
▁বাং	-1666
▁মানুষ	-1667
▁sur	-1668
দিন	-1669
ret	-1670
teil	-1671
▁Ma	-1672
▁quest	-1673
▁Member	-1674
nis	-1675
▁bis	-1676
▁place	-1677
▁much	-1678
▁same	-1679
▁et	-1680
াকে	-1681
000	-1682
și	-1683
ütz	-1684
ics	-1685
েবে	-1686
une	-1687
не	-1688
ata	-1689
бо	-1690
ning	-1691
ারণ	-1692
খে	-1693
▁Arbeit	-1694
কাশ	-1695
rol	-1696
িহ	-1697
▁Intern	-1698
▁Council	-1699
▁কোনো	-1700
▁social	-1701
▁national	-1702
ঞ্চ	-1703
▁life	-1704
▁অস	-1705
▁ho	-1706
▁ва	-1707
বর্ত	-1708
▁দিন	-1709
োল	-1710
▁Ent	-1711
▁information	-1712
let	-1713
▁start	-1714
wend	-1715
▁Mitglied	-1716
usam	-1717
air	-1718
▁invest	-1719
▁Т	-1720
fahr	-1721
leich	-1722
▁ছিলেন	-1723
▁before	-1724
führ	-1725
▁Ger	-1726
atz	-1727
▁প্রথম	-1728
▁market	-1729
▁look	-1730
শ্চ	-1731
▁opp	-1732
টার	-1733
▁bus	-1734
cond	-1735
лю	-1736
▁public	-1737
ibt	-1738
▁Um	-1739
ried	-1740
ash	-1741
iness	-1742
▁At	-1743
ত্র	-1744
টির	-1745
▁three	-1746
▁order	-1747
▁last	-1748
onder	-1749
▁উত্ত	-1750
েক	-1751
▁area	-1752
iger	-1753
ei	-1754
▁direct	-1755
▁too	-1756
িকার	-1757
ানো	-1758
▁প্রশ	-1759
▁appro	-1760
ys	-1761
▁diesem	-1762
▁still	-1763
▁techn	-1764
▁incre	-1765
istan	-1766
ру	-1767
arbeit	-1768
▁inst	-1769
alth	-1770
▁gl	-1771
ল্প	-1772
ration	-1773
▁main	-1774
sta	-1775
হত	-1776
▁М	-1777
ists	-1778
▁কর্ম	-1779
▁rest	-1780
хо	-1781
▁Bang	-1782
ভাব	-1783
▁দা	-1784
র্ম	-1785
▁আরও	-1786
▁used	-1787
igt	-1788
ix	-1789
ants	-1790
▁sim	-1791
।"	-1792
▁কোনও	-1793
ars	-1794
▁propos	-1795
▁gegen	-1796
▁সাথে	-1797
▁199	-1798
hnen	-1799
▁number	-1800
▁great	-1801
tre	-1802
শি	-1803
ння	-1804
ared	-1805
▁She	-1806
unity	-1807
▁Ex	-1808
▁este	-1809
fol	-1810
ষ্ট্র	-1811
▁follow	-1812
▁Н	-1813
▁তোম	-1814
cc	-1815
▁meet	-1816
িন্ন	-1817
usammen	-1818
ীদের	-1819
▁Pl	-1820
ehmen	-1821
inc	-1822
▁বাড়	-1823
▁dam	-1824
▁ihre	-1825
▁stand	-1826
▁come	-1827
▁form	-1828
ote	-1829
▁বাংলা	-1830
▁lar	-1831
schaft	-1832
▁Europäischen	-1833
▁sign	-1834
▁program	-1835
tem	-1836
▁present	-1837
ৎস	-1838
▁both	-1839
▁বে	-1840
▁geh	-1841
▁Parlament	-1842
্যের	-1843
▁și	-1844
▁পর্য	-1845
▁wel	-1846
▁9	-1847
েন্ট	-1848
▁down	-1849
ruct	-1850
▁মৃত	-1851
▁к	-1852
▁compan	-1853
▁রাখ	-1854
▁একটা	-1855
▁হাস	-1856
ন্ড	-1857
etzt	-1858
▁prote	-1859
োট	-1860
▁political	-1861
▁ful	-1862
ча	-1863
▁মে	-1864
▁হিসেবে	-1865
▁europ	-1866
▁cor	-1867
▁taken	-1868
▁cond	-1869
stell	-1870
্জ	-1871
▁ret	-1872
▁exper	-1873
▁vis	-1874
ক্তি	-1875
▁৩	-1876
erung	-1877
▁সালে	-1878
▁Zeit	-1879
ться	-1880
▁শু	-1881
▁nat	-1882
omet	-1883
▁Go	-1884
ীত	-1885
eration	-1886
▁during	-1887
্বর	-1888
িজ	-1889
іль	-1890
eln	-1891
ালের	-1892
োপ	-1893
▁Ges	-1894
ূর্ণ	-1895
▁মার	-1896
20	-1897
zen	-1898
▁gew	-1899
ek	-1900
▁law	-1901
▁arr	-1902
urch	-1903
lung	-1904
ware	-1905
ested	-1906
▁stat	-1907
▁human	-1908
▁different	-1909
rict	-1910
The	-1911
ave	-1912
ন্ন	-1913
unden	-1914
▁vom	-1915
▁Ü	-1916
্যু	-1917
lim	-1918
▁fact	-1919
eng	-1920
▁bed	-1921
গত	-1922
র্ব	-1923
▁found	-1924
lar	-1925
▁process	-1926
▁consider	-1927
▁Ad	-1928
▁hotel	-1929
ience	-1930
▁Mod	-1931
thing	-1932
tend	-1933
acht	-1934
▁view	-1935
▁def	-1936
ests	-1937
ität	-1938
▁viel	-1939
ium	-1940
ertain	-1941
ai	-1942
▁möchte	-1943
▁এল	-1944
▁est	-1945
not	-1946
▁Fl	-1947
illion	-1948
তির	-1949
ished	-1950
▁শিক্ষ	-1951
ення	-1952
▁room	-1953
aut	-1954
▁হতে	-1955
ief	-1956
▁পরে	-1957
▁15	-1958
▁при	-1959
▁finan	-1960
ler	-1961
aking	-1962
াধ	-1963
▁dep	-1964
▁ed	-1965
ieder	-1966
সম	-1967
▁গিয়ে	-1968
rad	-1969
▁ক্র	-1970
র্শ	-1971
▁memb	-1972
▁মনে	-1973
▁হয়েছিল	-1974
▁দেওয়া	-1975
▁elect	-1976
▁del	-1977
▁খুব	-1978
▁hier	-1979
▁Fin	-1980
iden	-1981
▁var	-1982
াড়া	-1983
▁ur	-1984
েছে	-1985
ting	-1986
ality	-1987
pre	-1988
ves	-1989
ühr	-1990
han	-1991
▁regard	-1992
osp	-1993
iver	-1994
তিক	-1995
ши	-1996
▁Mens	-1997
▁sel	-1998
▁Con	-1999
▁Unter	-2000
▁bro	-2001
ured	-2002
▁economic	-2003
▁ма	-2004
▁Fr	-2005
▁policy	-2006
amen	-2007
▁char	-2008
▁তাকে	-2009
্লাহ	-2010
▁product	-2011
▁...	-2012
▁18	-2013
▁বছ	-2014
▁col	-2015
ту	-2016
halten	-2017
hi	-2018
ladesh	-2019
▁eines	-2020
ided	-2021
িস্ত	-2022
fort	-2023
hor	-2024
hä	-2025
▁তাই	-2026
▁nu	-2027
▁ask	-2028
▁জীব	-2029
পাত	-2030
▁clear	-2031
ows	-2032
▁agre	-2033
▁&	-2034
ুক	-2035
▁як	-2036
▁group	-2037
▁বিভ	-2038
ploy	-2039
িও	-2040
▁ear	-2041
би	-2042
▁bere	-2043
▁তখন	-2044
য়ো	-2045
zeit	-2046
▁ref	-2047
isation	-2048
thers	-2049
▁val	-2050
▁particular	-2051
▁development	-2052
itik	-2053
▁Land	-2054
line	-2055
▁নিজ	-2056
▁che	-2057
লেখ	-2058
▁New	-2059
ehov	-2060
▁Pak	-2061
ehovah	-2062
▁Bangladesh	-2063
▁eing	-2064
rong	-2065
erb	-2066
াতে	-2067
▁wicht	-2068
স্ট	-2069
до	-2070
▁বাংলাদেশ	-2071
▁prof	-2072
▁possible	-2073
িপ	-2074
▁open	-2075
itions	-2076
▁groß	-2077
▁concern	-2078
ুদ্ধে	-2079
lish	-2080
▁hist	-2081
of	-2082
▁met	-2083
িং	-2084
▁oper	-2085
▁When	-2086
▁special	-2087
▁deb	-2088
ually	-2089
▁prom	-2090
দা	-2091
▁প্রকাশ	-2092
ări	-2093
▁Jehovah	-2094
ving	-2095
ways	-2096
▁family	-2097
outh	-2098
▁Я	-2099
▁suc	-2100
র্ক	-2101
▁ide	-2102
сі	-2103
ulation	-2104
ше	-2105
ready	-2106
▁Mus	-2107
▁Menschen	-2108
বাস	-2109
▁তোমা	-2110
▁cap	-2111
▁শেষ	-2112
stitution	-2113
ক্ষে	-2114
elle	-2115
▁believe	-2116
▁offic	-2117
за	-2118
▁sowie	-2119
▁read	-2120
▁lie	-2121
hand	-2122
▁ঈ	-2123
ians	-2124
▁effect	-2125
▁mov	-2126
iele	-2127
▁bas	-2128
▁ব্যবহার	-2129
iat	-2130
▁writ	-2131
স্য	-2132
▁Chr	-2133
▁today	-2134
ason	-2135
।"""	-2136
▁activ	-2137
▁situation	-2138
▁without	-2139
▁happen	-2140
ত্ব	-2141
▁europä	-2142
মি	-2143
lex	-2144
ক্ষা	-2145
▁fun	-2146
বাহ	-2147
তুন	-2148
ax	-2149
▁চাল	-2150
▁Europa	-2151
ানা	-2152
▁সদ	-2153
ption	-2154
icher	-2155
iet	-2156
ides	-2157
com	-2158
▁dieses	-2159
▁দুই	-2160
▁cannot	-2161
▁hin	-2162
ому	-2163
▁mar	-2164
▁already	-2165
▁Ihr	-2166
▁home	-2167
যুক্ত	-2168
▁লোক	-2169
▁lang	-2170
▁mai	-2171
নায়	-2172
▁অভিযোগ	-2173
ার্থ	-2174
▁те	-2175
▁respons	-2176
ді	-2177
▁12	-2178
▁Ne	-2179
▁বেশি	-2180
▁প্রধানমন্ত্রী	-2181
ঞ্জ	-2182
▁Art	-2183
▁С	-2184
▁Indian	-2185
▁going	-2186
▁adv	-2187
essen	-2188
riend	-2189
▁gibt	-2190
ös	-2191
▁আশ	-2192
▁problem	-2193
jor	-2194
▁fund	-2195
ereich	-2196
ানি	-2197
▁dre	-2198
▁why	-2199
▁Wor	-2200
▁pop	-2201
▁যখন	-2202
▁level	-2203
▁spec	-2204
▁দেখা	-2205
obal	-2206
teg	-2207
▁rece	-2208
▁power	-2209
▁যিহ	-2210
▁ইউ	-2211
curity	-2212
ged	-2213
▁gra	-2214
▁আপনি	-2215
▁অপ	-2216
ণ্ড	-2217
▁নতুন	-2218
▁Kon	-2219
ized	-2220
ically	-2221
uk	-2222
▁це	-2223
▁rights	-2224
stütz	-2225
▁gr	-2226
▁curr	-2227
iron	-2228
kte	-2229
▁within	-2230
বর	-2231
aw	-2232
হণ	-2233
▁যোগ	-2234
▁city	-2235
over	-2236
▁উদ	-2237
▁prev	-2238
▁never	-2239
ator	-2240
▁Ви	-2241
▁ভারতের	-2242
uture	-2243
▁exc	-2244
▁while	-2245
▁পরিচ	-2246
▁জানিয়ে	-2247
halb	-2248
▁With	-2249
▁Nach	-2250
unt	-2251
▁point	-2252
▁ঠ	-2253
äch	-2254
▁Bed	-2255
▁Bar	-2256
itz	-2257
▁Д	-2258
oint	-2259
▁each	-2260
▁ca	-2261
▁art	-2262
▁ж	-2263
▁অংশ	-2264
nung	-2265
▁few	-2266
ста	-2267
▁far	-2268
round	-2269
ron	-2270
▁পড়	-2271
gar	-2272
bst	-2273
staaten	-2274
halt	-2275
▁মাধ্য	-2276
▁অর্থ	-2277
▁zwischen	-2278
▁Gen	-2279
▁Eng	-2280
▁since	-2281
amm	-2282
▁দায়	-2283
них	-2284
▁put	-2285
urther	-2286
▁রে	-2287
▁able	-2288
ets	-2289
▁থাকে	-2290
▁বাস	-2291
19	-2292
▁পাল	-2293
wir	-2294
▁Verb	-2295
▁give	-2296
▁water	-2297
▁children	-2298
urs	-2299
▁К	-2300
▁বিরুদ্ধে	-2301
▁equ	-2302
▁including	-2303
▁project	-2304
tschaft	-2305
▁air	-2306
▁ওই	-2307
▁Par	-2308
▁অবস্থ	-2309
itiz	-2310
▁question	-2311
্যান্ড	-2312
বল	-2313
্ভ	-2314
▁respect	-2315
াড়	-2316
▁তিন	-2317
▁Entwick	-2318
forder	-2319
▁business	-2320
сто	-2321
মাণ	-2322
▁tru	-2323
que	-2324
na	-2325
cing	-2326
ний	-2327
▁বৃ	-2328
ittee	-2329
▁kon	-2330
▁future	-2331
▁পর্যন্ত	-2332
▁--	-2333
▁avail	-2334
▁major	-2335
iber	-2336
▁আল্লাহ	-2337
▁Why	-2338
▁offer	-2339
▁pass	-2340
▁don	-2341
ases	-2342
▁পুর	-2343
▁Tr	-2344
ified	-2345
▁ট্র	-2346
utions	-2347
▁somet	-2348
▁fie	-2349
iving	-2350
▁„	-2351
▁second	-2352
▁বিভিন্ন	-2353
▁Russ	-2354
▁bring	-2355
▁Fre	-2356
▁পাক	-2357
kl	-2358
zie	-2359
▁ধর	-2360
▁চে	-2361
ired	-2362
▁Part	-2363
iei	-2364
▁Produ	-2365
▁muss	-2366
▁Grund	-2367
▁Rah	-2368
ospital	-2369
▁প্রা	-2370
net	-2371
▁ব্যাপ	-2372
orth	-2373
▁বিষয়ে	-2374
ror	-2375
zial	-2376
য়েক	-2377
▁Af	-2378
্যে	-2379
▁access	-2380
▁কেউ	-2381
ду	-2382
ained	-2383
সল	-2384
দী	-2385
▁Bericht	-2386
▁kill	-2387
▁ener	-2388
hes	-2389
স্	-2390
▁২০১	-2391
ird	-2392
▁next	-2393
▁though	-2394
▁indust	-2395
▁bo	-2396
▁বার	-2397
ize	-2398
▁ক্ষেত	-2399
ibility	-2400
▁Pre	-2401
igung	-2402
▁Des	-2403
দ্র	-2404
ূপ	-2405
ster	-2406
▁unsere	-2407
▁Pakistan	-2408
▁small	-2409
ument	-2410
aur	-2411
▁পদ	-2412
▁মুখ	-2413
▁লি	-2414
ains	-2415
vor	-2416
▁করি	-2417
▁incident	-2418
েরা	-2419
less	-2420
▁shall	-2421
▁যিহো	-2422
▁keine	-2423
▁পড়ে	-2424
▁however	-2425
ury	-2426
▁post	-2427
▁later	-2428
োর্	-2429
▁gre	-2430
▁ann	-2431
▁Pe	-2432
▁বন্ধ	-2433
ross	-2434
▁Ihre	-2435
▁film	-2436
▁acest	-2437
▁bie	-2438
ample	-2439
ঁচ	-2440
▁ens	-2441
▁inde	-2442
▁Ihnen	-2443
▁verb	-2444
▁German	-2445
eschä	-2446
▁name	-2447
ংস	-2448
য়ন	-2449
itate	-2450
▁given	-2451
▁কয়েক	-2452
erein	-2453
▁meas	-2454
▁зна	-2455
িউ	-2456
খ্যা	-2457
▁rev	-2458
▁Police	-2459
▁result	-2460
▁women	-2461
চ্ছ	-2462
▁আদ	-2463
weit	-2464
orn	-2465
ording	-2466
▁Christ	-2467
că	-2468
ুমি	-2469
▁во	-2470
oney	-2471
viron	-2472
▁দিল	-2473
চনা	-2474
to	-2475
ards	-2476
ুলে	-2477
▁কেন্দ্র	-2478
▁bre	-2479
ffen	-2480
▁নিয়	-2481
▁el	-2482
▁yet	-2483
▁another	-2484
ling	-2485
itor	-2486
öff	-2487
reg	-2488
lease	-2489
জা	-2490
▁einz	-2491
lick	-2492
▁Med	-2493
গুলি	-2494
ersch	-2495
▁cult	-2496
used	-2497
ination	-2498
este	-2499
▁bef	-2500
ত্যা	-2501
▁anderen	-2502
▁অভিন	-2503
▁issue	-2504
▁aff	-2505
▁author	-2506
▁হয়নি	-2507
alls	-2508
ology	-2509
▁redu	-2510
▁লক্ষ	-2511
▁для	-2512
▁health	-2513
▁হাসপাত	-2514
ব্য	-2515
▁Rat	-2516
▁free	-2517
▁Prime	-2518
▁versch	-2519
সি	-2520
mal	-2521
▁সক	-2522
▁করেছিলেন	-2523
war	-2524
kommen	-2525
▁Amer	-2526
▁certain	-2527
▁৫	-2528
▁ঈশ	-2529
কারী	-2530
isk	-2531
erson	-2532
▁neg	-2533
▁eas	-2534
▁স্ট	-2535
ständ	-2536
ভাগ	-2537
ামী	-2538
লেন	-2539
▁মন	-2540
ett	-2541
oot	-2542
▁«	-2543
▁З	-2544
ha	-2545
chten	-2546
▁Do	-2547
pol	-2548
▁inj	-2549
▁Ä	-2550
▁দল	-2551
vironment	-2552
▁course	-2553
▁বাই	-2554
▁এসে	-2555
পুর	-2556
earch	-2557
▁compet	-2558
ohl	-2559
▁ছবি	-2560
▁Proble	-2561
ischer	-2562
uer	-2563
▁আগে	-2564
▁among	-2565
▁৪	-2566
▁word	-2567
ps	-2568
raft	-2569
▁শহ	-2570
▁His	-2571
enz	-2572
▁Mitgliedstaaten	-2573
▁done	-2574
unkt	-2575
বেশ	-2576
▁men	-2577
▁modern	-2578
▁success	-2579
▁To	-2580
▁Komm	-2581
▁trad	-2582
েলা	-2583
▁au	-2584
ender	-2585
▁therefore	-2586
ষ্টি	-2587
▁citiz	-2588
ivid	-2589
▁weiter	-2590
ichts	-2591
▁services	-2592
▁Ph	-2593
ওয়	-2594
▁ін	-2595
JP	-2596
শ্য	-2597
▁ents	-2598
▁ভালো	-2599
▁sever	-2600
াস্থ	-2601
▁const	-2602
▁pri	-2603
কি	-2604
▁discuss	-2605
aţ	-2606
▁বড়	-2607
row	-2608
▁example	-2609
tra	-2610
▁Ag	-2611
▁ві	-2612
со	-2613
▁11	-2614
▁înt	-2615
▁expl	-2616
weise	-2617
আই	-2618
▁immer	-2619
▁বৈ	-2620
▁become	-2621
▁vi	-2622
eschl	-2623
▁роз	-2624
▁det	-2625
use	-2626
▁around	-2627
▁team	-2628
▁month	-2629
▁তৈ	-2630
▁available	-2631
▁others	-2632
▁service	-2633
▁build	-2634
▁land	-2635
▁Cent	-2636
incip	-2637
▁means	-2638
yp	-2639
elor	-2640
▁А	-2641
ived	-2642
rateg	-2643
▁four	-2644
▁matter	-2645
য়োজন	-2646
wards	-2647
▁গুরু	-2648
mb	-2649
ellt	-2650
▁Res	-2651
দন্ত	-2652
▁show	-2653
nect	-2654
▁Über	-2655
▁always	-2656
▁Wenn	-2657
▁ঘটনা	-2658
änder	-2659
self	-2660
ted	-2661
▁তুমি	-2662
▁Seit	-2663
▁action	-2664
▁let	-2665
িস্ট	-2666
▁things	-2667
▁পরিবার	-2668
▁dann	-2669
লার	-2670
▁ele	-2671
immer	-2672
এস	-2673
geben	-2674
nder	-2675
llen	-2676
▁Zusammen	-2677
agement	-2678
েলে	-2679
▁নির্বা	-2680
▁Inter	-2681
legen	-2682
oman	-2683
inn	-2684
▁ছে	-2685
▁ф	-2686
сти	-2687
unic	-2688
ential	-2689
▁allow	-2690
িতা	-2691
বিদ	-2692
bu	-2693
চ্চ	-2694
রিক	-2695
▁আন	-2696
ined	-2697
▁days	-2698
এর	-2699
▁friend	-2700
▁impro	-2701
▁ми	-2702
▁ব্যক্তি	-2703
iversity	-2704
▁BJP	-2705
▁coop	-2706
uri	-2707
▁change	-2708
▁mult	-2709
▁সত্য	-2710
▁হলে	-2711
▁beh	-2712
chts	-2713
▁উত্তর	-2714
▁gest	-2715
▁vot	-2716
▁local	-2717
▁г	-2718
▁মাধ্যমে	-2719
▁може	-2720
til	-2721
▁তোমাদের	-2722
ußer	-2723
▁grow	-2724
▁%	-2725
akt	-2726
▁ach	-2727
ustom	-2728
itive	-2729
▁death	-2730
dem	-2731
ability	-2732
▁My	-2733
си	-2734
iod	-2735
▁প্রদ	-2736
▁book	-2737
▁inform	-2738
▁দেয়	-2739
▁fest	-2740
ements	-2741
ule	-2742
▁members	-2743
▁е	-2744
▁pat	-2745
ধারণ	-2746
zent	-2747
ple	-2748
iter	-2749
▁:	-2750
inal	-2751
▁যুক্ত	-2752
isen	-2753
ugh	-2754
olution	-2755
▁diesen	-2756
uring	-2757
nahmen	-2758
▁damit	-2759
▁Haus	-2760
▁যারা	-2761
öglich	-2762
ită	-2763
▁й	-2764
▁United	-2765
▁adop	-2766
ogra	-2767
▁control	-2768
ті	-2769
াক্ষ	-2770
▁0	-2771
▁wieder	-2772
inder	-2773
▁পারেন	-2774
the	-2775
▁14	-2776
▁implement	-2777
▁China	-2778
▁run	-2779
▁Tur	-2780
▁zwe	-2781
▁refer	-2782
▁চাই	-2783
▁বিজে	-2784
▁ভাই	-2785
▁স্থান	-2786
ють	-2787
▁গো	-2788
▁better	-2789
▁estab	-2790
▁পাকিস্ত	-2791
▁সাহা	-2792
ন্তর্	-2793
▁wurden	-2794
▁chang	-2795
adt	-2796
কম	-2797
▁several	-2798
▁head	-2799
▁ব্র	-2800
▁sent	-2801
ilt	-2802
▁Not	-2803
▁উদ্	-2804
cut	-2805
▁financial	-2806
▁ganz	-2807
▁Welt	-2808
сть	-2809
▁চলে	-2810
ising	-2811
▁pres	-2812
▁Hand	-2813
▁Gu	-2814
че	-2815
ane	-2816
▁cost	-2817
ীতি	-2818
iety	-2819
▁money	-2820
▁গ্রে	-2821
▁বিশেষ	-2822
▁World	-2823
▁Б	-2824
ată	-2825
▁away	-2826
▁মতো	-2827
▁sk	-2828
▁democ	-2829
▁করবে	-2830
ames	-2831
ica	-2832
▁beste	-2833
icherheit	-2834
ior	-2835
▁আপনার	-2836
ве	-2837
সং	-2838
▁princip	-2839
▁old	-2840
▁invol	-2841
▁Frau	-2842
▁sing	-2843
ষ্টা	-2844
gab	-2845
je	-2846
▁চার	-2847
পতি	-2848
▁мі	-2849
ruck	-2850
пи	-2851
▁design	-2852
▁further	-2853
▁crit	-2854
▁appe	-2855
oad	-2856
▁really	-2857
▁accept	-2858
ত্ম	-2859
▁security	-2860
fr	-2861
▁feel	-2862
por	-2863
mit	-2864
▁Mon	-2865
ana	-2866
▁called	-2867
cri	-2868
▁data	-2869
▁উঠ	-2870
▁hope	-2871
▁সাহায	-2872
ches	-2873
▁উল	-2874
▁পাঠ	-2875
টাই	-2876
▁У	-2877
zeich	-2878
udget	-2879
▁ре	-2880
ining	-2881
▁pay	-2882
hne	-2883
iche	-2884
▁understand	-2885
▁হন	-2886
▁achie	-2887
▁areas	-2888
▁hal	-2889
iation	-2890
▁Information	-2891
▁pract	-2892
▁init	-2893
öß	-2894
▁common	-2895
▁bra	-2896
▁got	-2897
▁necess	-2898
▁মূল	-2899
▁Diese	-2900
▁took	-2901
▁30	-2902
trag	-2903
inen	-2904
▁Our	-2905
▁turn	-2906
▁citizens	-2907
▁প্রায়	-2908
▁Dem	-2909
▁large	-2910
▁মাম	-2911
▁Su	-2912
innen	-2913
па	-2914
▁house	-2915
▁পেয়ে	-2916
ehen	-2917
eld	-2918
▁এখনও	-2919
ুত	-2920
uge	-2921
▁হার	-2922
াঁ	-2923
▁ভারতীয়	-2924
▁bene	-2925
▁16	-2926
ান্য	-2927
▁ক্ষেত্রে	-2928
ya	-2929
▁tot	-2930
▁করেছিল	-2931
▁বু	-2932
▁individ	-2933
ного	-2934
piel	-2935
ändern	-2936
▁sl	-2937
ভার	-2938
ante	-2939
▁toget	-2940
▁ভূ	-2941
ন্ট	-2942
▁return	-2943
▁environment	-2944
tens	-2945
▁global	-2946
▁kein	-2947
тися	-2948
▁together	-2949
arn	-2950
▁то	-2951
ба	-2952
▁unserer	-2953
▁arrested	-2954
▁integ	-2955
lus	-2956
ente	-2957
▁пере	-2958
utes	-2959
▁exist	-2960
▁সালের	-2961
▁17	-2962
▁এস	-2963
ুণ	-2964
ode	-2965
▁Ste	-2966
▁One	-2967
▁Mad	-2968
nde	-2969
▁দ্বারা	-2970
▁Bes	-2971
▁সেখানে	-2972
▁fore	-2973
▁hospital	-2974
pecial	-2975
▁ব্যবস্থা	-2976
▁attack	-2977
▁Geb	-2978
০০	-2979
▁করছে	-2980
wh	-2981
▁পৌ	-2982
▁ї	-2983
▁After	-2984
allen	-2985
▁sonder	-2986
▁є	-2987
so	-2988
fect	-2989
▁ба	-2990
▁Bet	-2991
▁educ	-2992
িয়ার	-2993
▁State	-2994
▁Best	-2995
▁opport	-2996
▁official	-2997
ternehmen	-2998
▁ফির	-2999
▁13	-3000
▁বছর	-3001
issen	-3002
▁আজ	-3003
িটি	-3004
len	-3005
▁near	-3006
▁habe	-3007
afts	-3008
▁employ	-3009
▁Ass	-3010
ensch	-3011
ER	-3012
▁connect	-3013
wort	-3014
▁body	-3015
▁sondern	-3016
▁এতে	-3017
▁something	-3018
▁Europäische	-3019
াতীয়	-3020
▁suf	-3021
▁Schl	-3022
▁known	-3023
▁rul	-3024
ald	-3025
িত্ব	-3026
ili	-3027
▁media	-3028
▁ফলে	-3029
emeins	-3030
োম	-3031
▁energy	-3032
aterial	-3033
▁Ant	-3034
▁/	-3035
▁sec	-3036
▁stay	-3037
isl	-3038
▁working	-3039
▁tour	-3040
▁ঠিক	-3041
itä	-3042
gress	-3043
▁National	-3044
▁seine	-3045
▁দিকে	-3046
▁problems	-3047
ând	-3048
sche	-3049
▁dont	-3050
▁Maß	-3051
▁talk	-3052
▁ঢ	-3053
▁উপর	-3054
▁These	-3055
part	-3056
▁jedoch	-3057
টের	-3058
ুই	-3059
▁অথ	-3060
laub	-3061
elf	-3062
▁decision	-3063
ites	-3064
দে	-3065
rodu	-3066
ftware	-3067
mar	-3068
ীর্	-3069
▁mus	-3070
▁কখন	-3071
▁দেশের	-3072
▁ঘো	-3073
itional	-3074
lam	-3075
ubl	-3076
াবে	-3077
▁object	-3078
ড়িয়ে	-3079
গে	-3080
▁lot	-3081
org	-3082
ritt	-3083
োহ	-3084
▁keep	-3085
▁সর্ব	-3086
▁try	-3087
osed	-3088
▁school	-3089
iner	-3090
▁আব	-3091
erk	-3092
▁gel	-3093
ীতে	-3094
▁ঝ	-3095
minist	-3096
atur	-3097
▁Aut	-3098
▁উন্ন	-3099
▁food	-3100
▁25	-3101
selves	-3102
▁পরিচাল	-3103
▁reason	-3104
In	-3105
▁নিশ্চ	-3106
▁мож	-3107
ux	-3108
▁Modi	-3109
▁Bür	-3110
ivil	-3111
▁various	-3112
ises	-3113
্যার	-3114
▁আইন	-3115
▁fr	-3116
▁provide	-3117
▁express	-3118
▁custom	-3119
▁needs	-3120
্যাম	-3121
▁eng	-3122
▁products	-3123
ুঁ	-3124
▁etw	-3125
ideo	-3126
িন্দ	-3127
reng	-3128
▁wür	-3129
wor	-3130
▁demand	-3131
richt	-3132
▁ber	-3133
sicht	-3134
▁ger	-3135
öglichkeit	-3136
▁dou	-3137
bens	-3138
▁whe	-3139
▁role	-3140
▁মাস	-3141
come	-3142
্বে	-3143
ohn	-3144
▁—	-3145
▁neue	-3146
▁лю	-3147
pend	-3148
▁দক্ষ	-3149
ме	-3150
▁স্ক	-3151
▁Sing	-3152
▁মি	-3153
сті	-3154
▁applic	-3155
iß	-3156
▁meeting	-3157
irm	-3158
від	-3159
▁heute	-3160
enen	-3161
ঙ্ক	-3162
▁abs	-3163
▁শাস	-3164
rim	-3165
▁পৃ	-3166
AT	-3167
▁less	-3168
▁Program	-3169
▁contrib	-3170
▁পূর্	-3171
্রম	-3172
ources	-3173
ively	-3174
än	-3175
িকি	-3176
▁пра	-3177
▁langu	-3178
ately	-3179
▁relations	-3180
ăt	-3181
▁Form	-3182
co	-3183
▁list	-3184
▁শ্রী	-3185
olid	-3186
се	-3187
সা	-3188
▁Vorschl	-3189
▁visit	-3190
▁দেন	-3191
▁X	-3192
▁prop	-3193
▁Com	-3194
ফল	-3195
▁Bereich	-3196
▁fi	-3197
▁প্রতিষ্ঠ	-3198
▁company	-3199
▁pot	-3200
▁প্রক	-3201
▁কল	-3202
ued	-3203
arte	-3204
▁সম্ম	-3205
▁milit	-3206
ীরা	-3207
▁Bl	-3208
ণের	-3209
▁দিতে	-3210
eb	-3211
ify	-3212
▁টি	-3213
▁big	-3214
▁পরিস	-3215
▁love	-3216
▁thank	-3217
▁সদস্য	-3218
▁instit	-3219
শন	-3220
▁tem	-3221
gel	-3222
▁region	-3223
াকার	-3224
opp	-3225
▁ident	-3226
off	-3227
▁Sta	-3228
দার	-3229
äng	-3230
িত্র	-3231
▁বিশ্বাস	-3232
ficult	-3233
▁অর্	-3234
▁ace	-3235
лу	-3236
▁আলো	-3237
▁পাওয়া	-3238
▁Teil	-3239
ittle	-3240
▁mor	-3241
▁Cong	-3242
▁ange	-3243
▁Its	-3244
har	-3245
pf	-3246
▁ра	-3247
ষণা	-3248
▁Commissioner	-3249
▁press	-3250
▁wen	-3251
▁Î	-3252
▁৬	-3253
entlich	-3254
▁came	-3255
▁নির্বাচ	-3256
পূর্ণ	-3257
▁2009	-3258
▁Bel	-3259
▁difficult	-3260
▁strong	-3261
▁যাবে	-3262
▁তাঁকে	-3263
engal	-3264
fra	-3265
্ধ	-3266
ele	-3267
▁Internet	-3268
▁full	-3269
▁তোমার	-3270
▁treat	-3271
েন্দ্র	-3272
▁bereits	-3273
▁বলা	-3274
▁সিদ্ধ	-3275
▁প্রয়োজন	-3276
▁জাতীয়	-3277
▁Del	-3278
▁investig	-3279
▁job	-3280
▁account	-3281
ор	-3282
▁general	-3283
▁সাধারণ	-3284
▁স্প	-3285
riff	-3286
▁times	-3287
▁left	-3288
▁বর্	-3289
▁Aust	-3290
▁স্ত	-3291
▁opt	-3292
▁ans	-3293
joy	-3294
▁তদন্ত	-3295
ollen	-3296
amer	-3297
▁lim	-3298
▁System	-3299
▁br	-3300
▁particip	-3301
▁selbst	-3302
▁Jes	-3303
,""	-3304
▁під	-3305
ăm	-3306
▁fost	-3307
িশু	-3308
▁ম্যা	-3309
10	-3310
kehr	-3311
▁сво	-3312
yn	-3313
▁mich	-3314
▁Allah	-3315
▁নার	-3316
▁অনুষ্ঠ	-3317
▁International	-3318
ser	-3319
▁Mitt	-3320
lage	-3321
সের	-3322
▁necessary	-3323
▁short	-3324
▁mot	-3325
ours	-3326
▁represent	-3327
▁Can	-3328
▁va	-3329
▁road	-3330
ৈতিক	-3331
▁সাহায্য	-3332
▁prot	-3333
▁Serv	-3334
▁might	-3335
▁started	-3336
▁তথ	-3337
▁measures	-3338
▁তৈরি	-3339
▁রাজন	-3340
▁তাঁদের	-3341
▁plan	-3342
ched	-3343
ca	-3344
▁সেটা	-3345
▁আমাকে	-3346
ăr	-3347
▁ihrer	-3348
▁wichtig	-3349
▁জানান	-3350
▁Vers	-3351
",	-3352
▁কারণে	-3353
ither	-3354
ci	-3355
▁গেছে	-3356
▁Tra	-3357
▁sollte	-3358
▁তোমরা	-3359
▁দুর্	-3360
osten	-3361
▁führ	-3362
▁Government	-3363
laim	-3364
folg	-3365
sequ	-3366
akes	-3367
▁fol	-3368
cheid	-3369
▁whole	-3370
bed	-3371
স্ক	-3372
▁ча	-3373
▁pra	-3374
sh	-3375
েলার	-3376
▁এখানে	-3377
uter	-3378
▁sector	-3379
ায়ী	-3380
▁field	-3381
ti	-3382
äre	-3383
ন্ম	-3384
▁Committee	-3385
▁based	-3386
▁neuen	-3387
▁young	-3388
▁due	-3389
▁হাসপাতালে	-3390
▁europäischen	-3391
atch	-3392
▁minister	-3393
▁ста	-3394
্যাপ	-3395
দন	-3396
oor	-3397
увати	-3398
bes	-3399
▁ohne	-3400
▁interest	-3401
▁event	-3402
▁Trans	-3403
▁ইতি	-3404
▁রাজ্য	-3405
▁Rep	-3406
▁agreement	-3407
200	-3408
▁kind	-3409
▁অফ	-3410
▁dest	-3411
▁খবর	-3412
су	-3413
▁position	-3414
▁চিন	-3415
▁Jahren	-3416
▁complet	-3417
▁де	-3418
▁রাষ্ট্র	-3419
▁ভাষ	-3420
▁го	-3421
▁Pal	-3422
▁Cl	-3423
▁মৃত্যু	-3424
ву	-3425
▁ছাড়া	-3426
etzen	-3427
▁О	-3428
▁viol	-3429
▁Sc	-3430
ober	-3431
▁বহ	-3432
▁proper	-3433
▁period	-3434
▁ти	-3435
пе	-3436
▁জানা	-3437
▁enc	-3438
▁peace	-3439
▁amend	-3440
▁Arbeits	-3441
▁Person	-3442
ierte	-3443
▁quality	-3444
▁proposal	-3445
uten	-3446
▁expect	-3447
▁Ter	-3448
▁following	-3449
für	-3450
▁andere	-3451
▁Richt	-3452
bew	-3453
abil	-3454
▁Jesus	-3455
▁ensure	-3456
চে	-3457
1.	-3458
▁24	-3459
জাত	-3460
atter	-3461
▁continue	-3462
▁million	-3463
্বরের	-3464
▁cho	-3465
▁perform	-3466
▁ausge	-3467
hn	-3468
ীল	-3469
▁mean	-3470
▁পি	-3471
▁little	-3472
buie	-3473
üb	-3474
ehm	-3475
▁debate	-3476
▁zwei	-3477
".	-3478
খান	-3479
ধা	-3480
▁comb	-3481
▁আট	-3482
жа	-3483
▁won	-3484
▁orig	-3485
জার	-3486
▁son	-3487
▁nothing	-3488
▁Qu	-3489
ences	-3490
▁budget	-3491
▁хо	-3492
▁প্রস	-3493
▁using	-3494
▁Bank	-3495
▁research	-3496
্তা	-3497
▁denn	-3498
▁along	-3499
ait	-3500
▁ধরে	-3501
reichen	-3502
▁হাজ	-3503
ander	-3504
▁legal	-3505
▁ডি	-3506
▁win	-3507
▁rele	-3508
▁letz	-3509
▁একই	-3510
satz	-3511
rael	-3512
bsite	-3513
াইন	-3514
uchen	-3515
▁Entwicklung	-3516
раї	-3517
ন্ত্রণ	-3518
▁gar	-3519
▁soon	-3520
omat	-3521
ras	-3522
▁eigen	-3523
hm	-3524
zeug	-3525
▁ні	-3526
immt	-3527
▁ben	-3528
ban	-3529
ংগ	-3530
▁অবশ্য	-3531
▁gener	-3532
▁denen	-3533
▁Air	-3534
▁seen	-3535
ichte	-3536
▁Stand	-3537
▁inn	-3538
▁UN	-3539
▁often	-3540
▁গ্রহণ	-3541
▁profess	-3542
▁যার	-3543
,000	-3544
ude	-3545
▁address	-3546
▁শুধ	-3547
রাষ্ট্র	-3548
▁injured	-3549
▁serious	-3550
▁”	-3551
schied	-3552
▁তাহ	-3553
ense	-3554
▁transport	-3555
▁Sicherheit	-3556
▁sollten	-3557
▁War	-3558
fahren	-3559
▁legisl	-3560
idence	-3561
▁Mal	-3562
amb	-3563
▁Frage	-3564
▁অন্যান্য	-3565
urg	-3566
fass	-3567
istry	-3568
▁সিদ্ধান্ত	-3569
▁জীবন	-3570
▁finden	-3571
▁says	-3572
▁compl	-3573
▁Bengal	-3574
▁histor	-3575
▁Jan	-3576
▁key	-3577
▁gemeins	-3578
три	-3579
vention	-3580
▁tell	-3581
aster	-3582
▁making	-3583
▁সার	-3584
erea	-3585
by	-3586
▁Kont	-3587
▁enter	-3588
▁verschied	-3589
▁party	-3590
▁Kommiss	-3591
১৯	-3592
▁top	-3593
▁মিল	-3594
▁möglich	-3595
▁Sa	-3596
irit	-3597
▁Sw	-3598
▁non	-3599
ierten	-3600
▁Ц	-3601
ক্রম	-3602
▁consum	-3603
fre	-3604
▁dev	-3605
▁Then	-3606
▁held	-3607
ances	-3608
▁পে	-3609
▁Was	-3610
ুগ	-3611
▁gleich	-3612
্লি	-3613
asing	-3614
äß	-3615
▁গুরুত্ব	-3616
licher	-3617
dom	-3618
▁বস	-3619
িকিৎস	-3620
ization	-3621
ondere	-3622
▁পাশ	-3623
aint	-3624
ährend	-3625
▁issues	-3626
▁third	-3627
rab	-3628
চিত্র	-3629
side	-3630
endra	-3631
fach	-3632
▁net	-3633
▁Congress	-3634
▁আত্ম	-3635
োভ	-3636
ুট	-3637
iten	-3638
িত্ত	-3639
্থিত	-3640
▁ка	-3641
িয়ান	-3642
িল্প	-3643
ature	-3644
ricult	-3645
িণ	-3646
লি	-3647
▁fav	-3648
▁দৃ	-3649
▁পারি	-3650
okrat	-3651
▁Ital	-3652
▁five	-3653
▁হওয়ার	-3654
▁২০০	-3655
▁begin	-3656
োস	-3657
oment	-3658
▁চেষ্টা	-3659
▁relig	-3660
füg	-3661
▁mind	-3662
▁whether	-3663
▁буде	-3664
nte	-3665
▁বাক	-3666
▁killed	-3667
▁যদিও	-3668
▁unterstütz	-3669
▁পরিবর্ত	-3670
бе	-3671
nahme	-3672
▁Khan	-3673
্ভব	-3674
▁died	-3675
▁jo	-3676
▁face	-3677
▁prim	-3678
▁anything	-3679
তম	-3680
▁West	-3681
▁vote	-3682
▁court	-3683
kra	-3684
▁50	-3685
▁May	-3686
▁personal	-3687
▁current	-3688
িলা	-3689
▁În	-3690
▁Bürger	-3691
▁individual	-3692
▁offers	-3693
▁ধরনের	-3694
▁night	-3695
▁Comp	-3696
▁extre	-3697
▁bietet	-3698
▁reform	-3699
▁South	-3700
▁aller	-3701
▁tax	-3702
▁district	-3703
▁ওপর	-3704
▁Raj	-3705
ults	-3706
▁sus	-3707
▁যান	-3708
ea	-3709
▁চিকিৎস	-3710
▁doing	-3711
▁Your	-3712
▁সেন	-3713
▁accused	-3714
▁deal	-3715
▁Group	-3716
]]	-3717
ij	-3718
▁link	-3719
্লেখ	-3720
▁enjoy	-3721
pecially	-3722
кий	-3723
umb	-3724
EN	-3725
єте	-3726
▁kle	-3727
▁doc	-3728
▁ঐ	-3729
ুখ	-3730
▁Stra	-3731
zahl	-3732
▁news	-3733
ucht	-3734
▁বর্ত	-3735
▁উদ্ধ	-3736
▁cooperation	-3737
ott	-3738
ienst	-3739
▁Gl	-3740
icle	-3741
▁Ener	-3742
ached	-3743
▁100	-3744
▁sum	-3745
▁ш	-3746
▁occ	-3747
▁Cour	-3748
ners	-3749
ভূ	-3750
▁dazu	-3751
▁লাগ	-3752
▁until	-3753
▁об	-3754
go	-3755
▁па	-3756
ograph	-3757
aments	-3758
зи	-3759
▁sure	-3760
▁gem	-3761
ließ	-3762
▁গণ	-3763
ється	-3764
xim	-3765
ara	-3766
arch	-3767
▁উল্লেখ	-3768
mitted	-3769
▁গত	-3770
ari	-3771
icket	-3772
▁ঘটনায়	-3773
▁উপস্থ	-3774
▁least	-3775
▁করুন	-3776
:1	-3777
▁located	-3778
ison	-3779
▁এরপর	-3780
▁streng	-3781
ably	-3782
▁liegt	-3783
▁Ac	-3784
▁নিজের	-3785
▁কর্ত	-3786
▁viele	-3787
▁geb	-3788
ispiel	-3789
থায়	-3790
▁allen	-3791
ipp	-3792
▁facil	-3793
▁machen	-3794
бу	-3795
▁ধর্ম	-3796
▁বিদ	-3797
▁Nar	-3798
▁vill	-3799
▁weil	-3800
▁যেতে	-3801
ক্রান্ত	-3802
eut	-3803
▁leaders	-3804
▁benef	-3805
ktiv	-3806
▁মত	-3807
itness	-3808
▁pur	-3809
ony	-3810
▁speak	-3811
▁experience	-3812
irc	-3813
▁Änder	-3814
зна	-3815
াতা	-3816
▁dra	-3817
▁দর	-3818
▁former	-3819
কাল	-3820
isions	-3821
▁2010	-3822
ogn	-3823
▁subject	-3824
্যাক	-3825
▁Sy	-3826
▁পো	-3827
вати	-3828
▁thing	-3829
ush	-3830
osition	-3831
ারের	-3832
▁hard	-3833
▁Dh	-3834
োনা	-3835
ahre	-3836
politik	-3837
ього	-3838
▁জা	-3839
▁198	-3840
stellung	-3841
▁х	-3842
zug	-3843
▁bin	-3844
▁আহত	-3845
▁Just	-3846
▁class	-3847
most	-3848
▁লাভ	-3849
aka	-3850
▁protection	-3851
bt	-3852
▁lab	-3853
▁পরিস্থিত	-3854
irl	-3855
isis	-3856
▁যেন	-3857
ktur	-3858
▁গেল	-3859
▁(1	-3860
▁তথ্য	-3861
▁বিপ	-3862
▁trade	-3863
▁seiner	-3864
▁দাবি	-3865
airs	-3866
nisse	-3867
▁close	-3868
▁dom	-3869
▁heart	-3870
eres	-3871
örder	-3872
▁fight	-3873
▁Dire	-3874
aher	-3875
ES	-3876
тя	-3877
▁include	-3878
▁entire	-3879
ৃতি	-3880
▁darauf	-3881
▁Israel	-3882
▁told	-3883
rop	-3884
▁sunt	-3885
ismus	-3886
▁পরী	-3887
ші	-3888
▁bank	-3889
los	-3890
▁Kol	-3891
▁ang	-3892
▁Unternehmen	-3893
▁আবার	-3894
roll	-3895
▁অথবা	-3896
▁Techn	-3897
work	-3898
▁trebuie	-3899
▁Möglichkeit	-3900
▁once	-3901
▁চেয়ে	-3902
▁jetzt	-3903
▁টাকা	-3904
▁bek	-3905
▁নর	-3906
বর্তী	-3907
▁Ziel	-3908
▁true	-3909
▁gesch	-3910
uh	-3911
▁ple	-3912
stellen	-3913
▁cele	-3914
াক্ত	-3915
▁live	-3916
▁সৃ	-3917
▁House	-3918
annt	-3919
▁সম্পর্	-3920
ţii	-3921
▁größ	-3922
▁administ	-3923
▁কার্য	-3924
▁লেখ	-3925
▁town	-3926
▁week	-3927
uly	-3928
▁father	-3929
▁Finanz	-3930
▁৭	-3931
▁towards	-3932
▁[[	-3933
▁তাহলে	-3934
▁ঈশ্বরের	-3935
eg	-3936
▁video	-3937
▁prior	-3938
▁পু	-3939
▁spot	-3940
ডি	-3941
▁2008	-3942
ops	-3943
▁final	-3944
▁Ukra	-3945
▁জি	-3946
▁vir	-3947
▁hear	-3948
rug	-3949
▁fail	-3950
কর্ত	-3951
▁''	-3952
▁Many	-3953
্টি	-3954
▁সমস	-3955
▁Cor	-3956
▁হাম	-3957
uz	-3958
▁পান	-3959
▁taking	-3960
affen	-3961
▁নির্দেশ	-3962
▁protect	-3963
▁fire	-3964
▁private	-3965
কর	-3966
igur	-3967
▁Islam	-3968
▁পৃথ	-3969
▁Lage	-3970
▁або	-3971
▁উৎস	-3972
вер	-3973
▁camp	-3974
grund	-3975
▁spirit	-3976
▁Inst	-3977
▁seem	-3978
▁president	-3979
text	-3980
▁Every	-3981
ification	-3982
ків	-3983
▁mir	-3984
ємо	-3985
lie	-3986
▁komm	-3987
-1	-3988
▁University	-3989
গুলোর	-3990
গুলির	-3991
▁দূ	-3992
oto	-3993
▁sicher	-3994
▁Gew	-3995
▁Sal	-3996
▁geht	-3997
▁past	-3998
though	-3999
ften	-4000
▁crisis	-4001
▁claim	-4002
rauch	-4003
▁সম্প্র	-4004
▁San	-4005
hält	-4006
▁সাক্ষ	-4007
AN	-4008
▁Maßnahmen	-4009
ষে	-4010
হাস	-4011
▁শে	-4012
▁দক্ষিণ	-4013
▁ді	-4014
hod	-4015
▁Cons	-4016
ones	-4017
my	-4018
▁introdu	-4019
▁сп	-4020
▁upon	-4021
▁especially	-4022
▁সূ	-4023
▁schon	-4024
▁বিজেপি	-4025
▁colle	-4026
▁production	-4027
াইল	-4028
ংগ্রে	-4029
▁progress	-4030
▁cases	-4031
edom	-4032
▁Kos	-4033
ateg	-4034
ন্ধে	-4035
▁মার্ক	-4036
▁happened	-4037
pur	-4038
স্কার	-4039
fet	-4040
2.	-4041
▁students	-4042
etzung	-4043
▁Court	-4044
▁single	-4045
schließ	-4046
▁strength	-4047
▁Ur	-4048
lä	-4049
ici	-4050
We	-4051
▁Informationen	-4052
▁Ч	-4053
▁Delhi	-4054
öl	-4055
▁Brit	-4056
▁increase	-4057
▁sy	-4058
▁чи	-4059
▁Bible	-4060
▁Daten	-4061
▁হিসাবে	-4062
ায়ক	-4063
▁নিজে	-4064
▁বিচার	-4065
▁Mein	-4066
▁proced	-4067
bo	-4068
▁Some	-4069
▁Acc	-4070
aften	-4071
▁Stud	-4072
েনে	-4073
▁নিরা	-4074
▁require	-4075
▁মাল	-4076
▁vict	-4077
uck	-4078
▁terms	-4079
▁dri	-4080
iune	-4081
▁aceste	-4082
▁খা	-4083
▁befind	-4084
্যাস	-4085
▁pun	-4086
ovo	-4087
ialog	-4088
▁went	-4089
▁আহ	-4090
▁Kr	-4091
▁remain	-4092
▁করবেন	-4093
▁си	-4094
▁খান	-4095
▁tri	-4096
жи	-4097
▁Spe	-4098
50	-4099
▁ду	-4100
ican	-4101
▁exam	-4102
▁ক্রিকে	-4103
▁having	-4104
বিদ্যাল	-4105
ka	-4106
IN	-4107
▁বো	-4108
মার	-4109
আর	-4110
▁Rahmen	-4111
▁dafür	-4112
▁দেখে	-4113
▁create	-4114
▁Port	-4115
▁দি	-4116
ival	-4117
▁বুঝ	-4118
▁সম্ভব	-4119
▁মানুষের	-4120
▁einige	-4121
▁ever	-4122
▁industry	-4123
▁কংগ্রে	-4124
vent	-4125
ক্ষণ	-4126
cent	-4127
abei	-4128
▁щоб	-4129
▁Rechts	-4130
▁history	-4131
▁নেওয়া	-4132
িতীয়	-4133
ря	-4134
▁cal	-4135
▁detail	-4136
▁Red	-4137
▁basis	-4138
gie	-4139
▁সরকারের	-4140
▁Who	-4141
▁conditions	-4142
▁গান	-4143
▁সমস্যা	-4144
▁El	-4145
ції	-4146
▁Stadt	-4147
▁и	-4148
▁Herrn	-4149
ätz	-4150
▁তুলে	-4151
ungsant	-4152
▁তারপর	-4153
াধীন	-4154
▁да	-4155
ference	-4156
▁sw	-4157
▁everything	-4158
▁voll	-4159
ানোর	-4160
▁hold	-4161
▁অঞ্চ	-4162
▁Nov	-4163
▁aim	-4164
▁চলচ্	-4165
▁education	-4166
St	-4167
▁cred	-4168
▁became	-4169
▁aceast	-4170
▁যিহোবার	-4171
ories	-4172
▁1.	-4173
▁সমস্ত	-4174
▁সন্ত	-4175
▁mag	-4176
▁বিভাগ	-4177
▁prec	-4178
apan	-4179
▁Verein	-4180
▁jud	-4181
েশন	-4182
▁১০	-4183
ruction	-4184
aged	-4185
aupt	-4186
▁rooms	-4187
▁ze	-4188
▁seit	-4189
▁companies	-4190
amil	-4191
ledge	-4192
▁Organ	-4193
▁bar	-4194
▁gef	-4195
▁Gra	-4196
▁Singh	-4197
▁zurück	-4198
ază	-4199
▁ці	-4200
▁Act	-4201
▁particularly	-4202
ionen	-4203
▁teach	-4204
▁Zimmer	-4205
▁öff	-4206
▁words	-4207
unft	-4208
ম্প	-4209
бі	-4210
▁বাহ	-4211
ichten	-4212
▁খেল	-4213
ব্দ	-4214
▁বিষয়টি	-4215
▁উচিত	-4216
▁Ob	-4217
▁King	-4218
▁material	-4219
▁Р	-4220
orte	-4221
▁div	-4222
▁Mittel	-4223
▁আদাল	-4224
▁Afric	-4225
▁norm	-4226
/0	-4227
▁які	-4228
uth	-4229
▁struct	-4230
▁beaut	-4231
fts	-4232
lichkeit	-4233
মিত	-4234
lungs	-4235
▁UE	-4236
▁শিক্ষা	-4237
▁По	-4238
▁break	-4239
▁ihren	-4240
▁দলের	-4241
ării	-4242
▁|	-4243
▁ir	-4244
▁line	-4245
▁recogn	-4246
ique	-4247
▁dead	-4248
ারি	-4249
▁ren	-4250
chan	-4251
imate	-4252
▁Serb	-4253
▁বিশ্ববিদ্যাল	-4254
তের	-4255
▁nun	-4256
ints	-4257
alen	-4258
tain	-4259
▁আধ	-4260
▁Bo	-4261
lete	-4262
ছাড়া	-4263
rup	-4264
▁High	-4265
▁months	-4266
ira	-4267
▁moment	-4268
ying	-4269
isierung	-4270
▁text	-4271
▁ভিড	-4272
▁সময়ে	-4273
▁km	-4274
▁Ми	-4275
রী	-4276
▁allem	-4277
ichter	-4278
▁সভা	-4279
▁সিং	-4280
▁light	-4281
▁wo	-4282
▁mess	-4283
▁port	-4284
▁Jahre	-4285
30	-4286
▁specific	-4287
▁mention	-4288
erc	-4289
▁হই	-4290
punkt	-4291
▁test	-4292
▁Lord	-4293
▁Sk	-4294
tember	-4295
ীকার	-4296
welt	-4297
▁asked	-4298
েহ	-4299
▁announ	-4300
duct	-4301
aum	-4302
▁total	-4303
▁’	-4304
▁পুন	-4305
▁197	-4306
▁opin	-4307
▁Dec	-4308
ще	-4309
▁স্থানীয়	-4310
েনি	-4311
▁কেন্দ্রীয়	-4312
▁উদ্ধার	-4313
ної	-4314
▁opportunity	-4315
hl	-4316
ahn	-4317
▁forward	-4318
iful	-4319
▁На	-4320
▁declar	-4321
িনী	-4322
cken	-4323
▁ঘটনার	-4324
▁deut	-4325
েরে	-4326
▁І	-4327
▁নিরাপ	-4328
▁সবাই	-4329
রাজ	-4330
▁Will	-4331
▁নামে	-4332
za	-4333
▁Ö	-4334
▁দ্র	-4335
▁উই	-4336
vest	-4337
▁শি	-4338
aps	-4339
▁meine	-4340
▁earth	-4341
▁অনুস	-4342
зу	-4343
iding	-4344
▁বলতে	-4345
▁Mark	-4346
▁sal	-4347
apt	-4348
▁immed	-4349
▁2007	-4350
▁দ্বিতীয়	-4351
ull	-4352
▁তাতে	-4353
▁received	-4354
▁Aussch	-4355
ți	-4356
ift	-4357
heiten	-4358
▁across	-4359
onst	-4360
▁parl	-4361
zess	-4362
▁circ	-4363
▁কৃ	-4364
besondere	-4365
▁mob	-4366
▁অত	-4367
ratic	-4368
ourn	-4369
▁কীভাবে	-4370
▁সুযোগ	-4371
▁terror	-4372
put	-4373
▁লে	-4374
mö	-4375
ager	-4376
এন	-4377
▁করত	-4378
▁caus	-4379
мен	-4380
▁heav	-4381
▁সংখ্যা	-4382
▁gut	-4383
▁regul	-4384
ছিলাম	-4385
▁Für	-4386
▁মুক্ত	-4387
tended	-4388
▁deter	-4389
▁anal	-4390
ossen	-4391
aurant	-4392
ât	-4393
▁তাঁরা	-4394
▁সম্পর্ক	-4395
▁page	-4396
▁সী	-4397
▁centre	-4398
linie	-4399
fully	-4400
▁নাগ	-4401
▁৮	-4402
andid	-4403
▁independ	-4404
▁ঘোষণা	-4405
▁Ents	-4406
▁পুলিশের	-4407
▁extrem	-4408
্বন্ধে	-4409
▁tun	-4410
ona	-4411
▁Qual	-4412
▁institutions	-4413
▁language	-4414
iben	-4415
ুপ	-4416
▁rules	-4417
▁Hin	-4418
▁unseren	-4419
▁চা	-4420
lungen	-4421
▁একে	-4422
▁affect	-4423
▁foc	-4424
urile	-4425
▁capital	-4426
▁wollen	-4427
▁Ва	-4428
führt	-4429
ভি	-4430
▁হা	-4431
▁যেমন	-4432
antwort	-4433
▁Pat	-4434
▁answer	-4435
▁Mah	-4436
চেয়ে	-4437
▁বাইবে	-4438
▁তুল	-4439
▁zusammen	-4440
▁Dar	-4441
▁activities	-4442
▁Eine	-4443
leist	-4444
ada	-4445
াপন	-4446
▁infl	-4447
ব্র	-4448
ored	-4449
▁জানিয়েছেন	-4450
uni	-4451
▁led	-4452
▁সম্পর্কে	-4453
▁sat	-4454
▁но	-4455
hol	-4456
ним	-4457
▁side	-4458
▁Lis	-4459
▁du	-4460
▁tele	-4461
▁Und	-4462
▁typ	-4463
▁provided	-4464
▁Kommissar	-4465
▁উপস্থিত	-4466
▁states	-4467
▁foreign	-4468
▁site	-4469
rated	-4470
halts	-4471
▁würde	-4472
zi	-4473
▁learn	-4474
▁walk	-4475
eschäft	-4476
▁জল	-4477
▁Br	-4478
▁প্রশ্ন	-4479
▁signific	-4480
order	-4481
▁North	-4482
ource	-4483
angen	-4484
▁Parlaments	-4485
▁ме	-4486
▁তাল	-4487
ilar	-4488
▁society	-4489
▁Kosovo	-4490
▁জায়	-4491
▁systems	-4492
▁quite	-4493
▁অনুম	-4494
ype	-4495
ending	-4496
isc	-4497
istic	-4498
▁wish	-4499
▁programme	-4500
IT	-4501
▁online	-4502
ee	-4503
kten	-4504
▁Bei	-4505
এম	-4506
▁শিল্প	-4507
oare	-4508
▁responsibility	-4509
ume	-4510
omb	-4511
▁record	-4512
▁di	-4513
▁itself	-4514
▁freedom	-4515
▁Kap	-4516
oura	-4517
িট	-4518
▁civil	-4519
▁так	-4520
aul	-4521
app	-4522
▁economy	-4523
äm	-4524
▁App	-4525
idd	-4526
▁cover	-4527
▁By	-4528
▁)	-4529
▁ব্যাপারে	-4530
তায়	-4531
bere	-4532
▁Per	-4533
▁sche	-4534
▁pict	-4535
häng	-4536
বু	-4537
▁Beh	-4538
▁সবচেয়ে	-4539
reen	-4540
▁বলেছেন	-4541
immung	-4542
▁গঠ	-4543
▁Politik	-4544
▁স্ম	-4545
▁af	-4546
▁ст	-4547
oren	-4548
ceed	-4549
ama	-4550
gency	-4551
▁ছেলে	-4552
▁building	-4553
▁Two	-4554
▁negot	-4555
▁creat	-4556
▁station	-4557
▁super	-4558
▁authorities	-4559
▁হলো	-4560
▁results	-4561
AR	-4562
iative	-4563
ton	-4564
▁ছোট	-4565
▁La	-4566
▁während	-4567
▁contact	-4568
▁ess	-4569
▁nam	-4570
▁ইসল	-4571
▁je	-4572
▁ক্ষম	-4573
▁খো	-4574
▁according	-4575
zw	-4576
▁আফ	-4577
ুরি	-4578
▁agricult	-4579
▁Kolle	-4580
▁install	-4581
▁Bild	-4582
▁ভিডিও	-4583
▁questions	-4584
▁mother	-4585
▁রেখে	-4586
েন্স	-4587
2,	-4588
▁Rest	-4589
▁etwas	-4590
▁currently	-4591
▁গু	-4592
ফতার	-4593
▁বিমান	-4594
দিকে	-4595
▁created	-4596
▁century	-4597
▁sagen	-4598
▁Germany	-4599
▁lik	-4600
sk	-4601
▁Wie	-4602
▁early	-4603
রাম	-4604
▁Co	-4605
▁pack	-4606
▁বের	-4607
▁জায়গ	-4608
▁communic	-4609
▁ভূম	-4610
▁হাজার	-4611
জ্ঞান	-4612
▁পালন	-4613
▁einfach	-4614
ায়ের	-4615
▁মামলা	-4616
ague	-4617
াকায়	-4618
▁চলছে	-4619
▁Vorschlag	-4620
▁positive	-4621
gangen	-4622
Th	-4623
▁Sep	-4624
▁জেলা	-4625
▁পশ্চ	-4626
▁doch	-4627
▁suffer	-4628
োজ	-4629
▁Deut	-4630
▁politic	-4631
▁hon	-4632
▁General	-4633
yl	-4634
স্ব	-4635
▁আপনা	-4636
ай	-4637
▁sozial	-4638
ension	-4639
▁Narendra	-4640
rought	-4641
1,	-4642
agt	-4643
▁star	-4644
▁প্রত্য	-4645
lean	-4646
▁Mrs	-4647
3.	-4648
arante	-4649
▁ইন	-4650
জাতিক	-4651
▁Fil	-4652
▁comes	-4653
mittel	-4654
▁involved	-4655
াস্থ্য	-4656
▁growth	-4657
tt	-4658
্রা	-4659
▁establish	-4660
পা	-4661
▁price	-4662
▁жи	-4663
ino	-4664
acter	-4665
▁hö	-4666
▁Russia	-4667
▁গ্রেফতার	-4668
▁Gemein	-4669
▁біль	-4670
rache	-4671
▁six	-4672
▁নরেন্দ্র	-4673
IS	-4674
ierungs	-4675
▁খ্র	-4676
ffic	-4677
▁themselves	-4678
▁tim	-4679
тів	-4680
▁member	-4681
▁needed	-4682
▁Ben	-4683
IC	-4684
▁ইং	-4685
▁strateg	-4686
▁added	-4687
va	-4688
▁Vol	-4689
▁management	-4690
falls	-4691
▁мен	-4692
▁Ко	-4693
▁Auss	-4694
ativ	-4695
▁গুল	-4696
▁music	-4697
▁Don	-4698
▁Janu	-4699
▁দুটি	-4700
▁Japan	-4701
▁পূর্ব	-4702
▁People	-4703
▁শুধু	-4704
ationen	-4705
▁কলে	-4706
▁Deb	-4707
▁mer	-4708
ruktur	-4709
▁agree	-4710
genommen	-4711
▁Fall	-4712
ড়ি	-4713
্বাস	-4714
mat	-4715
▁Iran	-4716
▁workers	-4717
নী	-4718
▁stre	-4719
▁দেখতে	-4720
▁insbesondere	-4721
▁assist	-4722
нні	-4723
▁function	-4724
▁etc	-4725
▁উচ্চ	-4726
▁Lös	-4727
▁recent	-4728
▁girl	-4729
২০	-4730
racy	-4731
ordnung	-4732
klär	-4733
▁মার্কিন	-4734
кла	-4735
▁Unterstütz	-4736
lands	-4737
▁মোদী	-4738
anken	-4739
▁Länder	-4740
▁Schw	-4741
▁নিহত	-4742
ON	-4743
ctors	-4744
▁erhalten	-4745
cher	-4746
▁oc	-4747
ন্তর্জাতিক	-4748
ziel	-4749
▁lad	-4750
▁luc	-4751
ordin	-4752
▁যাচ্ছে	-4753
▁September	-4754
▁enough	-4755
ţă	-4756
ründ	-4757
▁Service	-4758
iar	-4759
räge	-4760
ürlich	-4761
▁review	-4762
▁Durch	-4763
▁Ser	-4764
▁যায়নি	-4765
▁শতা	-4766
▁increasing	-4767
▁publ	-4768
▁guarante	-4769
▁ইন্ড	-4770
mes	-4771
▁Soc	-4772
কদের	-4773
▁tar	-4774
gang	-4775
▁living	-4776
bre	-4777
ীপ	-4778
▁einmal	-4779
▁ago	-4780
▁গ্রাম	-4781
▁এত	-4782
▁ফিরে	-4783
▁од	-4784
ands	-4785
▁ভাব	-4786
▁waren	-4787
▁rapp	-4788
▁Community	-4789
সহ	-4790
▁cong	-4791
▁game	-4792
াপ্ত	-4793
▁dr	-4794
▁vo	-4795
▁Kar	-4796
ID	-4797
ез	-4798
ূহ	-4799
▁কত	-4800
▁USA	-4801
ень	-4802
▁হওয়া	-4803
▁Sub	-4804
লো	-4805
▁কর্তৃ	-4806
▁easy	-4807
ots	-4808
▁tas	-4809
▁বয়	-4810
pril	-4811
▁challen	-4812
▁Tag	-4813
▁mass	-4814
▁schn	-4815
▁স্ত্রী	-4816
▁চলচ্চিত্র	-4817
▁পথ	-4818
▁যেখানে	-4819
legt	-4820
ams	-4821
▁দেশে	-4822
▁যিহোবা	-4823
▁শাহ	-4824
▁গুরুত্বপূর্ণ	-4825
▁regional	-4826
▁force	-4827
▁fast	-4828
▁মাঝ	-4829
▁favour	-4830
▁Gar	-4831
▁staff	-4832
▁English	-4833
▁বাবা	-4834
▁নেত	-4835
ply	-4836
▁außer	-4837
গর	-4838
▁Zug	-4839
▁behind	-4840
ani	-4841
▁Verfüg	-4842
▁শিশু	-4843
▁resolution	-4844
▁rather	-4845
▁কাছ	-4846
▁verl	-4847
lig	-4848
▁40	-4849
▁makes	-4850
▁আন্তর্জাতিক	-4851
▁Let	-4852
▁innov	-4853
▁১৮	-4854
alle	-4855
lack	-4856
াত্রী	-4857
▁його	-4858
retary	-4859
▁share	-4860
▁আল্লাহ্	-4861
це	-4862
дь	-4863
▁Park	-4864
ients	-4865
▁Chief	-4866
äl	-4867
▁check	-4868
igten	-4869
acy	-4870
▁মুখ্য	-4871
▁alleg	-4872
▁host	-4873
▁stop	-4874
▁তর	-4875
▁প্রার্থ	-4876
ogen	-4877
ugen	-4878
ক্ষেপ	-4879
cer	-4880
▁৯	-4881
▁pa	-4882
oon	-4883
itäten	-4884
▁জন্ম	-4885
▁রাজ্যের	-4886
▁beim	-4887
▁persons	-4888
ole	-4889
▁থাকবে	-4890
▁organis	-4891
▁প্রত	-4892
▁Wer	-4893
▁Indust	-4894
▁brought	-4895
ilfe	-4896
▁Shah	-4897
▁coming	-4898
▁üb	-4899
বেদন	-4900
▁Tod	-4901
▁পরিবারের	-4902
room	-4903
▁assoc	-4904
লায়	-4905
▁anim	-4906
▁মারা	-4907
▁partners	-4908
ন্দেহ	-4909
▁দায়িত্ব	-4910
▁liber	-4911
body	-4912
▁efforts	-4913
▁risk	-4914
▁wife	-4915
▁উৎ	-4916
▁friends	-4917
▁কাউ	-4918
▁со	-4919
▁attention	-4920
▁বৃদ্ধ	-4921
▁পৃথিব	-4922
▁Em	-4923
▁সকল	-4924
gleich	-4925
▁approach	-4926
▁মেয়ে	-4927
▁ersten	-4928
▁military	-4929
▁Bra	-4930
unities	-4931
▁Met	-4932
▁above	-4933
rategy	-4934
▁parties	-4935
▁erst	-4936
alten	-4937
▁sug	-4938
▁groups	-4939
▁sens	-4940
entle	-4941
ীক	-4942
ßen	-4943
▁farm	-4944
гі	-4945
▁দিয়েছে	-4946
hri	-4947
▁either	-4948
ellent	-4949
▁reach	-4950
▁Zusammenarbeit	-4951
▁series	-4952
▁qual	-4953
▁ভাবে	-4954
abilit	-4955
igkeiten	-4956
ân	-4957
mpf	-4958
ball	-4959
▁technology	-4960
▁bal	-4961
ias	-4962
▁began	-4963
▁Cont	-4964
▁ве	-4965
ragen	-4966
▁Unterstützung	-4967
▁fear	-4968
▁wrong	-4969
▁population	-4970
▁গিয়েছে	-4971
াপা	-4972
ological	-4973
▁faith	-4974
▁lassen	-4975
▁ভয়	-4976
▁প্রদান	-4977
▁ţ	-4978
5.	-4979
▁clos	-4980
▁inner	-4981
▁2.	-4982
▁rapporte	-4983
▁schw	-4984
edin	-4985
bau	-4986
▁গাড়	-4987
▁Spiel	-4988
▁reached	-4989
wert	-4990
▁saying	-4991
utzen	-4992
▁সিন	-4993
esen	-4994
▁тако	-4995
▁সম্বন্ধে	-4996
▁lost	-4997
ramew	-4998
মানে	-4999
▁knowledge	-5000
▁wirk	-5001
▁Treat	-5002
তর	-5003
▁reported	-5004
▁Namen	-5005
entlichen	-5006
▁সংগ	-5007
▁prevent	-5008
▁পৌঁ	-5009
▁laun	-5010
▁welche	-5011
▁করেছি	-5012
▁করছি	-5013
▁Comis	-5014
▁didnt	-5015
▁বিক	-5016
▁পাঁচ	-5017
▁wes	-5018
ঘট	-5019
▁disp	-5020
▁কঠ	-5021
▁quick	-5022
▁প্রচার	-5023
▁Gesch	-5024
nten	-5025
ex	-5026
▁continu	-5027
▁করব	-5028
েম্বর	-5029
▁rad	-5030
tschafts	-5031
▁হয়েছেন	-5032
▁geben	-5033
▁fundament	-5034
▁ey	-5035
ellschaft	-5036
▁Bh	-5037
rän	-5038
▁foot	-5039
cl	-5040
পার	-5041
▁value	-5042
▁April	-5043
▁miss	-5044
▁він	-5045
▁Mac	-5046
▁study	-5047
▁harm	-5048
▁Markt	-5049
▁age	-5050
▁আশা	-5051
каза	-5052
▁central	-5053
▁comfort	-5054
▁register	-5055
▁thought	-5056
▁জয়	-5057
▁Änderungsant	-5058
▁negoti	-5059
▁resources	-5060
▁এম	-5061
▁এছাড়া	-5062
▁вико	-5063
ktionen	-5064
▁entwick	-5065
ums	-5066
▁пот	-5067
▁যুদ্ধ	-5068
altung	-5069
▁Muslim	-5070
▁ble	-5071
eten	-5072
▁else	-5073
▁উদ্দেশ	-5074
са	-5075
লাম	-5076
▁fair	-5077
ctions	-5078
▁Web	-5079
AS	-5080
нь	-5081
▁treatment	-5082
▁Tre	-5083
▁Op	-5084
▁Son	-5085
eder	-5086
সূ	-5087
ria	-5088
▁everyone	-5089
ţia	-5090
3,	-5091
▁ব্যক্ত	-5092
urz	-5093
▁се	-5094
load	-5095
▁bad	-5096
▁projects	-5097
▁Це	-5098
▁besteht	-5099
▁ইসলাম	-5100
▁instrum	-5101
▁bess	-5102
▁করছেন	-5103
চ্ছেন	-5104
▁significant	-5105
্যাট	-5106
▁স্বাস্থ্য	-5107
▁vol	-5108
▁defin	-5109
▁spok	-5110
von	-5111
▁Не	-5112
▁Problem	-5113
prech	-5114
гра	-5115
▁wirtschaft	-5116
▁cause	-5117
▁bit	-5118
ommend	-5119
ষ্য	-5120
▁date	-5121
▁leave	-5122
ţie	-5123
▁এন	-5124
▁Recht	-5125
▁নেতা	-5126
▁Dienst	-5127
▁move	-5128
▁absol	-5129
▁separ	-5130
▁suggest	-5131
▁gentle	-5132
দান	-5133
onders	-5134
মাত্র	-5135
▁November	-5136
▁fully	-5137
▁প্রেস	-5138
▁office	-5139
েট	-5140
▁stehen	-5141
zieh	-5142
▁ভিত্ত	-5143
▁imm	-5144
ournal	-5145
6.	-5146
key	-5147
▁except	-5148
aper	-5149
▁prep	-5150
▁Г	-5151
hin	-5152
▁দিয়েছেন	-5153
▁More	-5154
het	-5155
гу	-5156
▁addition	-5157
▁Beg	-5158
▁রহ	-5159
▁conduct	-5160
ramework	-5161
▁wind	-5162
▁দাঁ	-5163
▁Та	-5164
▁akt	-5165
▁ব্ল	-5166
führung	-5167
▁Ze	-5168
নিক	-5169
▁сві	-5170
▁Komp	-5171
oph	-5172
▁cop	-5173
▁কৃষ	-5174
zü	-5175
▁দেওয়ার	-5176
▁সো	-5177
5,	-5178
▁Ländern	-5179
▁north	-5180
▁low	-5181
bit	-5182
кти	-5183
ких	-5184
fte	-5185
DE	-5186
atives	-5187
▁Kunden	-5188
▁ওয়ে	-5189
ugust	-5190
▁সমর্থ	-5191
▁Geschä	-5192
cel	-5193
▁Gree	-5194
▁১৫	-5195
▁ছব	-5196
▁threat	-5197
▁natural	-5198
▁steht	-5199
▁Hind	-5200
ালো	-5201
▁seinen	-5202
renz	-5203
▁বিল	-5204
weg	-5205
▁sehen	-5206
▁training	-5207
▁welcome	-5208
▁খ্রিস্ট	-5209
▁আরো	-5210
▁il	-5211
▁drei	-5212
▁নিতে	-5213
▁মিশ	-5214
▁EUR	-5215
rid	-5216
schen	-5217
▁Fragen	-5218
স্প	-5219
▁196	-5220
▁works	-5221
rul	-5222
▁বাংলাদেশের	-5223
▁happy	-5224
oom	-5225
ন্দর	-5226
▁что	-5227
গণ	-5228
োর্ট	-5229
▁মর	-5230
vo	-5231
-0	-5232
wendung	-5233
▁ছাত্র	-5234
▁але	-5235
ators	-5236
▁location	-5237
▁নিশ্চিত	-5238
▁mur	-5239
4.	-5240
টিতে	-5241
▁পাকিস্তান	-5242
▁community	-5243
ging	-5244
▁feat	-5245
▁verw	-5246
▁leader	-5247
ালী	-5248
▁নিউ	-5249
শীল	-5250
hö	-5251
▁statt	-5252
▁required	-5253
▁aid	-5254
▁step	-5255
ker	-5256
ini	-5257
öt	-5258
▁зро	-5259
রাধ	-5260
▁ext	-5261
▁বই	-5262
▁যাতে	-5263
erous	-5264
গের	-5265
▁Fest	-5266
aţi	-5267
bon	-5268
▁Beit	-5269
▁все	-5270
বের	-5271
▁wäre	-5272
vert	-5273
▁এগ	-5274
▁solution	-5275
cies	-5276
▁looking	-5277
ätze	-5278
6,	-5279
▁Shri	-5280
▁south	-5281
▁adopt	-5282
▁Well	-5283
বান	-5284
▁From	-5285
▁played	-5286
▁ground	-5287
ুয়ার	-5288
schri	-5289
▁Ukraine	-5290
▁Invest	-5291
OR	-5292
▁са	-5293
▁TV	-5294
▁standard	-5295
din	-5296
ettbew	-5297
▁dabei	-5298
ichterst	-5299
▁truth	-5300
▁safet	-5301
▁safety	-5302
▁Situ	-5303
্লে	-5304
▁কু	-5305
▁sex	-5306
▁woman	-5307
র্শন	-5308
▁আসে	-5309
▁Bus	-5310
▁সৃষ্টি	-5311
▁concerned	-5312
েস্ট	-5313
äd	-5314
▁American	-5315
▁তে	-5316
▁demonst	-5317
uft	-5318
▁actually	-5319
ক্স	-5320
▁পুরস্কার	-5321
▁apart	-5322
рів	-5323
asser	-5324
▁Kollegen	-5325
ша	-5326
сту	-5327
▁Wind	-5328
▁half	-5329
▁elections	-5330
gaben	-5331
пу	-5332
▁Lebens	-5333
যোগ্য	-5334
▁beautiful	-5335
▁Vertrag	-5336
▁aspect	-5337
▁শহর	-5338
arlier	-5339
▁кон	-5340
bers	-5341
▁Now	-5342
▁দ্রুত	-5343
play	-5344
jekt	-5345
▁veh	-5346
▁су	-5347
▁вони	-5348
ালি	-5349
▁গবে	-5350
▁essential	-5351
▁chief	-5352
▁হাতে	-5353
▁connection	-5354
▁popular	-5355
▁Dr	-5356
ною	-5357
▁ale	-5358
কেই	-5359
▁outside	-5360
half	-5361
▁ঘটন	-5362
ese	-5363
▁letzten	-5364
ালা	-5365
rechte	-5366
▁21	-5367
▁points	-5368
▁শাস্ত	-5369
▁changes	-5370
▁2000	-5371
▁১২	-5372
bel	-5373
▁worden	-5374
▁চর	-5375
▁Day	-5376
▁According	-5377
ার্ম	-5378
▁longer	-5379
▁Che	-5380
▁Pri	-5381
হিত	-5382
▁erforder	-5383
▁recommend	-5384
▁মহিলা	-5385
▁muß	-5386
▁প্রভাব	-5387
▁arch	-5388
▁travel	-5389
▁greater	-5390
▁front	-5391
▁occas	-5392
▁নিজেদের	-5393
esc	-5394
ূলক	-5395
▁Entscheid	-5396
▁পরিস্থিতি	-5397
▁Where	-5398
▁Fol	-5399
▁indic	-5400
▁ast	-5401
▁log	-5402
▁Bedeut	-5403
▁East	-5404
ental	-5405
▁বর	-5406
▁almost	-5407
▁acord	-5408
▁commit	-5409
▁ইউনি	-5410
▁ни	-5411
fs	-5412
▁dez	-5413
ends	-5414
краї	-5415
ori	-5416
gabe	-5417
ţa	-5418
▁Rom	-5419
undheit	-5420
ară	-5421
িকভাবে	-5422
fel	-5423
▁নাগরিক	-5424
্ট্র	-5425
ingungen	-5426
embers	-5427
▁ধারণ	-5428
▁অন্তর্	-5429
lished	-5430
asch	-5431
▁mach	-5432
▁কলেজ	-5433
lagen	-5434
▁First	-5435
িয়ায়	-5436
▁dig	-5437
▁cultural	-5438
▁Wo	-5439
▁simply	-5440
▁complete	-5441
▁নিরাপত্ত	-5442
▁effective	-5443
▁application	-5444
urt	-5445
▁responsible	-5446
val	-5447
▁importance	-5448
▁Are	-5449
сько	-5450
▁(19	-5451
▁method	-5452
▁impact	-5453
▁রোগ	-5454
▁সৌ	-5455
▁Dhaka	-5456
▁document	-5457
▁parts	-5458
র্তি	-5459
lected	-5460
▁За	-5461
fang	-5462
ibil	-5463
াইট	-5464
arian	-5465
▁রাখা	-5466
4,	-5467
rench	-5468
▁deren	-5469
▁Yes	-5470
unde	-5471
ম্ব	-5472
▁großen	-5473
▁idea	-5474
▁această	-5475
▁directive	-5476
থি	-5477
▁থাকতে	-5478
▁previous	-5479
▁Verfügung	-5480
band	-5481
▁можете	-5482
asons	-5483
▁থেকেই	-5484
▁verst	-5485
▁große	-5486
gestellt	-5487
frast	-5488
racht	-5489
icles	-5490
iate	-5491
▁সংবাদ	-5492
book	-5493
▁distrib	-5494
▁website	-5495
mos	-5496
▁range	-5497
▁Party	-5498
▁rate	-5499
▁Bedeutung	-5500
▁daugh	-5501
▁effic	-5502
▁ফের	-5503
▁perfect	-5504
vision	-5505
▁opinion	-5506
▁গা	-5507
pri	-5508
▁gentlemen	-5509
ervor	-5510
▁Hier	-5511
▁প্রচ	-5512
▁Seite	-5513
▁lives	-5514
▁нас	-5515
аль	-5516
▁character	-5517
zept	-5518
▁মাত্র	-5519
▁জন্যে	-5520
▁Ergeb	-5521
iers	-5522
▁Cro	-5523
▁II	-5524
▁British	-5525
▁27	-5526
iges	-5527
▁Mos	-5528
▁behalf	-5529
▁সির	-5530
▁candid	-5531
▁context	-5532
▁safe	-5533
▁কাজে	-5534
এই	-5535
gra	-5536
▁desc	-5537
▁constit	-5538
▁Х	-5539
▁excellent	-5540
ття	-5541
▁March	-5542
▁fell	-5543
▁কন	-5544
গ্রহ	-5545
সব	-5546
▁poor	-5547
icro	-5548
▁transpar	-5549
▁self	-5550
▁similar	-5551
▁Madam	-5552
onds	-5553
▁এলাকায়	-5554
▁jeder	-5555
▁সাল	-5556
ires	-5557
▁Col	-5558
▁extern	-5559
▁Austral	-5560
▁events	-5561
▁CO	-5562
ливо	-5563
শা	-5564
▁sust	-5565
▁tool	-5566
▁Sol	-5567
idency	-5568
▁করো	-5569
▁Aber	-5570
overed	-5571
▁accident	-5572
▁included	-5573
EC	-5574
ET	-5575
▁conflic	-5576
▁Bi	-5577
▁থান	-5578
▁Treaty	-5579
▁Energie	-5580
aring	-5581
ultur	-5582
োয়া	-5583
mir	-5584
▁Umwelt	-5585
mor	-5586
▁1,	-5587
ala	-5588
▁মিড	-5589
▁їх	-5590
▁ঘটনাস্থ	-5591
▁rela	-5592
▁সংস্থা	-5593
▁রাজনৈতিক	-5594
▁#	-5595
▁becom	-5596
▁ди	-5597
eschlossen	-5598
▁ung	-5599
▁বিরোধ	-5600
об	-5601
▁Haupt	-5602
ec	-5603
▁Tour	-5604
stead	-5605
amt	-5606
▁reports	-5607
▁oblig	-5608
ünst	-5609
▁software	-5610
▁search	-5611
ils	-5612
▁adopted	-5613
▁cut	-5614
▁sea	-5615
▁via	-5616
▁$	-5617
▁бути	-5618
▁সারা	-5619
▁phys	-5620
iately	-5621
markt	-5622
hib	-5623
▁Als	-5624
ুরুষ	-5625
▁Far	-5626
▁হে	-5627
ufen	-5628
▁developed	-5629
▁Schutz	-5630
▁Entsch	-5631
জনের	-5632
▁Bas	-5633
bene	-5634
▁ম্যাচ	-5635
hang	-5636
met	-5637
atory	-5638
▁rapporteur	-5639
▁sem	-5640
▁খুবই	-5641
▁Auch	-5642
▁zahl	-5643
ört	-5644
▁prin	-5645
oul	-5646
▁আলোচনা	-5647
rect	-5648
▁?	-5649
▁written	-5650
▁Aff	-5651
▁মন্ত্রী	-5652
ercial	-5653
পক্ষ	-5654
দ্ব	-5655
ভুক্ত	-5656
▁জু	-5657
▁focus	-5658
▁যিনি	-5659
▁zweit	-5660
,"	-5661
ufact	-5662
▁Dist	-5663
чу	-5664
র্গ	-5665
▁relationship	-5666
ält	-5667
ighb	-5668
▁August	-5669
▁রাস্ত	-5670
▁রেল	-5671
▁tro	-5672
itatea	-5673
গ্রহণ	-5674
hof	-5675
▁între	-5676
▁apply	-5677
under	-5678
িনা	-5679
▁বৈঠ	-5680
▁Beispiel	-5681
▁বর্তমানে	-5682
জনক	-5683
gend	-5684
▁clean	-5685
▁Lie	-5686
▁notwend	-5687
шо	-5688
▁phot	-5689
▁coun	-5690
жу	-5691
ati	-5692
টু	-5693
▁established	-5694
▁Members	-5695
▁hours	-5696
▁Zuk	-5697
cia	-5698
▁While	-5699
fast	-5700
unter	-5701
oten	-5702
▁Berichterst	-5703
▁aud	-5704
serv	-5705
▁minutes	-5706
▁নিক	-5707
▁Colle	-5708
▁হাত	-5709
▁village	-5710
ika	-5711
▁কিছুই	-5712
▁ill	-5713
▁ঈশ্বর	-5714
▁content	-5715
▁ঘটে	-5716
gew	-5717
▁target	-5718
▁match	-5719
▁bieten	-5720
কর্ম	-5721
▁শান্ত	-5722
ables	-5723
▁wanted	-5724
▁parents	-5725
▁bew	-5726
▁কংগ্রেস	-5727
imb	-5728
▁মুসল	-5729
where	-5730
ঘাত	-5731
▁Span	-5732
▁থাকা	-5733
▁শ্রে	-5734
মধ্য	-5735
▁hervor	-5736
▁arriv	-5737
▁স্বাধীন	-5738
кіль	-5739
geh	-5740
▁mount	-5741
▁democracy	-5742
▁Pun	-5743
▁June	-5744
▁automat	-5745
▁rap	-5746
তেই	-5747
▁সচ	-5748
▁ফল	-5749
মের	-5750
ল্যান্ড	-5751
▁recently	-5752
▁পরিবর্তন	-5753
▁Thema	-5754
▁всі	-5755
▁receive	-5756
sc	-5757
▁strategy	-5758
যায়ী	-5759
▁Zahl	-5760
▁decided	-5761
elling	-5762
▁lack	-5763
▁committee	-5764
▁richt	-5765
▁darüber	-5766
▁davon	-5767
াযোগ	-5768
▁standards	-5769
▁Since	-5770
▁trying	-5771
▁appropri	-5772
▁statement	-5773
▁Fun	-5774
▁অবস্থিত	-5775
▁Central	-5776
োষ	-5777
inden	-5778
▁wait	-5779
▁সেনা	-5780
glichen	-5781
▁ওঠ	-5782
▁provides	-5783
▁France	-5784
ebru	-5785
▁urm	-5786
sen	-5787
yle	-5788
haps	-5789
ja	-5790
▁Probleme	-5791
rial	-5792
▁অভিনয়	-5793
▁Africa	-5794
iance	-5795
▁eben	-5796
▁conv	-5797
uments	-5798
▁Wirtschafts	-5799
oid	-5800
▁Ke	-5801
▁Moh	-5802
▁condition	-5803
вори	-5804
▁Gä	-5805
ulgar	-5806
▁পক্ষ	-5807
сно	-5808
atte	-5809
▁допо	-5810
▁বাড়ি	-5811
চ্ছা	-5812
জীব	-5813
▁gave	-5814
▁পরিচিত	-5815
োকে	-5816
▁himself	-5817
immen	-5818
▁arg	-5819
ীকে	-5820
olf	-5821
▁Prof	-5822
▁Christian	-5823
▁murder	-5824
▁কর্মকর্ত	-5825
▁Fahr	-5826
▁December	-5827
рав	-5828
▁alles	-5829
▁daher	-5830
▁fish	-5831
▁tw	-5832
onse	-5833
ন্টার	-5834
▁park	-5835
চ্ছি	-5836
▁network	-5837
.”	-5838
ধি	-5839
ipl	-5840
িসি	-5841
▁প্রশাস	-5842
▁ermö	-5843
9.	-5844
чі	-5845
▁lov	-5846
▁John	-5847
adem	-5848
▁increased	-5849
▁Frauen	-5850
▁sor	-5851
▁schnell	-5852
oo	-5853
▁মোট	-5854
▁প্রকল্প	-5855
▁Turkey	-5856
▁Weise	-5857
▁strengthen	-5858
গার	-5859
kon	-5860
▁пови	-5861
▁ones	-5862
▁immediately	-5863
▁sound	-5864
িডেন্ট	-5865
▁eigenen	-5866
▁French	-5867
▁election	-5868
▁sau	-5869
ilater	-5870
▁draw	-5871
▁cro	-5872
fäh	-5873
▁Paul	-5874
পির	-5875
ills	-5876
▁Viel	-5877
ritte	-5878
▁occur	-5879
)।	-5880
ট্র	-5881
ratul	-5882
▁най	-5883
▁framework	-5884
▁stellen	-5885
ensive	-5886
prü	-5887
▁gegenüber	-5888
▁nature	-5889
aden	-5890
▁costs	-5891
▁Net	-5892
▁যৌ	-5893
▁অধ্য	-5894
▁lo	-5895
▁term	-5896
▁Republic	-5897
▁দরকার	-5898
▁বিবে	-5899
▁sowohl	-5900
▁Wahl	-5901
▁Car	-5902
▁Gro	-5903
▁late	-5904
▁stri	-5905
▁কমিশ	-5906
▁file	-5907
▁Regierung	-5908
▁Mor	-5909
▁seek	-5910
▁Haushalts	-5911
▁টুই	-5912
ikel	-5913
▁verfü	-5914
▁politischen	-5915
ică	-5916
▁গড়ে	-5917
▁promot	-5918
▁Frank	-5919
шу	-5920
▁kommen	-5921
▁optim	-5922
▁befindet	-5923
▁weitere	-5924
inz	-5925
▁komp	-5926
▁policies	-5927
▁উৎপ	-5928
▁১১	-5929
▁näch	-5930
▁Ira	-5931
▁Weg	-5932
▁মুখ্যমন্ত্রী	-5933
8.	-5934
esse	-5935
াসা	-5936
▁Ende	-5937
▁Zent	-5938
▁PM	-5939
▁remember	-5940
isf	-5941
pite	-5942
gesch	-5943
▁anyone	-5944
Pro	-5945
▁Roman	-5946
▁Ministry	-5947
আমি	-5948
▁আটক	-5949
iere	-5950
▁clearly	-5951
▁könnte	-5952
▁customers	-5953
ম্যান	-5954
▁Ihrer	-5955
রণের	-5956
▁klar	-5957
üt	-5958
bild	-5959
▁space	-5960
пі	-5961
gre	-5962
▁erreichen	-5963
্যোগ	-5964
▁investigation	-5965
▁wissen	-5966
zus	-5967
ctober	-5968
▁prob	-5969
цій	-5970
▁reject	-5971
▁pan	-5972
▁hatte	-5973
▁যাওয়া	-5974
▁mil	-5975
▁meiner	-5976
▁সন্তান	-5977
▁Famil	-5978
▁fundamental	-5979
ăs	-5980
▁emer	-5981
▁Da	-5982
▁victim	-5983
▁takes	-5984
▁ভুল	-5985
rück	-5986
াপাশি	-5987
ße	-5988
▁amount	-5989
ৃহ	-5990
▁sold	-5991
▁drept	-5992
itation	-5993
ips	-5994
head	-5995
▁prices	-5996
ধার	-5997
▁resol	-5998
নাম	-5999
▁deep	-6000
jek	-6001
▁অধিকার	-6002
▁rail	-6003
fin	-6004
▁thous	-6005
blick	-6006
▁kn	-6007
▁পরীক্ষা	-6008
▁January	-6009
erem	-6010
▁Develop	-6011
iddle	-6012
rah	-6013
ণী	-6014
▁carry	-6015
▁э	-6016
য়েল	-6017
▁arbeit	-6018
▁culture	-6019
abor	-6020
▁бо	-6021
▁Thats	-6022
▁achieve	-6023
▁considered	-6024
▁red	-6025
▁Of	-6026
mark	-6027
▁reasons	-6028
▁manufact	-6029
▁22	-6030
▁23	-6031
▁built	-6032
geord	-6033
▁writing	-6034
▁morning	-6035
▁europäische	-6036
""."	-6037
▁পায়	-6038
▁Most	-6039
▁Cr	-6040
ppen	-6041
▁Test	-6042
▁পাশাপাশি	-6043
▁Fund	-6044
▁Kh	-6045
▁besonders	-6046
yer	-6047
▁Febru	-6048
akh	-6049
RO	-6050
▁‘‘	-6051
▁দীর্	-6052
▁Sl	-6053
ghan	-6054
▁Mehr	-6055
▁দীর্ঘ	-6056
▁famil	-6057
▁Zukunft	-6058
uted	-6059
▁Geschäfts	-6060
▁ant	-6061
▁request	-6062
▁didn	-6063
▁পশ্চিম	-6064
rüh	-6065
лід	-6066
▁wirklich	-6067
▁nor	-6068
▁Berlin	-6069
▁Ausschuss	-6070
▁Alle	-6071
মু	-6072
iment	-6073
▁Arab	-6074
rote	-6075
▁legislation	-6076
üd	-6077
▁gesam	-6078
▁tal	-6079
▁ihnen	-6080
ünft	-6081
ড়াই	-6082
▁Har	-6083
▁wid	-6084
▁besch	-6085
▁benefit	-6086
CC	-6087
iqu	-6088
▁সংস	-6089
сте	-6090
▁interests	-6091
▁Staaten	-6092
▁সমা	-6093
▁এসব	-6094
▁তাদেরকে	-6095
▁কখনও	-6096
▁verschiedenen	-6097
fernt	-6098
▁জেলার	-6099
▁dialog	-6100
▁majority	-6101
▁মন্দ	-6102
গান	-6103
ecut	-6104
▁Forsch	-6105
াউ	-6106
▁cou	-6107
itter	-6108
িয়াম	-6109
▁Lond	-6110
▁whom	-6111
▁সরকারি	-6112
▁fem	-6113
dings	-6114
▁коли	-6115
▁type	-6116
▁unterstützen	-6117
▁phone	-6118
▁illeg	-6119
▁please	-6120
▁natürlich	-6121
▁During	-6122
▁entsprech	-6123
▁neighb	-6124
wirk	-6125
▁Kinder	-6126
দেশের	-6127
▁Gand	-6128
nehmen	-6129
▁без	-6130
▁Sec	-6131
▁হয়তো	-6132
▁অর্থন	-6133
▁রো	-6134
▁employment	-6135
▁complaint	-6136
ifiz	-6137
▁getting	-6138
▁স্কুল	-6139
▁আমের	-6140
সময়	-6141
▁plann	-6142
▁entfernt	-6143
ering	-6144
▁নির্বাচন	-6145
▁শক্ত	-6146
▁heard	-6147
ування	-6148
▁thus	-6149
রাস	-6150
▁60	-6151
▁block	-6152
iated	-6153
▁improve	-6154
▁জিজ্ঞ	-6155
urilor	-6156
▁মন্ত্র	-6157
▁innerhalb	-6158
াজিক	-6159
enten	-6160
▁ইস	-6161
▁Zwe	-6162
▁সভাপতি	-6163
▁বোঝ	-6164
▁cross	-6165
▁також	-6166
▁capt	-6167
▁Deutsch	-6168
▁America	-6169
zuf	-6170
▁throughout	-6171
inem	-6172
▁Uns	-6173
িকল্প	-6174
▁privind	-6175
▁message	-6176
▁জানি	-6177
▁scient	-6178
▁extremely	-6179
▁যোগাযোগ	-6180
▁officials	-6181
▁version	-6182
ін	-6183
▁দেব	-6184
▁higher	-6185
▁সফ	-6186
▁বহু	-6187
ointed	-6188
gers	-6189
▁Software	-6190
▁বছরের	-6191
▁অবস্থা	-6192
▁ইতিহাস	-6193
▁transl	-6194
▁vielen	-6195
▁depart	-6196
▁voted	-6197
বন্ধ	-6198
▁অস্ব	-6199
▁proposed	-6200
▁story	-6201
▁proposals	-6202
▁dort	-6203
▁যত	-6204
াম্প	-6205
পে	-6206
▁Hol	-6207
▁School	-6208
▁ভে	-6209
▁spread	-6210
্যায়	-6211
▁কুম	-6212
▁ladies	-6213
▁regular	-6214
▁published	-6215
▁সুর	-6216
▁Seiten	-6217
▁indeed	-6218
▁প্রত্যা	-6219
тер	-6220
▁institution	-6221
▁সংশ	-6222
▁joint	-6223
▁related	-6224
▁internal	-6225
▁194	-6226
▁যুব	-6227
▁Rolle	-6228
িদ	-6229
▁Book	-6230
rifft	-6231
▁oil	-6232
-19	-6233
▁competition	-6234
view	-6235
▁dise	-6236
▁সামনে	-6237
▁প্রেসিডেন্ট	-6238
▁Stre	-6239
ox	-6240
▁Lin	-6241
▁sun	-6242
▁subst	-6243
ichtet	-6244
▁কেবল	-6245
▁certainly	-6246
▁সত্যি	-6247
▁Hotels	-6248
AL	-6249
▁Programm	-6250
mosph	-6251
зо	-6252
▁Please	-6253
▁pain	-6254
▁рі	-6255
ikan	-6256
▁Home	-6257
লেই	-6258
▁ডে	-6259
».	-6260
system	-6261
▁movement	-6262
wirtschaft	-6263
▁বলেছিলেন	-6264
▁пі	-6265
▁territ	-6266
▁response	-6267
▁College	-6268
▁rule	-6269
▁000	-6270
"",	-6271
▁zwar	-6272
ump	-6273
▁forces	-6274
auer	-6275
üh	-6276
▁অফিস	-6277
▁hoch	-6278
▁potential	-6279
ammad	-6280
▁announced	-6281
▁directly	-6282
▁solid	-6283
raum	-6284
গ্রাম	-6285
isher	-6286
ney	-6287
▁regions	-6288
▁user	-6289
▁বাইবেল	-6290
▁item	-6291
▁huge	-6292
vol	-6293
▁Wettbew	-6294
▁বন্ধু	-6295
▁dang	-6296
▁origin	-6297
AP	-6298
8,	-6299
▁Shar	-6300
iste	-6301
▁Rück	-6302
intre	-6303
enschaft	-6304
খা	-6305
▁released	-6306
wäh	-6307
শে	-6308
▁welt	-6309
ech	-6310
▁facilities	-6311
▁internationalen	-6312
▁bestimm	-6313
▁যুক্তরাষ্ট্র	-6314
itted	-6315
▁শুন	-6316
▁broad	-6317
▁Prot	-6318
▁Ir	-6319
ficient	-6320
▁regarding	-6321
▁Kingdom	-6322
indung	-6323
▁nuc	-6324
▁organiz	-6325
▁City	-6326
▁places	-6327
▁changed	-6328
▁mul	-6329
▁mentioned	-6330
▁extra	-6331
gehen	-6332
▁implementation	-6333
▁লিখে	-6334
itting	-6335
▁democratic	-6336
▁ফোন	-6337
▁October	-6338
▁tradition	-6339
▁Dav	-6340
▁London	-6341
utet	-6342
▁ফ্র	-6343
ріб	-6344
change	-6345
▁ফেল	-6346
gemein	-6347
▁প্রমাণ	-6348
▁пер	-6349
▁largest	-6350
▁নিয়ন্ত্রণ	-6351
▁teil	-6352
rechen	-6353
▁লক্ষ্য	-6354
▁Affairs	-6355
▁অবশ্যই	-6356
▁якщо	-6357
una	-6358
ги	-6359
▁Wes	-6360
▁Prad	-6361
▁অনুযায়ী	-6362
▁möchten	-6363
▁environmental	-6364
▁সাং	-6365
ших	-6366
▁fru	-6367
▁নিশ্চয়	-6368
▁সম্পাদ	-6369
▁Bro	-6370
▁Ram	-6371
য়োগ	-6372
ery	-6373
schriften	-6374
▁চিন্তা	-6375
▁Ed	-6376
▁অভিযুক্ত	-6377
▁Disk	-6378
▁decl	-6379
cript	-6380
▁experien	-6381
▁বাস্ত	-6382
ха	-6383
▁sett	-6384
▁জানিয়েছে	-6385
▁সঙ্গ	-6386
9,	-6387
mission	-6388
ffice	-6389
itet	-6390
▁বক্ত	-6391
edinte	-6392
berg	-6393
▁হাই	-6394
▁contract	-6395
▁listen	-6396
▁বিক্ষ	-6397
▁вас	-6398
টো	-6399
▁Во	-6400
▁চো	-6401
▁Kum	-6402
▁principle	-6403
şte	-6404
achten	-6405
▁completely	-6406
▁কলক	-6407
▁informed	-6408
▁ক্রিকেট	-6409
▁hous	-6410
anc	-6411
ila	-6412
চি	-6413
▁Tw	-6414
▁July	-6415
ehmer	-6416
▁Region	-6417
▁Produkt	-6418
ন্স	-6419
▁celeb	-6420
weisen	-6421
▁Richtlinie	-6422
▁appl	-6423
ruppe	-6424
▁fo	-6425
ючи	-6426
▁ভাগ	-6427
▁additional	-6428
▁বর্ণ	-6429
pose	-6430
erien	-6431
▁Ihren	-6432
flicht	-6433
▁cru	-6434
▁successful	-6435
বিষ্য	-6436
ali	-6437
▁Uhr	-6438
▁direkt	-6439
▁Up	-6440
▁নারী	-6441
▁pressure	-6442
▁ult	-6443
▁Verbrauch	-6444
▁কোটি	-6445
▁send	-6446
শু	-6447
ession	-6448
িয়ন	-6449
▁অ্যা	-6450
▁gone	-6451
▁দশ	-6452
▁climate	-6453
▁hinaus	-6454
▁dür	-6455
র্ষ	-6456
▁ফিল	-6457
▁ওয়	-6458
enda	-6459
▁Init	-6460
ній	-6461
▁ক্ষতি	-6462
vement	-6463
ংক	-6464
▁викори	-6465
ця	-6466
▁Sat	-6467
:2	-6468
illa	-6469
▁ideal	-6470
neten	-6471
▁Kü	-6472
▁wrote	-6473
▁technical	-6474
ruch	-6475
▁consult	-6476
lang	-6477
▁Pres	-6478
▁প্রস্ত	-6479
▁১৪	-6480
wär	-6481
▁stra	-6482
িফ	-6483
▁Serbia	-6484
ourage	-6485
▁Nutz	-6486
▁raport	-6487
▁রয়েছেন	-6488
▁নাই	-6489
aign	-6490
bereich	-6491
▁কাম	-6492
▁সত	-6493
▁এলাকা	-6494
▁Rad	-6495
▁Stat	-6496
rach	-6497
▁model	-6498
word	-6499
▁surpr	-6500
▁Natur	-6501
liches	-6502
EL	-6503
vant	-6504
rieben	-6505
ta	-6506
বিল	-6507
▁worked	-6508
▁ком	-6509
▁সামাজিক	-6510
▁mis	-6511
▁মুম	-6512
druck	-6513
▁gewähr	-6514
▁спо	-6515
▁Ah	-6516
দু	-6517
▁capac	-6518
▁Щ	-6519
▁খুঁ	-6520
▁altern	-6521
zust	-6522
schafts	-6523
▁নির	-6524
▁ভবিষ্য	-6525
▁medical	-6526
▁বদ	-6527
▁leading	-6528
▁আলা	-6529
pean	-6530
▁ফেলে	-6531
▁Sab	-6532
▁পরিকল্প	-6533
atal	-6534
▁Afghan	-6535
মরা	-6536
▁!	-6537
ними	-6538
▁practice	-6539
▁complex	-6540
▁গভ	-6541
▁প্রভ	-6542
wood	-6543
ologie	-6544
▁Demokrat	-6545
phas	-6546
▁পাকিস্তানের	-6547
▁Abst	-6548
▁মন্ত	-6549
টন	-6550
▁monitor	-6551
▁নির্মাণ	-6552
▁allowed	-6553
▁Bulgar	-6554
▁amendments	-6555
সভা	-6556
▁ভোট	-6557
▁song	-6558
hest	-6559
▁whose	-6560
▁bede	-6561
▁Both	-6562
ffe	-6563
▁beginning	-6564
াহরণ	-6565
.-	-6566
▁passen	-6567
▁আন্দ	-6568
▁বান	-6569
▁১৩	-6570
achst	-6571
▁Ko	-6572
▁asem	-6573
▁জড়	-6574
▁প্রাচ	-6575
▁সংস্ক	-6576
enea	-6577
▁violence	-6578
▁registered	-6579
▁parliament	-6580
▁Pra	-6581
▁ব্যাপার	-6582
▁glaub	-6583
lection	-6584
▁transfer	-6585
.,	-6586
▁এবার	-6587
ferenz	-6588
▁Priv	-6589
▁active	-6590
▁Development	-6591
▁মৃত্য	-6592
▁2020	-6593
▁ভর্তি	-6594
ube	-6595
ape	-6596
▁উভ	-6597
▁দিক	-6598
PL	-6599
▁ক্ল	-6600
▁অপরাধ	-6601
▁erste	-6602
Wh	-6603
▁flex	-6604
▁тому	-6605
▁ways	-6606
▁দুর্ঘট	-6607
▁maintain	-6608
rig	-6609
ক্ট	-6610
тра	-6611
▁normal	-6612
ktor	-6613
ione	-6614
▁পরিবেশ	-6615
’’	-6616
▁বিস্ত	-6617
more	-6618
▁fall	-6619
▁views	-6620
iunea	-6621
чно	-6622
▁stark	-6623
▁earlier	-6624
He	-6625
isches	-6626
%,	-6627
onia	-6628
▁asemenea	-6629
▁Situation	-6630
▁রূপ	-6631
action	-6632
▁কখনো	-6633
▁investment	-6634
িকায়	-6635
▁ফে	-6636
▁ভারতে	-6637
▁sense	-6638
▁professional	-6639
▁minim	-6640
▁reserv	-6641
program	-6642
▁কোথায়	-6643
জর	-6644
▁exact	-6645
▁Chines	-6646
▁ফুট	-6647
embly	-6648
▁wonder	-6649
▁na	-6650
▁Zu	-6651
করা	-6652
▁এগিয়ে	-6653
▁Million	-6654
▁liter	-6655
US	-6656
aches	-6657
inter	-6658
▁protest	-6659
▁aware	-6660
▁Here	-6661
▁Therefore	-6662
▁এখনো	-6663
▁inf	-6664
augh	-6665
▁১৯৯	-6666
▁Text	-6667
▁Kash	-6668
rategie	-6669
▁Gandhi	-6670
ifen	-6671
িনীর	-6672
reh	-6673
▁সহযোগ	-6674
ksam	-6675
▁জাম	-6676
▁বুঝতে	-6677
ieten	-6678
▁führen	-6679
hab	-6680
▁alone	-6681
▁ছাড়	-6682
▁শব্দ	-6683
▁anges	-6684
▁মুহ	-6685
▁yourself	-6686
▁Instit	-6687
yed	-6688
▁developing	-6689
▁Meinung	-6690
ean	-6691
▁funds	-6692
wand	-6693
rary	-6694
▁Bew	-6695
ids	-6696
▁Gesundheit	-6697
▁বিব	-6698
▁govern	-6699
дя	-6700
ণা	-6701
▁যাওয়ার	-6702
any	-6703
▁ক্ষমতা	-6704
iting	-6705
erve	-6706
▁nation	-6707
▁Fisch	-6708
ris	-6709
irth	-6710
▁১৭	-6711
▁খু	-6712
ierungen	-6713
leistungen	-6714
▁Sam	-6715
▁quickly	-6716
weis	-6717
▁Fe	-6718
▁অপর	-6719
ope	-6720
▁einzel	-6721
▁উন্নয়ন	-6722
▁বিত	-6723
লী	-6724
▁কারা	-6725
▁Thank	-6726
▁web	-6727
রাং	-6728
▁বললেন	-6729
▁সংগঠ	-6730
erne	-6731
টিকে	-6732
7.	-6733
▁deliver	-6734
▁toate	-6735
▁IS	-6736
ley	-6737
▁ту	-6738
▁ку	-6739
▁ten	-6740
stück	-6741
ান্ড	-6742
▁Also	-6743
ünd	-6744
aging	-6745
বায়	-6746
▁আক্রান্ত	-6747
▁ready	-6748
্মদ	-6749
▁কয়েকটি	-6750
▁Char	-6751
▁boy	-6752
▁users	-6753
ples	-6754
▁Ha	-6755
▁critic	-6756
জন্য	-6757
▁ঢাকা	-6758
▁Inn	-6759
▁Russian	-6760
▁ä	-6761
▁hands	-6762
▁Social	-6763
▁ছেড়ে	-6764
▁রকম	-6765
▁Den	-6766
cle	-6767
ctive	-6768
▁eth	-6769
zogen	-6770
▁simple	-6771
ehn	-6772
▁মানব	-6773
▁remains	-6774
hood	-6775
fall	-6776
▁Мо	-6777
▁minor	-6778
▁Zusammenhang	-6779
সমূহ	-6780
িক্ত	-6781
পু	-6782
▁includes	-6783
ichen	-6784
▁bath	-6785
AC	-6786
бити	-6787
বাদী	-6788
▁hät	-6789
▁subs	-6790
▁Abd	-6791
▁features	-6792
▁shows	-6793
▁loss	-6794
▁satisf	-6795
▁গ্রেপ্ত	-6796
▁York	-6797
▁trust	-6798
▁holid	-6799
▁Abgeord	-6800
▁saw	-6801
▁consequ	-6802
▁sil	-6803
▁হলেন	-6804
anced	-6805
plan	-6806
▁(2	-6807
▁Democ	-6808
▁attract	-6809
▁crime	-6810
▁train	-6811
▁ve	-6812
burg	-6813
voll	-6814
▁zun	-6815
ঙ্কা	-6816
platz	-6817
▁Even	-6818
▁hum	-6819
äge	-6820
▁hom	-6821
▁beiden	-6822
hold	-6823
uel	-6824
▁negotiations	-6825
▁দেয়া	-6826
ulture	-6827
▁unserem	-6828
▁sustain	-6829
▁occasion	-6830
▁সেখান	-6831
itude	-6832
▁correct	-6833
▁Л	-6834
pekt	-6835
werk	-6836
▁допомо	-6837
▁carried	-6838
পত্র	-6839
▁প্রস্তু	-6840
▁১৬	-6841
ক্রমণ	-6842
▁kommt	-6843
asst	-6844
▁original	-6845
▁পুরুষ	-6846
▁প্রতির	-6847
▁সুত	-6848
▁grant	-6849
▁maxim	-6850
▁engine	-6851
▁bur	-6852
▁এসেছে	-6853
orge	-6854
▁Entwicklungs	-6855
▁Today	-6856
mäß	-6857
ichtlich	-6858
▁har	-6859
ষ্কার	-6860
cement	-6861
▁begrü	-6862
▁Bere	-6863
▁Як	-6864
▁পদক্ষেপ	-6865
▁appropriate	-6866
▁প্রেম	-6867
▁construction	-6868
ільки	-6869
ought	-6870
▁drink	-6871
স্ত্র	-6872
▁determin	-6873
▁সপ্ত	-6874
▁finanz	-6875
stra	-6876
atic	-6877
şt	-6878
▁Artikel	-6879
▁প্রের	-6880
বস	-6881
vere	-6882
▁observ	-6883
OS	-6884
টিং	-6885
ita	-6886
▁চান	-6887
▁ers	-6888
fortun	-6889
▁seems	-6890
▁internet	-6891
usätz	-6892
▁Hilfe	-6893
▁pie	-6894
▁tit	-6895
▁campaign	-6896
▁pute	-6897
unst	-6898
▁fapt	-6899
▁Entschließ	-6900
▁Bol	-6901
-2	-6902
▁Ali	-6903
াদের	-6904
▁час	-6905
▁Plan	-6906
▁award	-6907
wide	-6908
ження	-6909
zimmer	-6910
rieb	-6911
▁rez	-6912
just	-6913
▁Cal	-6914
▁Schluss	-6915
▁রাখতে	-6916
▁purpose	-6917
▁মুক্তি	-6918
▁Has	-6919
▁Sm	-6920
ră	-6921
▁জো	-6922
kä	-6923
.)	-6924
▁details	-6925
▁image	-6926
▁wants	-6927
▁religious	-6928
цю	-6929
▁Reform	-6930
▁decisions	-6931
▁Personen	-6932
▁রু	-6933
▁daughter	-6934
াৎ	-6935
▁neh	-6936
বিশ	-6937
▁emphas	-6938
7,	-6939
▁Cup	-6940
âr	-6941
▁পরবর্তী	-6942
iken	-6943
amera	-6944
ruppen	-6945
▁famous	-6946
leicht	-6947
▁3.	-6948
▁пре	-6949
▁surround	-6950
ডের	-6951
তেন	-6952
▁unique	-6953
▁আগুন	-6954
▁সহজ	-6955
▁বিক্ষোভ	-6956
▁উদাহরণ	-6957
▁communication	-6958
এফ	-6959
▁Verantwort	-6960
▁weltweit	-6961
▁requirements	-6962
▁Ums	-6963
▁можна	-6964
▁Klim	-6965
▁Weit	-6966
▁মনো	-6967
ню	-6968
iun	-6969
ächst	-6970
▁although	-6971
gent	-6972
▁lucru	-6973
eri	-6974
▁politics	-6975
AD	-6976
▁fine	-6977
▁বাইরে	-6978
▁card	-6979
▁Gäste	-6980
▁অগ্র	-6981
ura	-6982
▁jobs	-6983
▁empf	-6984
▁ли	-6985
▁ইন্টার	-6986
▁বিন	-6987
▁pages	-6988
▁appear	-6989
▁Organisation	-6990
rift	-6991
▁সুতরাং	-6992
▁নিঃ	-6993
aving	-6994
ভর	-6995
▁caused	-6996
▁Dieses	-6997
▁families	-6998
▁Zust	-6999
▁stage	-7000
▁বিশ্বের	-7001
▁сто	-7002
স্থার	-7003
fassung	-7004
্ঞ	-7005
▁gas	-7006
▁Liber	-7007
জিত	-7008
ilder	-7009
aled	-7010
▁Rel	-7011
হুল	-7012
▁respond	-7013
▁আনন্দ	-7014
▁জ্ঞ	-7015
▁করলেন	-7016
বী	-7017
▁পক্ষে	-7018
▁stellt	-7019
▁markets	-7020
ees	-7021
▁amb	-7022
▁বিদেশ	-7023
фор	-7024
baren	-7025
▁agreed	-7026
alu	-7027
▁মৌ	-7028
▁পরিমাণ	-7029
yr	-7030
▁бага	-7031
▁bringen	-7032
▁acqu	-7033
▁England	-7034
▁bzw	-7035
▁Sel	-7036
kauf	-7037
▁filed	-7038
▁лі	-7039
▁border	-7040
▁свої	-7041
üs	-7042
▁indem	-7043
▁watch	-7044
▁nuclear	-7045
▁Kumar	-7046
aries	-7047
▁Chinese	-7048
oz	-7049
▁verbess	-7050
▁Lösung	-7051
ighest	-7052
▁likely	-7053
pped	-7054
stre	-7055
▁supply	-7056
▁sle	-7057
কৃত	-7058
It	-7059
▁Kultur	-7060
▁অবস্থায়	-7061
তু	-7062
owers	-7063
বো	-7064
▁Präsidentin	-7065
ären	-7066
▁люди	-7067
annten	-7068
▁স্বা	-7069
▁stär	-7070
র্ষণ	-7071
▁solutions	-7072
▁Tele	-7073
▁অভিয	-7074
িন্দু	-7075
▁Schul	-7076
▁lat	-7077
iff	-7078
ণিজ	-7079
▁বাকি	-7080
▁পারবে	-7081
ously	-7082
▁ছড়িয়ে	-7083
beh	-7084
▁closed	-7085
genden	-7086
prache	-7087
▁অস্ট্র	-7088
stadt	-7089
▁вам	-7090
▁Kashmir	-7091
▁Paris	-7092
prochen	-7093
▁Leben	-7094
face	-7095
▁Mil	-7096
ність	-7097
▁born	-7098
nes	-7099
▁রিপ	-7100
▁prepared	-7101
teilung	-7102
▁নিরাপত্তা	-7103
▁সমাজ	-7104
▁বৃদ্ধি	-7105
bet	-7106
▁отри	-7107
▁EC	-7108
▁weniger	-7109
▁Бо	-7110
▁ja	-7111
bl	-7112
▁daran	-7113
▁direction	-7114
▁traditional	-7115
▁ইউর	-7116
▁প্রকাশিত	-7117
duc	-7118
▁Fried	-7119
▁expressed	-7120
▁steps	-7121
nel	-7122
▁billion	-7123
▁mem	-7124
▁প্রতিষ্ঠান	-7125
▁gilt	-7126
লিক	-7127
forderungen	-7128
▁knows	-7129
▁guarantee	-7130
▁collect	-7131
tempt	-7132
""-	-7133
▁আক	-7134
▁mechan	-7135
ushed	-7136
▁alt	-7137
▁anti	-7138
ield	-7139
▁চুক্ত	-7140
▁etwa	-7141
mbol	-7142
fert	-7143
▁giving	-7144
তাম	-7145
▁গোল	-7146
▁pen	-7147
▁Pradesh	-7148
▁journal	-7149
ounts	-7150
▁Deshalb	-7151
▁Gleich	-7152
▁computer	-7153
ämlich	-7154
্যাম্প	-7155
attle	-7156
▁fig	-7157
দিষ্ট	-7158
▁প্রাথম	-7159
▁blog	-7160
▁মাঝে	-7161
▁শেখ	-7162
▁শক্তি	-7163
▁Mag	-7164
aurants	-7165
undred	-7166
▁Gegen	-7167
▁নেতৃত	-7168
▁timp	-7169
▁ইর	-7170
▁это	-7171
▁জাহ	-7172
zeitig	-7173
повід	-7174
▁@	-7175
▁Film	-7176
'.	-7177
achen	-7178
▁blood	-7179
äs	-7180
▁গে	-7181
▁stress	-7182
▁describ	-7183
▁Windows	-7184
▁দাম	-7185
▁shared	-7186
uellen	-7187
про	-7188
▁jeden	-7189
▁cant	-7190
▁হ্যা	-7191
▁উঠে	-7192
▁потріб	-7193
▁খেলা	-7194
пер	-7195
▁performance	-7196
▁Nob	-7197
▁gesagt	-7198
▁crim	-7199
▁produced	-7200
▁80	-7201
▁spiel	-7202
▁source	-7203
вий	-7204
▁gives	-7205
abhäng	-7206
্ভাব	-7207
▁জাতি	-7208
ুদ্র	-7209
▁bi	-7210
▁nämlich	-7211
rief	-7212
lusion	-7213
ем	-7214
vious	-7215
▁mitt	-7216
kre	-7217
ruption	-7218
▁bereit	-7219
▁উপরে	-7220
60	-7221
▁Health	-7222
partment	-7223
▁wide	-7224
▁Men	-7225
ipment	-7226
uries	-7227
wohl	-7228
▁একটু	-7229
▁Rates	-7230
▁উদ্যোগ	-7231
▁director	-7232
▁*	-7233
frage	-7234
▁bitte	-7235
rump	-7236
rolle	-7237
▁gute	-7238
▁অন্ত	-7239
legenheit	-7240
▁বৃহ	-7241
▁নাক	-7242
▁Sozial	-7243
▁independent	-7244
▁pet	-7245
lass	-7246
▁destro	-7247
ußen	-7248
▁relax	-7249
▁Portug	-7250
▁initiative	-7251
▁regulation	-7252
পূর্	-7253
▁persön	-7254
▁fort	-7255
letz	-7256
▁brother	-7257
▁Ти	-7258
গো	-7259
stoff	-7260
▁লড়াই	-7261
▁charge	-7262
করণ	-7263
iesen	-7264
фі	-7265
odies	-7266
▁Yet	-7267
abled	-7268
▁below	-7269
▁hus	-7270
arily	-7271
▁named	-7272
ned	-7273
reiche	-7274
ena	-7275
uit	-7276
umbai	-7277
▁farmers	-7278
▁2006	-7279
ücksicht	-7280
▁অবস্থান	-7281
frastruct	-7282
ency	-7283
▁Erfahr	-7284
▁genau	-7285
anst	-7286
▁governments	-7287
▁path	-7288
▁কাজের	-7289
ються	-7290
▁sogar	-7291
▁сказа	-7292
▁Europas	-7293
▁values	-7294
▁শ্রম	-7295
▁avoid	-7296
▁Produkte	-7297
রামর্শ	-7298
▁Украї	-7299
▁প্রাণ	-7300
▁আয়	-7301
гля	-7302
কেট	-7303
kung	-7304
▁kurz	-7305
irea	-7306
▁mobile	-7307
inge	-7308
iveness	-7309
▁Kosten	-7310
েনার	-7311
▁conference	-7312
▁unterschied	-7313
▁অন্যতম	-7314
ship	-7315
ден	-7316
▁মৃত্যুর	-7317
illed	-7318
▁চি	-7319
▁reve	-7320
▁intens	-7321
▁Ort	-7322
▁contain	-7323
▁Add	-7324
igungs	-7325
▁Geld	-7326
ächlich	-7327
▁Millionen	-7328
▁Dan	-7329
мер	-7330
lei	-7331
▁জানতে	-7332
▁absolut	-7333
▁Preis	-7334
▁highest	-7335
▁Mot	-7336
wendet	-7337
▁creation	-7338
▁আরেক	-7339
völ	-7340
▁politische	-7341
▁Institution	-7342
▁goes	-7343
▁repe	-7344
▁choice	-7345
▁того	-7346
▁choose	-7347
▁pros	-7348
light	-7349
▁বাড়িতে	-7350
мати	-7351
uty	-7352
ela	-7353
▁cad	-7354
▁আবেদন	-7355
elled	-7356
▁Dam	-7357
▁bekannt	-7358
রেজি	-7359
▁talking	-7360
▁existing	-7361
▁prepar	-7362
▁gerade	-7363
eller	-7364
▁nie	-7365
Re	-7366
treten	-7367
▁basic	-7368
▁concerns	-7369
▁conflict	-7370
▁195	-7371
▁змі	-7372
inian	-7373
▁extens	-7374
▁Get	-7375
▁împ	-7376
ipped	-7377
▁টেল	-7378
▁daily	-7379
roffen	-7380
▁expected	-7381
▁operation	-7382
▁matters	-7383
ভে	-7384
▁কঠিন	-7385
▁eyes	-7386
▁Sim	-7387
ora	-7388
▁টেস্ট	-7389
▁programmes	-7390
▁রান	-7391
▁পোস্ট	-7392
দীর	-7393
ান্স	-7394
▁Ak	-7395
▁প্রক্র	-7396
▁জানানো	-7397
▁রায়	-7398
▁verd	-7399
▁পদ্ধ	-7400
বিধা	-7401
atten	-7402
▁treb	-7403
▁belong	-7404
▁opportunities	-7405
▁Ide	-7406
ুস	-7407
াক্তন	-7408
▁analys	-7409
▁কিং	-7410
▁cricket	-7411
▁পরামর্শ	-7412
▁"(	-7413
▁মন্তব্য	-7414
▁Real	-7415
ামা	-7416
ările	-7417
▁administration	-7418
▁reduce	-7419
lav	-7420
▁erwar	-7421
ette	-7422
▁Second	-7423
▁Later	-7424
▁মেড	-7425
▁anc	-7426
rier	-7427
gem	-7428
gal	-7429
press	-7430
▁designed	-7431
▁agricultural	-7432
вно	-7433
▁goods	-7434
▁membre	-7435
▁nehmen	-7436
নির্	-7437
ারাপ	-7438
▁cooper	-7439
11	-7440
▁aufge	-7441
▁trebui	-7442
▁পেশ	-7443
▁shown	-7444
▁erfolg	-7445
▁চিত্র	-7446
ground	-7447
র্ড	-7448
▁status	-7449
▁clar	-7450
ATO	-7451
▁Other	-7452
▁Mumbai	-7453
▁ihn	-7454
▁নেয়	-7455
▁বিয়ে	-7456
▁Asia	-7457
iul	-7458
▁Such	-7459
recht	-7460
▁চায়	-7461
সঙ্গে	-7462
▁note	-7463
▁তোমাকে	-7464
▁Punkt	-7465
▁speed	-7466
▁san	-7467
itable	-7468
▁সম্ভাব	-7469
▁someone	-7470
▁শতাংশ	-7471
AM	-7472
▁Pan	-7473
▁Centre	-7474
▁League	-7475
ua	-7476
▁commercial	-7477
ţin	-7478
▁raised	-7479
▁দিল্ল	-7480
ourag	-7481
▁আগামী	-7482
▁খাবার	-7483
▁ওর	-7484
son	-7485
▁Tats	-7486
▁було	-7487
▁release	-7488
▁থাকার	-7489
▁Tür	-7490
▁অপে	-7491
▁season	-7492
йте	-7493
▁Zugang	-7494
▁ebenfalls	-7495
ăţ	-7496
ritten	-7497
ießen	-7498
▁ভাষায়	-7499
▁মিথ	-7500
▁seven	-7501
▁Dank	-7502
রূপ	-7503
▁display	-7504
▁উৎপাদ	-7505
▁Instrum	-7506
েনের	-7507
▁বিশ্ববিদ্যালয়	-7508
▁advant	-7509
ція	-7510
▁assistance	-7511
▁Presidency	-7512
ester	-7513
▁জড়িত	-7514
▁meisten	-7515
▁Wirtschaft	-7516
িহ্ন	-7517
asse	-7518
▁ihm	-7519
haus	-7520
▁ডিস	-7521
ami	-7522
▁dintre	-7523
▁betre	-7524
▁Website	-7525
▁gemacht	-7526
▁passed	-7527
▁picture	-7528
▁Buch	-7529
▁Fraktion	-7530
▁প্রাক্তন	-7531
▁seinem	-7532
▁poll	-7533
▁হত্যা	-7534
▁comment	-7535
▁ak	-7536
▁sources	-7537
▁Loc	-7538
▁Belg	-7539
▁Muse	-7540
▁Wasser	-7541
isse	-7542
ঙ্গি	-7543
▁neu	-7544
▁February	-7545
▁preş	-7546
wahl	-7547
▁Az	-7548
▁Design	-7549
rij	-7550
lace	-7551
verb	-7552
▁deg	-7553
▁Bezug	-7554
▁Super	-7555
▁dessen	-7556
▁recht	-7557
▁presented	-7558
▁discussion	-7559
▁Dieser	-7560
▁Australia	-7561
vis	-7562
▁digital	-7563
hren	-7564
▁arrang	-7565
▁Jahres	-7566
ții	-7567
জু	-7568
▁স্পষ্ট	-7569
▁actions	-7570
kar	-7571
▁guests	-7572
▁লোকে	-7573
okument	-7574
▁আপনাকে	-7575
▁ট্রাম্প	-7576
০০০	-7577
upra	-7578
▁করলে	-7579
▁ঐতি	-7580
▁principles	-7581
▁darf	-7582
▁আন্দোল	-7583
▁Früh	-7584
▁তিনটি	-7585
▁Unsere	-7586
▁procedure	-7587
ট্ট	-7588
▁Econom	-7589
▁সাই	-7590
▁পিত	-7591
▁সম্মান	-7592
হে	-7593
▁squ	-7594
enior	-7595
ED	-7596
ফে	-7597
lau	-7598
▁birth	-7599
▁পাঠানো	-7600
eth	-7601
mon	-7602
্রি	-7603
▁প্রস্তাব	-7604
▁surv	-7605
▁দায়ের	-7606
wise	-7607
▁fra	-7608
▁Bre	-7609
▁unterstützt	-7610
лення	-7611
▁বেড়ে	-7612
itionen	-7613
дин	-7614
ero	-7615
▁worth	-7616
▁Deutschland	-7617
▁concerning	-7618
▁See	-7619
ফি	-7620
▁warm	-7621
term	-7622
▁ade	-7623
▁Three	-7624
▁28	-7625
cause	-7626
▁রহমান	-7627
▁অস্ট্রেল	-7628
▁আসলে	-7629
তন	-7630
cks	-7631
abad	-7632
gu	-7633
▁Alban	-7634
▁assess	-7635
IP	-7636
wür	-7637
▁levels	-7638
▁paid	-7639
▁সেরা	-7640
▁Trump	-7641
antly	-7642
▁প্রবেশ	-7643
▁ban	-7644
বাদিক	-7645
▁situated	-7646
াধিক	-7647
প্রিয়	-7648
▁administrat	-7649
▁fulf	-7650
▁খারাপ	-7651
▁ord	-7652
irus	-7653
▁Ins	-7654
▁করোনা	-7655
verage	-7656
▁instead	-7657
obil	-7658
▁round	-7659
ikh	-7660
ühren	-7661
ades	-7662
▁Rechte	-7663
mut	-7664
▁যাদের	-7665
▁wahr	-7666
▁অতি	-7667
▁অত্য	-7668
ীরে	-7669
▁mal	-7670
▁зав	-7671
▁পাই	-7672
▁ceea	-7673
▁influ	-7674
aught	-7675
স্থান	-7676
▁industrial	-7677
▁finally	-7678
▁দুঃ	-7679
▁Sum	-7680
oyal	-7681
জয়	-7682
▁inside	-7683
▁darin	-7684
▁District	-7685
▁শত	-7686
▁সুপার	-7687
▁প্রযুক্ত	-7688
sweise	-7689
igent	-7690
▁goal	-7691
▁ভাষা	-7692
airman	-7693
▁লিখ	-7694
▁followed	-7695
▁Arch	-7696
▁congratul	-7697
▁ওয়া	-7698
রাই	-7699
▁Hö	-7700
▁declared	-7701
▁দূর	-7702
▁бы	-7703
ভিড	-7704
ূর্ত	-7705
▁purch	-7706
issenschaft	-7707
▁Verhand	-7708
▁justice	-7709
▁admitted	-7710
eks	-7711
▁attempt	-7712
isiert	-7713
▁resident	-7714
কালে	-7715
▁গান্ধ	-7716
▁Fir	-7717
▁পরিণ	-7718
▁table	-7719
osen	-7720
/200	-7721
benso	-7722
▁exerc	-7723
▁rain	-7724
▁কোর্	-7725
▁খুন	-7726
erer	-7727
schaften	-7728
ডার	-7729
ategor	-7730
▁কাশ	-7731
▁black	-7732
кт	-7733
ত্ত্ব	-7734
ilateral	-7735
▁declarat	-7736
gn	-7737
▁gehen	-7738
rian	-7739
▁tou	-7740
ভায়	-7741
dh	-7742
ৃতিক	-7743
ামি	-7744
▁Kore	-7745
▁center	-7746
সন	-7747
▁কেমন	-7748
▁ধারণা	-7749
▁effort	-7750
▁pleas	-7751
▁playing	-7752
▁door	-7753
▁সফল	-7754
▁তেমন	-7755
komm	-7756
iction	-7757
▁Although	-7758
▁প্রতিনি	-7759
▁কর্তৃপক্ষ	-7760
дні	-7761
▁glaube	-7762
cul	-7763
▁öffentlichen	-7764
ores	-7765
▁Regel	-7766
▁breakfast	-7767
▁vac	-7768
▁বিনি	-7769
▁NATO	-7770
▁সাংবাদিক	-7771
▁Global	-7772
▁Face	-7773
গুলোতে	-7774
gebung	-7775
▁জে	-7776
istics	-7777
ন্দ্র	-7778
anda	-7779
▁Mill	-7780
▁nichts	-7781
▁dürfen	-7782
▁Maced	-7783
▁সর্বো	-7784
▁অর্জন	-7785
▁মুম্ব	-7786
জের	-7787
▁beach	-7788
▁asupra	-7789
▁সোশ	-7790
вих	-7791
▁থাকেন	-7792
rachten	-7793
▁আদালত	-7794
▁Mess	-7795
▁infrastruct	-7796
afen	-7797
▁derzeit	-7798
▁আছেন	-7799
▁einigen	-7800
IM	-7801
igration	-7802
iu	-7803
▁restrict	-7804
▁labour	-7805
▁মূল্য	-7806
▁এদের	-7807
বেক	-7808
▁Verkehr	-7809
▁firm	-7810
▁Gre	-7811
▁Qualität	-7812
য়াল	-7813
▁গৃহ	-7814
▁Post	-7815
ান্তর	-7816
iable	-7817
▁perhaps	-7818
▁command	-7819
▁..	-7820
▁কাল	-7821
▁credit	-7822
kata	-7823
:00	-7824
char	-7825
▁print	-7826
▁evening	-7827
▁Gemeinschaft	-7828
▁ভাইরা	-7829
▁করল	-7830
▁Afghanistan	-7831
produ	-7832
▁নীতি	-7833
BI	-7834
▁বাণিজ	-7835
োদ	-7836
upă	-7837
▁Mär	-7838
reme	-7839
▁Nord	-7840
▁সতর্ক	-7841
ommod	-7842
▁সহায়	-7843
▁এমনকি	-7844
▁প্রত্যেক	-7845
кри	-7846
▁achieved	-7847
▁stated	-7848
pflicht	-7849
▁Western	-7850
sy	-7851
▁providing	-7852
▁500	-7853
▁Flug	-7854
▁চাপ	-7855
▁plant	-7856
An	-7857
▁wis	-7858
▁দিয়েছিলেন	-7859
ails	-7860
▁lay	-7861
ähe	-7862
▁comprom	-7863
▁upd	-7864
▁appre	-7865
▁সাংস	-7866
▁percent	-7867
▁schaffen	-7868
▁medic	-7869
▁bodies	-7870
▁foarte	-7871
heb	-7872
▁সমর্থন	-7873
ringen	-7874
▁দিনের	-7875
▁driver	-7876
▁লাই	-7877
▁sollen	-7878
udi	-7879
▁Nicht	-7880
▁অনুষ্ঠানে	-7881
''	-7882
সর	-7883
▁Rei	-7884
rieg	-7885
▁বন্দ	-7886
▁Restaurant	-7887
schließlich	-7888
জনকে	-7889
▁los	-7890
ogle	-7891
▁board	-7892
▁пи	-7893
▁Beschäft	-7894
▁Security	-7895
”.	-7896
?"	-7897
▁Frei	-7898
▁husband	-7899
rant	-7900
▁Jahrh	-7901
▁hor	-7902
▁property	-7903
বাব	-7904
▁আপন	-7905
▁цього	-7906
ynam	-7907
▁গ্রেপ্তার	-7908
▁ihrem	-7909
nehmer	-7910
▁kosten	-7911
вор	-7912
▁brauchen	-7913
кра	-7914
iders	-7915
▁Angeb	-7916
ickets	-7917
ano	-7918
▁verbunden	-7919
ennen	-7920
▁সময়ের	-7921
▁১৯৭	-7922
▁remov	-7923
▁comfortable	-7924
▁serve	-7925
▁ধ্ব	-7926
▁keinen	-7927
фе	-7928
▁nationalen	-7929
lywood	-7930
▁weak	-7931
গুলিতে	-7932
▁краї	-7933
▁Bad	-7934
зі	-7935
TM	-7936
itect	-7937
▁lower	-7938
▁sometimes	-7939
▁তারি	-7940
agar	-7941
▁films	-7942
хід	-7943
▁প্রাচীন	-7944
ুয়ারি	-7945
▁Aussprache	-7946
▁থানায়	-7947
cte	-7948
▁Rs	-7949
▁70	-7950
ico	-7951
ieg	-7952
wärt	-7953
▁খাদ	-7954
▁Verw	-7955
utzt	-7956
▁Him	-7957
heim	-7958
▁handelt	-7959
▁laws	-7960
▁supported	-7961
এল	-7962
rang	-7963
▁অল	-7964
▁জম	-7965
▁Assoc	-7966
riage	-7967
▁parte	-7968
▁অন্তর্ভুক্ত	-7969
▁Their	-7970
organ	-7971
শেষ	-7972
▁youth	-7973
▁পানি	-7974
▁insp	-7975
dam	-7976
▁Those	-7977
▁contains	-7978
льно	-7979
▁ded	-7980
verkehr	-7981
▁code	-7982
▁într	-7983
▁Kolleg	-7984
▁বাত	-7985
▁affected	-7986
▁trib	-7987
▁নেন	-7988
▁Groß	-7989
▁univers	-7990
▁committed	-7991
▁সেবা	-7992
▁মুসলিম	-7993
▁সঠ	-7994
▁সপ্তাহ	-7995
indern	-7996
▁files	-7997
▁zusätz	-7998
চক	-7999
ckt	-8000
llt	-8001
▁আফ্র	-8002
▁opened	-8003
estic	-8004
রায়	-8005
▁opposition	-8006
abin	-8007
esten	-8008
▁highly	-8009
ড়ক	-8010
▁reality	-8011
▁Besch	-8012
▁draft	-8013
▁attend	-8014
▁Prov	-8015
▁ци	-8016
▁unei	-8017
▁পরিকল্পনা	-8018
▁Hospital	-8019
staat	-8020
▁returned	-8021
সার	-8022
▁ইতিমধ্য	-8023
▁можу	-8024
ampf	-8025
uelle	-8026
▁Kolkata	-8027
▁Nor	-8028
▁পুলিস	-8029
▁players	-8030
▁thinking	-8031
ৌশ	-8032
কিছু	-8033
вання	-8034
▁movie	-8035
▁promote	-8036
▁weiterhin	-8037
▁allows	-8038
▁objective	-8039
▁Tro	-8040
▁пла	-8041
yond	-8042
gypt	-8043
জায়	-8044
ployment	-8045
▁guid	-8046
▁Play	-8047
▁save	-8048
▁Kl	-8049
temp	-8050
▁Times	-8051
▁furn	-8052
▁Dom	-8053
itung	-8054
äter	-8055
রাট	-8056
▁শহরের	-8057
чення	-8058
▁airport	-8059
▁90	-8060
▁concept	-8061
You	-8062
▁Open	-8063
▁schließ	-8064
▁doubt	-8065
▁мене	-8066
▁rapid	-8067
▁weeks	-8068
▁profession	-8069
ন্থ	-8070
▁betrifft	-8071
▁Ebene	-8072
▁Fern	-8073
ар	-8074
▁tried	-8075
মর	-8076
▁Projekt	-8077
▁heiß	-8078
▁একাধিক	-8079
▁conclud	-8080
▁capacity	-8081
OM	-8082
▁більше	-8083
▁গুলি	-8084
weet	-8085
▁বিধান	-8086
▁এটাই	-8087
▁Fortsch	-8088
stellt	-8089
▁king	-8090
▁married	-8091
▁que	-8092
ună	-8093
▁witness	-8094
reicht	-8095
▁পিছ	-8096
bank	-8097
▁সম্মেল	-8098
mals	-8099
▁চেয়ার	-8100
▁গঠন	-8101
▁served	-8102
▁Bud	-8103
ке	-8104
äuf	-8105
▁hundred	-8106
▁produce	-8107
জ্ঞা	-8108
▁ourselves	-8109
▁রাষ্ট্রপতি	-8110
▁probably	-8111
▁recovered	-8112
▁চৌ	-8113
▁খোঁ	-8114
▁এছাড়াও	-8115
▁Fore	-8116
▁Fed	-8117
▁forg	-8118
▁suppl	-8119
aussch	-8120
▁equipment	-8121
▁який	-8122
▁agreements	-8123
▁gradu	-8124
▁initial	-8125
anka	-8126
▁সম্পূর্ণ	-8127
ভূত	-8128
▁অত্যন্ত	-8129
▁ইউরোপ	-8130
▁accepted	-8131
▁evidence	-8132
хи	-8133
▁stopp	-8134
):	-8135
▁বিজ্ঞান	-8136
osn	-8137
ener	-8138
▁prime	-8139
▁Pers	-8140
arbeiten	-8141
▁activity	-8142
▁Mond	-8143
astic	-8144
▁join	-8145
▁Про	-8146
▁Italy	-8147
▁joined	-8148
ানির	-8149
▁unver	-8150
▁повинні	-8151
▁pool	-8152
▁size	-8153
gelegt	-8154
▁সাত	-8155
▁ঘটেছে	-8156
▁heraus	-8157
urance	-8158
year	-8159
anze	-8160
▁solche	-8161
bare	-8162
▁dipl	-8163
▁wenig	-8164
▁দিব	-8165
▁Prozess	-8166
▁fix	-8167
▁মস	-8168
zeichnet	-8169
▁evalu	-8170
চল	-8171
▁rat	-8172
▁Finally	-8173
шь	-8174
▁Dis	-8175
▁চিহ্ন	-8176
▁Коли	-8177
fern	-8178
steh	-8179
▁2005	-8180
ким	-8181
▁sei	-8182
eed	-8183
atever	-8184
▁Bem	-8185
▁reading	-8186
▁bedeutet	-8187
ko	-8188
▁Leist	-8189
▁exchange	-8190
▁army	-8191
▁Because	-8192
▁সংক্রান্ত	-8193
▁অভিনেত	-8194
িভ	-8195
▁download	-8196
ivel	-8197
▁বেশির	-8198
▁Date	-8199
ঢ়	-8200
▁গাড়ি	-8201
▁circum	-8202
fortunately	-8203
▁benöt	-8204
ком	-8205
▁Facebook	-8206
▁macht	-8207
▁cas	-8208
єю	-8209
нів	-8210
▁deutlich	-8211
▁languages	-8212
▁Vis	-8213
র্য	-8214
▁MP	-8215
▁কোম্প	-8216
▁chance	-8217
▁deshalb	-8218
prä	-8219
▁growing	-8220
▁Turk	-8221
▁ahead	-8222
▁easily	-8223
▁purs	-8224
▁26	-8225
▁দান	-8226
▁Sitz	-8227
আমরা	-8228
▁limited	-8229
নাথ	-8230
▁মোহ	-8231
▁drug	-8232
12	-8233
▁lear	-8234
সন্দেহ	-8235
▁২৪	-8236
▁Mont	-8237
▁Lisbon	-8238
▁শীর্	-8239
▁meaning	-8240
▁যিশু	-8241
40	-8242
based	-8243
цію	-8244
▁জানেন	-8245
▁nice	-8246
▁Wel	-8247
ingen	-8248
▁măs	-8249
▁পরীক্ষ	-8250
য়াদ	-8251
hel	-8252
▁coll	-8253
geschl	-8254
▁kept	-8255
SE	-8256
▁forms	-8257
▁restaurant	-8258
▁লী	-8259
▁Theres	-8260
▁David	-8261
ählen	-8262
▁sister	-8263
▁package	-8264
▁Abstimmung	-8265
▁besten	-8266
পাল	-8267
▁ign	-8268
▁accommod	-8269
▁Iraq	-8270
▁river	-8271
▁""""	-8272
▁Secretary	-8273
▁বর্তমান	-8274
▁disk	-8275
ziehen	-8276
▁হোস	-8277
▁oft	-8278
▁Further	-8279
▁launched	-8280
▁আর্	-8281
orial	-8282
▁পূর্ণ	-8283
▁পড়া	-8284
icial	-8285
wach	-8286
▁পরিচালক	-8287
rimin	-8288
eden	-8289
ivity	-8290
▁নানা	-8291
▁কুমার	-8292
▁Army	-8293
▁cell	-8294
▁Kir	-8295
ava	-8296
▁শ্র	-8297
▁besser	-8298
▁її	-8299
▁aufgrund	-8300
▁Def	-8301
▁ব্যাপক	-8302
erbs	-8303
▁encourag	-8304
issions	-8305
▁aj	-8306
▁actor	-8307
বেদ	-8308
▁damage	-8309
▁মাসে	-8310
iah	-8311
▁জীবনের	-8312
▁rise	-8313
বহ	-8314
▁interess	-8315
▁বেস	-8316
schluss	-8317
▁util	-8318
▁হতো	-8319
▁Bezieh	-8320
▁Gesetz	-8321
▁Us	-8322
▁construct	-8323
▁section	-8324
ură	-8325
▁Akt	-8326
▁IT	-8327
▁dialogue	-8328
▁cities	-8329
▁challenges	-8330
ilos	-8331
▁জার্ম	-8332
▁Public	-8333
▁উপল	-8334
▁Kunst	-8335
▁alte	-8336
খ্য	-8337
ক্ষম	-8338
▁kont	-8339
▁würden	-8340
ula	-8341
য়নের	-8342
▁electric	-8343
▁Що	-8344
▁hol	-8345
শিয়া	-8346
▁সোশ্যাল	-8347
▁objectives	-8348
▁actual	-8349
▁technolog	-8350
সী	-8351
▁গল্প	-8352
▁Gesellschaft	-8353
পথ	-8354
icy	-8355
▁পুরো	-8356
▁buy	-8357
räsent	-8358
▁Eink	-8359
▁বাদ	-8360
atform	-8361
▁Sup	-8362
▁চিকিৎসা	-8363
TO	-8364
▁turned	-8365
jen	-8366
▁বাঁ	-8367
▁Ahmed	-8368
▁sleep	-8369
▁wichtige	-8370
েতন	-8371
▁কোর	-8372
▁Roh	-8373
▁guest	-8374
▁Business	-8375
▁aspects	-8376
▁Integ	-8377
▁equal	-8378
omit	-8379
▁Only	-8380
▁alleged	-8381
▁চাক	-8382
▁ş	-8383
▁green	-8384
▁প্রতিযোগ	-8385
ць	-8386
limin	-8387
züglich	-8388
জনে	-8389
▁Balk	-8390
▁grund	-8391
াসের	-8392
iect	-8393
িনায়ক	-8394
▁illegal	-8395
েতা	-8396
▁ধরা	-8397
▁2004	-8398
▁Von	-8399
▁commitment	-8400
gesetzt	-8401
orsitz	-8402
▁hit	-8403
▁Sever	-8404
োব	-8405
ওয়ে	-8406
▁links	-8407
▁rich	-8408
▁পথে	-8409
▁island	-8410
▁Mitarbeit	-8411
▁beispiel	-8412
▁আগ্র	-8413
▁Menschenrechte	-8414
maß	-8415
örden	-8416
ран	-8417
onen	-8418
▁আল্লাহর	-8419
itäts	-8420
▁AG	-8421
▁আলাদা	-8422
▁solidar	-8423
äum	-8424
going	-8425
▁einge	-8426
▁Google	-8427
▁possibility	-8428
দায়	-8429
▁findet	-8430
▁ved	-8431
▁mist	-8432
▁submitted	-8433
operation	-8434
▁Board	-8435
▁cum	-8436
▁lic	-8437
reib	-8438
▁Sar	-8439
▁issued	-8440
▁প্রাথমিক	-8441
▁ভূমিকা	-8442
▁কর্মসূ	-8443
▁ব্যবহ	-8444
▁Human	-8445
pun	-8446
গুলোকে	-8447
▁nächsten	-8448
bark	-8449
▁houses	-8450
▁Ang	-8451
бле	-8452
▁Christians	-8453
ellung	-8454
▁Bevöl	-8455
▁ще	-8456
▁শা	-8457
▁victims	-8458
▁Kal	-8459
▁চালু	-8460
▁গোটা	-8461
▁Verbess	-8462
rik	-8463
▁double	-8464
йо	-8465
▁চী	-8466
▁Gal	-8467
▁Ро	-8468
yd	-8469
▁робо	-8470
▁бі	-8471
▁тільки	-8472
▁উভয়	-8473
▁setting	-8474
▁কাশ্ম	-8475
▁4.	-8476
▁gewährle	-8477
▁effects	-8478
▁prem	-8479
▁লেখা	-8480
volt	-8481
▁books	-8482
▁employees	-8483
▁eat	-8484
▁dat	-8485
▁till	-8486
▁Umsetzung	-8487
▁সরব	-8488
gement	-8489
▁Bal	-8490
örderung	-8491
▁impress	-8492
▁continued	-8493
▁erne	-8494
▁floor	-8495
▁Richtung	-8496
▁consist	-8497
▁Bau	-8498
▁Club	-8499
▁plans	-8500
heast	-8501
▁latest	-8502
leben	-8503
erst	-8504
▁stim	-8505
cep	-8506
▁ওয়ার	-8507
▁দিল্লি	-8508
polit	-8509
aker	-8510
▁Ange	-8511
▁Work	-8512
li	-8513
▁অনুষ্ঠিত	-8514
läss	-8515
▁করতেন	-8516
▁একা	-8517
▁nutzen	-8518
ev	-8519
zustellen	-8520
▁просто	-8521
▁Ansicht	-8522
▁একেবার	-8523
▁thanks	-8524
▁Feh	-8525
▁তৃত	-8526
▁creating	-8527
বন	-8528
rations	-8529
▁Herren	-8530
▁Programme	-8531
▁Another	-8532
▁Tem	-8533
entliche	-8534
▁running	-8535
▁дру	-8536
▁usually	-8537
▁Last	-8538
▁Barcel	-8539
ionale	-8540
▁অঞ্চল	-8541
▁Oh	-8542
▁চলা	-8543
otriv	-8544
▁Twitter	-8545
▁পৌঁছ	-8546
▁challenge	-8547
ünf	-8548
▁Nähe	-8549
োয়	-8550
▁জোর	-8551
oud	-8552
▁Ban	-8553
▁Sun	-8554
▁partner	-8555
বাধ	-8556
ঠি	-8557
▁বাণিজ্য	-8558
▁benefits	-8559
▁জায়গায়	-8560
▁west	-8561
▁IN	-8562
▁কাউকে	-8563
▁Bü	-8564
▁export	-8565
▁Sant	-8566
▁অস্বীকার	-8567
lant	-8568
▁+	-8569
েন্ড	-8570
frist	-8571
▁traffic	-8572
▁task	-8573
▁mun	-8574
ags	-8575
▁дуже	-8576
undert	-8577
▁নিম	-8578
know	-8579
▁Cas	-8580
▁ern	-8581
▁সমস্য	-8582
▁Director	-8583
phone	-8584
▁তালিকা	-8585
▁Univers	-8586
▁ব্যক্তিগত	-8587
▁বিধ	-8588
▁পরিচালনা	-8589
▁будь	-8590
▁2,	-8591
▁Lang	-8592
▁Demokratie	-8593
вто	-8594
LA	-8595
▁perman	-8596
▁স্বীকার	-8597
▁Spain	-8598
▁allerdings	-8599
istischen	-8600
▁ঋ	-8601
▁slow	-8602
resp	-8603
উট	-8604
▁limit	-8605
▁letter	-8606
affung	-8607
▁offered	-8608
▁বিজেপির	-8609
▁га	-8610
astern	-8611
best	-8612
▁mut	-8613
schein	-8614
▁ধ্বংস	-8615
▁১৯৮	-8616
▁Inform	-8617
▁counter	-8618
▁Under	-8619
▁Nat	-8620
কল	-8621
িটিশ	-8622
▁fal	-8623
down	-8624
verständ	-8625
▁ঘটনাস্থলে	-8626
▁cy	-8627
coming	-8628
sequently	-8629
ros	-8630
াস্ট	-8631
▁Verantwortung	-8632
▁gee	-8633
▁রক্ত	-8634
richtung	-8635
haltung	-8636
▁অ্যান্ড	-8637
рт	-8638
▁dro	-8639
craft	-8640
▁হিন্দু	-8641
lauf	-8642
▁documents	-8643
▁সবার	-8644
▁চলেছে	-8645
▁জনপ্রিয়	-8646
▁গভীর	-8647
▁hot	-8648
▁Empf	-8649
▁পত্র	-8650
resh	-8651
▁applications	-8652
▁Selbst	-8653
▁যাই	-8654
কারীদের	-8655
▁সম্প্রতি	-8656
্না	-8657
▁Insel	-8658
▁লোকেদের	-8659
▁coast	-8660
ibilities	-8661
3)	-8662
▁fellow	-8663
▁Wachst	-8664
▁zie	-8665
▁Lib	-8666
▁বিদ্যাল	-8667
▁দার	-8668
▁speech	-8669
mbH	-8670
▁reflect	-8671
wirkungen	-8672
▁priority	-8673
▁মেনে	-8674
▁option	-8675
▁Bedingungen	-8676
▁Struktur	-8677
nete	-8678
রাহ	-8679
lines	-8680
▁moved	-8681
োহন	-8682
▁=	-8683
▁রাহুল	-8684
▁spiritual	-8685
alled	-8686
দুল	-8687
▁পছ	-8688
▁Star	-8689
▁beyond	-8690
eits	-8691
▁virt	-8692
▁enorm	-8693
▁Benutz	-8694
agn	-8695
▁Ra	-8696
▁vier	-8697
▁games	-8698
▁zent	-8699
▁hoffe	-8700
▁failed	-8701
intă	-8702
▁відповід	-8703
রকম	-8704
pa	-8705
▁friendly	-8706
єш	-8707
জ্ঞতা	-8708
▁নিকট	-8709
▁gegeben	-8710
othing	-8711
▁Besuch	-8712
এক	-8713
▁হত	-8714
▁gemeinsamen	-8715
▁গবেষণা	-8716
▁Several	-8717
▁Vir	-8718
▁Institute	-8719
▁Druck	-8720
▁cast	-8721
folgt	-8722
▁sale	-8723
▁використо	-8724
kr	-8725
▁Justice	-8726
▁Croat	-8727
iles	-8728
▁জায়গা	-8729
▁influence	-8730
▁notwendig	-8731
কেল	-8732
▁Industrie	-8733
▁যাত্রী	-8734
▁Witness	-8735
▁Sur	-8736
▁Raum	-8737
▁নিজেকে	-8738
▁integration	-8739
▁বিপর	-8740
▁Krit	-8741
▁হোক	-8742
▁Kons	-8743
ba	-8744
▁Gebiet	-8745
ille	-8746
▁mill	-8747
▁প্রতিবাদ	-8748
▁দুঃখ	-8749
▁সমাধান	-8750
েলায়	-8751
▁Rahul	-8752
▁Dokument	-8753
род	-8754
uren	-8755
▁beispielsweise	-8756
llig	-8757
▁prison	-8758
▁CD	-8759
▁Egypt	-8760
▁Ziele	-8761
ürz	-8762
▁ছবিতে	-8763
▁স্বামী	-8764
▁নেওয়ার	-8765
kerung	-8766
▁Consili	-8767
-,	-8768
▁weiß	-8769
্যাশন	-8770
▁Law	-8771
▁প্ল	-8772
▁সৈ	-8773
▁300	-8774
iency	-8775
біль	-8776
▁jewe	-8777
uff	-8778
▁টুইট	-8779
▁chem	-8780
ঞ্	-8781
▁Sund	-8782
▁tur	-8783
▁repre	-8784
while	-8785
▁কৃত	-8786
tere	-8787
▁pictures	-8788
িগ	-8789
oper	-8790
standing	-8791
mann	-8792
▁GmbH	-8793
▁measure	-8794
ফা	-8795
▁separate	-8796
▁Grundlage	-8797
▁dank	-8798
чити	-8799
ডে	-8800
▁Peter	-8801
▁Musik	-8802
▁gehört	-8803
▁Anwendung	-8804
rupt	-8805
▁discip	-8806
▁সন্দেহ	-8807
▁Vorschläge	-8808
▁types	-8809
▁Tages	-8810
▁জুল	-8811
▁profit	-8812
▁জানায়	-8813
▁Interesse	-8814
chs	-8815
▁forget	-8816
▁symbol	-8817
▁Einz	-8818
minister	-8819
вся	-8820
ault	-8821
▁club	-8822
▁তৃতীয়	-8823
▁Gr	-8824
ublik	-8825
%.	-8826
back	-8827
▁dacă	-8828
▁Parte	-8829
▁করেনি	-8830
aţia	-8831
▁style	-8832
atea	-8833
▁vielleicht	-8834
▁kleinen	-8835
▁Kat	-8836
▁arrest	-8837
▁পড়েছে	-8838
ময়	-8839
▁x	-8840
▁critical	-8841
DP	-8842
ronic	-8843
▁Read	-8844
▁box	-8845
▁Sabha	-8846
সায়	-8847
set	-8848
▁sozialen	-8849
▁хоче	-8850
▁dim	-8851
▁rates	-8852
▁resc	-8853
▁materials	-8854
▁Erfolg	-8855
▁зі	-8856
ienen	-8857
োঁ	-8858
প্ট	-8859
▁Women	-8860
▁student	-8861
▁Amend	-8862
▁Rights	-8863
uj	-8864
▁weap	-8865
linien	-8866
▁উদ্দেশ্য	-8867
▁consumers	-8868
iunii	-8869
ef	-8870
▁exclus	-8871
вні	-8872
ан	-8873
▁verwendet	-8874
▁summer	-8875
▁সমালো	-8876
teile	-8877
▁নিঃসন্দেহ	-8878
ki	-8879
▁ты	-8880
ভাবেই	-8881
▁চালিয়ে	-8882
',	-8883
▁Є	-8884
▁guvern	-8885
▁sport	-8886
спо	-8887
▁demokrat	-8888
▁erziel	-8889
▁organisations	-8890
▁frequ	-8891
▁২৫	-8892
াম্মদ	-8893
▁ভিন্ন	-8894
▁enthalten	-8895
।-	-8896
▁Ihrem	-8897
▁vehicles	-8898
▁calls	-8899
cke	-8900
▁prefer	-8901
▁disease	-8902
▁acestea	-8903
▁আঘাত	-8904
▁Educ	-8905
alm	-8906
▁вла	-8907
▁myself	-8908
▁Sil	-8909
▁completed	-8910
▁মাই	-8911
tained	-8912
▁concent	-8913
80	-8914
▁names	-8915
▁secretary	-8916
▁বাহিনী	-8917
▁pu	-8918
তিরিক্ত	-8919
ties	-8920
▁ancient	-8921
▁Du	-8922
হীন	-8923
▁signed	-8924
▁efficient	-8925
▁শাস্তি	-8926
▁relevant	-8927
iling	-8928
▁Europeană	-8929
rel	-8930
раз	-8931
▁নির্দিষ্ট	-8932
▁customer	-8933
▁নৌ	-8934
vi	-8935
▁নজর	-8936
ielle	-8937
▁PC	-8938
মত	-8939
ativen	-8940
▁discussed	-8941
▁Mart	-8942
বদ্ধ	-8943
বিত্র	-8944
▁Verfahren	-8945
abel	-8946
▁select	-8947
▁holiday	-8948
▁religion	-8949
▁identified	-8950
▁মন্দির	-8951
jekte	-8952
▁Room	-8953
▁Team	-8954
▁ö	-8955
▁був	-8956
▁bevor	-8957
▁lock	-8958
▁dedic	-8959
▁প্রয়োজনীয়	-8960
ভোগ	-8961
▁Daher	-8962
▁Di	-8963
শাস	-8964
▁pover	-8965
▁Department	-8966
▁কর্মকর্তা	-8967
▁Einsatz	-8968
würd	-8969
enty	-8970
▁Geschichte	-8971
▁নদী	-8972
inger	-8973
▁Reihe	-8974
lymp	-8975
▁হারিয়ে	-8976
▁Management	-8977
▁lod	-8978
▁অভিনেত্রী	-8979
▁erreicht	-8980
▁structure	-8981
▁umfass	-8982
erecht	-8983
can	-8984
▁Medical	-8985
▁Everyone	-8986
▁Association	-8987
▁contribution	-8988
orders	-8989
▁রাজধান	-8990
pret	-8991
▁ausgest	-8992
▁বিভাগের	-8993
cast	-8994
▁exhib	-8995
teilt	-8996
▁Vert	-8997
ţiei	-8998
▁lif	-8999
▁সম্পাদক	-9000
রত	-9001
▁talks	-9002
▁Article	-9003
▁প্রথ	-9004
বাদের	-9005
▁প্রশংস	-9006
▁Kön	-9007
▁মার্চ	-9008
▁€	-9009
▁eight	-9010
▁গুরুতর	-9011
▁অনুর	-9012
▁interesting	-9013
▁average	-9014
▁driv	-9015
▁Foreign	-9016
▁external	-9017
▁Außer	-9018
▁circumst	-9019
▁ră	-9020
▁Pass	-9021
▁ব্রিটিশ	-9022
iverse	-9023
▁Unterk	-9024
শিয়ার	-9025
▁werde	-9026
▁Rec	-9027
▁felt	-9028
▁хто	-9029
▁formed	-9030
▁european	-9031
amed	-9032
uell	-9033
▁schools	-9034
▁neces	-9035
▁berücksicht	-9036
immungen	-9037
▁sports	-9038
▁halten	-9039
”,	-9040
▁sprechen	-9041
▁Jul	-9042
haft	-9043
▁Wort	-9044
▁Heraus	-9045
▁provisions	-9046
▁Micro	-9047
▁Möglichkeiten	-9048
▁রক্ষা	-9049
▁5.	-9050
aman	-9051
▁ধারা	-9052
▁кра	-9053
▁উদ্ব	-9054
iterran	-9055
কোন	-9056
▁পারবেন	-9057
▁balance	-9058
▁আর্থ	-9059
▁architect	-9060
▁আচ	-9061
rep	-9062
▁বাধ্য	-9063
▁übern	-9064
দিনের	-9065
ৃদ	-9066
▁সাবেক	-9067
▁Thus	-9068
▁medium	-9069
▁জাপ	-9070
▁temper	-9071
ola	-9072
▁পৌঁছে	-9073
ception	-9074
▁player	-9075
▁poverty	-9076
▁Barcelona	-9077
▁despite	-9078
ilen	-9079
▁Pet	-9080
▁খুঁজে	-9081
▁unui	-9082
▁erfü	-9083
▁Greek	-9084
▁UK	-9085
▁Kle	-9086
▁নির্ভর	-9087
einander	-9088
▁নিন	-9089
IR	-9090
ohen	-9091
▁degree	-9092
ходи	-9093
▁শ্রমিক	-9094
▁accord	-9095
▁ছয়	-9096
▁Online	-9097
oe	-9098
▁আক্রমণ	-9099
▁bill	-9100
eds	-9101
▁রাম	-9102
uls	-9103
merksam	-9104
▁Netz	-9105
ios	-9106
▁recon	-9107
mail	-9108
щи	-9109
inst	-9110
▁বিবেচনা	-9111
▁নাকি	-9112
▁subsid	-9113
▁Host	-9114
▁sites	-9115
▁decide	-9116
renzen	-9117
ны	-9118
cont	-9119
drück	-9120
▁নভ	-9121
▁base	-9122
▁програ	-9123
▁erg	-9124
▁স্মরণ	-9125
raw	-9126
▁science	-9127
▁Cop	-9128
▁Spanish	-9129
▁occup	-9130
▁Debatte	-9131
omfort	-9132
▁sustainable	-9133
▁Tal	-9134
care	-9135
▁ওরা	-9136
ätzen	-9137
▁rural	-9138
সু	-9139
eria	-9140
▁sprij	-9141
▁viral	-9142
▁garant	-9143
▁Sin	-9144
▁ত্র	-9145
▁Sport	-9146
▁negative	-9147
▁গিয়েছিল	-9148
▁Award	-9149
▁Erweit	-9150
▁article	-9151
▁До	-9152
deut	-9153
să	-9154
▁simpl	-9155
▁Lat	-9156
ray	-9157
idge	-9158
িকান	-9159
▁29	-9160
▁Damen	-9161
ommer	-9162
▁সাধারণত	-9163
▁সঠিক	-9164
▁Öff	-9165
▁সেটি	-9166
▁Rail	-9167
্রীষ্ট	-9168
rants	-9169
ун	-9170
▁thousands	-9171
arat	-9172
▁enable	-9173
▁passengers	-9174
▁শিখ	-9175
▁happening	-9176
▁suffering	-9177
▁вона	-9178
▁Terror	-9179
ইউ	-9180
▁News	-9181
▁вели	-9182
ius	-9183
ție	-9184
This	-9185
▁interested	-9186
▁পরিচালিত	-9187
▁secret	-9188
▁ব্যবহৃত	-9189
ding	-9190
▁rushed	-9191
mod	-9192
▁багато	-9193
▁ministry	-9194
▁mand	-9195
▁terrorism	-9196
▁Research	-9197
zeigt	-9198
▁Apart	-9199
▁Entscheidung	-9200
পরি	-9201
▁execut	-9202
law	-9203
▁atmosph	-9204
▁Aktiv	-9205
▁wohl	-9206
▁authority	-9207
дей	-9208
প্রাপ্ত	-9209
ST	-9210
▁Bab	-9211
▁গেলে	-9212
▁mission	-9213
▁officer	-9214
роб	-9215
▁сер	-9216
▁স্থাপন	-9217
▁doesn	-9218
mi	-9219
ঙ্গল	-9220
teilen	-9221
▁Jew	-9222
▁প্রশিক্ষ	-9223
ened	-9224
▁arbeiten	-9225
▁কর্তৃক	-9226
erseits	-9227
িয়াল	-9228
▁ideas	-9229
▁numerous	-9230
▁deleg	-9231
▁confir	-9232
▁вже	-9233
glicht	-9234
ступ	-9235
▁Verbraucher	-9236
kay	-9237
zil	-9238
....	-9239
▁denied	-9240
auen	-9241
ত্তি	-9242
দ্দ	-9243
▁höch	-9244
attet	-9245
▁тебе	-9246
▁könnten	-9247
▁Hinblick	-9248
ুরী	-9249
▁আপনাদের	-9250
▁ঘর	-9251
▁lies	-9252
unik	-9253
▁verschiedene	-9254
▁Erklär	-9255
▁vorgeschl	-9256
cape	-9257
шого	-9258
▁motiv	-9259
ibilit	-9260
▁Constitution	-9261
▁জ্ঞান	-9262
টক	-9263
▁৩০	-9264
ভাবিক	-9265
▁obvious	-9266
▁Word	-9267
▁193	-9268
▁elected	-9269
utt	-9270
▁constitution	-9271
▁অংশগ্রহণ	-9272
ণ্য	-9273
urd	-9274
SP	-9275
▁সর্বোচ্চ	-9276
▁শিক্ষার্থ	-9277
▁schwier	-9278
лися	-9279
▁cert	-9280
▁বিদ্যু	-9281
arf	-9282
pass	-9283
▁পর্যা	-9284
▁Version	-9285
istet	-9286
▁instrument	-9287
▁enlar	-9288
▁অতিরিক্ত	-9289
▁Fran	-9290
▁সংঘ	-9291
ână	-9292
▁förder	-9293
▁patients	-9294
ția	-9295
▁adapt	-9296
amn	-9297
licken	-9298
▁mid	-9299
▁placed	-9300
iring	-9301
▁conven	-9302
▁couple	-9303
aly	-9304
▁Blick	-9305
▁funding	-9306
▁brothers	-9307
▁chann	-9308
▁এক্স	-9309
▁oppos	-9310
▁Untern	-9311
শের	-9312
এব	-9313
জ্জ	-9314
▁життя	-9315
▁aw	-9316
▁সংগ্রহ	-9317
▁দ্য	-9318
▁banks	-9319
▁বলিউ	-9320
▁Ф	-9321
time	-9322
▁marriage	-9323
arth	-9324
▁stability	-9325
▁categ	-9326
▁ফেস	-9327
▁ক্ষেত্র	-9328
▁আগেই	-9329
▁platform	-9330
morrow	-9331
▁approved	-9332
▁Transport	-9333
▁হত্য	-9334
4)	-9335
▁harmon	-9336
▁Hel	-9337
▁gemeinsame	-9338
▁abge	-9339
▁міс	-9340
▁যী	-9341
▁imag	-9342
änger	-9343
▁crucial	-9344
▁verh	-9345
▁verfügt	-9346
▁confidence	-9347
▁Так	-9348
▁lux	-9349
▁দিনে	-9350
▁tomorrow	-9351
▁Sharma	-9352
▁Olymp	-9353
▁পূর্বে	-9354
▁football	-9355
▁sides	-9356
▁verein	-9357
ovic	-9358
▁Wert	-9359
▁bleiben	-9360
redit	-9361
▁posit	-9362
▁atmosphere	-9363
aves	-9364
রম	-9365
▁happens	-9366
▁ermöglicht	-9367
▁জিনি	-9368
▁Ken	-9369
iture	-9370
▁înc	-9371
▁powerful	-9372
▁opening	-9373
▁Institutionen	-9374
▁তবু	-9375
▁Minuten	-9376
unk	-9377
াণ	-9378
▁অসু	-9379
▁Kraft	-9380
▁schrift	-9381
কো	-9382
▁Diskuss	-9383
কাপ	-9384
১৮	-9385
prechen	-9386
▁meetings	-9387
igte	-9388
▁Over	-9389
▁white	-9390
▁Auswirkungen	-9391
▁Kre	-9392
▁career	-9393
▁ক্যা	-9394
▁pleased	-9395
оло	-9396
▁punish	-9397
াতার	-9398
▁historical	-9399
ৃত্ত	-9400
▁implemented	-9401
▁extend	-9402
SC	-9403
known	-9404
▁তেল	-9405
▁Zentrum	-9406
iry	-9407
▁Änderungsantrag	-9408
IF	-9409
▁drive	-9410
▁television	-9411
aza	-9412
▁Platz	-9413
▁Dialog	-9414
ক্রিয়	-9415
▁lange	-9416
ফার	-9417
▁Av	-9418
াত্ম	-9419
▁dram	-9420
▁claimed	-9421
▁screen	-9422
▁আসা	-9423
▁Nav	-9424
""।"	-9425
▁Grü	-9426
▁হ্যাঁ	-9427
osh	-9428
▁congreg	-9429
▁Unser	-9430
▁exactly	-9431
▁Doch	-9432
▁dezvolt	-9433
▁entscheid	-9434
▁animals	-9435
▁ability	-9436
ষ্ণ	-9437
্যালে	-9438
▁vital	-9439
oring	-9440
▁tats	-9441
том	-9442
wegen	-9443
িশালী	-9444
▁commission	-9445
।’’	-9446
ності	-9447
schn	-9448
rechts	-9449
eter	-9450
▁akzept	-9451
нсь	-9452
▁বলল	-9453
▁Good	-9454
▁becoming	-9455
▁alternative	-9456
лів	-9457
▁unc	-9458
sprü	-9459
▁hatten	-9460
▁Strategie	-9461
▁দোষ	-9462
▁শীর্ষ	-9463
oute	-9464
▁gain	-9465
ত্রে	-9466
ţiile	-9467
jenigen	-9468
▁Any	-9469
চ্ছিল	-9470
▁variety	-9471
▁vollständ	-9472
▁god	-9473
ares	-9474
▁zeigt	-9475
▁সুবিধা	-9476
▁Oper	-9477
gern	-9478
▁photo	-9479
▁camera	-9480
▁presence	-9481
ща	-9482
▁আগ্রহ	-9483
▁knew	-9484
▁মসজি	-9485
▁Tatsache	-9486
▁faptul	-9487
▁ye	-9488
resse	-9489
▁Süd	-9490
▁যুগ	-9491
েজ	-9492
feld	-9493
▁cadrul	-9494
মেন্ট	-9495
Ch	-9496
▁Sri	-9497
ania	-9498
▁nom	-9499
▁Italian	-9500
▁বন	-9501
▁হতা	-9502
зво	-9503
▁2003	-9504
▁führt	-9505
▁quiet	-9506
▁legislative	-9507
▁নম	-9508
▁Gh	-9509
▁erforderlich	-9510
গু	-9511
▁ছবির	-9512
▁scientific	-9513
road	-9514
▁bisher	-9515
cription	-9516
usst	-9517
▁ধার	-9518
orf	-9519
▁infrastructure	-9520
▁মণ্ড	-9521
▁Frühstück	-9522
70	-9523
▁refuge	-9524
▁appointed	-9525
▁Supreme	-9526
frei	-9527
▁Hung	-9528
▁Ausdruck	-9529
র্মা	-9530
▁Nations	-9531
তিনি	-9532
chter	-9533
?"""	-9534
vey	-9535
▁consequences	-9536
প্রিল	-9537
▁criminal	-9538
▁partnership	-9539
▁ep	-9540
eting	-9541
▁regulations	-9542
▁পেরে	-9543
▁পাওয়ার	-9544
▁distance	-9545
▁fünf	-9546
▁Enter	-9547
ae	-9548
▁35	-9549
িকাংশ	-9550
ном	-9551
onav	-9552
▁gather	-9553
▁বরং	-9554
▁»	-9555
ঙে	-9556
ompl	-9557
▁Denn	-9558
▁জ্ব	-9559
chsel	-9560
▁Staats	-9561
▁described	-9562
indest	-9563
▁amendment	-9564
▁rom	-9565
endes	-9566
abinet	-9567
▁allgemein	-9568
onna	-9569
▁সন্ত্র	-9570
িশুর	-9571
▁রেক	-9572
▁Partner	-9573
жна	-9574
▁উৎসাহ	-9575
▁খাদ্য	-9576
▁বৈঠকে	-9577
person	-9578
▁gesamten	-9579
▁Regionen	-9580
▁আসছে	-9581
віть	-9582
dern	-9583
sych	-9584
adurch	-9585
▁click	-9586
▁років	-9587
▁Ergebnis	-9588
ilosoph	-9589
▁বাজ	-9590
▁railway	-9591
SS	-9592
onom	-9593
▁ইচ্ছা	-9594
▁undert	-9595
TV	-9596
ima	-9597
▁Abgeordneten	-9598
▁দেবে	-9599
▁বোন	-9600
▁হোসেন	-9601
▁spend	-9602
▁Services	-9603
▁proceed	-9604
▁Ist	-9605
▁অভিনেতা	-9606
no	-9607
ünschen	-9608
▁প্রতিক	-9609
▁regist	-9610
▁যাব	-9611
2)	-9612
▁Div	-9613
▁grand	-9614
▁Schwe	-9615
▁পূ	-9616
itch	-9617
▁সত্ত	-9618
▁depend	-9619
▁angeb	-9620
▁Lok	-9621
▁পরিচয়	-9622
iellen	-9623
клад	-9624
▁liberal	-9625
▁বায়	-9626
▁introduced	-9627
ুদ	-9628
oben	-9629
বির	-9630
▁accomp	-9631
mm	-9632
pective	-9633
▁Zur	-9634
▁einzelnen	-9635
▁ebenso	-9636
▁শিক্ষক	-9637
▁starting	-9638
▁Tim	-9639
▁eld	-9640
▁বিজ্ঞ	-9641
িক্যাল	-9642
▁manner	-9643
prise	-9644
▁helped	-9645
▁darum	-9646
▁track	-9647
uters	-9648
▁nivel	-9649
▁Schritt	-9650
▁operations	-9651
▁ніж	-9652
▁ডাক	-9653
▁funktion	-9654
ören	-9655
15	-9656
▁সীম	-9657
lying	-9658
folgen	-9659
fon	-9660
▁ব্যক্তির	-9661
গণের	-9662
▁প্রথমে	-9663
▁Comisiei	-9664
1)	-9665
ător	-9666
▁jur	-9667
inzip	-9668
▁Prior	-9669
▁অধিকাংশ	-9670
▁compreh	-9671
plätze	-9672
▁iar	-9673
▁Palest	-9674
▁Kolleginnen	-9675
EP	-9676
▁waste	-9677
▁requires	-9678
▁heavy	-9679
rich	-9680
еред	-9681
kämpf	-9682
onavirus	-9683
▁referred	-9684
▁ave	-9685
▁write	-9686
ih	-9687
▁Hoch	-9688
▁Kan	-9689
▁ভো	-9690
▁পবিত্র	-9691
▁Link	-9692
▁Rahman	-9693
▁হৃদ	-9694
▁danken	-9695
▁nations	-9696
▁ওঠে	-9697
▁খ্রীষ্ট	-9698
alter	-9699
▁Position	-9700
▁TH	-9701
▁прий	-9702
▁পছন্দ	-9703
▁Comisia	-9704
িষ্ট	-9705
▁Sicherheits	-9706
ঃপর	-9707
▁ফুটবল	-9708
▁Gründ	-9709
▁condem	-9710
IA	-9711
▁später	-9712
▁entwickelt	-9713
▁বিরাট	-9714
▁understanding	-9715
ভাই	-9716
ерез	-9717
ocol	-9718
▁Indeed	-9719
▁lines	-9720
▁remark	-9721
▁শার	-9722
ীম	-9723
erm	-9724
▁sort	-9725
▁elements	-9726
▁rejected	-9727
▁Außen	-9728
▁representatives	-9729
▁Bosn	-9730
▁voice	-9731
▁applied	-9732
▁কাঁ	-9733
▁circumstances	-9734
▁Cur	-9735
▁Funktion	-9736
▁shot	-9737
▁Four	-9738
reiben	-9739
amin	-9740
▁Dont	-9741
bahn	-9742
▁একমাত্র	-9743
▁Ris	-9744
▁людей	-9745
▁Familien	-9746
▁Jug	-9747
▁Mc	-9748
ügen	-9749
▁fisher	-9750
▁hop	-9751
azila	-9752
▁Did	-9753
▁Fire	-9754
পরে	-9755
▁prezent	-9756
ному	-9757
▁Landes	-9758
кою	-9759
▁শর	-9760
▁পেতে	-9761
ধর	-9762
▁spac	-9763
▁quar	-9764
▁relation	-9765
▁attended	-9766
oke	-9767
/9	-9768
▁cet	-9769
▁Never	-9770
▁comments	-9771
▁Camp	-9772
্যাগ	-9773
▁denke	-9774
্নের	-9775
▁রাজা	-9776
▁Trad	-9777
▁অনুসারে	-9778
▁অম	-9779
▁প্রচুর	-9780
পের	-9781
▁agen	-9782
▁stock	-9783
▁উপাস	-9784
▁Standard	-9785
▁noast	-9786
▁reforms	-9787
▁রাজনীতি	-9788
▁Office	-9789
ță	-9790
▁দেখুন	-9791
▁continues	-9792
▁Exper	-9793
▁Ann	-9794
▁সামরিক	-9795
▁powers	-9796
▁internationale	-9797
prozess	-9798
▁কোথা	-9799
▁জনসং	-9800
▁bow	-9801
asht	-9802
▁administrative	-9803
▁behand	-9804
avi	-9805
uns	-9806
▁খর	-9807
▁worldwide	-9808
▁Außerdem	-9809
▁Gem	-9810
▁Mand	-9811
▁Mai	-9812
▁Greece	-9813
▁Wieder	-9814
▁planning	-9815
▁ঘরে	-9816
▁appreci	-9817
▁важ	-9818
▁Turkish	-9819
▁যুক্তরাষ্ট্রের	-9820
ändert	-9821
▁independence	-9822
▁facing	-9823
▁seriously	-9824
▁বাল	-9825
▁অতঃপর	-9826
▁পরিষ	-9827
▁আসেন	-9828
▁Amit	-9829
▁হাসপাতাল	-9830
▁এলাকার	-9831
▁Erst	-9832
▁useful	-9833
কারে	-9834
▁teams	-9835
▁Zum	-9836
▁äußer	-9837
▁Handels	-9838
lauben	-9839
োর্ড	-9840
▁doctor	-9841
▁candidate	-9842
▁Lux	-9843
▁ফাঁ	-9844
▁були	-9845
▁বসে	-9846
▁Museum	-9847
▁працю	-9848
▁sitting	-9849
▁Mitglieder	-9850
▁annual	-9851
чні	-9852
▁দেহ	-9853
raph	-9854
▁সূত্র	-9855
jähr	-9856
▁exem	-9857
fähigkeit	-9858
বিধান	-9859
▁সচিব	-9860
▁putea	-9861
▁পরিষে	-9862
▁স্থানে	-9863
agues	-9864
▁studies	-9865
▁Verhandlungen	-9866
ella	-9867
мага	-9868
▁Bereichen	-9869
▁রাখার	-9870
▁মহা	-9871
icide	-9872
▁succeed	-9873
inde	-9874
▁можуть	-9875
▁মোকা	-9876
▁Antwort	-9877
িনের	-9878
▁পারেনি	-9879
▁এখান	-9880
িতার	-9881
ova	-9882
▁jedem	-9883
▁ব্যাংক	-9884
▁ইংল্যান্ড	-9885
ült	-9886
▁Convention	-9887
▁হলেও	-9888
▁ইয়	-9889
▁gab	-9890
opping	-9891
nic	-9892
uld	-9893
▁এপ্রিল	-9894
▁numbers	-9895
▁income	-9896
▁Hy	-9897
▁জিতে	-9898
▁wood	-9899
▁compon	-9900
barkeit	-9901
তন্ত্র	-9902
▁advantage	-9903
▁erwäh	-9904
▁Gemeinschafts	-9905
▁ani	-9906
izing	-9907
▁আসবে	-9908
ände	-9909
▁Ele	-9910
zun	-9911
fragen	-9912
▁stabil	-9913
verfahren	-9914
বাহী	-9915
▁pick	-9916
▁বিশ্বকাপ	-9917
ুটি	-9918
▁Anst	-9919
▁জীবনে	-9920
▁remind	-9921
▁Währ	-9922
▁প্রার্থনা	-9923
▁Assembly	-9924
▁sexual	-9925
▁Islamic	-9926
mitteln	-9927
▁জিজ্ঞাসা	-9928
▁hätte	-9929
▁spent	-9930
ampions	-9931
েনারেল	-9932
rasse	-9933
▁gemeinsam	-9934
▁২১	-9935
▁Wohn	-9936
▁সেন্ট	-9937
▁konnte	-9938
▁Witnesses	-9939
▁Follow	-9940
прав	-9941
kämpfung	-9942
▁বর্ণনা	-9943
fung	-9944
▁Führ	-9945
ুজ	-9946
▁সংর	-9947
-20	-9948
▁lib	-9949
will	-9950
▁gleichzeitig	-9951
▁Pap	-9952
▁ধর্মীয়	-9953
ুনিক	-9954
outheast	-9955
▁rund	-9956
ুরে	-9957
▁după	-9958
▁নির্বাচনে	-9959
▁Luft	-9960
▁Vereinigten	-9961
rust	-9962
ливі	-9963
▁প্রক্রিয়া	-9964
mine	-9965
▁une	-9966
▁stopped	-9967
ingt	-9968
rans	-9969
▁runs	-9970
ник	-9971
▁আসতে	-9972
▁Great	-9973
▁aplic	-9974
▁physical	-9975
▁motor	-9976
োদন	-9977
মুখ	-9978
add	-9979
সিক	-9980
▁mare	-9981
▁বিস্তার	-9982
рати	-9983
▁ব্যাখ্যা	-9984
▁distribution	-9985
nissen	-9986
ales	-9987
▁setzen	-9988
▁আত	-9989
▁domen	-9990
▁doctors	-9991
Is	-9992
▁Але	-9993
єї	-9994
▁দেবেন	-9995
insichtlich	-9996
▁সুপ্র	-9997
▁Ja	-9998
йсь	-9999
▁react	-10000
▁poate	-10001
anb	-10002
গা	-10003
▁noi	-10004
▁becomes	-10005
▁বাসিন্দ	-10006
anten	-10007
▁offen	-10008
▁befinden	-10009
▁popul	-10010
▁desire	-10011
▁Bollywood	-10012
্রাম	-10013
▁দৃষ্টি	-10014
▁Binnen	-10015
here	-10016
▁către	-10017
porate	-10018
ällen	-10019
বাসী	-10020
▁unem	-10021
▁practical	-10022
ösen	-10023
▁অধিক	-10024
unicip	-10025
▁অভিযান	-10026
▁weiteren	-10027
▁demands	-10028
qual	-10029
▁আহমে	-10030
▁বস্তু	-10031
▁Sud	-10032
▁university	-10033
▁innovative	-10034
▁Beziehungen	-10035
▁speaking	-10036
zy	-10037
▁Mex	-10038
▁Mir	-10039
▁ris	-10040
▁selected	-10041
▁erhö	-10042
8)	-10043
▁Sea	-10044
▁ফার	-10045
▁31	-10046
▁Airport	-10047
▁অর্থনৈতিক	-10048
▁doesnt	-10049
▁Forschung	-10050
▁Bulgaria	-10051
▁আইনের	-10052
▁attacks	-10053
uses	-10054
▁রি	-10055
▁brand	-10056
▁spoke	-10057
▁dynam	-10058
▁Leit	-10059
▁quot	-10060
відо	-10061
▁Georg	-10062
▁জর	-10063
▁alb	-10064
▁secure	-10065
ikt	-10066
rar	-10067
▁রাস্তা	-10068
▁দাস	-10069
▁ভালোবাস	-10070
▁Int	-10071
works	-10072
▁Fischere	-10073
▁hinter	-10074
্বেও	-10075
▁SM	-10076
вля	-10077
▁অল্প	-10078
▁Nur	-10079
▁মিথ্যা	-10080
▁Look	-10081
kei	-10082
▁Ap	-10083
▁rein	-10084
▁Bevölkerung	-10085
▁Chand	-10086
▁bless	-10087
▁ফ্ল	-10088
▁বৃষ্টি	-10089
▁difference	-10090
ুমাত্র	-10091
вро	-10092
нути	-10093
▁heißt	-10094
▁Werk	-10095
zif	-10096
ঠাম	-10097
VD	-10098
▁suspect	-10099
wan	-10100
▁পুত্র	-10101
▁সরবরাহ	-10102
asc	-10103
▁managed	-10104
▁ব্যবস্থ	-10105
itors	-10106
rieren	-10107
▁Tit	-10108
NG	-10109
▁Acest	-10110
teid	-10111
▁সাব	-10112
▁directed	-10113
▁শুনে	-10114
ড়ায়	-10115
▁Kapoor	-10116
▁charges	-10117
quar	-10118
▁willing	-10119
RE	-10120
üsse	-10121
▁১৯৬	-10122
▁অনুমতি	-10123
▁expand	-10124
▁perm	-10125
্যাশনাল	-10126
সম্প	-10127
▁zuf	-10128
▁আফগান	-10129
▁অপেক্ষা	-10130
anj	-10131
arbeitet	-10132
▁পার্	-10133
▁Abkommen	-10134
▁withd	-10135
▁element	-10136
▁Nobody	-10137
▁domestic	-10138
▁অস্ত্র	-10139
▁гро	-10140
▁worship	-10141
▁procedures	-10142
▁রাজ্যে	-10143
▁personnel	-10144
▁fac	-10145
▁Maj	-10146
▁defe	-10147
▁Have	-10148
▁শ্রেণ	-10149
▁equipped	-10150
▁হয়েছিলেন	-10151
▁যৌন	-10152
oven	-10153
▁Inc	-10154
মাধ্য	-10155
▁যথে	-10156
▁গোপ	-10157
▁neben	-10158
▁Е	-10159
▁То	-10160
ländern	-10161
▁মানে	-10162
▁Personal	-10163
ască	-10164
▁dece	-10165
▁organisation	-10166
▁conducted	-10167
▁mountain	-10168
িক্স	-10169
▁ধন্য	-10170
▁senior	-10171
শ্র	-10172
্যান্ট	-10173
▁sufficient	-10174
▁strategic	-10175
▁female	-10176
োনাল	-10177
rew	-10178
▁verg	-10179
standen	-10180
▁অথচ	-10181
▁shoot	-10182
ză	-10183
▁বিজয়	-10184
▁প্রদর্শন	-10185
▁Est	-10186
▁তাম	-10187
▁প্রকৃত	-10188
▁Э	-10189
▁eig	-10190
▁bound	-10191
▁মুম্বই	-10192
▁repla	-10193
▁Beitrag	-10194
äss	-10195
ensus	-10196
▁Чому	-10197
▁সেনাবাহ	-10198
▁territory	-10199
▁হস্ত	-10200
▁Flugh	-10201
Euro	-10202
emen	-10203
াট	-10204
▁себе	-10205
urf	-10206
▁confirm	-10207
▁২২	-10208
▁উপায়	-10209
▁осо	-10210
▁মিডিয়ায়	-10211
▁jede	-10212
▁ওদের	-10213
ет	-10214
াধারণ	-10215
▁প্রযুক্তি	-10216
▁lose	-10217
▁associated	-10218
▁খুশি	-10219
▁extent	-10220
▁জনের	-10221
isieren	-10222
сля	-10223
কারি	-10224
▁সিরিজ	-10225
usion	-10226
▁উল্লেখযোগ্য	-10227
IL	-10228
ography	-10229
▁street	-10230
▁Anwend	-10231
▁শক্তিশালী	-10232
▁maximum	-10233
Ph	-10234
▁রিপোর্ট	-10235
▁প্রধানমন্ত্রীর	-10236
▁Meer	-10237
imming	-10238
▁caz	-10239
richtungen	-10240
ented	-10241
▁Innov	-10242
gesehen	-10243
▁Aufgabe	-10244
▁Dat	-10245
▁cel	-10246
▁mainly	-10247
коли	-10248
▁আয়োজন	-10249
▁vö	-10250
▁আদালতে	-10251
▁provision	-10252
▁multip	-10253
▁-,	-10254
--	-10255
▁0.	-10256
▁fishing	-10257
▁renew	-10258
▁infect	-10259
кого	-10260
▁Child	-10261
▁Imm	-10262
▁চোখ	-10263
▁змо	-10264
▁duty	-10265
▁চেয়ারম্যান	-10266
▁helfen	-10267
▁payment	-10268
▁bug	-10269
iant	-10270
▁reviews	-10271
igned	-10272
▁অন্যদের	-10273
▁Macedonia	-10274
ernen	-10275
▁Stad	-10276
োধন	-10277
▁має	-10278
itarian	-10279
▁স্ন	-10280
কেও	-10281
ক্ষিত	-10282
gle	-10283
▁пос	-10284
▁ব্যক্তিদের	-10285
PS	-10286
▁মাহ	-10287
▁organization	-10288
▁Lad	-10289
▁এনে	-10290
ওয়ায়	-10291
▁Förderung	-10292
при	-10293
▁полі	-10294
aching	-10295
▁paper	-10296
▁Türkei	-10297
▁ব্যর্থ	-10298
▁знай	-10299
▁consumer	-10300
▁angenommen	-10301
▁শহরে	-10302
▁জেনারেল	-10303
▁জবাব	-10304
▁ক্ষমা	-10305
Ar	-10306
▁Üb	-10307
like	-10308
▁বক্তব্য	-10309
aug	-10310
▁gegenwärt	-10311
▁bear	-10312
▁Kontrolle	-10313
ibly	-10314
OL	-10315
itzer	-10316
rea	-10317
▁Log	-10318
▁Verpflicht	-10319
▁কমিটি	-10320
ূর	-10321
▁IC	-10322
ীরের	-10323
▁benefic	-10324
▁Leg	-10325
▁буду	-10326
spe	-10327
▁bab	-10328
▁নির্বাচিত	-10329
▁beit	-10330
▁sectors	-10331
▁gestellt	-10332
▁schwer	-10333
▁ক্যাম	-10334
▁specif	-10335
▁session	-10336
▁Bu	-10337
▁Schlussel	-10338
▁options	-10339
▁Liste	-10340
▁agenda	-10341
▁Fuß	-10342
techn	-10343
▁operating	-10344
জেলা	-10345
важа	-10346
▁Mich	-10347
▁title	-10348
▁বাক্য	-10349
▁methods	-10350
▁angem	-10351
Mail	-10352
▁End	-10353
▁stars	-10354
anzös	-10355
▁Ham	-10356
▁wichtigen	-10357
zub	-10358
▁2001	-10359
▁kleine	-10360
▁proces	-10361
্নে	-10362
▁Themen	-10363
йно	-10364
▁শান্তি	-10365
▁কিভাবে	-10366
▁instruments	-10367
▁192	-10368
▁strug	-10369
▁নিশ্চয়ই	-10370
edia	-10371
ny	-10372
▁রেকর্ড	-10373
▁tut	-10374
gment	-10375
▁meinen	-10376
▁biggest	-10377
▁গঠিত	-10378
seit	-10379
বঙ্গ	-10380
চের	-10381
▁Prem	-10382
▁solidarity	-10383
▁মনোন	-10384
▁পরিণত	-10385
▁minimum	-10386
▁advert	-10387
▁নেতৃত্ব	-10388
öst	-10389
▁মুহূর্ত	-10390
▁unseres	-10391
▁সন্ত্রাস	-10392
▁gelten	-10393
▁launch	-10394
▁officers	-10395
▁Wettbewerbs	-10396
ato	-10397
▁sla	-10398
▁বজায়	-10399
▁van	-10400
▁prakt	-10401
▁agriculture	-10402
▁গুণ	-10403
▁rank	-10404
▁পদ্ধতি	-10405
াপ্র	-10406
▁বিবাহ	-10407
▁Supp	-10408
abon	-10409
шення	-10410
..."	-10411
elines	-10412
▁Handel	-10413
▁monitoring	-10414
▁কিংবা	-10415
▁হামলা	-10416
▁compromise	-10417
hew	-10418
▁notice	-10419
▁controll	-10420
▁feature	-10421
▁যথেষ্ট	-10422
▁sag	-10423
ীনে	-10424
▁lor	-10425
ength	-10426
▁নিয়েছে	-10427
зь	-10428
▁от	-10429
teneg	-10430
▁Sad	-10431
নীয়	-10432
স্বর	-10433
zer	-10434
▁Kohl	-10435
NP	-10436
▁মাধ্যম	-10437
▁ball	-10438
▁বিরোধী	-10439
▁মুখে	-10440
▁sud	-10441
ড়াতে	-10442
▁Verbindung	-10443
7)	-10444
▁যোগ্য	-10445
▁Gods	-10446
▁জানে	-10447
anischen	-10448
▁потрібно	-10449
ফের	-10450
форма	-10451
▁nou	-10452
দল	-10453
ey	-10454
▁nahe	-10455
▁Ru	-10456
▁Einzel	-10457
▁প্রস্তুত	-10458
▁Kern	-10459
bildung	-10460
▁মেল	-10461
১৫	-10462
▁historic	-10463
▁জারি	-10464
rates	-10465
▁সাফল	-10466
ador	-10467
5)	-10468
▁images	-10469
reement	-10470
▁Kor	-10471
fluss	-10472
▁vehicle	-10473
▁radio	-10474
ael	-10475
▁tools	-10476
▁combat	-10477
▁সুন্দর	-10478
▁Grand	-10479
ері	-10480
▁Mun	-10481
▁arrived	-10482
rats	-10483
▁সহায়তা	-10484
ци	-10485
দেহ	-10486
▁apro	-10487
▁analysis	-10488
ৌশল	-10489
▁animal	-10490
▁ছাড়াও	-10491
▁নেমে	-10492
▁lok	-10493
gangenen	-10494
▁Muh	-10495
▁Portugal	-10496
cen	-10497
োপা	-10498
ossible	-10499
▁middle	-10500
▁কলকাতা	-10501
তান	-10502
sehen	-10503
▁cri	-10504
▁ভালবাস	-10505
▁Dez	-10506
▁soul	-10507
▁intell	-10508
▁voting	-10509
▁organised	-10510
▁gestimmt	-10511
▁Out	-10512
▁dark	-10513
iterranean	-10514
▁প্রতিটি	-10515
NU	-10516
ullah	-10517
মূলক	-10518
▁remained	-10519
länder	-10520
▁learning	-10521
▁sit	-10522
▁emb	-10523
▁ভাইরাল	-10524
▁waiting	-10525
▁Free	-10526
▁highlight	-10527
▁spezie	-10528
▁ship	-10529
▁cry	-10530
▁কম্প	-10531
▁Strand	-10532
▁jedes	-10533
iatives	-10534
▁ec	-10535
лося	-10536
▁regime	-10537
▁প্রচে	-10538
▁Він	-10539
rägt	-10540
theless	-10541
▁liegen	-10542
▁বিএন	-10543
▁ру	-10544
▁Ausschusses	-10545
▁ইন্ডিয়া	-10546
▁লাল	-10547
▁fields	-10548
▁সেগুলো	-10549
▁trou	-10550
bas	-10551
▁অনেকে	-10552
▁1990	-10553
worten	-10554
▁bleibt	-10555
▁offering	-10556
ităţ	-10557
▁cook	-10558
soft	-10559
▁কার্যকর	-10560
istence	-10561
▁অঞ্চলে	-10562
▁Volks	-10563
গঞ্জ	-10564
▁Kampf	-10565
▁সংগঠন	-10566
▁pub	-10567
▁keyword	-10568
▁দেখিয়ে	-10569
১০	-10570
▁gets	-10571
etary	-10572
িশন	-10573
▁brief	-10574
▁absolutely	-10575
্টা	-10576
bedingungen	-10577
▁gold	-10578
▁erinn	-10579
▁প্রেরিত	-10580
▁Les	-10581
▁bekommen	-10582
▁confirmed	-10583
ţion	-10584
▁হামলার	-10585
▁primary	-10586
▁factor	-10587
äus	-10588
▁wegen	-10589
▁সার্ভ	-10590
▁rob	-10591
▁Kop	-10592
ষি	-10593
▁dori	-10594
▁অ্যাপ	-10595
▁Profess	-10596
▁Monday	-10597
▁শেয়ার	-10598
▁Volk	-10599
äche	-10600
▁পাবে	-10601
▁ভেঙে	-10602
6)	-10603
▁Uniunea	-10604
▁lakh	-10605
opol	-10606
▁amer	-10607
älle	-10608
▁Verordnung	-10609
পূর্ব	-10610
▁legit	-10611
▁শো	-10612
▁Entschließung	-10613
▁fresh	-10614
po	-10615
дна	-10616
▁Bur	-10617
▁forth	-10618
▁pal	-10619
▁corruption	-10620
вого	-10621
▁হাল	-10622
aters	-10623
▁hohe	-10624
▁flood	-10625
▁Informations	-10626
▁Dev	-10627
াসে	-10628
▁Found	-10629
▁hotels	-10630
▁ট্রেন	-10631
▁mix	-10632
CH	-10633
▁পঞ্চ	-10634
▁sprijin	-10635
খ্যান	-10636
▁Rechn	-10637
▁IM	-10638
▁species	-10639
кто	-10640
ehl	-10641
annte	-10642
▁পড়ুন	-10643
▁Interessen	-10644
▁зо	-10645
▁truly	-10646
▁শেষে	-10647
▁Education	-10648
▁кож	-10649
▁বিমানব	-10650
ules	-10651
:3	-10652
▁Moreover	-10653
board	-10654
▁color	-10655
▁কষ্ট	-10656
▁Sche	-10657
▁Solid	-10658
▁besonder	-10659
▁প্রণ	-10660
▁জুলাই	-10661
▁তরুণ	-10662
▁লোকেরা	-10663
.00	-10664
ón	-10665
▁Korea	-10666
▁transparency	-10667
look	-10668
▁করেননি	-10669
▁স্বাধীনতা	-10670
▁Mer	-10671
poses	-10672
rachen	-10673
▁expert	-10674
▁Come	-10675
FR	-10676
ষ্ঠান	-10677
▁কারও	-10678
কালীন	-10679
▁glob	-10680
▁favor	-10681
ses	-10682
▁Conference	-10683
▁ut	-10684
্যন্ত	-10685
▁gonna	-10686
▁bathroom	-10687
aming	-10688
▁Verl	-10689
▁individuals	-10690
VID	-10691
▁mas	-10692
▁east	-10693
▁Nutzung	-10694
reland	-10695
▁summit	-10696
▁Rem	-10697
▁ultim	-10698
▁richtig	-10699
▁При	-10700
▁strict	-10701
▁moving	-10702
xis	-10703
▁জগ	-10704
▁explain	-10705
aya	-10706
▁Sheikh	-10707
দেশে	-10708
ifying	-10709
▁অঙ্গ	-10710
riffen	-10711
▁говори	-10712
▁Muslims	-10713
▁neither	-10714
aks	-10715
▁processes	-10716
ром	-10717
iligen	-10718
▁2002	-10719
ক্য	-10720
▁মন্ত্রণ	-10721
▁পেয়েছে	-10722
▁গ্রুপ	-10723
ida	-10724
▁প্রাপ্ত	-10725
▁খ্রিস্টান	-10726
ণে	-10727
▁whatever	-10728
жди	-10729
rale	-10730
obei	-10731
▁এগুলো	-10732
▁businesses	-10733
▁দাঁড়িয়ে	-10734
▁সিনে	-10735
ym	-10736
▁vorlie	-10737
▁reduced	-10738
ৃণ	-10739
▁Liss	-10740
▁Behörden	-10741
্লিষ্ট	-10742
pä	-10743
CO	-10744
▁Notwend	-10745
য়র	-10746
▁rid	-10747
▁কৃষি	-10748
PE	-10749
ără	-10750
▁Ba	-10751
▁নো	-10752
ধে	-10753
▁১৯৫	-10754
▁core	-10755
▁Augen	-10756
▁contro	-10757
iled	-10758
▁গান্ধী	-10759
ţe	-10760
িরে	-10761
▁borders	-10762
▁gerne	-10763
▁কঠোর	-10764
▁Sunday	-10765
grade	-10766
stein	-10767
▁кіль	-10768
চনার	-10769
▁Amster	-10770
after	-10771
▁curren	-10772
▁ধন্যবাদ	-10773
▁тут	-10774
▁অধিনায়ক	-10775
вича	-10776
▁Damit	-10777
▁newsp	-10778
▁Eastern	-10779
▁zone	-10780
▁wichtigsten	-10781
▁calling	-10782
▁colleagues	-10783
▁পদে	-10784
▁domin	-10785
▁Wed	-10786
▁মালিক	-10787
▁Brazil	-10788
▁regards	-10789
pper	-10790
undes	-10791
▁Tat	-10792
auss	-10793
race	-10794
▁জঙ্গি	-10795
▁পৃষ্ঠ	-10796
▁মিনি	-10797
▁verantwort	-10798
Al	-10799
▁বংশ	-10800
вид	-10801
▁lu	-10802
▁অক্ট	-10803
▁Якщо	-10804
ässt	-10805
bat	-10806
▁Fot	-10807
▁criteria	-10808
▁টা	-10809
▁চুক্তি	-10810
▁অগ	-10811
েতু	-10812
▁Ireland	-10813
▁нав	-10814
▁Aufent	-10815
মাদের	-10816
▁appeal	-10817
▁looked	-10818
▁мені	-10819
▁навіть	-10820
▁collection	-10821
▁unabhäng	-10822
▁coord	-10823
▁Mitarbeiter	-10824
▁aktiv	-10825
▁জিনিস	-10826
▁lodged	-10827
▁সবসময়	-10828
eness	-10829
▁পরিশ	-10830
zunehmen	-10831
▁নিয়মিত	-10832
,”	-10833
▁পৃথিবীর	-10834
aland	-10835
indust	-10836
▁মূলত	-10837
ців	-10838
▁Saf	-10839
▁frü	-10840
▁Each	-10841
▁Urlaub	-10842
▁Mo	-10843
▁Tor	-10844
▁Green	-10845
▁unit	-10846
▁forest	-10847
▁initiatives	-10848
▁Forder	-10849
▁River	-10850
▁precum	-10851
▁Saudi	-10852
▁32	-10853
▁mehrere	-10854
▁department	-10855
▁зу	-10856
▁Krise	-10857
▁Reise	-10858
▁dangerous	-10859
▁সদর	-10860
▁despre	-10861
▁hinsichtlich	-10862
▁বাঁচ	-10863
▁Ace	-10864
্রিয়া	-10865
▁অনুসরণ	-10866
য়াদিল	-10867
▁suspend	-10868
▁touch	-10869
▁encourage	-10870
▁agency	-10871
▁শতাব্দ	-10872
▁implic	-10873
aţii	-10874
rete	-10875
▁২৩	-10876
▁Bay	-10877
▁কংগ্রেসের	-10878
▁secur	-10879
▁vorgeschlagen	-10880
▁май	-10881
▁încă	-10882
▁interpret	-10883
пані	-10884
▁schimb	-10885
▁Вони	-10886
▁besteh	-10887
▁einges	-10888
শিষ্ট	-10889
▁Frankreich	-10890
roud	-10891
▁১৯৪	-10892
▁বাড়ছে	-10893
overy	-10894
র্ধ	-10895
gesamt	-10896
oarece	-10897
house	-10898
▁technologies	-10899
▁nearly	-10900
▁ww	-10901
▁Whats	-10902
্টার	-10903
▁regret	-10904
stellungen	-10905
▁efficiency	-10906
▁Center	-10907
▁দুজন	-10908
▁Wochen	-10909
▁дос	-10910
aken	-10911
▁overall	-10912
Sh	-10913
▁Kong	-10914
тку	-10915
▁আনা	-10916
▁Vice	-10917
▁Rot	-10918
▁বার্তা	-10919
▁Alt	-10920
▁নিল	-10921
▁শিকার	-10922
্যাত্ম	-10923
▁cra	-10924
▁ow	-10925
▁জুন	-10926
seite	-10927
▁trav	-10928
▁consolid	-10929
▁Cy	-10930
দর্শন	-10931
unal	-10932
▁www	-10933
▁3,	-10934
▁সাহ	-10935
▁ganze	-10936
onnen	-10937
▁union	-10938
▁forced	-10939
▁ganzen	-10940
iced	-10941
▁plus	-10942
▁einger	-10943
nam	-10944
▁Val	-10945
▁suicide	-10946
▁Miss	-10947
▁Cast	-10948
আমার	-10949
▁дума	-10950
▁improved	-10951
▁sn	-10952
▁propun	-10953
▁вы	-10954
▁granted	-10955
▁relating	-10956
▁Id	-10957
▁nachhalt	-10958
istische	-10959
ricts	-10960
▁নয়াদিল	-10961
▁wobei	-10962
▁Economic	-10963
▁pred	-10964
▁উৎপাদন	-10965
▁মন্ত্রণাল	-10966
স্ফ	-10967
halte	-10968
▁আর্থিক	-10969
▁সত্যিই	-10970
asts	-10971
ämp	-10972
▁generally	-10973
▁আও	-10974
▁Take	-10975
-3	-10976
▁Bitte	-10977
ধ্যায়	-10978
▁Gruppe	-10979
last	-10980
▁Lissabon	-10981
▁experts	-10982
IV	-10983
▁খে	-10984
▁reference	-10985
▁entry	-10986
▁সন্	-10987
▁চূ	-10988
programm	-10989
▁150	-10990
▁Material	-10991
ureau	-10992
▁Auswahl	-10993
▁goals	-10994
▁enthält	-10995
▁kit	-10996
▁Erweiterung	-10997
▁Verbesserung	-10998
▁কথ	-10999
▁Aud	-11000
rest	-11001
▁ভেবে	-11002
▁tempor	-11003
gende	-11004
দর্শ	-11005
leb	-11006
▁Frid	-11007
▁trotz	-11008
▁ermöglichen	-11009
жі	-11010
ৃদ্ধ	-11011
▁urmare	-11012
▁সুপ্রিম	-11013
fare	-11014
eni	-11015
▁Vertre	-11016
▁feed	-11017
▁participation	-11018
▁Hindu	-11019
▁Wachstum	-11020
▁Veranst	-11021
▁ক্লা	-11022
▁resist	-11023
▁Bef	-11024
▁Cu	-11025
ска	-11026
▁wonderful	-11027
▁apartment	-11028
▁Middle	-11029
aţional	-11030
▁Sign	-11031
আপ	-11032
▁leadership	-11033
▁worry	-11034
oni	-11035
▁schön	-11036
▁সড়ক	-11037
▁walking	-11038
▁valid	-11039
▁নন	-11040
andlung	-11041
сну	-11042
▁সম্ভাবনা	-11043
▁অনুষ্ঠান	-11044
▁কোভিড	-11045
▁পালিয়ে	-11046
▁bedeut	-11047
▁greatest	-11048
▁চৌধ	-11049
▁wine	-11050
▁apost	-11051
▁Mult	-11052
jahr	-11053
fonds	-11054
▁কান	-11055
erweise	-11056
▁তল	-11057
▁feeling	-11058
▁multe	-11059
▁produc	-11060
▁durchge	-11061
▁Ash	-11062
▁Amb	-11063
গুলিকে	-11064
ওয়ান	-11065
▁Road	-11066
▁covered	-11067
orage	-11068
schlag	-11069
োয়াড়	-11070
কী	-11071
▁উপজেলা	-11072
▁unto	-11073
ago	-11074
▁সেপ্ট	-11075
▁যাক	-11076
▁doar	-11077
▁spect	-11078
১৪	-11079
wel	-11080
ohol	-11081
▁Special	-11082
▁geeign	-11083
ঙ্গা	-11084
▁Unternehm	-11085
▁immediate	-11086
▁câ	-11087
▁permanent	-11088
▁আহ্ব	-11089
▁সক্ষম	-11090
▁6.	-11091
▁кори	-11092
entwick	-11093
▁împotriv	-11094
jab	-11095
▁একবার	-11096
ighte	-11097
েনা	-11098
sterreich	-11099
▁দৃঢ়	-11100
▁Macht	-11101
▁Übers	-11102
▁ভিত্তি	-11103
▁Initiative	-11104
▁{	-11105
▁Gewalt	-11106
▁Ye	-11107
▁bran	-11108
▁accordance	-11109
▁discussions	-11110
াস্ত	-11111
▁অশ	-11112
CP	-11113
▁battle	-11114
▁quant	-11115
mas	-11116
▁Lu	-11117
вої	-11118
ьогодні	-11119
▁এফ	-11120
▁sad	-11121
▁অন্ধ	-11122
▁zeigen	-11123
▁লক্ষ্যে	-11124
▁সোন	-11125
▁зали	-11126
▁Schaffung	-11127
▁সাহিত	-11128
▁Anfang	-11129
▁acum	-11130
▁আকাশ	-11131
▁nevo	-11132
Fra	-11133
▁Europene	-11134
▁lands	-11135
ника	-11136
▁Cost	-11137
▁sales	-11138
rigen	-11139
▁ор	-11140
▁них	-11141
schließend	-11142
▁সংসদ	-11143
▁Uniunii	-11144
lor	-11145
ţei	-11146
quate	-11147
oppel	-11148
▁delay	-11149
нити	-11150
uddin	-11151
▁Gelegenheit	-11152
.'	-11153
▁করেছিলাম	-11154
▁Mas	-11155
▁ইউনিয়ন	-11156
▁ru	-11157
▁none	-11158
▁আসার	-11159
▁Elect	-11160
EM	-11161
▁Steuer	-11162
▁গুজ	-11163
▁বাতিল	-11164
প্রে	-11165
▁Mean	-11166
9)	-11167
▁Eff	-11168
izient	-11169
▁আধ্যাত্ম	-11170
möglichkeit	-11171
▁congregation	-11172
usal	-11173
poration	-11174
▁helpful	-11175
▁দৈ	-11176
belie	-11177
нок	-11178
ensions	-11179
▁closely	-11180
▁কয়েকজন	-11181
▁astfel	-11182
▁AL	-11183
▁Thurs	-11184
▁defence	-11185
ollar	-11186
▁ruh	-11187
▁buildings	-11188
েত্রে	-11189
▁proud	-11190
রো	-11191
▁herr	-11192
▁emot	-11193
▁Да	-11194
▁হুম	-11195
ployed	-11196
▁claims	-11197
13	-11198
ড়ান্ত	-11199
▁machine	-11200
খ্যাত	-11201
▁Furthermore	-11202
▁jour	-11203
▁Academ	-11204
▁micro	-11205
▁різ	-11206
▁Power	-11207
enh	-11208
▁বাজে	-11209
▁hour	-11210
▁preşedinte	-11211
মূল	-11212
▁innovation	-11213
ইং	-11214
▁সত্ত্বেও	-11215
▁Ank	-11216
BC	-11217
fahrt	-11218
ামের	-11219
▁Southeast	-11220
▁când	-11221
বিআই	-11222
গ্রস্ত	-11223
▁accompan	-11224
▁völlig	-11225
▁meant	-11226
▁contribute	-11227
▁দ্বীপ	-11228
▁urban	-11229
hesion	-11230
▁Amendment	-11231
▁Na	-11232
ামার	-11233
▁Mahar	-11234
▁নিয়ম	-11235
bal	-11236
aste	-11237
UR	-11238
▁Gebä	-11239
▁genu	-11240
▁seats	-11241
▁aceasta	-11242
▁Norm	-11243
steller	-11244
▁টাই	-11245
▁ছিলাম	-11246
▁spielen	-11247
▁আধুনিক	-11248
▁পয়	-11249
▁Versch	-11250
ingu	-11251
rive	-11252
▁integrated	-11253
দ্ধা	-11254
▁impossible	-11255
▁incor	-11256
▁revealed	-11257
▁teachers	-11258
▁Head	-11259
ancy	-11260
▁সর্	-11261
▁лише	-11262
▁তাহা	-11263
▁লাগে	-11264
▁erklär	-11265
do	-11266
▁temple	-11267
▁Det	-11268
iko	-11269
▁explo	-11270
▁obtain	-11271
▁Ergebnisse	-11272
inner	-11273
▁Verwendung	-11274
▁supporting	-11275
ভব	-11276
▁deoarece	-11277
▁fighting	-11278
▁Fach	-11279
▁Abdul	-11280
▁generation	-11281
▁heut	-11282
▁ভি	-11283
ায়ে	-11284
▁খেলোয়াড়	-11285
ideos	-11286
▁überw	-11287
▁2011	-11288
▁Darüber	-11289
▁বেশিরভাগ	-11290
oned	-11291
▁Computer	-11292
▁Tri	-11293
▁সমস্যার	-11294
▁এভাবে	-11295
▁মধ্যেই	-11296
▁যাত্র	-11297
izarea	-11298
▁autor	-11299
oking	-11300
DF	-11301
▁asigur	-11302
▁purposes	-11303
▁আহমেদ	-11304
▁believed	-11305
▁Pf	-11306
vorschriften	-11307
▁року	-11308
▁einzig	-11309
▁সীমান্ত	-11310
▁অভিজ্ঞতা	-11311
▁সিনেমা	-11312
▁accommodation	-11313
▁Bill	-11314
▁garden	-11315
▁African	-11316
▁দিয়েছিল	-11317
▁প্রব	-11318
▁Bilder	-11319
▁শিব	-11320
▁স্বপ	-11321
ählt	-11322
obby	-11323
▁exercise	-11324
▁Notwendigkeit	-11325
▁জুড়ে	-11326
▁server	-11327
statt	-11328
▁Angebot	-11329
▁নী	-11330
▁অধীনে	-11331
▁আরব	-11332
fordert	-11333
▁surely	-11334
▁konkre	-11335
▁unf	-11336
▁verbessern	-11337
▁ঘটনাটি	-11338
▁থাকলে	-11339
▁namely	-11340
▁elimin	-11341
stru	-11342
▁Start	-11343
▁яка	-11344
▁lässt	-11345
apers	-11346
ais	-11347
ritts	-11348
itals	-11349
▁Zweit	-11350
▁kulture	-11351
▁Mob	-11352
▁Offic	-11353
▁Sen	-11354
▁ধীরে	-11355
▁স্থাপ	-11356
ede	-11357
▁grundleg	-11358
▁votes	-11359
▁রোহ	-11360
II	-11361
▁Partn	-11362
▁uses	-11363
zeugen	-11364
▁renov	-11365
▁Sand	-11366
▁Friday	-11367
▁Agreement	-11368
▁Black	-11369
▁ইন্টারনে	-11370
▁König	-11371
▁Anzahl	-11372
▁সংশ্লিষ্ট	-11373
olden	-11374
▁Mass	-11375
▁vert	-11376
▁plants	-11377
▁Thursday	-11378
▁enem	-11379
মিটার	-11380
েরি	-11381
ষ্টির	-11382
▁convers	-11383
see	-11384
্কা	-11385
▁টু	-11386
mehr	-11387
দ্য	-11388
ককে	-11389
▁প্রয	-11390
▁fle	-11391
▁Nu	-11392
▁auth	-11393
▁wealth	-11394
▁কাপুর	-11395
▁Prin	-11396
▁privire	-11397
▁অঞ্চলের	-11398
▁Zw	-11399
▁Tom	-11400
▁মাথা	-11401
▁weapons	-11402
▁canc	-11403
▁diplomat	-11404
▁împotriva	-11405
▁через	-11406
▁доб	-11407
▁restaurants	-11408
kennen	-11409
gegen	-11410
▁Hist	-11411
▁বিষয়টা	-11412
▁soldiers	-11413
▁programs	-11414
GB	-11415
ার্ট	-11416
▁Liefer	-11417
বাই	-11418
▁И	-11419
▁Tage	-11420
▁Earth	-11421
টাল	-11422
▁বলছে	-11423
▁comprehensive	-11424
▁উইকেট	-11425
▁coordin	-11426
▁কিল	-11427
abile	-11428
▁систе	-11429
▁larger	-11430
angel	-11431
▁цей	-11432
▁পরিষেবা	-11433
ätigkeit	-11434
▁jail	-11435
▁hearing	-11436
▁enlargement	-11437
▁Tar	-11438
▁উপজ	-11439
▁Cap	-11440
▁Jer	-11441
▁প্রাক	-11442
▁পরেই	-11443
▁reven	-11444
▁আপনারা	-11445
▁trial	-11446
▁লাশ	-11447
▁guten	-11448
▁gefähr	-11449
▁ঘুম	-11450
▁দিলেন	-11451
▁7.	-11452
▁শাসন	-11453
▁soziale	-11454
▁Technology	-11455
োবর	-11456
▁verfüg	-11457
▁Ма	-11458
date	-11459
кту	-11460
atively	-11461
ей	-11462
▁Govern	-11463
▁visited	-11464
▁arm	-11465
▁eigene	-11466
ähn	-11467
▁Woche	-11468
▁উনি	-11469
licht	-11470
▁Berg	-11471
▁mig	-11472
▁Beschl	-11473
▁Sov	-11474
▁শুধুমাত্র	-11475
▁রাতে	-11476
90	-11477
▁reduction	-11478
umin	-11479
aga	-11480
yan	-11481
১১	-11482
▁нам	-11483
▁om	-11484
▁verfügen	-11485
enken	-11486
OT	-11487
ța	-11488
▁Canada	-11489
ützen	-11490
▁Microsoft	-11491
▁fruit	-11492
▁শর্মা	-11493
▁founded	-11494
▁Gold	-11495
▁মাঠ	-11496
spruch	-11497
▁অধ্যয়ন	-11498
▁intended	-11499
▁bott	-11500
pflich	-11501
▁ভিত্তিতে	-11502
▁কর্মী	-11503
▁Dub	-11504
стю	-11505
▁großer	-11506
▁demanded	-11507
▁Amsterdam	-11508
сли	-11509
Un	-11510
▁Video	-11511
▁শী	-11512
▁Kam	-11513
▁crore	-11514
▁complain	-11515
umn	-11516
▁compens	-11517
▁অনল	-11518
াফ	-11519
▁বাজার	-11520
▁helps	-11521
▁asking	-11522
▁Fehler	-11523
▁বসবাস	-11524
▁repres	-11525
дати	-11526
▁Zeitpunkt	-11527
▁mein	-11528
▁কমে	-11529
▁häuf	-11530
▁congratulate	-11531
▁কার্যক্রম	-11532
▁COVID	-11533
spräsident	-11534
▁поча	-11535
page	-11536
▁নিয়োগ	-11537
▁আন্দোলন	-11538
▁window	-11539
▁Mat	-11540
Sch	-11541
wers	-11542
ertungen	-11543
ство	-11544
üng	-11545
▁উত	-11546
▁অব্যা	-11547
▁Russland	-11548
rain	-11549
য়ান	-11550
▁হাঁ	-11551
▁Directive	-11552
▁Lab	-11553
ashtra	-11554
▁Prote	-11555
টিটি	-11556
▁însă	-11557
▁verwenden	-11558
▁বরা	-11559
▁Et	-11560
▁email	-11561
▁পাঠিয়ে	-11562
AF	-11563
▁বলেও	-11564
▁ersch	-11565
ga	-11566
▁Linux	-11567
▁entered	-11568
▁prive	-11569
▁আমাদেরকে	-11570
▁Juni	-11571
▁বলার	-11572
oples	-11573
arbeitung	-11574
▁ঝুঁ	-11575
▁Alex	-11576
টিয়ে	-11577
appe	-11578
▁signs	-11579
▁ইতিমধ্যেই	-11580
scht	-11581
▁meinem	-11582
▁1999	-11583
▁Ev	-11584
enzen	-11585
▁সম্ভবত	-11586
comm	-11587
▁Lauf	-11588
▁auss	-11589
▁বিশাল	-11590
▁extended	-11591
▁schö	-11592
িমা	-11593
unch	-11594
▁এদিন	-11595
▁স্বাভাবিক	-11596
▁Down	-11597
▁সুখ	-11598
▁AN	-11599
▁defic	-11600
▁heaven	-11601
▁Lösungen	-11602
fraid	-11603
▁Ferien	-11604
▁afraid	-11605
১৭	-11606
▁diskut	-11607
▁Following	-11608
angs	-11609
eff	-11610
äst	-11611
▁আছি	-11612
▁খরচ	-11613
▁Eing	-11614
rika	-11615
▁Zus	-11616
▁Jugend	-11617
▁length	-11618
▁Austria	-11619
▁বলছেন	-11620
▁авто	-11621
▁আদেশ	-11622
▁künft	-11623
▁appeared	-11624
▁Budget	-11625
▁ফলা	-11626
▁gesamte	-11627
▁স্বরাষ্ট্র	-11628
▁Golf	-11629
ঁচে	-11630
▁unable	-11631
▁vision	-11632
▁zunächst	-11633
verständlich	-11634
▁accession	-11635
▁Tot	-11636
▁উত্তম	-11637
▁orient	-11638
agraph	-11639
aschinen	-11640
▁anzu	-11641
▁pray	-11642
▁চম	-11643
▁মহারা	-11644
lös	-11645
star	-11646
োমুখ	-11647
▁Besides	-11648
িটির	-11649
▁জমা	-11650
▁সিল	-11651
▁substant	-11652
▁রস	-11653
istem	-11654
▁nar	-11655
▁Debian	-11656
ший	-11657
▁Ні	-11658
▁roads	-11659
▁termin	-11660
▁ডিসেম্বর	-11661
ৃতির	-11662
▁প্রশংসা	-11663
▁gehören	-11664
▁বাধা	-11665
▁kil	-11666
▁raise	-11667
ierenden	-11668
bi	-11669
он	-11670
▁Änderungen	-11671
▁defend	-11672
▁girls	-11673
স্বরূপ	-11674
▁му	-11675
▁ইংরেজি	-11676
гою	-11677
iglich	-11678
▁ফেব্র	-11679
▁neighbour	-11680
▁aimed	-11681
▁Solidar	-11682
▁selection	-11683
▁frei	-11684
▁magaz	-11685
১২	-11686
▁Hal	-11687
ঙ্খ	-11688
▁identity	-11689
▁Install	-11690
▁Transpar	-11691
▁দাও	-11692
▁gleichen	-11693
bour	-11694
дат	-11695
▁fif	-11696
▁Time	-11697
asth	-11698
▁পর্ব	-11699
▁মুখোমুখ	-11700
klus	-11701
▁মানুষকে	-11702
▁Wik	-11703
▁নিউজ	-11704
▁accounts	-11705
▁Thr	-11706
▁বিদ্যুৎ	-11707
েলের	-11708
▁розу	-11709
arus	-11710
▁Muhammad	-11711
▁Element	-11712
▁Meanwhile	-11713
prises	-11714
▁vorhand	-11715
▁голо	-11716
▁fördern	-11717
abilität	-11718
▁Mann	-11719
▁ফ্রান্স	-11720
fält	-11721
nesday	-11722
▁otherwise	-11723
▁cer	-11724
▁Ans	-11725
▁পাশে	-11726
▁পৃথিবীতে	-11727
▁Regierungs	-11728
▁destroyed	-11729
▁items	-11730
▁কব	-11731
▁una	-11732
▁Jud	-11733
▁WTO	-11734
▁Wahr	-11735
▁ständ	-11736
▁বাংলাদেশে	-11737
▁conclusion	-11738
ishing	-11739
▁wirtschaftliche	-11740
▁সন	-11741
чних	-11742
র্ণ	-11743
▁adjust	-11744
▁Erd	-11745
ourcen	-11746
▁skills	-11747
▁tatsächlich	-11748
lle	-11749
""""	-11750
ausch	-11751
▁Dritt	-11752
▁noted	-11753
▁parliamentary	-11754
▁এয়ার	-11755
gs	-11756
▁gelegen	-11757
▁Mediterranean	-11758
▁peaceful	-11759
cknow	-11760
▁există	-11761
▁দর্শ	-11762
ьому	-11763
▁Krieg	-11764
▁veget	-11765
▁запи	-11766
▁Ка	-11767
▁sons	-11768
▁কমিশন	-11769
hu	-11770
▁Put	-11771
▁Hinter	-11772
▁বয়স	-11773
িকেল	-11774
▁চূড়ান্ত	-11775
▁ensuring	-11776
кільки	-11777
tes	-11778
▁cold	-11779
▁হবেন	-11780
▁college	-11781
▁sorgen	-11782
ienste	-11783
▁নব	-11784
▁veröff	-11785
স্তক	-11786
ING	-11787
▁Bengali	-11788
▁এরা	-11789
ীব্র	-11790
ман	-11791
▁confr	-11792
▁weight	-11793
ড়ার	-11794
▁Jose	-11795
ুকে	-11796
▁treated	-11797
ammu	-11798
▁functions	-11799
▁participate	-11800
Ad	-11801
▁Policy	-11802
▁Year	-11803
▁perso	-11804
ম্ভ	-11805
▁einf	-11806
▁eindeut	-11807
▁appears	-11808
▁Vo	-11809
▁estim	-11810
▁সুস্থ	-11811
▁obst	-11812
▁winter	-11813
▁Vertra	-11814
▁verstär	-11815
buch	-11816
▁geführt	-11817
▁Regierungen	-11818
▁diss	-11819
▁wasnt	-11820
▁ময়ন	-11821
▁psych	-11822
▁compar	-11823
▁অনেকেই	-11824
▁ইত্যা	-11825
▁Punjab	-11826
▁Herzen	-11827
▁transparent	-11828
▁properly	-11829
▁advice	-11830
▁schriftlich	-11831
▁frag	-11832
র্ন	-11833
▁Mehrheit	-11834
▁Während	-11835
▁Konferenz	-11836
▁route	-11837
▁повер	-11838
és	-11839
▁মামলার	-11840
ряд	-11841
▁agencies	-11842
▁বিস	-11843
вувати	-11844
ivery	-11845
▁বিদ্যালয়	-11846
▁sin	-11847
১৬	-11848
▁Utt	-11849
▁Very	-11850
▁reply	-11851
▁Nep	-11852
▁falls	-11853
▁Mohammad	-11854
altungs	-11855
▁statele	-11856
uert	-11857
▁টেক	-11858
▁rock	-11859
▁ther	-11860
▁শির	-11861
▁বিতর্ক	-11862
▁পরিষ্কার	-11863
▁মুখোমুখি	-11864
▁45	-11865
হেতু	-11866
▁conver	-11867
▁Erfahrung	-11868
▁flow	-11869
চা	-11870
erschaft	-11871
▁Science	-11872
▁ernst	-11873
▁Croatia	-11874
▁represents	-11875
▁cat	-11876
্রিক	-11877
▁Stellung	-11878
বিক	-11879
▁sofort	-11880
▁practices	-11881
▁Jehovahs	-11882
▁failure	-11883
zech	-11884
йсько	-11885
▁seeking	-11886
▁আবদুল	-11887
▁controvers	-11888
▁লিখেছেন	-11889
▁Ober	-11890
বারের	-11891
▁emp	-11892
▁তীব্র	-11893
▁গ্যাস	-11894
▁healthy	-11895
▁inqu	-11896
ller	-11897
▁mos	-11898
▁decor	-11899
▁visitors	-11900
▁actress	-11901
alien	-11902
▁Integration	-11903
▁фі	-11904
▁রাখে	-11905
রাসরি	-11906
▁pil	-11907
▁বিচারপতি	-11908
ত্তর	-11909
mens	-11910
▁কোহ	-11911
▁alloc	-11912
ৎকার	-11913
▁scen	-11914
▁victory	-11915
▁নেট	-11916
öhn	-11917
▁Once	-11918
▁Einführung	-11919
তিয়ে	-11920
ulated	-11921
▁Este	-11922
▁matches	-11923
▁зробити	-11924
▁bestehen	-11925
▁Klima	-11926
bsites	-11927
▁Wednesday	-11928
▁äußerst	-11929
▁Stock	-11930
▁Dabei	-11931
▁ton	-11932
▁injuries	-11933
uster	-11934
থাৎ	-11935
▁deceased	-11936
▁গীত	-11937
▁বোধ	-11938
▁dream	-11939
▁Tel	-11940
▁komplet	-11941
▁Festival	-11942
▁acknow	-11943
▁str	-11944
▁গেছেন	-11945
▁zug	-11946
ুটে	-11947
▁debt	-11948
ত্তম	-11949
▁false	-11950
▁над	-11951
▁disapp	-11952
zone	-11953
▁gele	-11954
▁suffered	-11955
▁গাছ	-11956
▁missing	-11957
▁effectively	-11958
▁ті	-11959
wind	-11960
▁verstehen	-11961
▁Tex	-11962
uffet	-11963
▁Tun	-11964
▁residents	-11965
▁à	-11966
▁গ্ল	-11967
▁leicht	-11968
ervice	-11969
▁strongly	-11970
▁rout	-11971
isp	-11972
▁чу	-11973
▁মণ্ডল	-11974
▁experienced	-11975
▁afirm	-11976
iens	-11977
▁Top	-11978
▁ওঁ	-11979
▁plays	-11980
▁Tab	-11981
▁collabor	-11982
▁districts	-11983
iva	-11984
▁জরুরি	-11985
ühm	-11986
▁chest	-11987
▁thousand	-11988
▁corresp	-11989
born	-11990
anzen	-11991
örper	-11992
▁সরাসরি	-11993
▁întâ	-11994
▁Mount	-11995
▁আলী	-11996
▁sell	-11997
▁কিনা	-11998
▁বেসর	-11999
okoll	-12000
▁Life	-12001
▁বিনিয়োগ	-12002
▁până	-12003
▁আগের	-12004
▁Jammu	-12005
kraft	-12006
▁competit	-12007
▁অ্যাল	-12008
▁improving	-12009
▁lived	-12010
▁somit	-12011
▁dring	-12012
iest	-12013
▁Unternehmens	-12014
▁schle	-12015
▁planned	-12016
▁অর	-12017
▁প্রশিক্ষণ	-12018
ulate	-12019
artige	-12020
▁Хо	-12021
▁Var	-12022
▁sacri	-12023
ports	-12024
াত্মক	-12025
▁vern	-12026
EG	-12027
вити	-12028
▁urmă	-12029
änge	-12030
zeugt	-12031
▁মোহাম্মদ	-12032
▁shock	-12033
▁ছবিটি	-12034
▁gewährleisten	-12035
▁বাহিনীর	-12036
▁যেটা	-12037
▁lediglich	-12038
etzungen	-12039
▁opposite	-12040
▁Count	-12041
▁punishment	-12042
যুদ্ধ	-12043
▁muse	-12044
▁নিম্ন	-12045
▁candidates	-12046
▁hohen	-12047
iile	-12048
▁increasingly	-12049
sec	-12050
ourable	-12051
▁প্রতিদিন	-12052
্যানে	-12053
▁compared	-12054
▁মূ	-12055
itar	-12056
▁irgend	-12057
▁Parlamentul	-12058
িতেই	-12059
▁পারব	-12060
кре	-12061
imat	-12062
▁Kind	-12063
▁instance	-12064
olitik	-12065
▁elekt	-12066
▁Dig	-12067
rimination	-12068
▁চাহ	-12069
▁communities	-12070
25	-12071
▁বলি	-12072
▁nine	-12073
maßnahmen	-12074
▁মতে	-12075
▁নামক	-12076
має	-12077
▁পেল	-12078
▁Konfl	-12079
▁Umgebung	-12080
▁Guj	-12081
▁Ratspräsident	-12082
▁Name	-12083
ালেন	-12084
▁verpflich	-12085
шим	-12086
▁কিছুটা	-12087
▁Höhe	-12088
▁раз	-12089
izes	-12090
▁brit	-12091
▁Station	-12092
ression	-12093
▁err	-12094
িশোর	-12095
▁tweet	-12096
▁establishment	-12097
IB	-12098
▁dor	-12099
RC	-12100
▁পাস	-12101
▁Matt	-12102
▁gebracht	-12103
▁aircraft	-12104
führen	-12105
▁із	-12106
▁Server	-12107
aup	-12108
organisation	-12109
▁Ho	-12110
▁joy	-12111
▁пробле	-12112
▁tourism	-12113
die	-12114
▁ci	-12115
▁ক্রম	-12116
▁বোল	-12117
agers	-12118
▁Among	-12119
rägen	-12120
▁10.	-12121
heben	-12122
▁leaving	-12123
▁bul	-12124
▁Rev	-12125
Ind	-12126
য়েন	-12127
াতদন্ত	-12128
▁motion	-12129
unsch	-12130
▁beteil	-12131
▁recorded	-12132
чо	-12133
oral	-12134
hington	-12135
industrie	-12136
▁church	-12137
▁tourn	-12138
▁রাজধানী	-12139
aţie	-12140
▁cât	-12141
miss	-12142
▁autom	-12143
sein	-12144
▁один	-12145
▁আচরণ	-12146
▁জিজ্ঞেস	-12147
▁hair	-12148
igence	-12149
▁Milit	-12150
▁Familie	-12151
▁Father	-12152
▁Indias	-12153
▁Yeah	-12154
▁cars	-12155
▁shops	-12156
▁Unters	-12157
▁couldnt	-12158
▁înce	-12159
▁moral	-12160
▁зб	-12161
orters	-12162
▁Sprache	-12163
▁coronavirus	-12164
▁অনুরোধ	-12165
১৩	-12166
▁অনুমোদন	-12167
▁সহযোগিতা	-12168
▁Hall	-12169
▁মহান	-12170
di	-12171
▁দফ	-12172
িত্রে	-12173
▁currency	-12174
▁anderer	-12175
▁IP	-12176
▁Binnenmarkt	-12177
▁transform	-12178
▁eye	-12179
ităţii	-12180
▁Wettbewerb	-12181
ograf	-12182
ন্ব	-12183
▁band	-12184
▁Vereinbar	-12185
▁ময়নাতদন্ত	-12186
▁societ	-12187
▁scri	-12188
▁নই	-12189
▁প্রশাসন	-12190
▁পশ্চিমবঙ্গ	-12191
▁load	-12192
setzen	-12193
▁Does	-12194
▁Gast	-12195
quis	-12196
amber	-12197
▁europene	-12198
TA	-12199
▁ус	-12200
▁Media	-12201
▁Water	-12202
нов	-12203
ipur	-12204
▁hervorrag	-12205
▁Nothing	-12206
она	-12207
▁Kommunik	-12208
▁aş	-12209
▁Site	-12210
▁মামলায়	-12211
wa	-12212
▁ড্র	-12213
▁Opp	-12214
ства	-12215
▁Java	-12216
▁Aspe	-12217
▁zentral	-12218
▁două	-12219
ানী	-12220
▁কাপ	-12221
▁রাত	-12222
icherung	-12223
▁Gemeins	-12224
wal	-12225
▁Church	-12226
▁Produktion	-12227
▁consc	-12228
nden	-12229
pool	-12230
▁পণ্য	-12231
▁সংক	-12232
icit	-12233
▁পর্যায়ে	-12234
▁electronic	-12235
▁три	-12236
▁Author	-12237
»,	-12238
uche	-12239
mäßig	-12240
▁ț	-12241
▁পালনকর্ত	-12242
▁বাইবেলের	-12243
▁Mut	-12244
▁প্রতিনিধি	-12245
▁বদলে	-12246
▁bestimmte	-12247
▁কোথাও	-12248
▁була	-12249
▁ersche	-12250
ঘ্র	-12251
▁CE	-12252
hung	-12253
▁esc	-12254
▁Company	-12255
▁ভেত	-12256
▁Komprom	-12257
▁Booking	-12258
▁examples	-12259
бува	-12260
▁ম্যাচে	-12261
▁expression	-12262
▁Satur	-12263
▁সৎ	-12264
▁Erachten	-12265
▁enfor	-12266
▁ле	-12267
with	-12268
▁James	-12269
▁পেছ	-12270
▁shopping	-12271
▁Gang	-12272
▁burn	-12273
▁Sicht	-12274
▁principal	-12275
▁Know	-12276
▁ausgestattet	-12277
শী	-12278
▁Kommissarin	-12279
▁Erachtens	-12280
▁meines	-12281
▁removed	-12282
▁আহ্বান	-12283
▁entirely	-12284
fasst	-12285
ন্দ্ব	-12286
▁affairs	-12287
▁zweite	-12288
Ver	-12289
▁Kontakt	-12290
▁tourist	-12291
▁পত	-12292
▁Bekämpfung	-12293
▁Neben	-12294
▁Okt	-12295
▁Fer	-12296
uesday	-12297
▁ধর্ষণ	-12298
▁Pop	-12299
▁ব্যাট	-12300
itoare	-12301
▁menu	-12302
▁підтри	-12303
▁চ্যালে	-12304
пра	-12305
▁অসম	-12306
▁connected	-12307
Be	-12308
▁Romania	-12309
▁processing	-12310
▁Bah	-12311
▁Dinge	-12312
▁Agricult	-12313
nehm	-12314
gliche	-12315
▁photos	-12316
▁era	-12317
▁abroad	-12318
▁publish	-12319
▁posted	-12320
যে	-12321
▁bann	-12322
▁looks	-12323
zeuge	-12324
▁privile	-12325
▁আবি	-12326
▁পার্থ	-12327
▁captain	-12328
▁Freiheit	-12329
▁approxim	-12330
othe	-12331
িসের	-12332
▁Verkehrs	-12333
▁стра	-12334
▁detailed	-12335
▁দলে	-12336
▁comun	-12337
▁rând	-12338
▁bestimmten	-12339
▁অতএব	-12340
িকারিক	-12341
▁Fam	-12342
▁інформа	-12343
▁Vertrags	-12344
▁DVD	-12345
▁জিত	-12346
▁asc	-12347
শিল্প	-12348
▁closer	-12349
িদের	-12350
DA	-12351
▁zahlreiche	-12352
ডেম	-12353
ায়ার	-12354
▁বিস্ফ	-12355
рії	-12356
greifen	-12357
▁clients	-12358
▁helping	-12359
▁stattf	-12360
▁supports	-12361
▁risks	-12362
▁causes	-12363
▁চিহ্নিত	-12364
lined	-12365
▁probleme	-12366
▁obwohl	-12367
াতায়	-12368
akter	-12369
▁Те	-12370
▁নামের	-12371
▁map	-12372
▁repeated	-12373
▁Spa	-12374
▁seat	-12375
▁Jahrhundert	-12376
vements	-12377
▁৫০	-12378
▁Like	-12379
▁nearby	-12380
▁evil	-12381
▁চট্ট	-12382
atul	-12383
тання	-12384
ashion	-12385
▁Italien	-12386
েড	-12387
▁জমি	-12388
▁Despite	-12389
▁আদি	-12390
▁মোদীর	-12391
pping	-12392
▁flight	-12393
▁আধ্যাত্মিক	-12394
▁entwickeln	-12395
▁Folgen	-12396
▁fant	-12397
▁parking	-12398
jo	-12399
▁যেহেতু	-12400
▁southern	-12401
▁фай	-12402
lassen	-12403
▁সচেতন	-12404
▁killing	-12405
▁বুদ্ধ	-12406
▁বিস্ফোর	-12407
▁Washington	-12408
▁northern	-12409
rog	-12410
▁орга	-12411
▁завжди	-12412
▁unemployment	-12413
▁প্রযোজ	-12414
▁Вам	-12415
▁দোক	-12416
reten	-12417
▁Schen	-12418
▁অগ্রগ	-12419
▁White	-12420
▁cerem	-12421
▁multiple	-12422
্মু	-12423
▁fixed	-12424
▁woll	-12425
ুয়া	-12426
▁competitive	-12427
▁skin	-12428
▁Former	-12429
▁Ol	-12430
itage	-12431
▁খোঁজ	-12432
▁manufactur	-12433
▁Fortschritte	-12434
▁Before	-12435
wurf	-12436
▁comis	-12437
▁Aktivitäten	-12438
▁interview	-12439
▁অধ্যাপ	-12440
বেগ	-12441
▁Madrid	-12442
▁সক্রিয়	-12443
▁অমিত	-12444
Office	-12445
▁erhält	-12446
ipe	-12447
▁protected	-12448
ially	-12449
▁tack	-12450
▁Ress	-12451
wes	-12452
▁তত	-12453
▁অর্থাৎ	-12454
ধারিত	-12455
▁journey	-12456
▁প্রয়োগ	-12457
ähl	-12458
▁Ay	-12459
▁dedicated	-12460
▁neuer	-12461
▁Photo	-12462
▁ven	-12463
legenheiten	-12464
▁parlament	-12465
▁thats	-12466
▁acts	-12467
▁উঠেছে	-12468
▁Defence	-12469
▁400	-12470
▁দখ	-12471
▁differences	-12472
▁খতিয়ে	-12473
▁scheint	-12474
▁খেলে	-12475
▁মসজিদ	-12476
▁প্রতিক্রিয়া	-12477
▁tragen	-12478
▁welcom	-12479
▁আধিকারিক	-12480
▁Academy	-12481
rieden	-12482
▁owners	-12483
▁Systems	-12484
▁divided	-12485
▁determined	-12486
▁বছরে	-12487
▁priorities	-12488
▁Naz	-12489
▁সম্পন্ন	-12490
▁muncă	-12491
ez	-12492
▁পরের	-12493
▁নিষে	-12494
▁entde	-12495
▁Bon	-12496
▁networks	-12497
▁Tuesday	-12498
্রয়	-12499
▁অবিশ	-12500
rating	-12501
▁definit	-12502
шої	-12503
▁imper	-12504
▁кі	-12505
▁після	-12506
▁Winter	-12507
schnitt	-12508
পক্ষে	-12509
▁sagte	-12510
▁Dim	-12511
▁বৈঠক	-12512
▁প্রতিরোধ	-12513
▁isol	-12514
ächt	-12515
iy	-12516
▁linked	-12517
apter	-12518
সংঘ	-12519
▁Albania	-12520
▁যীশু	-12521
▁kitchen	-12522
gesellschaft	-12523
▁দৃশ্য	-12524
▁নভেম্বর	-12525
▁(200	-12526
ming	-12527
▁চ্যাম্প	-12528
▁মাসের	-12529
▁Hence	-12530
▁দপ্ত	-12531
▁বেঁচে	-12532
▁famili	-12533
▁erweit	-12534
▁außerdem	-12535
▁membership	-12536
▁само	-12537
▁trip	-12538
▁একেবারে	-12539
▁versuchen	-12540
кс	-12541
kennt	-12542
▁Press	-12543
▁faced	-12544
▁মহাস	-12545
▁allein	-12546
▁bilateral	-12547
▁gewor	-12548
▁Ш	-12549
▁Dezember	-12550
▁fourth	-12551
Pl	-12552
▁ফর	-12553
riert	-12554
▁unterst	-12555
▁changing	-12556
▁সেল	-12557
▁resur	-12558
▁Foundation	-12559
▁হায়	-12560
▁proc	-12561
▁easier	-12562
terne	-12563
▁specifically	-12564
▁স্বীক	-12565
▁টেলিভ	-12566
volle	-12567
DI	-12568
▁тре	-12569
▁ähn	-12570
▁দুর্ব	-12571
▁chosen	-12572
▁Would	-12573
inations	-12574
বাইল	-12575
▁bestät	-12576
চাল	-12577
▁Ukrainian	-12578
▁Bestimmungen	-12579
ডিও	-12580
▁নয়াদিল্লি	-12581
▁Dre	-12582
▁solchen	-12583
টিল	-12584
ব্ধ	-12585
▁difficulties	-12586
▁অক্টোবর	-12587
▁Fort	-12588
▁memory	-12589
unge	-12590
▁revolution	-12591
▁ech	-12592
▁dischar	-12593
▁Stelle	-12594
▁surface	-12595
agram	-12596
▁Action	-12597
▁Poland	-12598
iler	-12599
ION	-12600
▁dadurch	-12601
জাতি	-12602
▁Lanka	-12603
▁Main	-12604
▁Preise	-12605
14	-12606
Fraktion	-12607
▁id	-12608
nungs	-12609
uern	-12610
▁Gefahr	-12611
▁erster	-12612
entlichkeit	-12613
▁sup	-12614
andel	-12615
▁gemäß	-12616
ঞ্চল	-12617
▁effizient	-12618
▁laid	-12619
▁আশঙ্কা	-12620
▁decades	-12621
▁consideration	-12622
▁baby	-12623
▁চরিত্রে	-12624
▁Rober	-12625
▁ন্যায়	-12626
▁Japanese	-12627
Ми	-12628
lause	-12629
▁format	-12630
হ্য	-12631
iza	-12632
▁প্রার্থী	-12633
▁Asian	-12634
18	-12635
▁দিল্লির	-12636
▁оста	-12637
▁ইঞ্জ	-12638
আমাদের	-12639
▁zweiten	-12640
▁learned	-12641
▁মোবাইল	-12642
▁Cricket	-12643
▁festival	-12644
olu	-12645
▁সাক্ষাৎ	-12646
pack	-12647
tele	-12648
▁attitude	-12649
▁eleg	-12650
▁শয়	-12651
▁occurred	-12652
▁Koh	-12653
▁আওয়	-12654
called	-12655
▁keeping	-12656
▁recognition	-12657
▁সমান	-12658
্টর	-12659
্বল	-12660
kont	-12661
▁stations	-12662
▁electricity	-12663
ützt	-12664
▁amerikan	-12665
▁entertain	-12666
5%	-12667
▁Gruppen	-12668
▁guidelines	-12669
jee	-12670
oes	-12671
▁sta	-12672
well	-12673
▁französ	-12674
▁ব্যয়	-12675
▁dan	-12676
▁sole	-12677
schieden	-12678
▁vul	-12679
▁Medien	-12680
oker	-12681
▁entit	-12682
знача	-12683
▁Flor	-12684
▁nied	-12685
▁remaining	-12686
rem	-12687
▁Uttar	-12688
▁Stunden	-12689
▁Las	-12690
▁Standpunkt	-12691
▁spl	-12692
▁কের	-12693
iker	-12694
ski	-12695
▁phase	-12696
▁Czech	-12697
▁accur	-12698
▁Environment	-12699
▁erheb	-12700
icks	-12701
▁ministers	-12702
▁insgesamt	-12703
icken	-12704
▁cohesion	-12705
▁charged	-12706
▁einzige	-12707
▁ভ্রম	-12708
ньо	-12709
merksamkeit	-12710
legung	-12711
▁spoken	-12712
▁Mem	-12713
▁সকলের	-12714
পণ	-12715
▁extensive	-12716
▁fisc	-12717
вою	-12718
▁scope	-12719
▁যেকোন	-12720
▁showed	-12721
lose	-12722
▁wishes	-12723
লেক	-12724
orary	-12725
▁distin	-12726
▁surprised	-12727
▁sovere	-12728
▁Ты	-12729
▁wund	-12730
▁unless	-12731
ategorien	-12732
гти	-12733
▁হঠ	-12734
▁চির	-12735
▁abst	-12736
▁জেনে	-12737
rin	-12738
▁Ast	-12739
▁তোলা	-12740
▁Kur	-12741
ন্দি	-12742
▁sistem	-12743
▁Sommer	-12744
▁Without	-12745
▁erfolgreich	-12746
▁Maharashtra	-12747
angt	-12748
▁ল্যা	-12749
▁Zealand	-12750
▁Aufmerksamkeit	-12751
▁refused	-12752
iete	-12753
▁হাইক	-12754
▁সৌদি	-12755
▁উন্নত	-12756
▁millions	-12757
right	-12758
нг	-12759
indruck	-12760
▁বিস্তারিত	-12761
▁সম্পর্কিত	-12762
▁২৮	-12763
▁দূরে	-12764
গ্রী	-12765
▁delivery	-12766
▁vergangenen	-12767
eless	-12768
möglichkeiten	-12769
▁ভোগ	-12770
stehen	-12771
▁acting	-12772
টেড	-12773
▁semn	-12774
সুম	-12775
▁Erklärung	-12776
▁Ro	-12777
▁suitable	-12778
দেরকে	-12779
//	-12780
▁colour	-12781
▁humans	-12782
▁বিষয়ক	-12783
umen	-12784
▁positions	-12785
▁datab	-12786
▁Due	-12787
▁এরকম	-12788
▁прави	-12789
▁Punkte	-12790
▁massive	-12791
▁statements	-12792
вали	-12793
▁influen	-12794
▁Engine	-12795
lichkeiten	-12796
▁stable	-12797
▁alten	-12798
ennung	-12799
reibung	-12800
aria	-12801
▁approval	-12802
ভাষ	-12803
▁Benutzer	-12804
▁modified	-12805
▁Band	-12806
▁Saturday	-12807
▁CBI	-12808
▁Express	-12809
ুয়ে	-12810
▁schließlich	-12811
▁Script	-12812
সাম	-12813
chedul	-12814
▁finance	-12815
▁insurance	-12816
▁promise	-12817
▁কমিটির	-12818
▁দৃষ্ট	-12819
▁Nieder	-12820
ürf	-12821
ausschuss	-12822
▁নির্মিত	-12823
▁Entscheidungen	-12824
্যাণ	-12825
mand	-12826
▁রাই	-12827
▁master	-12828
лен	-12829
▁Polit	-12830
▁সবাইকে	-12831
▁আফগানিস্ত	-12832
sprüng	-12833
োমিটার	-12834
▁সেপ্টেম্বর	-12835
▁underway	-12836
▁device	-12837
▁stands	-12838
▁ভর	-12839
▁190	-12840
▁Division	-12841
▁পৌল	-12842
▁worse	-12843
▁বৈশিষ্ট	-12844
igungen	-12845
kind	-12846
▁introduction	-12847
▁homes	-12848
▁aufgenommen	-12849
▁listed	-12850
▁পরিচর	-12851
▁Aceast	-12852
▁Michael	-12853
wart	-12854
ামত	-12855
логі	-12856
▁তাপ	-12857
▁ри	-12858
▁তত্ত্ব	-12859
▁Basis	-12860
urb	-12861
জির	-12862
▁labor	-12863
▁প্রতিবেদন	-12864
▁আগস্ট	-12865
▁coal	-12866
▁ended	-12867
▁চিন্ত	-12868
▁satell	-12869
▁জাহাজ	-12870
▁চৌধুরী	-12871
▁educational	-12872
গম	-12873
▁Brü	-12874
▁leben	-12875
▁Barro	-12876
▁সীমা	-12877
▁concrete	-12878
্যাকা	-12879
▁Ministers	-12880
коно	-12881
▁association	-12882
রির	-12883
▁März	-12884
▁শ্রীল	-12885
▁patient	-12886
▁einschließlich	-12887
▁Berichts	-12888
▁11.	-12889
bus	-12890
▁ged	-12891
▁দাব	-12892
▁gun	-12893
▁regularly	-12894
▁হক	-12895
ighteous	-12896
▁fond	-12897
▁Angel	-12898
▁neues	-12899
▁confer	-12900
ternal	-12901
falt	-12902
▁effe	-12903
▁গোষ্ঠ	-12904
াতের	-12905
▁sudden	-12906
üssel	-12907
▁crimes	-12908
▁kl	-12909
▁institu	-12910
▁Bundes	-12911
োনাল্ড	-12912
▁vorher	-12913
ämt	-12914
▁শীঘ্র	-12915
▁কাট	-12916
▁fă	-12917
▁prosper	-12918
হু	-12919
▁যথ	-12920
▁কথায়	-12921
ologien	-12922
▁acestui	-12923
▁আওয়ামী	-12924
idden	-12925
▁genießen	-12926
▁পিতা	-12927
ху	-12928
▁Emp	-12929
bewertungen	-12930
▁manage	-12931
▁coff	-12932
▁trees	-12933
শার	-12934
▁Roma	-12935
▁scale	-12936
▁Bildung	-12937
▁শ্রেষ্ঠ	-12938
▁fel	-12939
িনার	-12940
▁আন্ত	-12941
▁defined	-12942
accept	-12943
era	-12944
▁উপাদ	-12945
▁instruct	-12946
্কৃতিক	-12947
▁Say	-12948
▁Oktober	-12949
▁jüng	-12950
16	-12951
▁punct	-12952
তিক্রম	-12953
▁প্রশ্নের	-12954
van	-12955
igation	-12956
▁Agency	-12957
▁vertreten	-12958
17	-12959
hus	-12960
atre	-12961
▁більш	-12962
▁Belarus	-12963
▁municip	-12964
▁Prü	-12965
haupt	-12966
jan	-12967
▁তদন্তের	-12968
▁songs	-12969
▁remove	-12970
▁চলতে	-12971
▁store	-12972
▁gross	-12973
pan	-12974
▁addressed	-12975
geschlossen	-12976
▁pure	-12977
iţi	-12978
iability	-12979
▁background	-12980
alte	-12981
▁চীন	-12982
▁Prä	-12983
▁older	-12984
▁цьому	-12985
▁অব্যাহত	-12986
▁confident	-12987
▁nav	-12988
▁Auto	-12989
▁konzent	-12990
▁জার্মান	-12991
As	-12992
▁danger	-12993
▁fert	-12994
▁Schweiz	-12995
▁chairman	-12996
ূত	-12997
▁খেলার	-12998
▁intend	-12999
▁Pad	-13000
▁স্থায়ী	-13001
▁Beschäftigung	-13002
Te	-13003
▁allegations	-13004
▁Ky	-13005
▁Anforderungen	-13006
▁Geh	-13007
▁প্রতিষ্ঠিত	-13008
▁enterprises	-13009
▁Küche	-13010
▁acesta	-13011
▁Unfortunately	-13012
্বিক	-13013
“,	-13014
▁penal	-13015
▁scene	-13016
▁keiner	-13017
▁চ্যালেঞ্জ	-13018
дів	-13019
▁Trade	-13020
inar	-13021
▁ইব্র	-13022
front	-13023
▁২৬	-13024
ivă	-13025
▁stone	-13026
▁че	-13027
▁ajut	-13028
anlage	-13029
park	-13030
▁las	-13031
▁Street	-13032
▁race	-13033
räfte	-13034
ford	-13035
▁breat	-13036
tty	-13037
▁delight	-13038
▁Flughafen	-13039
▁মিডিয়া	-13040
onym	-13041
▁একসঙ্গে	-13042
▁isnt	-13043
▁receiving	-13044
▁automatically	-13045
▁purchase	-13046
▁নিয়ন্ত্রণে	-13047
iny	-13048
cribe	-13049
্যান্স	-13050
▁Aw	-13051
▁অ্যাস	-13052
▁Tamil	-13053
▁dispos	-13054
▁পরবর্ত	-13055
▁মেডিকেল	-13056
▁marketing	-13057
▁totally	-13058
▁পরিবর্তে	-13059
▁assessment	-13060
нта	-13061
▁পড়তে	-13062
▁exception	-13063
▁eventually	-13064
gien	-13065
▁morgen	-13066
wareness	-13067
länd	-13068
▁List	-13069
▁Abend	-13070
▁মানসিক	-13071
▁Regional	-13072
▁Öffentlichkeit	-13073
salm	-13074
▁seeing	-13075
▁শোন	-13076
▁চারটি	-13077
▁tä	-13078
ার্	-13079
্প্র	-13080
▁Aller	-13081
▁philosoph	-13082
▁ময়	-13083
altet	-13084
▁Gott	-13085
▁Schengen	-13086
▁ডাক্ত	-13087
▁বিপক্ষে	-13088
মান্ড	-13089
তী	-13090
▁Städ	-13091
▁এদিকে	-13092
▁Vorschriften	-13093
▁figures	-13094
zintă	-13095
ozi	-13096
▁ভাঙ	-13097
▁Ost	-13098
▁Code	-13099
▁George	-13100
rance	-13101
oms	-13102
▁থাম	-13103
▁ডলার	-13104
▁বাচ্চ	-13105
▁betroffen	-13106
▁কাউন্স	-13107
▁beschäft	-13108
▁dealing	-13109
▁Hoss	-13110
▁mi	-13111
▁পারেননি	-13112
▁ষ	-13113
rächt	-13114
uing	-13115
▁swimming	-13116
▁ক্রিকেটার	-13117
▁Stär	-13118
▁viz	-13119
▁স্টেশন	-13120
▁größten	-13121
▁arms	-13122
▁toward	-13123
▁সঙ্গীত	-13124
ham	-13125
▁larg	-13126
▁ঐতিহাস	-13127
oder	-13128
▁toler	-13129
icious	-13130
▁হেল	-13131
▁Pakistani	-13132
▁division	-13133
▁свою	-13134
▁prove	-13135
▁অনুপ্র	-13136
▁advance	-13137
iences	-13138
▁tests	-13139
▁BiH	-13140
▁apartments	-13141
rogen	-13142
▁Sor	-13143
ETimes	-13144
▁streets	-13145
টিভ	-13146
▁Secondly	-13147
▁কিশোর	-13148
▁temperature	-13149
▁Landwirtschaft	-13150
▁Gip	-13151
isely	-13152
▁geschlossen	-13153
▁vedere	-13154
▁Grenzen	-13155
cheiden	-13156
oden	-13157
▁argument	-13158
▁হ্র	-13159
▁রক্ষ	-13160
ণ্ডের	-13161
▁ফিরিয়ে	-13162
▁Erzeug	-13163
▁successfully	-13164
стро	-13165
বাচক	-13166
▁Gesundheits	-13167
▁মজ	-13168
▁লেখক	-13169
তেও	-13170
▁square	-13171
▁মহিল	-13172
▁client	-13173
▁Bereiche	-13174
▁photograph	-13175
500	-13176
ierende	-13177
ște	-13178
▁considerable	-13179
▁Control	-13180
▁eigentlich	-13181
▁Transparenz	-13182
▁চাকরি	-13183
▁অন্যদিকে	-13184
▁ঘোষ	-13185
▁rare	-13186
▁চালক	-13187
▁begins	-13188
▁বেরিয়ে	-13189
▁leisten	-13190
ader	-13191
াদার	-13192
▁hil	-13193
▁aband	-13194
▁colla	-13195
▁perspective	-13196
▁বঙ্গ	-13197
উন্ট	-13198
▁blue	-13199
▁ordered	-13200
▁অভিযোগে	-13201
▁4,	-13202
oarea	-13203
▁ändern	-13204
▁erwarten	-13205
▁1998	-13206
▁weather	-13207
▁cancer	-13208
kosten	-13209
▁häufig	-13210
▁konnten	-13211
▁leider	-13212
▁допомогою	-13213
▁8.	-13214
▁মাথায়	-13215
▁structural	-13216
esterday	-13217
▁dispute	-13218
▁standing	-13219
▁developments	-13220
▁Ged	-13221
জন্ম	-13222
▁সান	-13223
▁teacher	-13224
▁promoting	-13225
▁eingesetzt	-13226
▁Kohli	-13227
িমি	-13228
▁SP	-13229
▁Indones	-13230
▁লাখ	-13231
▁poet	-13232
доро	-13233
▁সিস্ট	-13234
▁convin	-13235
নো	-13236
▁cool	-13237
ühungen	-13238
▁cetăţ	-13239
zusch	-13240
▁regel	-13241
▁নির্বাচনের	-13242
▁সংখ	-13243
▁প্রিয়	-13244
▁protests	-13245
▁emissions	-13246
▁Abs	-13247
▁Villa	-13248
সমা	-13249
▁afford	-13250
▁ওকে	-13251
verse	-13252
inth	-13253
▁গৌ	-13254
▁upazila	-13255
ент	-13256
pricht	-13257
▁অবিশ্বাস	-13258
ounter	-13259
▁হাসান	-13260
▁Auftrag	-13261
▁prayer	-13262
▁সেটাই	-13263
▁Journal	-13264
gründ	-13265
If	-13266
▁ос	-13267
▁dete	-13268
▁Donald	-13269
▁previously	-13270
▁নির্ম	-13271
▁fill	-13272
▁পুনরায়	-13273
ери	-13274
▁teaching	-13275
HO	-13276
▁গড়	-13277
▁illust	-13278
▁ব্যবসা	-13279
াদু	-13280
чний	-13281
▁Ven	-13282
▁Чи	-13283
▁উন্নতি	-13284
▁দুর্ঘটনা	-13285
▁সিংহ	-13286
▁Ansatz	-13287
▁নিযুক্ত	-13288
://	-13289
ilfen	-13290
▁Latin	-13291
▁taste	-13292
utch	-13293
▁চলবে	-13294
▁Anfrage	-13295
▁wesentlich	-13296
віт	-13297
▁Ext	-13298
▁bedroom	-13299
▁ski	-13300
▁Hossain	-13301
▁Forschungs	-13302
গারে	-13303
▁Nepal	-13304
▁examination	-13305
▁complic	-13306
▁তৃণ	-13307
▁Swiss	-13308
▁পড়েন	-13309
▁২০১৯	-13310
änz	-13311
ado	-13312
unternehmen	-13313
▁Arbeitnehmer	-13314
▁স্কুলে	-13315
িত্য	-13316
oa	-13317
▁দুটো	-13318
▁বাস্তব	-13319
▁factors	-13320
▁terrorist	-13321
ifik	-13322
▁অভিষ	-13323
▁wenige	-13324
▁peoples	-13325
itzerland	-13326
রেজ	-13327
ержа	-13328
▁handed	-13329
▁geworden	-13330
▁Präsidenten	-13331
▁BNP	-13332
ţial	-13333
▁Sir	-13334
▁inclus	-13335
▁orders	-13336
▁obser	-13337
▁Nationen	-13338
▁existence	-13339
bei	-13340
▁প্রায়ই	-13341
▁zuk	-13342
▁অনি	-13343
▁paragraph	-13344
▁Ere	-13345
rowd	-13346
▁শোক	-13347
estens	-13348
▁Diskussion	-13349
▁figure	-13350
▁компані	-13351
öffnet	-13352
▁Regul	-13353
পদ	-13354
’।	-13355
▁begun	-13356
▁Champions	-13357
▁courage	-13358
▁bringing	-13359
▁রাজি	-13360
▁ফাইন	-13361
▁Hard	-13362
▁durchgeführt	-13363
▁assum	-13364
▁отрима	-13365
▁আওতায়	-13366
▁carefully	-13367
▁Bor	-13368
▁আসামি	-13369
▁সবকিছু	-13370
▁htt	-13371
geber	-13372
▁Administ	-13373
▁ভিত	-13374
ierter	-13375
▁অর্থনীতি	-13376
▁відкри	-13377
azz	-13378
quarters	-13379
▁ইত্যাদি	-13380
PT	-13381
▁verm	-13382
▁যাকে	-13383
▁kor	-13384
▁feet	-13385
▁aims	-13386
▁বিহার	-13387
▁academ	-13388
aufen	-13389
▁উদ্দেশ্যে	-13390
▁অ্যাড	-13391
oured	-13392
▁гру	-13393
▁Empfeh	-13394
▁guide	-13395
▁ehe	-13396
▁Investitionen	-13397
гом	-13398
akers	-13399
▁resort	-13400
▁প্রভু	-13401
▁translation	-13402
ammed	-13403
▁glad	-13404
zwe	-13405
freund	-13406
▁Somet	-13407
▁wall	-13408
обхід	-13409
▁advanced	-13410
RA	-13411
▁লিখিত	-13412
▁excess	-13413
▁মড	-13414
▁অধি	-13415
▁drawn	-13416
▁unmittel	-13417
isms	-13418
▁nobody	-13419
▁glass	-13420
▁chemical	-13421
▁Everything	-13422
▁Vorauss	-13423
▁caught	-13424
▁berühm	-13425
orient	-13426
▁genommen	-13427
▁можливо	-13428
▁smart	-13429
▁তারিখ	-13430
▁অভাব	-13431
▁institutional	-13432
ників	-13433
▁টাকার	-13434
тати	-13435
▁সাংস্কৃতিক	-13436
eine	-13437
▁লন্ড	-13438
▁Firma	-13439
▁fuel	-13440
▁fallen	-13441
▁cos	-13442
▁Sinne	-13443
▁benötigen	-13444
emic	-13445
usalem	-13446
▁prepare	-13447
▁identify	-13448
োপুরি	-13449
What	-13450
▁Änd	-13451
▁vorgesehen	-13452
বীর	-13453
▁২০২০	-13454
▁Januar	-13455
োড	-13456
▁Lim	-13457
▁natur	-13458
ibet	-13459
▁Khal	-13460
ittag	-13461
▁Britain	-13462
▁Soviet	-13463
▁Schwier	-13464
▁তাক	-13465
▁AK	-13466
ussels	-13467
▁Staat	-13468
▁suchen	-13469
And	-13470
abe	-13471
িতায়	-13472
iano	-13473
▁vă	-13474
▁appoint	-13475
▁guard	-13476
rd	-13477
▁careful	-13478
▁sand	-13479
▁দারুণ	-13480
▁Squ	-13481
▁Vill	-13482
▁scheme	-13483
▁brings	-13484
▁Bhar	-13485
▁Charl	-13486
чина	-13487
▁অসুস্থ	-13488
▁পল	-13489
forderung	-13490
▁Nr	-13491
orgung	-13492
ieht	-13493
▁পৌর	-13494
▁Gründen	-13495
▁aktuellen	-13496
Gen	-13497
ওয়াল	-13498
▁höher	-13499
▁інших	-13500
icking	-13501
▁তরফে	-13502
liegen	-13503
▁Neu	-13504
দ্দিন	-13505
▁signal	-13506
াউন	-13507
▁convention	-13508
▁freund	-13509
▁ইস্রা	-13510
দৃ	-13511
▁জেরে	-13512
letzt	-13513
▁fără	-13514
▁Untersuch	-13515
▁তুলনায়	-13516
▁পিছনে	-13517
▁Show	-13518
▁গ্রামে	-13519
reb	-13520
▁ihres	-13521
▁Gujarat	-13522
▁europäischer	-13523
▁ব্যবস্থাপ	-13524
▁performed	-13525
▁angesichts	-13526
▁awarded	-13527
্ৰ	-13528
▁সংস্থার	-13529
▁নিখ	-13530
▁যোহন	-13531
▁Ta	-13532
ţele	-13533
▁Mel	-13534
▁কাউন্সিল	-13535
▁শারীর	-13536
▁proved	-13537
▁deaths	-13538
▁atât	-13539
▁storage	-13540
▁পুরোপুরি	-13541
▁Dle	-13542
ilden	-13543
▁জনগণের	-13544
lo	-13545
▁Which	-13546
▁জম্মু	-13547
стрі	-13548
▁brow	-13549
ummer	-13550
▁ফলাফল	-13551
drücklich	-13552
▁দম	-13553
▁avea	-13554
▁wichtiger	-13555
▁Liberal	-13556
▁kannst	-13557
▁amaz	-13558
▁জানুয়ারি	-13559
ighten	-13560
▁Vorsitz	-13561
▁resolve	-13562
▁প্রে	-13563
▁Nad	-13564
▁withdraw	-13565
▁আনু	-13566
্যাপী	-13567
ড়ের	-13568
▁wider	-13569
▁stories	-13570
▁সংস্কার	-13571
▁tree	-13572
▁ওয়েবস	-13573
▁kennen	-13574
▁depos	-13575
▁multi	-13576
▁স্বাক্ষ	-13577
▁поба	-13578
▁Deep	-13579
iam	-13580
▁kids	-13581
▁সাড়া	-13582
zip	-13583
LE	-13584
▁weder	-13585
▁মনোযোগ	-13586
▁নিজস্ব	-13587
hy	-13588
IG	-13589
▁household	-13590
▁সমন্ব	-13591
▁bezüglich	-13592
্কার	-13593
▁holding	-13594
▁рів	-13595
▁intel	-13596
▁invited	-13597
▁Bot	-13598
▁metres	-13599
▁straight	-13600
শেষে	-13601
нення	-13602
িনে	-13603
▁beauty	-13604
▁zeit	-13605
].	-13606
▁Imp	-13607
▁devices	-13608
▁Projekte	-13609
asp	-13610
▁Ord	-13611
▁Sache	-13612
▁Altern	-13613
col	-13614
▁অফিসার	-13615
▁sinn	-13616
রূপে	-13617
жно	-13618
▁36	-13619
▁Auffassung	-13620
▁yesterday	-13621
▁shop	-13622
▁leads	-13623
▁novel	-13624
▁sought	-13625
িকের	-13626
inding	-13627
▁অধ্যাপক	-13628
▁মর্	-13629
▁Rede	-13630
▁error	-13631
▁öffentliche	-13632
▁mail	-13633
▁повин	-13634
▁Brussels	-13635
riebs	-13636
enschaften	-13637
▁ursprüng	-13638
▁Aufenthalt	-13639
▁structures	-13640
▁ইন্দ	-13641
▁সাম্প্র	-13642
▁male	-13643
▁Meine	-13644
ুধ	-13645
▁Nacht	-13646
▁inaug	-13647
▁Instrument	-13648
▁Royal	-13649
িরা	-13650
▁compr	-13651
▁Kennt	-13652
▁উপযুক্ত	-13653
ইংরেজি	-13654
rast	-13655
গী	-13656
▁চতু	-13657
▁Download	-13658
উল	-13659
▁রঙ	-13660
uting	-13661
System	-13662
▁কর্মসূচ	-13663
▁আইস	-13664
▁তারিখে	-13665
▁Rand	-13666
▁represented	-13667
}}	-13668
▁মনোভাব	-13669
▁telephone	-13670
▁Jac	-13671
▁পাপ	-13672
mosphäre	-13673
bert	-13674
▁halte	-13675
▁ডা	-13676
▁sonst	-13677
▁Sach	-13678
কারীরা	-13679
▁ethnic	-13680
▁Whe	-13681
▁মের	-13682
▁будуть	-13683
льні	-13684
▁THE	-13685
▁expos	-13686
▁সফর	-13687
▁Ess	-13688
▁literature	-13689
▁Off	-13690
▁Tai	-13691
▁introduce	-13692
▁ruling	-13693
▁মুসলমান	-13694
▁situations	-13695
▁Weiter	-13696
▁প্রকল্পের	-13697
▁swe	-13698
▁Zentral	-13699
ßt	-13700
▁слу	-13701
▁день	-13702
bezogen	-13703
▁detained	-13704
cheduled	-13705
▁Gesamt	-13706
▁bem	-13707
itzen	-13708
▁সংযুক্ত	-13709
endum	-13710
.000	-13711
▁Still	-13712
▁inhab	-13713
▁Zun	-13714
▁conserv	-13715
reit	-13716
▁রাস্তায়	-13717
▁promised	-13718
▁মুদ্র	-13719
inent	-13720
ufe	-13721
▁discover	-13722
stag	-13723
zeichnung	-13724
▁স্নাত	-13725
▁tournament	-13726
▁যন্ত্র	-13727
▁প্রদেশ	-13728
▁delivered	-13729
▁si	-13730
wortern	-13731
▁loved	-13732
iffer	-13733
▁graph	-13734
▁কিলোমিটার	-13735
▁recovery	-13736
ৃঙ্খ	-13737
▁Finance	-13738
бя	-13739
▁অক্ষ	-13740
▁theory	-13741
вір	-13742
ammlung	-13743
▁яко	-13744
▁slight	-13745
▁বিবরণ	-13746
▁Präsidentschaft	-13747
▁coordination	-13748
▁vice	-13749
bie	-13750
▁Civil	-13751
ামে	-13752
▁erneut	-13753
▁eher	-13754
▁judge	-13755
▁політи	-13756
▁Rome	-13757
▁reward	-13758
▁testing	-13759
icted	-13760
▁gefunden	-13761
ঠামো	-13762
▁Card	-13763
▁Nik	-13764
▁Back	-13765
▁sieht	-13766
▁істо	-13767
▁খোলা	-13768
▁Regeln	-13769
▁constantly	-13770
▁units	-13771
▁courses	-13772
▁überprü	-13773
▁пов	-13774
▁opposed	-13775
▁begrüße	-13776
▁Old	-13777
▁sym	-13778
▁organizations	-13779
▁urgent	-13780
▁preserv	-13781
▁diejenigen	-13782
▁পারছি	-13783
▁discrimination	-13784
▁precisely	-13785
▁Tagesordnung	-13786
▁fed	-13787
▁Heute	-13788
▁সিবিআই	-13789
▁bringt	-13790
▁chair	-13791
▁নেয়া	-13792
▁33	-13793
▁Switzerland	-13794
quality	-13795
ărilor	-13796
ünstler	-13797
lantic	-13798
▁awareness	-13799
.""-	-13800
▁там	-13801
▁পরীক্ষার	-13802
▁saved	-13803
▁বাস্তবায়	-13804
▁Gest	-13805
▁carrying	-13806
্রান্ত	-13807
бли	-13808
▁পুনর	-13809
kur	-13810
▁2014	-13811
▁দিচ্ছে	-13812
▁́	-13813
▁isn	-13814
ellten	-13815
▁Ereign	-13816
▁করিয়া	-13817
▁পৃথক	-13818
active	-13819
▁2009,	-13820
▁5,	-13821
▁shif	-13822
▁Innen	-13823
▁২০১৮	-13824
▁Check	-13825
▁он	-13826
▁২৭	-13827
ন্দের	-13828
▁সমুদ্র	-13829
ăț	-13830
▁euros	-13831
▁spending	-13832
SL	-13833
▁Armut	-13834
▁Prop	-13835
▁Jerusalem	-13836
▁Beteil	-13837
▁Prinzip	-13838
▁assembly	-13839
▁entsprechenden	-13840
▁treffen	-13841
▁vulner	-13842
▁widely	-13843
roc	-13844
▁নির্ধারিত	-13845
hnt	-13846
▁answers	-13847
▁lui	-13848
▁Use	-13849
rak	-13850
▁unor	-13851
-4	-13852
▁solve	-13853
▁ausreich	-13854
▁পেয়েছেন	-13855
▁improvement	-13856
▁Ret	-13857
▁roll	-13858
üg	-13859
дов	-13860
richten	-13861
▁conform	-13862
▁mountains	-13863
▁klein	-13864
▁disaster	-13865
▁পাবেন	-13866
এইচ	-13867
▁хочу	-13868
▁যাঁ	-13869
▁Energy	-13870
▁convinced	-13871
▁উপক	-13872
▁সেখানেই	-13873
afte	-13874
▁cash	-13875
নিষ্ঠ	-13876
atalog	-13877
▁কম্পিউ	-13878
▁wissenschaft	-13879
▁putting	-13880
▁вважа	-13881
▁Änderung	-13882
▁beitragen	-13883
▁erh	-13884
folge	-13885
▁accompanied	-13886
▁enhan	-13887
▁showing	-13888
For	-13889
▁ніколи	-13890
▁Food	-13891
▁মঙ্গল	-13892
েও	-13893
vin	-13894
▁ko	-13895
▁Syria	-13896
▁তিনিই	-13897
▁তৎ	-13898
▁allowing	-13899
▁নিয়ন্ত্র	-13900
▁diseases	-13901
▁Bib	-13902
ichert	-13903
টুক	-13904
izin	-13905
্ষিক	-13906
▁части	-13907
▁serving	-13908
GO	-13909
▁যৌথ	-13910
▁troops	-13911
ках	-13912
▁сло	-13913
▁Schn	-13914
▁গবেষণ	-13915
▁ziehen	-13916
▁wickets	-13917
▁humanitarian	-13918
▁Restaurants	-13919
▁Де	-13920
▁mostly	-13921
▁hundreds	-13922
ificate	-13923
▁বেসরকারি	-13924
▁Opt	-13925
scheinlich	-13926
▁ক্রী	-13927
▁চলাচল	-13928
▁coffee	-13929
▁severe	-13930
▁Bemühungen	-13931
▁নির্ধারণ	-13932
দীপ	-13933
▁Din	-13934
▁Agrar	-13935
▁Fällen	-13936
▁সামান্য	-13937
▁আসন	-13938
▁কোম্পানি	-13939
▁Os	-13940
▁Agent	-13941
▁bomb	-13942
▁Linie	-13943
iguration	-13944
▁investigating	-13945
▁Juli	-13946
ান্ত্রিক	-13947
▁financing	-13948
▁approximately	-13949
▁Jack	-13950
▁ла	-13951
▁চরিত্র	-13952
▁фор	-13953
▁ছিলো	-13954
▁category	-13955
▁emergency	-13956
stood	-13957
▁Unterschied	-13958
▁implementing	-13959
▁Vertreter	-13960
▁কাশ্মীর	-13961
▁button	-13962
▁Spezial	-13963
▁Monaten	-13964
▁western	-13965
▁langfrist	-13966
▁les	-13967
▁Rich	-13968
änderungen	-13969
▁minute	-13970
▁shut	-13971
▁expend	-13972
angeb	-13973
▁cards	-13974
▁Aufgaben	-13975
▁Gef	-13976
▁bird	-13977
▁vergessen	-13978
ansion	-13979
oria	-13980
chang	-13981
anna	-13982
▁hinzu	-13983
There	-13984
▁manif	-13985
▁খুল	-13986
▁Völ	-13987
▁2013	-13988
▁Bahn	-13989
achtung	-13990
▁discovered	-13991
সভায়	-13992
▁মিস	-13993
ques	-13994
▁Non	-13995
▁Bedürf	-13996
▁erlaub	-13997
raf	-13998
wesen	-13999
▁Wohl	-14000
▁reducing	-14001
▁primarily	-14002
▁Games	-14003
▁faithful	-14004
kungen	-14005
▁Metro	-14006
▁formal	-14007
▁governance	-14008
ভারত	-14009
▁নগর	-14010
▁rent	-14011
▁Note	-14012
west	-14013
▁früher	-14014
▁domn	-14015
▁তোলার	-14016
rö	-14017
দায়ের	-14018
▁entitled	-14019
bad	-14020
▁Force	-14021
▁CP	-14022
icked	-14023
▁driving	-14024
час	-14025
▁wed	-14026
▁যাও	-14027
▁buget	-14028
They	-14029
▁সরিয়ে	-14030
▁PH	-14031
▁যথা	-14032
▁constituen	-14033
▁politicians	-14034
▁সাফল্য	-14035
▁verhindern	-14036
▁Kn	-14037
iveau	-14038
▁safegu	-14039
▁তবুও	-14040
▁сказав	-14041
▁যিশুর	-14042
িম্প	-14043
yright	-14044
▁models	-14045
▁নির্যা	-14046
вим	-14047
▁industries	-14048
bur	-14049
▁বিক্রি	-14050
দম	-14051
▁fraud	-14052
▁Support	-14053
▁flexible	-14054
▁supposed	-14055
odes	-14056
▁suspended	-14057
▁Bürgern	-14058
▁ausgezeich	-14059
▁অস্ট্রেলিয়া	-14060
▁গতি	-14061
▁arrival	-14062
▁4-	-14063
▁doub	-14064
▁tabled	-14065
▁sâr	-14066
▁acestei	-14067
▁krit	-14068
lectual	-14069
▁genannten	-14070
েশনের	-14071
▁ঐতিহাসিক	-14072
free	-14073
▁getan	-14074
▁continuing	-14075
▁adoption	-14076
▁দৌ	-14077
▁province	-14078
▁Republik	-14079
▁Satan	-14080
▁2009.	-14081
▁citizen	-14082
বেল	-14083
▁ঈমান	-14084
ীতিতে	-14085
▁বাড়ির	-14086
▁outcome	-14087
▁জনগণ	-14088
schutz	-14089
▁milk	-14090
laus	-14091
ünsche	-14092
▁eastern	-14093
When	-14094
▁organized	-14095
ücht	-14096
nungen	-14097
▁পরই	-14098
▁তালিকায়	-14099
▁behandelt	-14100
SA	-14101
▁Gerichts	-14102
arten	-14103
▁hearts	-14104
▁genuine	-14105
▁বিদ্র	-14106
▁এইচ	-14107
▁Beginn	-14108
▁hätten	-14109
▁wont	-14110
arming	-14111
▁দিয়েছি	-14112
▁centuries	-14113
Le	-14114
ooth	-14115
▁থাকি	-14116
▁дозво	-14117
▁Cabinet	-14118
cts	-14119
▁Que	-14120
▁2015	-14121
বুক	-14122
▁Forum	-14123
mel	-14124
otten	-14125
▁articles	-14126
▁১৯৩	-14127
uba	-14128
izien	-14129
িল্যান্ড	-14130
▁Obama	-14131
▁immigration	-14132
▁erfolgt	-14133
agh	-14134
▁বিভাগে	-14135
নিয়া	-14136
▁Barroso	-14137
▁villages	-14138
▁îmb	-14139
NA	-14140
▁recip	-14141
▁präsent	-14142
ronom	-14143
▁Tagen	-14144
▁hell	-14145
▁থানার	-14146
গির	-14147
▁copy	-14148
▁উক্ত	-14149
▁flag	-14150
▁nevoie	-14151
▁Straßen	-14152
▁proof	-14153
▁aftern	-14154
23	-14155
্দি	-14156
▁schol	-14157
▁fiscal	-14158
pen	-14159
▁Nether	-14160
без	-14161
▁anderem	-14162
▁জ্বাল	-14163
▁ন্যাশনাল	-14164
arc	-14165
eda	-14166
▁afl	-14167
zuführen	-14168
র্জ	-14169
▁চট্টগ্রাম	-14170
▁refugees	-14171
▁Bosnia	-14172
▁রোম	-14173
ichern	-14174
▁же	-14175
▁Frankf	-14176
▁taught	-14177
fers	-14178
▁rising	-14179
▁dry	-14180
▁constant	-14181
▁Dann	-14182
aktion	-14183
які	-14184
epend	-14185
▁Family	-14186
▁beant	-14187
▁সম্প্রদায়	-14188
▁artists	-14189
▁sky	-14190
▁Ressourcen	-14191
▁smaller	-14192
▁হো	-14193
▁angen	-14194
▁nimmt	-14195
da	-14196
্যো	-14197
▁Па	-14198
▁increases	-14199
▁kostenlos	-14200
sm	-14201
▁cha	-14202
▁Karn	-14203
▁participants	-14204
ন্দন	-14205
▁Chanc	-14206
▁spokes	-14207
খ্যক	-14208
▁необхід	-14209
▁মোদি	-14210
▁holy	-14211
▁Argent	-14212
▁capable	-14213
ঞ্জাব	-14214
▁Ahm	-14215
▁crowd	-14216
▁গ্রন্থ	-14217
▁আইপি	-14218
▁Folge	-14219
▁Schließ	-14220
▁Wein	-14221
▁২০১৪	-14222
стру	-14223
▁vig	-14224
▁righteous	-14225
▁Privat	-14226
▁reasonable	-14227
onial	-14228
▁গ্রামের	-14229
▁Roy	-14230
▁১০০	-14231
▁শীঘ্রই	-14232
.""	-14233
öße	-14234
▁নদীর	-14235
▁sorry	-14236
▁গতকাল	-14237
▁http	-14238
CD	-14239
▁Это	-14240
▁strike	-14241
▁Children	-14242
▁জার	-14243
ancial	-14244
ellschaften	-14245
▁prod	-14246
▁mac	-14247
▁paar	-14248
▁Click	-14249
rateful	-14250
▁শত্র	-14251
▁ongoing	-14252
▁মাছ	-14253
▁Behandlung	-14254
▁Chairman	-14255
▁রণ	-14256
উই	-14257
äte	-14258
ounded	-14259
відом	-14260
▁perfe	-14261
▁kinds	-14262
:4	-14263
▁তুলতে	-14264
зне	-14265
▁applies	-14266
яви	-14267
allel	-14268
plant	-14269
▁2012	-14270
▁versucht	-14271
▁earn	-14272
▁Wunsch	-14273
▁12.	-14274
▁чому	-14275
▁residence	-14276
Die	-14277
▁পরবর্তীতে	-14278
▁avem	-14279
▁damaged	-14280
▁меня	-14281
ered	-14282
▁obstac	-14283
ুরের	-14284
▁besondere	-14285
▁роби	-14286
▁চাহি	-14287
▁broke	-14288
ecution	-14289
▁starts	-14290
orough	-14291
▁bail	-14292
▁উপভোগ	-14293
▁dl	-14294
iilor	-14295
▁ţări	-14296
стра	-14297
▁representative	-14298
ailand	-14299
▁anywhere	-14300
▁ইন্টারনেট	-14301
শাক	-14302
▁প্রস্তুতি	-14303
▁ভয়ে	-14304
▁সংবিধান	-14305
omas	-14306
enses	-14307
▁Inhalt	-14308
▁explan	-14309
▁drugs	-14310
бут	-14311
▁Gel	-14312
▁valu	-14313
olic	-14314
▁всіх	-14315
▁terri	-14316
▁Kommissions	-14317
▁budgetary	-14318
leistung	-14319
temporary	-14320
▁মহাকা	-14321
▁strengthening	-14322
▁দিবস	-14323
▁বলেছে	-14324
▁মিলিয়ন	-14325
▁Vergangen	-14326
▁Summit	-14327
▁Bürgerinnen	-14328
şti	-14329
frastruktur	-14330
▁নিচে	-14331
▁decre	-14332
▁negoc	-14333
▁Produktions	-14334
▁components	-14335
гли	-14336
zeiten	-14337
▁তামিল	-14338
▁(3	-14339
abilities	-14340
▁Nevertheless	-14341
▁requested	-14342
▁Island	-14343
▁usw	-14344
▁Wall	-14345
চনায়	-14346
▁ইন্ডিয়ান	-14347
▁wild	-14348
▁এড	-14349
▁হর	-14350
▁reb	-14351
0.	-14352
▁exists	-14353
▁উপজেলার	-14354
ylum	-14355
▁exempl	-14356
▁Atmosphäre	-14357
বিধ	-14358
aţiei	-14359
secut	-14360
▁boost	-14361
▁establishing	-14362
hya	-14363
▁চীনের	-14364
cean	-14365
হিতা	-14366
▁cup	-14367
▁Erfahrungen	-14368
▁AP	-14369
▁Prag	-14370
▁Assam	-14371
▁kur	-14372
atures	-14373
obe	-14374
▁prospect	-14375
খানা	-14376
▁Kab	-14377
কালের	-14378
▁Ib	-14379
▁চ্যাম্পিয়ন	-14380
▁calcul	-14381
▁Att	-14382
▁SETimes	-14383
beg	-14384
▁Betrieb	-14385
бира	-14386
▁insist	-14387
▁zunehm	-14388
▁twice	-14389
вя	-14390
▁০	-14391
▁seized	-14392
▁experiences	-14393
▁ফেব্রুয়ারি	-14394
▁nici	-14395
ুতি	-14396
▁জটিল	-14397
▁пе	-14398
▁permission	-14399
▁mart	-14400
▁হঠাৎ	-14401
asthan	-14402
▁kid	-14403
▁überhaupt	-14404
▁exclusive	-14405
কু	-14406
kret	-14407
▁angaj	-14408
▁ঐতিহ্য	-14409
▁unbed	-14410
▁pleasure	-14411
wä	-14412
▁অ্যাকা	-14413
▁centres	-14414
ায়া	-14415
▁zehn	-14416
▁48	-14417
achs	-14418
лася	-14419
▁জোট	-14420
▁sechs	-14421
ete	-14422
▁২০১১	-14423
▁cust	-14424
aling	-14425
making	-14426
ultural	-14427
äher	-14428
▁пред	-14429
alyse	-14430
▁günst	-14431
▁পরাজ	-14432
▁তিনজন	-14433
altungen	-14434
▁disappe	-14435
▁consists	-14436
мент	-14437
▁জখ	-14438
▁cau	-14439
▁struggle	-14440
▁>	-14441
▁•	-14442
▁ময়নাতদন্তের	-14443
▁determine	-14444
▁exhibition	-14445
▁participated	-14446
lu	-14447
▁বেল	-14448
24	-14449
▁truck	-14450
▁গ্রী	-14451
oted	-14452
▁evident	-14453
▁finished	-14454
▁),	-14455
▁বিকা	-14456
▁pretty	-14457
tenance	-14458
▁Natürlich	-14459
▁Netherlands	-14460
▁ঋণ	-14461
▁বেশী	-14462
log	-14463
icip	-14464
ворю	-14465
▁erklärt	-14466
▁criticism	-14467
▁bine	-14468
▁honest	-14469
▁প্রতিষ্ঠা	-14470
▁মথি	-14471
enhagen	-14472
▁warum	-14473
▁surrounding	-14474
▁নিজেই	-14475
▁fans	-14476
▁gram	-14477
▁Salman	-14478
গল	-14479
zentrum	-14480
▁fisheries	-14481
▁zahlreichen	-14482
elten	-14483
▁ব্যবহারের	-14484
মূ	-14485
▁).	-14486
rene	-14487
▁trag	-14488
▁expensive	-14489
fa	-14490
azu	-14491
On	-14492
▁Conf	-14493
▁ordin	-14494
▁presidency	-14495
▁berücksichtigt	-14496
▁প্রান্ত	-14497
কেরা	-14498
▁fordern	-14499
▁সংযোগ	-14500
▁চাম	-14501
চিত্রে	-14502
▁involvement	-14503
▁Herz	-14504
ছাত্রী	-14505
▁afternoon	-14506
▁script	-14507
▁decis	-14508
▁সম্মেলনে	-14509
▁bald	-14510
ার্ড	-14511
▁Society	-14512
▁Po	-14513
ennis	-14514
▁সম্প্রদায়ের	-14515
чого	-14516
স্তি	-14517
▁році	-14518
▁швид	-14519
▁messages	-14520
leiche	-14521
iversary	-14522
▁Hong	-14523
alleng	-14524
▁mensch	-14525
App	-14526
icol	-14527
▁Option	-14528
▁Orig	-14529
▁betreff	-14530
িংস	-14531
▁Corporation	-14532
▁টে	-14533
▁৪০	-14534
▁welfare	-14535
▁intention	-14536
ষ্ট্রে	-14537
▁offiz	-14538
atterin	-14539
▁installed	-14540
xts	-14541
▁পের	-14542
▁răsp	-14543
▁স্বপ্ন	-14544
▁gewesen	-14545
▁schl	-14546
▁elder	-14547
▁entsprechend	-14548
▁advoc	-14549
▁দেখার	-14550
ji	-14551
▁gerecht	-14552
▁еле	-14553
▁sämt	-14554
▁Verteid	-14555
▁Män	-14556
▁sugar	-14557
fi	-14558
▁প্রদর্শ	-14559
▁Lassen	-14560
клю	-14561
▁ম্যাক	-14562
bek	-14563
hemat	-14564
нку	-14565
শুর	-14566
▁consumption	-14567
▁সদস্যদের	-14568
▁আদালতের	-14569
олові	-14570
▁hy	-14571
গতের	-14572
▁trading	-14573
▁AD	-14574
izienz	-14575
QL	-14576
▁মম	-14577
▁contrary	-14578
প্লে	-14579
▁Five	-14580
▁সাংসদ	-14581
▁erfüllen	-14582
▁sinc	-14583
▁solu	-14584
▁wasn	-14585
▁Praxis	-14586
▁recommendations	-14587
fläche	-14588
▁viitor	-14589
ктив	-14590
▁Aspekte	-14591
▁geschaffen	-14592
▁জাতিসংঘ	-14593
Ab	-14594
▁Alliance	-14595
▁combined	-14596
▁Vergangenheit	-14597
▁reception	-14598
став	-14599
▁ডিগ্র	-14600
▁২৯	-14601
▁Ath	-14602
রাও	-14603
dienst	-14604
▁producers	-14605
▁magn	-14606
▁Rob	-14607
▁спра	-14608
ardens	-14609
▁Students	-14610
fun	-14611
▁offices	-14612
▁поді	-14613
▁Hey	-14614
iform	-14615
cker	-14616
▁9.	-14617
▁মাদ্র	-14618
▁exclud	-14619
▁staat	-14620
▁attacked	-14621
▁розумі	-14622
So	-14623
▁welches	-14624
▁শুভে	-14625
স্টিটি	-14626
▁eingeb	-14627
▁ваш	-14628
▁Bush	-14629
▁stimmen	-14630
ফিক	-14631
aţionale	-14632
▁ব্যাঙ্ক	-14633
▁দেশটির	-14634
▁Through	-14635
iques	-14636
sized	-14637
▁влас	-14638
▁afirmat	-14639
▁Terrorismus	-14640
▁নক	-14641
▁Protokoll	-14642
▁Rats	-14643
▁2019	-14644
rent	-14645
▁grie	-14646
▁কর্	-14647
▁susp	-14648
▁wünschen	-14649
гда	-14650
▁перед	-14651
▁richtige	-14652
сії	-14653
▁будете	-14654
▁উপলব্ধ	-14655
▁আমেরিকা	-14656
▁ইনি	-14657
чного	-14658
▁Digital	-14659
▁Beruf	-14660
▁উপাদান	-14661
▁Generation	-14662
▁Menschenrechts	-14663
▁competitiveness	-14664
▁Grie	-14665
▁Berat	-14666
cohol	-14667
iente	-14668
▁সিটি	-14669
▁Class	-14670
▁Anstreng	-14671
▁Fäh	-14672
▁সুল	-14673
ঙ্ঘ	-14674
ugos	-14675
▁merely	-14676
▁jeweiligen	-14677
▁Technologie	-14678
▁propose	-14679
মহ	-14680
безпе	-14681
legten	-14682
▁writer	-14683
▁trouble	-14684
▁Costa	-14685
▁1997	-14686
▁Premier	-14687
▁সমালোচনা	-14688
ină	-14689
▁größte	-14690
▁ডিজি	-14691
▁engineering	-14692
ilipp	-14693
government	-14694
▁kam	-14695
▁Werte	-14696
▁mm	-14697
ками	-14698
চ্ছিন্ন	-14699
▁verpflichtet	-14700
▁mutual	-14701
▁Spanien	-14702
▁architecture	-14703
eper	-14704
▁geograph	-14705
▁ব্যক্তিকে	-14706
arta	-14707
class	-14708
▁Finanzierung	-14709
gin	-14710
ităţile	-14711
▁correspond	-14712
▁păr	-14713
▁reprezintă	-14714
▁Но	-14715
ällt	-14716
▁Ill	-14717
gruppe	-14718
box	-14719
▁Го	-14720
▁mobil	-14721
▁তথা	-14722
▁খুলে	-14723
▁2010.	-14724
▁спи	-14725
▁Thanks	-14726
ukh	-14727
▁advis	-14728
▁Від	-14729
▁Phil	-14730
▁বোঝা	-14731
!"	-14732
▁কৌশল	-14733
▁Modern	-14734
▁বলো	-14735
▁fab	-14736
▁розви	-14737
▁obtained	-14738
▁Doppel	-14739
▁Buddh	-14740
▁Jahrhunder	-14741
Es	-14742
▁Prim	-14743
▁hall	-14744
stelle	-14745
▁জেলায়	-14746
▁einheit	-14747
All	-14748
▁pleasant	-14749
▁Luxemb	-14750
▁stets	-14751
▁shape	-14752
▁virus	-14753
ене	-14754
▁noastre	-14755
üge	-14756
▁Irak	-14757
ränkt	-14758
▁seines	-14759
▁’’	-14760
▁lucr	-14761
▁খানের	-14762
мери	-14763
▁চিঠি	-14764
▁পাহা	-14765
▁নম্বর	-14766
▁রং	-14767
▁украї	-14768
▁trend	-14769
▁vast	-14770
▁historischen	-14771
▁ধন	-14772
▁যুদ্ধের	-14773
zut	-14774
▁natür	-14775
▁Zweitens	-14776
uru	-14777
spiel	-14778
icon	-14779
▁Irish	-14780
▁pointed	-14781
▁কারো	-14782
▁Strateg	-14783
▁পরিস্থিতির	-14784
iums	-14785
MP	-14786
▁ST	-14787
▁Consiliului	-14788
zul	-14789
UT	-14790
hör	-14791
aped	-14792
▁bridge	-14793
▁প্রচেষ্টা	-14794
akte	-14795
▁resolved	-14796
ভূতি	-14797
▁Sah	-14798
owned	-14799
▁vere	-14800
uts	-14801
▁নগ	-14802
▁সংস্কৃতি	-14803
▁combination	-14804
▁বৈশিষ্ট্য	-14805
▁місце	-14806
▁bein	-14807
▁1:	-14808
▁dir	-14809
▁decât	-14810
▁Martin	-14811
▁arrangements	-14812
▁Nun	-14813
▁hyd	-14814
tragen	-14815
▁appar	-14816
▁wählen	-14817
▁আটকে	-14818
▁explained	-14819
হত্যা	-14820
▁হইতে	-14821
ressed	-14822
▁গরম	-14823
osing	-14824
▁alive	-14825
ষিদ্ধ	-14826
িয়েত	-14827
▁fled	-14828
▁প্রদেশের	-14829
▁Falls	-14830
▁চন্দ্র	-14831
ktive	-14832
▁servants	-14833
run	-14834
▁অ্যান	-14835
▁পুলিশকে	-14836
▁Friend	-14837
▁Kredit	-14838
adi	-14839
essenger	-14840
пад	-14841
fühl	-14842
নীতির	-14843
▁satellite	-14844
▁Viele	-14845
enschutz	-14846
▁außerhalb	-14847
ky	-14848
iot	-14849
▁করলাম	-14850
▁জখম	-14851
ঙ্কার	-14852
▁judicial	-14853
▁Rajasthan	-14854
▁Schritte	-14855
▁zuständ	-14856
▁প্রতিরক্ষা	-14857
aren	-14858
ehlen	-14859
esters	-14860
▁তু	-14861
▁owner	-14862
ovina	-14863
▁zumindest	-14864
▁Hab	-14865
▁Bihar	-14866
▁Mexico	-14867
▁Gebäude	-14868
▁визна	-14869
▁politică	-14870
▁gek	-14871
▁вирі	-14872
▁verme	-14873
бов	-14874
▁preș	-14875
inated	-14876
▁italien	-14877
▁তাড়	-14878
▁piece	-14879
▁লোকজন	-14880
▁বিখ্যাত	-14881
▁promin	-14882
▁modernen	-14883
▁কালো	-14884
▁Watch	-14885
▁befür	-14886
▁manager	-14887
кими	-14888
iches	-14889
abkommen	-14890
▁Dol	-14891
▁cea	-14892
▁sets	-14893
▁acceptable	-14894
▁unaccept	-14895
win	-14896
▁Krank	-14897
জীবী	-14898
▁স্বার্থ	-14899
▁vollständig	-14900
▁কোচ	-14901
জাতির	-14902
▁Front	-14903
▁Third	-14904
▁catch	-14905
▁machines	-14906
▁সিস্টেম	-14907
▁দেখি	-14908
▁economică	-14909
▁Inf	-14910
▁Gul	-14911
▁Set	-14912
▁প্যার	-14913
বিজ্ঞান	-14914
▁সুই	-14915
কিন	-14916
▁Lt	-14917
iell	-14918
▁Hoff	-14919
▁Gas	-14920
▁Ident	-14921
armon	-14922
▁Zivil	-14923
▁installation	-14924
▁Report	-14925
▁Initiat	-14926
▁proport	-14927
▁ইনস্টিটি	-14928
!!	-14929
▁yes	-14930
ipping	-14931
▁verantwortlich	-14932
▁adequate	-14933
▁Minder	-14934
ungsver	-14935
তীত	-14936
▁দেখানো	-14937
ফোন	-14938
▁বলুন	-14939
▁বোর্ড	-14940
▁folgt	-14941
▁understood	-14942
োতে	-14943
BS	-14944
▁intervention	-14945
▁সম্পদ	-14946
▁Professor	-14947
▁Vertrauen	-14948
▁deciz	-14949
Ex	-14950
▁MS	-14951
▁নিষিদ্ধ	-14952
▁foundation	-14953
ați	-14954
▁worst	-14955
дже	-14956
▁Mov	-14957
▁pia	-14958
gehend	-14959
▁Mary	-14960
▁mine	-14961
▁tät	-14962
▁Flex	-14963
▁Pa	-14964
ächen	-14965
▁пока	-14966
▁সকাল	-14967
▁অন্তত	-14968
▁inquiry	-14969
▁ব্যবসায়	-14970
▁কার্ড	-14971
▁Opfer	-14972
▁Garten	-14973
▁নিয়েছেন	-14974
▁erk	-14975
▁ব্যবস্থার	-14976
▁personally	-14977
andal	-14978
▁gemein	-14979
▁leaves	-14980
)-	-14981
edy	-14982
▁genug	-14983
▁efort	-14984
▁Waren	-14985
▁tasks	-14986
▁ID	-14987
ilding	-14988
hafte	-14989
▁Angelegenheit	-14990
টিক	-14991
াইড	-14992
▁pill	-14993
friend	-14994
▁verab	-14995
▁heutigen	-14996
▁Trib	-14997
▁অভ্যন্ত	-14998
▁органі	-14999
নীতি	-15000
▁faţă	-15001
▁vorge	-15002
▁verkauf	-15003
▁mechanism	-15004
▁Disc	-15005
uerung	-15006
▁Federation	-15007
▁appreciate	-15008
itime	-15009
▁Instead	-15010
▁schützen	-15011
▁Joh	-15012
▁Frieden	-15013
▁delegation	-15014
▁Spieler	-15015
pta	-15016
শাহ	-15017
▁Ros	-15018
▁operate	-15019
▁চরম	-15020
▁sensitive	-15021
▁фа	-15022
ীর্ণ	-15023
▁Pack	-15024
▁submit	-15025
জীবন	-15026
▁typical	-15027
▁sigur	-15028
▁সাধ	-15029
▁unten	-15030
▁persönlichen	-15031
▁editor	-15032
▁Robert	-15033
▁database	-15034
▁subsequently	-15035
▁জানাতে	-15036
গোষ্ঠ	-15037
▁artist	-15038
▁fashion	-15039
▁কাহ	-15040
losigkeit	-15041
rison	-15042
চিব	-15043
ainte	-15044
▁Angelegenheiten	-15045
▁Ju	-15046
▁লীগের	-15047
▁untern	-15048
▁Dazu	-15049
▁Schwierigkeiten	-15050
▁যেভাবে	-15051
▁সভায়	-15052
সংহিতা	-15053
পুরে	-15054
▁Євро	-15055
▁audience	-15056
▁লক	-15057
▁probe	-15058
▁সিনেম	-15059
▁Rab	-15060
▁mankind	-15061
▁মেস	-15062
▁Nah	-15063
▁registration	-15064
▁মন্ত্রিস	-15065
▁marked	-15066
ifications	-15067
єм	-15068
▁parad	-15069
য়োজিত	-15070
▁রাখেন	-15071
▁Parteien	-15072
▁limits	-15073
▁অনুবাদ	-15074
amnă	-15075
▁Termin	-15076
ছো	-15077
ফর	-15078
▁Perhaps	-15079
5-	-15080
isine	-15081
konom	-15082
nern	-15083
▁economies	-15084
▁journalists	-15085
▁শাস্ত্র	-15086
▁ader	-15087
▁demanding	-15088
▁technischen	-15089
▁hosp	-15090
▁зроби	-15091
▁বিশেষজ্ঞ	-15092
▁Hins	-15093
▁অবাক	-15094
▁ambit	-15095
5-0	-15096
ifel	-15097
barer	-15098
▁sacrif	-15099
্নি	-15100
্রাজ	-15101
▁definitely	-15102
▁Malays	-15103
▁everybody	-15104
ওয়ার্ক	-15105
▁promotion	-15106
▁বলবে	-15107
িত্তিক	-15108
▁erlaubt	-15109
▁ভবন	-15110
karte	-15111
▁inten	-15112
▁anders	-15113
েইন	-15114
▁নেতৃত্বে	-15115
UN	-15116
▁Van	-15117
▁সাহিত্য	-15118
▁folgenden	-15119
grad	-15120
loc	-15121
erkennung	-15122
meer	-15123
▁visa	-15124
২০০	-15125
▁cul	-15126
▁Parlamentului	-15127
▁Project	-15128
▁bessere	-15129
▁Allerdings	-15130
▁heat	-15131
▁deutschen	-15132
bü	-15133
▁ausschließlich	-15134
▁voc	-15135
▁hung	-15136
▁Annahme	-15137
:30	-15138
acă	-15139
▁নিন্দ	-15140
▁Consider	-15141
▁Seh	-15142
▁зможе	-15143
▁prü	-15144
▁relate	-15145
▁outstanding	-15146
roph	-15147
▁beds	-15148
২১	-15149
▁শুভেচ্ছা	-15150
▁Ну	-15151
▁যুক্তি	-15152
▁মুহূর্তে	-15153
▁চোখে	-15154
▁Prozent	-15155
anim	-15156
▁করেই	-15157
▁channel	-15158
inu	-15159
▁দখল	-15160
▁IPL	-15161
▁দীপ	-15162
▁мати	-15163
▁পড়াশ	-15164
▁explos	-15165
▁divers	-15166
▁studied	-15167
▁rot	-15168
▁scheduled	-15169
তাকে	-15170
দণ্ড	-15171
▁স্যার	-15172
▁Hinsicht	-15173
▁absolute	-15174
▁equality	-15175
▁Private	-15176
▁aleg	-15177
▁reliable	-15178
▁করিয়ে	-15179
zusetzen	-15180
unăt	-15181
▁spezif	-15182
▁Job	-15183
▁depends	-15184
▁Democrats	-15185
▁মায়ের	-15186
▁тех	-15187
rip	-15188
বাল	-15189
ব্যাপী	-15190
▁burden	-15191
mus	-15192
▁জানাই	-15193
▁Deput	-15194
▁planet	-15195
▁держа	-15196
▁diverse	-15197
▁angemessen	-15198
unci	-15199
▁fit	-15200
krise	-15201
▁pattern	-15202
▁Landwir	-15203
▁বাব	-15204
মুনা	-15205
▁bitten	-15206
▁trecut	-15207
imme	-15208
▁бачи	-15209
▁unacceptable	-15210
werte	-15211
EW	-15212
▁hurt	-15213
ämpfen	-15214
▁зараз	-15215
▁বাজারে	-15216
▁19.	-15217
▁rig	-15218
▁Within	-15219
▁erwartet	-15220
AG	-15221
ening	-15222
▁contained	-15223
▁newspaper	-15224
ho	-15225
▁একাডেম	-15226
▁Exc	-15227
сло	-15228
▁বাড়িয়ে	-15229
▁pas	-15230
▁rescue	-15231
place	-15232
hältnis	-15233
▁осно	-15234
▁sty	-15235
▁măsuri	-15236
াড়ি	-15237
▁1996	-15238
▁মহারাষ্ট্র	-15239
erce	-15240
▁Viet	-15241
sequent	-15242
afft	-15243
hnung	-15244
▁বর্ষ	-15245
▁Soll	-15246
কারের	-15247
▁dict	-15248
▁newly	-15249
▁Mission	-15250
▁CM	-15251
▁কর্মসূচি	-15252
▁Railway	-15253
▁erinnern	-15254
laden	-15255
▁প্যা	-15256
riminal	-15257
ছুর	-15258
▁Market	-15259
▁আব্দ	-15260
apore	-15261
km	-15262
▁Ihres	-15263
▁advertising	-15264
▁Einrichtung	-15265
▁broken	-15266
▁getroffen	-15267
▁respective	-15268
hrase	-15269
▁jähr	-15270
▁verurs	-15271
▁Einige	-15272
▁Saint	-15273
rank	-15274
▁Hes	-15275
gr	-15276
▁শিক্ষার	-15277
োপাধ্যায়	-15278
▁পরম	-15279
ista	-15280
zz	-15281
▁verk	-15282
▁magazine	-15283
পাত্র	-15284
▁Voll	-15285
▁কেটে	-15286
▁Agenda	-15287
▁worried	-15288
▁Vergleich	-15289
▁той	-15290
▁Telefon	-15291
▁বিশিষ্ট	-15292
▁মাদ	-15293
▁ভাষার	-15294
▁Eigent	-15295
▁asylum	-15296
সভার	-15297
▁Hindi	-15298
▁হু	-15299
▁targets	-15300
▁Live	-15301
▁visible	-15302
▁বেছে	-15303
iri	-15304
▁вер	-15305
▁একক	-15306
▁2008,	-15307
▁Lake	-15308
bezieh	-15309
▁imagine	-15310
▁37	-15311
▁সকালে	-15312
▁Gesprä	-15313
indungen	-15314
▁কম্পিউটার	-15315
asy	-15316
▁যেটি	-15317
▁honour	-15318
▁possibilities	-15319
▁allgemeinen	-15320
Hotel	-15321
▁Joseph	-15322
▁investments	-15323
▁func	-15324
▁Kapital	-15325
▁elegant	-15326
▁би	-15327
▁Blog	-15328
▁প্রচল	-15329
▁Stellen	-15330
зя	-15331
▁länd	-15332
▁Method	-15333
izare	-15334
▁Late	-15335
▁significantly	-15336
▁Modell	-15337
▁zukünft	-15338
▁heavens	-15339
▁শারীরিক	-15340
▁manufacturing	-15341
▁Motor	-15342
▁করিতে	-15343
▁використа	-15344
mortem	-15345
NL	-15346
▁übernehmen	-15347
▁ধারাবাহ	-15348
▁ওয়েস্ট	-15349
блі	-15350
খি	-15351
itten	-15352
▁ডিগ্রি	-15353
▁ডোনাল্ড	-15354
▁attractive	-15355
▁mode	-15356
▁বিয়ের	-15357
TP	-15358
itud	-15359
▁gesetz	-15360
▁grateful	-15361
▁2018	-15362
ămâ	-15363
▁Friedens	-15364
CE	-15365
দব	-15366
▁ско	-15367
handel	-15368
olo	-15369
▁fulfill	-15370
],	-15371
fu	-15372
▁সোম	-15373
▁Armen	-15374
веде	-15375
▁২০১৫	-15376
▁Ca	-15377
eler	-15378
pty	-15379
▁recognised	-15380
▁Fac	-15381
▁ওষ	-15382
থর	-15383
Tube	-15384
▁Quest	-15385
ello	-15386
▁cei	-15387
▁terrace	-15388
্গ	-15389
rok	-15390
▁1980	-15391
▁tea	-15392
▁pension	-15393
ziert	-15394
▁Schla	-15395
▁videos	-15396
▁gift	-15397
▁існу	-15398
▁স্বাক্ষর	-15399
нки	-15400
▁privaten	-15401
▁genet	-15402
▁ক্লাব	-15403
oration	-15404
ataka	-15405
▁দরজা	-15406
▁erfahren	-15407
ielt	-15408
▁Österreich	-15409
▁moderne	-15410
ienten	-15411
▁beein	-15412
▁wiederhol	-15413
উন্ড	-15414
▁সেক	-15415
iarden	-15416
▁kost	-15417
▁mistake	-15418
▁প্রাকৃতিক	-15419
▁Arbeitsplätze	-15420
▁між	-15421
toare	-15422
unist	-15423
▁чолові	-15424
▁follows	-15425
▁ক্ষুদ্র	-15426
▁বিশ্বস্ত	-15427
abet	-15428
ether	-15429
▁resulting	-15430
▁মিটার	-15431
▁persoane	-15432
▁gesehen	-15433
ডা	-15434
стува	-15435
▁exceed	-15436
▁পররাষ্ট্র	-15437
inens	-15438
vorsitz	-15439
▁compensation	-15440
ники	-15441
▁শীত	-15442
писа	-15443
afe	-15444
▁Solidarität	-15445
rection	-15446
▁dign	-15447
▁Prom	-15448
▁তদন্তে	-15449
▁Ive	-15450
uties	-15451
▁দুর্বল	-15452
▁Agriculture	-15453
▁আলি	-15454
▁prohib	-15455
▁Relig	-15456
▁convenient	-15457
জান	-15458
▁ফিল্ম	-15459
ario	-15460
▁Whether	-15461
▁darstellt	-15462
zulegen	-15463
▁unfortunately	-15464
▁îmbunăt	-15465
▁Sweden	-15466
тро	-15467
▁উন্নয়নের	-15468
vă	-15469
othes	-15470
▁ehemal	-15471
cepts	-15472
▁Ka	-15473
▁executive	-15474
২২	-15475
▁CH	-15476
letter	-15477
▁Autom	-15478
▁achieving	-15479
▁সৃষ্ট	-15480
▁Europeans	-15481
▁গিয়েছিলেন	-15482
▁Vict	-15483
ety	-15484
▁corner	-15485
/2	-15486
▁snow	-15487
вані	-15488
▁setzt	-15489
▁begrüßen	-15490
▁Innovation	-15491
▁Ref	-15492
▁Lou	-15493
▁vess	-15494
▁enormous	-15495
irect	-15496
▁Mün	-15497
▁উইল	-15498
orter	-15499
▁Americ	-15500
▁finding	-15501
▁zudem	-15502
▁গেলেন	-15503
gesetz	-15504
▁Dutch	-15505
▁অসং	-15506
পুরের	-15507
▁শ্রদ্ধা	-15508
▁Bran	-15509
iegen	-15510
▁waters	-15511
▁যুবক	-15512
▁অবশেষে	-15513
▁Carl	-15514
▁Firmen	-15515
▁আনতে	-15516
▁Youth	-15517
▁relatively	-15518
ittagong	-15519
ূক	-15520
▁সাম্রাজ	-15521
▁використову	-15522
▁definition	-15523
▁latter	-15524
▁Antrag	-15525
▁endlich	-15526
▁automatisch	-15527
▁entscheiden	-15528
▁২০১২	-15529
lik	-15530
▁সংরক্ষণ	-15531
▁bestimmt	-15532
zielle	-15533
▁extreme	-15534
gres	-15535
weder	-15536
▁ব্লগার	-15537
▁reprodu	-15538
▁Revolution	-15539
▁শরী	-15540
▁inspired	-15541
▁sharing	-15542
▁লাগবে	-15543
▁amongst	-15544
▁জনসংখ্যা	-15545
▁ডান	-15546
▁сьогодні	-15547
▁cultiv	-15548
▁overcome	-15549
▁Begriff	-15550
▁eindeutig	-15551
▁Vien	-15552
▁sanctions	-15553
▁custody	-15554
▁20.	-15555
ildet	-15556
▁Obwohl	-15557
▁আমেরিকার	-15558
uzz	-15559
▁прое	-15560
▁luck	-15561
teen	-15562
ellow	-15563
বোধ	-15564
iations	-15565
▁courts	-15566
European	-15567
▁ambitious	-15568
▁Erstens	-15569
▁Trotz	-15570
▁flights	-15571
▁curs	-15572
▁Einfluss	-15573
▁34	-15574
lern	-15575
▁Execut	-15576
▁tough	-15577
▁estate	-15578
▁বিএনপির	-15579
▁জাতির	-15580
ventions	-15581
▁meat	-15582
▁condemn	-15583
▁ধরণের	-15584
▁flu	-15585
▁economice	-15586
zeichen	-15587
"")	-15588
▁conclus	-15589
▁grounds	-15590
▁Milliarden	-15591
▁trains	-15592
▁মন্ত্রকের	-15593
▁Hostels	-15594
▁interes	-15595
renze	-15596
▁analy	-15597
▁যো	-15598
াত্ত	-15599
▁নাট	-15600
sto	-15601
▁shower	-15602
▁Radio	-15603
তাল	-15604
▁letzte	-15605
▁আঁ	-15606
▁dance	-15607
▁Ausgang	-15608
▁চেন	-15609
▁জন্যই	-15610
▁Palestinian	-15611
▁Wissenschaft	-15612
▁পার্টি	-15613
actions	-15614
▁Moses	-15615
▁দেখায়	-15616
▁кла	-15617
▁shooting	-15618
тягом	-15619
▁dringend	-15620
▁lit	-15621
▁গর্ব	-15622
▁Lo	-15623
ounge	-15624
▁deine	-15625
▁কন্যা	-15626
▁Hause	-15627
▁2010,	-15628
▁Financial	-15629
▁Jam	-15630
▁Fle	-15631
▁stärker	-15632
▁ক্ষতিগ্রস্ত	-15633
▁inaugur	-15634
▁eg	-15635
punkte	-15636
▁ডাক্তার	-15637
▁লুক	-15638
▁contest	-15639
▁২০১৩	-15640
▁Tool	-15641
▁Young	-15642
▁rape	-15643
▁হবার	-15644
▁sight	-15645
▁Serbian	-15646
▁Citiz	-15647
▁injury	-15648
▁Master	-15649
CS	-15650
▁luni	-15651
প্রধান	-15652
▁আমন্ত্রণ	-15653
▁od	-15654
▁ডিজ	-15655
▁Arabia	-15656
▁ব্লগ	-15657
чної	-15658
▁reag	-15659
immern	-15660
▁maintained	-15661
azar	-15662
▁entgegen	-15663
кли	-15664
▁Eth	-15665
▁Pla	-15666
vollen	-15667
▁Custom	-15668
unte	-15669
▁Acht	-15670
▁Enterprise	-15671
▁bemü	-15672
▁Sem	-15673
▁phen	-15674
▁অ্যাক	-15675
▁Apple	-15676
▁Isa	-15677
hilfe	-15678
▁warning	-15679
▁Jo	-15680
▁romant	-15681
las	-15682
▁Leute	-15683
kan	-15684
вне	-15685
▁কমিশনার	-15686
যাপন	-15687
▁গেম	-15688
▁beide	-15689
▁বাবার	-15690
▁নষ্ট	-15691
▁handle	-15692
▁valuable	-15693
▁найбіль	-15694
▁Falle	-15695
▁Freiz	-15696
▁scientists	-15697
▁holds	-15698
ksh	-15699
▁mom	-15700
▁apostle	-15701
▁পেছনে	-15702
ওয়ার্ড	-15703
зумі	-15704
▁ব্যতীত	-15705
▁সংঘর্ষ	-15706
gas	-15707
▁Music	-15708
pet	-15709
▁Abu	-15710
▁Verfassung	-15711
besch	-15712
▁ceremony	-15713
কুম	-15714
▁journalist	-15715
▁leb	-15716
▁encounter	-15717
▁Ahmad	-15718
▁reprezent	-15719
হর	-15720
▁বলব	-15721
▁знаю	-15722
▁Schwer	-15723
▁Sonder	-15724
▁কল্যাণ	-15725
▁আনুষ্ঠান	-15726
bereink	-15727
▁album	-15728
▁স্বাগত	-15729
▁Verwaltung	-15730
▁Mi	-15731
▁মৌসুম	-15732
▁zusätzliche	-15733
▁6,	-15734
▁Wann	-15735
▁তারকা	-15736
▁cuisine	-15737
▁Frankfurt	-15738
▁obviously	-15739
▁pione	-15740
▁îşi	-15741
ometer	-15742
▁চালানো	-15743
▁Preş	-15744
▁jem	-15745
▁nah	-15746
▁проти	-15747
▁gender	-15748
“.	-15749
▁expenditure	-15750
ешь	-15751
▁anniversary	-15752
▁Ep	-15753
▁পিতর	-15754
▁Federal	-15755
দ্বন্দ্ব	-15756
▁"...	-15757
▁controlled	-15758
ounds	-15759
▁Verpflichtungen	-15760
▁ইম	-15761
▁rezult	-15762
▁বৃহত্তম	-15763
▁Kauf	-15764
▁নিরাপদ	-15765
▁branch	-15766
।""-	-15767
▁Zustimmung	-15768
▁ওষুধ	-15769
[...]
