<unk>	0
<s>	0
</s>	0
▁a	-0
re	-1
▁t	-2
in	-3
▁c	-4
▁d	-5
▁p	-6
te	-7
▁s	-8
on	-9
en	-10
or	-11
▁th	-12
er	-13
ti	-14
le	-15
▁the	-16
▁de	-17
an	-18
is	-19
ul	-20
ri	-21
▁f	-22
▁o	-23
es	-24
ro	-25
▁m	-26
un	-27
ar	-28
al	-29
at	-30
it	-31
▁in	-32
▁î	-33
ent	-34
ic	-35
▁w	-36
▁în	-37
▁n	-38
are	-39
▁b	-40
▁re	-41
▁an	-42
▁l	-43
▁to	-44
▁e	-45
▁of	-46
om	-47
ate	-48
st	-49
il	-50
ed	-51
ur	-52
ie	-53
ing	-54
▁and	-55
tion	-56
ce	-57
ru	-58
ia	-59
im	-60
ve	-61
▁v	-62
şi	-63
▁h	-64
ol	-65
pe	-66
ra	-67
▁pro	-68
▁E	-69
▁ac	-70
▁C	-71
▁şi	-72
▁con	-73
as	-74
ut	-75
▁S	-76
▁să	-77
si	-78
▁T	-79
ţi	-80
ui	-81
▁A	-82
ment	-83
▁I	-84
▁P	-85
uro	-86
us	-87
ci	-88
▁g	-89
▁la	-90
el	-91
▁M	-92
▁un	-93
▁al	-94
ec	-95
▁is	-96
▁for	-97
ort	-98
um	-99
ea	-100
▁that	-101
ation	-102
ac	-103
ot	-104
ter	-105
▁st	-106
entru	-107
em	-108
▁din	-109
et	-110
▁că	-111
▁pentru	-112
este	-113
▁Euro	-114
▁as	-115
▁on	-116
▁ma	-117
uri	-118
ii	-119
▁care	-120
ly	-121
port	-122
ului	-123
▁com	-124
os	-125
▁be	-126
▁pre	-127
ere	-128
▁ex	-129
▁B	-130
id	-131
▁co	-132
▁U	-133
▁D	-134
area	-135
▁wh	-136
est	-137
up	-138
ver	-139
▁Europe	-140
▁Th	-141
uc	-142
oc	-143
op	-144
▁ne	-145
▁cu	-146
ad	-147
ab	-148
și	-149
▁im	-150
ig	-151
am	-152
ân	-153
tă	-154
ir	-155
iti	-156
▁are	-157
▁este	-158
▁și	-159
fic	-160
▁pri	-161
▁European	-162
ile	-163
ct	-164
la	-165
ilor	-166
▁pe	-167
ion	-168
▁it	-169
ele	-170
▁le	-171
unt	-172
▁-	-173
▁se	-174
ov	-175
ith	-176
▁2	-177
▁(	-178
de	-179
ări	-180
▁R	-181
res	-182
ow	-183
▁mo	-184
▁tre	-185
▁par	-186
▁sa	-187
▁with	-188
iz	-189
▁nu	-190
▁ca	-191
▁fo	-192
ord	-193
ast	-194
ers	-195
ch	-196
ist	-197
▁mai	-198
▁this	-199
▁ad	-200
pl	-201
th	-202
ill	-203
▁The	-204
▁Com	-205
tre	-206
▁we	-207
▁ha	-208
▁pol	-209
ten	-210
ub	-211
▁at	-212
lor	-213
pt	-214
▁do	-215
▁en	-216
ei	-217
▁G	-218
iei	-219
▁1	-220
tiv	-221
▁acest	-222
▁res	-223
▁fa	-224
ant	-225
▁Un	-226
▁no	-227
▁have	-228
uld	-229
ces	-230
▁po	-231
ted	-232
bu	-233
▁"	-234
cl	-235
tive	-236
▁am	-237
că	-238
emb	-239
eri	-240
and	-241
▁F	-242
▁ar	-243
rin	-244
ge	-245
ată	-246
▁reg	-247
▁not	-248
▁will	-249
ră	-250
▁di	-251
aţi	-252
tate	-253
▁N	-254
sion	-255
di	-256
tern	-257
iun	-258
ale	-259
▁ce	-260
ke	-261
▁au	-262
ay	-263
ită	-264
sid	-265
itate	-266
▁cont	-267
rea	-268
▁or	-269
con	-270
ould	-271
▁ag	-272
ran	-273
▁20	-274
▁ace	-275
ari	-276
cial	-277
ust	-278
pen	-279
tu	-280
tor	-281
▁by	-282
mis	-283
ity	-284
▁O	-285
ble	-286
▁sp	-287
ind	-288
▁Par	-289
▁fi	-290
ich	-291
ză	-292
▁H	-293
▁W	-294
ain	-295
ând	-296
▁y	-297
tic	-298
ine	-299
▁K	-300
ug	-301
orm	-302
▁L	-303
se	-304
▁which	-305
▁ap	-306
▁ch	-307
▁j	-308
▁Î	-309
conom	-310
ţia	-311
ult	-312
▁sh	-313
▁has	-314
▁În	-315
buie	-316
▁priv	-317
▁dis	-318
▁politi	-319
▁euro	-320
ud	-321
▁af	-322
▁va	-323
▁li	-324
ure	-325
▁econom	-326
▁ra	-327
▁import	-328
ice	-329
abil	-330
▁fost	-331
▁In	-332
form	-333
rom	-334
tem	-335
pre	-336
ven	-337
▁EU	-338
ht	-339
▁fin	-340
▁cre	-341
so	-342
und	-343
oare	-344
ici	-345
use	-346
vel	-347
▁ur	-348
▁so	-349
▁prop	-350
▁sec	-351
▁ob	-352
▁Pre	-353
▁prin	-354
ze	-355
▁cons	-356
me	-357
▁sunt	-358
▁trebuie	-359
▁ab	-360
ală	-361
ubl	-362
ard	-363
ţii	-364
ree	-365
elor	-366
ţie	-367
▁leg	-368
▁imp	-369
ite	-370
▁aceste	-371
out	-372
od	-373
ris	-374
ag	-375
duc	-376
▁ale	-377
vern	-378
▁from	-379
og	-380
▁aceast	-381
▁i	-382
edin	-383
vo	-384
▁memb	-385
ty	-386
erm	-387
▁tim	-388
ber	-389
▁all	-390
▁op	-391
▁count	-392
mission	-393
▁me	-394
▁state	-395
urile	-396
▁also	-397
qu	-398
▁pu	-399
▁comp	-400
▁sup	-401
▁UE	-402
▁go	-403
▁pl	-404
ât	-405
▁spe	-406
▁cri	-407
▁Ser	-408
▁înt	-409
ţă	-410
ore	-411
ară	-412
gra	-413
ili	-414
▁tran	-415
ării	-416
tions	-417
zi	-418
▁urm	-419
▁V	-420
▁Con	-421
▁finan	-422
rat	-423
▁Commission	-424
unc	-425
▁would	-426
ear	-427
ations	-428
olu	-429
▁ef	-430
▁inte	-431
ess	-432
ți	-433
▁200	-434
stru	-435
▁rec	-436
ary	-437
fer	-438
une	-439
ian	-440
▁proble	-441
▁was	-442
va	-443
▁luc	-444
▁des	-445
▁wor	-446
bil	-447
▁Serb	-448
titu	-449
▁De	-450
itatea	-451
▁intern	-452
ry	-453
şte	-454
ică	-455
▁îm	-456
▁can	-457
▁ţ	-458
▁Comis	-459
our	-460
sident	-461
▁its	-462
cip	-463
▁între	-464
rate	-465
▁cl	-466
▁decl	-467
ente	-468
aj	-469
▁num	-470
/0	-471
▁trans	-472
▁vor	-473
ori	-474
▁mul	-475
rul	-476
rec	-477
▁Re	-478
▁loc	-479
▁ri	-480
ish	-481
ue	-482
der	-483
▁Ac	-484
▁State	-485
ăm	-486
▁dem	-487
▁ta	-488
lament	-489
tea	-490
osov	-491
ţa	-492
şedin	-493
ond	-494
▁dez	-495
▁J	-496
▁fie	-497
▁important	-498
fici	-499
▁acord	-500
▁inv	-501
▁ins	-502
ome	-503
▁această	-504
▁sc	-505
▁Mr	-506
▁fac	-507
▁there	-508
▁Al	-509
lia	-510
ous	-511
▁but	-512
ational	-513
ose	-514
▁President	-515
rept	-516
tim	-517
ou	-518
erea	-519
ati	-520
▁It	-521
end	-522
▁been	-523
▁should	-524
min	-525
▁our	-526
▁int	-527
▁problem	-528
▁their	-529
ments	-530
▁said	-531
gan	-532
▁exp	-533
ase	-534
ună	-535
şti	-536
ric	-537
osovo	-538
▁must	-539
liament	-540
king	-541
▁min	-542
able	-543
all	-544
urilor	-545
▁Memb	-546
▁disc	-547
ally	-548
▁Kosovo	-549
▁Uniun	-550
▁need	-551
▁mod	-552
▁prote	-553
ții	-554
▁declar	-555
▁publ	-556
▁drept	-557
▁We	-558
ob	-559
▁tra	-560
▁sit	-561
ua	-562
ign	-563
itor	-564
▁incl	-565
plic	-566
▁dom	-567
ong	-568
▁politic	-569
ip	-570
▁mar	-571
ts	-572
one	-573
▁privind	-574
erv	-575
▁dec	-576
ren	-577
ament	-578
mit	-579
▁sub	-580
ap	-581
00	-582
▁more	-583
▁Tur	-584
ator	-585
her	-586
▁pers	-587
▁lucru	-588
ther	-589
▁prov	-590
▁aut	-591
til	-592
▁Union	-593
arte	-594
▁new	-595
ăr	-596
▁--	-597
▁vo	-598
emen	-599
ans	-600
eni	-601
▁conc	-602
oper	-603
ries	-604
ţiei	-605
▁Parlament	-606
ens	-607
ăs	-608
ina	-609
▁raport	-610
acă	-611
ss	-612
zent	-613
erg	-614
▁contin	-615
pect	-616
ks	-617
ance	-618
▁ro	-619
emenea	-620
▁nec	-621
uch	-622
▁asemenea	-623
▁gu	-624
esti	-625
▁year	-626
ght	-627
▁who	-628
▁conf	-629
pene	-630
bui	-631
ane	-632
cy	-633
▁toate	-634
▁report	-635
eren	-636
▁ev	-637
bate	-638
ează	-639
ţin	-640
▁Member	-641
uce	-642
ism	-643
▁bec	-644
sider	-645
pon	-646
▁ră	-647
edi	-648
▁ver	-649
▁Co	-650
▁Parliament	-651
ld	-652
urs	-653
pec	-654
▁States	-655
▁proces	-656
▁fapt	-657
▁us	-658
▁Min	-659
▁ele	-660
▁countries	-661
irm	-662
âr	-663
▁vi	-664
esc	-665
ener	-666
▁rez	-667
▁right	-668
▁man	-669
ence	-670
▁prim	-671
rij	-672
ced	-673
ţion	-674
▁timp	-675
▁they	-676
▁you	-677
ire	-678
▁he	-679
aliz	-680
▁sol	-681
▁adop	-682
tele	-683
ities	-684
ăt	-685
▁parti	-686
ocra	-687
age	-688
aţion	-689
ys	-690
ople	-691
▁cele	-692
ated	-693
▁neg	-694
▁mon	-695
ania	-696
▁bet	-697
otri	-698
▁sau	-699
imes	-700
ură	-701
cut	-702
▁organ	-703
▁Serbia	-704
▁el	-705
▁3	-706
iv	-707
▁membre	-708
▁trebui	-709
day	-710
aced	-711
▁one	-712
▁Cons	-713
▁dintre	-714
▁posi	-715
▁preşedin	-716
să	-717
▁k	-718
▁economic	-719
rateg	-720
jec	-721
ell	-722
▁inc	-723
▁This	-724
ugh	-725
lig	-726
▁dep	-727
upra	-728
az	-729
▁ceea	-730
red	-731
▁r	-732
ările	-733
uz	-734
▁ind	-735
▁people	-736
pa	-737
rii	-738
",	-739
▁înc	-740
eg	-741
▁declarat	-742
▁qu	-743
▁fă	-744
▁very	-745
▁asupra	-746
▁other	-747
ress	-748
▁consider	-749
▁ave	-750
▁dif	-751
upă	-752
▁ast	-753
pend	-754
velop	-755
▁out	-756
▁[	-757
sig	-758
▁foarte	-759
ach	-760
▁about	-761
uni	-762
fore	-763
ene	-764
ister	-765
▁cer	-766
▁form	-767
ide	-768
▁support	-769
▁agree	-770
▁like	-771
▁împ	-772
vol	-773
▁these	-774
▁unei	-775
lement	-776
▁cad	-777
,"	-778
au	-779
▁stat	-780
nă	-781
▁per	-782
ția	-783
ta	-784
▁fund	-785
▁than	-786
▁aj	-787
▁up	-788
▁region	-789
get	-790
cep	-791
▁guvern	-792
▁vot	-793
▁măs	-794
▁produc	-795
xt	-796
▁princip	-797
▁inform	-798
uă	-799
▁institu	-800
▁public	-801
pro	-802
duce	-803
▁work	-804
ever	-805
imb	-806
▁într	-807
▁country	-808
▁energ	-809
▁sch	-810
ting	-811
▁men	-812
ute	-813
istă	-814
▁govern	-815
▁cooper	-816
▁comm	-817
▁inter	-818
ali	-819
pean	-820
▁respon	-821
▁again	-822
▁rep	-823
▁cum	-824
▁ved	-825
acedon	-826
▁An	-827
ara	-828
gram	-829
▁gre	-830
▁Cro	-831
uncil	-832
▁u	-833
▁Am	-834
rup	-835
▁repre	-836
we	-837
gari	-838
▁face	-839
▁iss	-840
▁special	-841
▁z	-842
ision	-843
▁Consili	-844
▁maj	-845
▁develop	-846
ani	-847
▁mult	-848
▁social	-849
▁only	-850
ier	-851
▁strateg	-852
▁Rom	-853
▁sus	-854
▁dacă	-855
fec	-856
▁Council	-857
▁dezvol	-858
▁securi	-859
▁av	-860
etă	-861
ause	-862
▁ref	-863
▁democra	-864
als	-865
iec	-866
▁acestea	-867
rie	-868
oi	-869
ular	-870
▁gro	-871
▁Europeană	-872
ura	-873
▁cap	-874
▁mun	-875
ativ	-876
▁Bel	-877
▁prec	-878
led	-879
olog	-880
▁ni	-881
▁apro	-882
▁because	-883
▁time	-884
▁unui	-885
▁gener	-886
ket	-887
owever	-888
ues	-889
ție	-890
int	-891
▁legis	-892
ures	-893
▁sprij	-894
igh	-895
▁Macedon	-896
▁St	-897
les	-898
rim	-899
emn	-900
uman	-901
▁sector	-902
hn	-903
icy	-904
ini	-905
▁under	-906
▁dar	-907
▁201	-908
ative	-909
▁european	-910
fel	-911
ână	-912
ween	-913
▁neces	-914
▁pun	-915
ved	-916
▁between	-917
▁sim	-918
▁serv	-919
▁cur	-920
▁stabil	-921
▁Ch	-922
▁19	-923
▁protec	-924
ak	-925
▁over	-926
țion	-927
rac	-928
act	-929
▁Pro	-930
vă	-931
ise	-932
▁faptul	-933
▁activ	-934
▁cadrul	-935
ităţi	-936
▁were	-937
▁direc	-938
▁ter	-939
ating	-940
▁ani	-941
▁major	-942
▁Europa	-943
ving	-944
▁propos	-945
lear	-946
▁iar	-947
▁acc	-948
enti	-949
ţiile	-950
▁compe	-951
▁Comisiei	-952
irst	-953
▁policy	-954
▁Comisia	-955
▁As	-956
teri	-957
▁em	-958
▁nego	-959
ight	-960
▁pres	-961
▁nivel	-962
ame	-963
▁contri	-964
ieve	-965
▁program	-966
▁putea	-967
▁tot	-968
▁noast	-969
ung	-970
ță	-971
tice	-972
iile	-973
▁rem	-974
▁bel	-975
▁Alb	-976
urn	-977
▁importan	-978
▁asig	-979
▁reform	-980
▁part	-981
ural	-982
▁după	-983
▁5	-984
▁deci	-985
▁poate	-986
▁către	-987
▁prezent	-988
▁favo	-989
▁what	-990
▁soc	-991
leg	-992
lob	-993
▁cetă	-994
▁noi	-995
ște	-996
▁into	-997
ai	-998
▁political	-999
▁regul	-1000
▁Acest	-1001
ater	-1002
▁them	-1003
▁some	-1004
▁term	-1005
▁es	-1006
▁su	-1007
▁rel	-1008
▁mare	-1009
▁such	-1010
po	-1011
▁condi	-1012
▁solu	-1013
wo	-1014
▁acces	-1015
ica	-1016
ack	-1017
ulgari	-1018
key	-1019
▁caz	-1020
▁cent	-1021
isten	-1022
ters	-1023
por	-1024
▁ord	-1025
▁ş	-1026
plo	-1027
▁rights	-1028
outh	-1029
ovic	-1030
ţele	-1031
▁refer	-1032
ţilor	-1033
ency	-1034
▁my	-1035
▁te	-1036
▁citi	-1037
ards	-1038
▁market	-1039
ste	-1040
ual	-1041
▁dori	-1042
▁Uniunea	-1043
▁comun	-1044
▁stand	-1045
ib	-1046
▁pla	-1047
▁schimb	-1048
▁4	-1049
vers	-1050
▁val	-1051
▁plan	-1052
▁prom	-1053
ască	-1054
▁now	-1055
aţii	-1056
dic	-1057
iale	-1058
opul	-1059
▁Bulgari	-1060
enii	-1061
istem	-1062
▁Minister	-1063
▁financi	-1064
sible	-1065
ină	-1066
uring	-1067
▁inf	-1068
▁liber	-1069
▁Tre	-1070
qui	-1071
▁politici	-1072
▁two	-1073
▁precum	-1074
▁against	-1075
▁fol	-1076
▁afirm	-1077
▁încă	-1078
▁despre	-1079
oarece	-1080
▁includ	-1081
iH	-1082
rol	-1083
▁citiz	-1084
▁aplic	-1085
▁propun	-1086
▁hel	-1087
▁situ	-1088
▁cris	-1089
▁ass	-1090
▁prog	-1091
▁if	-1092
▁urmare	-1093
▁cel	-1094
ific	-1095
▁first	-1096
ost	-1097
▁proced	-1098
▁partic	-1099
▁ru	-1100
▁doar	-1101
▁împotri	-1102
▁multe	-1103
▁Europene	-1104
▁nevo	-1105
▁Uniunii	-1106
ink	-1107
ţei	-1108
he	-1109
ător	-1110
iune	-1111
▁perm	-1112
ne	-1113
▁say	-1114
▁fe	-1115
▁astfel	-1116
▁câ	-1117
sp	-1118
ule	-1119
▁med	-1120
▁când	-1121
▁acum	-1122
▁particular	-1123
▁South	-1124
▁aceasta	-1125
▁government	-1126
rect	-1127
▁Z	-1128
20	-1129
▁deoarece	-1130
▁take	-1131
ful	-1132
▁dezvolt	-1133
▁ci	-1134
▁inde	-1135
▁cal	-1136
▁when	-1137
▁his	-1138
▁Ace	-1139
tăm	-1140
▁any	-1141
▁financial	-1142
▁citizens	-1143
ern	-1144
▁privire	-1145
▁make	-1146
▁împotriva	-1147
▁crisis	-1148
/1	-1149
▁sistem	-1150
ja	-1151
▁lor	-1152
▁viz	-1153
ța	-1154
erii	-1155
▁glob	-1156
▁pos	-1157
atul	-1158
oane	-1159
▁însă	-1160
hip	-1161
▁those	-1162
▁see	-1163
aţia	-1164
▁situa	-1165
ased	-1166
▁prive	-1167
),	-1168
▁inten	-1169
ised	-1170
ystem	-1171
fi	-1172
ass	-1173
osn	-1174
▁incre	-1175
▁years	-1176
tain	-1177
zin	-1178
minist	-1179
ild	-1180
".	-1181
▁prof	-1182
▁există	-1183
▁car	-1184
▁even	-1185
▁agric	-1186
ţe	-1187
very	-1188
▁inclu	-1189
sk	-1190
▁well	-1191
amp	-1192
▁statele	-1193
▁Af	-1194
▁implement	-1195
▁cred	-1196
ficient	-1197
▁semn	-1198
▁def	-1199
▁respect	-1200
▁întâ	-1201
lu	-1202
cept	-1203
▁până	-1204
▁Macedonia	-1205
000	-1206
▁sign	-1207
▁being	-1208
now	-1209
▁Belgra	-1210
▁Parlamentul	-1211
brie	-1212
ang	-1213
▁appro	-1214
▁consum	-1215
▁meas	-1216
▁way	-1217
▁international	-1218
▁investi	-1219
itoare	-1220
▁parte	-1221
▁rev	-1222
AT	-1223
▁europene	-1224
▁indust	-1225
erc	-1226
▁Prin	-1227
▁aş	-1228
▁acestor	-1229
▁ț	-1230
▁ţări	-1231
▁Cu	-1232
▁organiz	-1233
gă	-1234
▁system	-1235
▁două	-1236
▁instru	-1237
▁made	-1238
▁Times	-1239
rest	-1240
▁înch	-1241
▁rând	-1242
▁domeni	-1243
▁agreement	-1244
▁peri	-1245
▁ul	-1246
estion	-1247
▁human	-1248
ilit	-1249
▁util	-1250
▁comple	-1251
▁oc	-1252
▁sprijin	-1253
▁comis	-1254
▁clear	-1255
iect	-1256
▁law	-1257
▁legisla	-1258
ok	-1259
ședin	-1260
▁SE	-1261
).	-1262
east	-1263
▁muncă	-1264
▁ris	-1265
▁pot	-1266
unity	-1267
▁ens	-1268
▁cât	-1269
▁'	-1270
▁real	-1271
▁lead	-1272
teneg	-1273
▁many	-1274
▁concern	-1275
stan	-1276
▁end	-1277
tatea	-1278
icit	-1279
▁However	-1280
▁nici	-1281
▁pă	-1282
▁energy	-1283
wn	-1284
rent	-1285
▁rap	-1286
ies	-1287
ely	-1288
ince	-1289
iew	-1290
▁oper	-1291
feren	-1292
▁believe	-1293
▁prior	-1294
▁bene	-1295
ităţii	-1296
▁obiec	-1297
pare	-1298
▁most	-1299
▁Southeast	-1300
▁Ar	-1301
arm	-1302
▁alte	-1303
▁suc	-1304
▁actu	-1305
old	-1306
▁Aceast	-1307
▁gi	-1308
hor	-1309
▁ban	-1310
▁So	-1311
▁acestui	-1312
ron	-1313
isation	-1314
art	-1315
▁medi	-1316
ata	-1317
▁acesta	-1318
rough	-1319
▁Este	-1320
uture	-1321
▁particip	-1322
▁ajut	-1323
▁contribu	-1324
▁speci	-1325
zintă	-1326
▁Y	-1327
▁posibil	-1328
low	-1329
ace	-1330
Times	-1331
lic	-1332
oth	-1333
udget	-1334
fort	-1335
dus	-1336
▁BiH	-1337
tee	-1338
▁preşedinte	-1339
▁Bal	-1340
ATO	-1341
▁autor	-1342
ârb	-1343
▁independ	-1344
▁vedere	-1345
▁Croati	-1346
▁future	-1347
urse	-1348
▁cor	-1349
▁Ag	-1350
▁ve	-1351
▁col	-1352
▁om	-1353
▁6	-1354
ings	-1355
▁tri	-1356
abile	-1357
▁vă	-1358
▁ach	-1359
▁Gree	-1360
▁could	-1361
▁last	-1362
tis	-1363
▁high	-1364
▁Turc	-1365
▁Lis	-1366
▁func	-1367
▁had	-1368
▁NATO	-1369
▁development	-1370
▁vote	-1371
▁fără	-1372
▁therefore	-1373
▁mom	-1374
▁Dle	-1375
▁Intern	-1376
▁amend	-1377
▁avea	-1378
▁unor	-1379
▁national	-1380
▁put	-1381
▁atât	-1382
ep	-1383
▁competi	-1384
▁good	-1385
▁through	-1386
▁effec	-1387
igur	-1388
▁process	-1389
ital	-1390
▁Wh	-1391
resc	-1392
iment	-1393
▁level	-1394
▁Rus	-1395
▁Sec	-1396
▁order	-1397
▁measures	-1398
▁cetăţ	-1399
▁Bosn	-1400
▁viol	-1401
▁constru	-1402
▁after	-1403
▁situation	-1404
ploy	-1405
▁ultim	-1406
ove	-1407
bility	-1408
▁interes	-1409
▁budget	-1410
▁moment	-1411
ik	-1412
land	-1413
▁clim	-1414
▁Nu	-1415
▁want	-1416
▁fundament	-1417
▁current	-1418
▁think	-1419
▁help	-1420
▁know	-1421
▁amb	-1422
ope	-1423
▁prac	-1424
▁Turkey	-1425
▁extern	-1426
▁transport	-1427
▁oblig	-1428
▁issue	-1429
resent	-1430
▁Bulgaria	-1431
uget	-1432
▁ang	-1433
men	-1434
lo	-1435
▁vorb	-1436
ona	-1437
▁Rep	-1438
ady	-1439
▁fel	-1440
▁socie	-1441
▁There	-1442
▁domn	-1443
▁îmb	-1444
▁recent	-1445
loc	-1446
tivă	-1447
ret	-1448
fice	-1449
▁jo	-1450
▁where	-1451
▁add	-1452
illion	-1453
reed	-1454
▁acestei	-1455
▁integ	-1456
▁utiliz	-1457
ical	-1458
▁intro	-1459
▁sârb	-1460
▁fact	-1461
▁author	-1462
▁Do	-1463
▁nevoie	-1464
▁lui	-1465
▁UN	-1466
▁seri	-1467
ităţile	-1468
▁vom	-1469
▁meet	-1470
ev	-1471
▁internaţion	-1472
tional	-1473
av	-1474
▁buget	-1475
▁popul	-1476
erile	-1477
▁avem	-1478
▁mili	-1479
▁cost	-1480
eze	-1481
▁succes	-1482
ft	-1483
▁long	-1484
▁world	-1485
▁result	-1486
tică	-1487
▁control	-1488
ork	-1489
▁SETimes	-1490
▁adopt	-1491
▁angaj	-1492
▁set	-1493
care	-1494
▁dl	-1495
▁dra	-1496
▁ful	-1497
▁punct	-1498
▁id	-1499
ages	-1500
olid	-1501
▁commit	-1502
▁baz	-1503
▁opin	-1504
▁răsp	-1505
iar	-1506
eam	-1507
▁mi	-1508
▁civ	-1509
▁rest	-1510
▁impro	-1511
▁Ex	-1512
erilor	-1513
▁dist	-1514
ough	-1515
▁afirmat	-1516
▁viitor	-1517
li	-1518
▁continu	-1519
▁rela	-1520
▁same	-1521
▁use	-1522
▁reprezintă	-1523
ount	-1524
orul	-1525
▁7	-1526
▁constitu	-1527
▁noastre	-1528
▁doc	-1529
▁lu	-1530
▁Consiliului	-1531
ază	-1532
▁every	-1533
▁decât	-1534
▁tal	-1535
▁încep	-1536
▁servic	-1537
▁lum	-1538
▁reduce	-1539
pri	-1540
▁cea	-1541
▁bu	-1542
▁Albania	-1543
▁politică	-1544
▁Dem	-1545
prin	-1546
▁lar	-1547
ensi	-1548
▁economică	-1549
ited	-1550
amn	-1551
▁președin	-1552
▁fra	-1553
▁anum	-1554
▁efort	-1555
▁stru	-1556
▁vis	-1557
▁faţă	-1558
eng	-1559
▁str	-1560
ject	-1561
▁elect	-1562
uns	-1563
▁person	-1564
▁ext	-1565
▁possible	-1566
▁security	-1567
own	-1568
▁afl	-1569
olution	-1570
▁debate	-1571
▁ader	-1572
▁direct	-1573
▁bine	-1574
▁Parlamentului	-1575
till	-1576
▁măsuri	-1577
ana	-1578
▁ensure	-1579
▁decision	-1580
unătă	-1581
▁general	-1582
ech	-1583
aran	-1584
▁trecut	-1585
cii	-1586
▁aleg	-1587
ph	-1588
▁sum	-1589
▁extre	-1590
▁ini	-1591
▁administ	-1592
▁Pol	-1593
ange	-1594
▁Reg	-1595
iness	-1596
▁sing	-1597
ction	-1598
▁est	-1599
▁fond	-1600
▁tax	-1601
▁scris	-1602
ţiilor	-1603
plu	-1604
amente	-1605
▁cei	-1606
▁grup	-1607
▁negoti	-1608
▁înain	-1609
▁sal	-1610
▁gra	-1611
▁tur	-1612
abl	-1613
▁10	-1614
omen	-1615
▁area	-1616
▁educ	-1617
▁îmbunătă	-1618
▁regard	-1619
▁199	-1620
▁both	-1621
ves	-1622
▁sale	-1623
ership	-1624
▁dezbate	-1625
▁nat	-1626
enilor	-1627
iunea	-1628
▁realiz	-1629
▁ech	-1630
▁Sp	-1631
aţie	-1632
▁economice	-1633
eră	-1634
▁just	-1635
▁still	-1636
▁8	-1637
▁requi	-1638
▁pia	-1639
▁creşte	-1640
▁Mad	-1641
▁respons	-1642
▁Mon	-1643
▁luni	-1644
anu	-1645
lan	-1646
anian	-1647
▁discus	-1648
▁înd	-1649
▁Preşedin	-1650
▁îşi	-1651
xim	-1652
▁reprezent	-1653
▁0	-1654
▁met	-1655
▁sigur	-1656
▁mari	-1657
▁Pri	-1658
aţiei	-1659
otriv	-1660
▁abord	-1661
▁deciz	-1662
▁milit	-1663
▁cult	-1664
▁chesti	-1665
▁during	-1666
▁vic	-1667
irea	-1668
▁făcut	-1669
cid	-1670
▁aplicare	-1671
▁efec	-1672
▁group	-1673
▁Mar	-1674
▁celor	-1675
▁Commissioner	-1676
paren	-1677
▁respec	-1678
▁indi	-1679
unci	-1680
▁lim	-1681
una	-1682
usti	-1683
▁2009	-1684
ânt	-1685
▁domeniul	-1686
▁priveşte	-1687
▁today	-1688
▁disp	-1689
▁bo	-1690
▁ste	-1691
▁putem	-1692
ției	-1693
▁invest	-1694
▁since	-1695
cul	-1696
not	-1697
▁subl	-1698
usiness	-1699
ties	-1700
▁does	-1701
ording	-1702
ror	-1703
▁er	-1704
▁At	-1705
ptăm	-1706
▁jud	-1707
▁own	-1708
▁proposal	-1709
alul	-1710
abilă	-1711
hing	-1712
▁fam	-1713
inţă	-1714
com	-1715
▁much	-1716
▁său	-1717
▁–	-1718
iron	-1719
ays	-1720
▁interest	-1721
▁oam	-1722
▁cannot	-1723
▁exem	-1724
▁pie	-1725
▁Her	-1726
▁within	-1727
▁place	-1728
cem	-1729
▁resolution	-1730
▁continue	-1731
▁discu	-1732
▁deja	-1733
▁fiind	-1734
▁exist	-1735
ready	-1736
ablish	-1737
▁consolid	-1738
▁US	-1739
▁impact	-1740
oan	-1741
▁nou	-1742
alth	-1743
ăzi	-1744
▁voted	-1745
▁conflic	-1746
▁struct	-1747
▁votat	-1748
▁compan	-1749
hnolog	-1750
ents	-1751
▁fem	-1752
ărilor	-1753
▁Im	-1754
▁already	-1755
▁comisar	-1756
▁open	-1757
țiile	-1758
▁15	-1759
ken	-1760
▁cere	-1761
▁global	-1762
ead	-1763
▁urmă	-1764
▁arm	-1765
▁how	-1766
aş	-1767
▁mat	-1768
▁criz	-1769
▁env	-1770
▁month	-1771
țin	-1772
▁naţion	-1773
▁conte	-1774
▁call	-1775
otrivit	-1776
▁urg	-1777
▁transparen	-1778
bour	-1779
ek	-1780
şit	-1781
▁rezolu	-1782
▁pow	-1783
▁including	-1784
▁rol	-1785
ank	-1786
▁prev	-1787
ski	-1788
▁protection	-1789
lav	-1790
▁represent	-1791
▁întreb	-1792
▁primul	-1793
▁here	-1794
uror	-1795
ins	-1796
▁solid	-1797
▁cla	-1798
▁administra	-1799
▁Ne	-1800
rist	-1801
oad	-1802
▁That	-1803
▁Is	-1804
alog	-1805
ați	-1806
work	-1807
▁Republ	-1808
▁favoarea	-1809
▁extrem	-1810
aty	-1811
▁favour	-1812
▁Bar	-1813
▁avut	-1814
ţine	-1815
▁case	-1816
▁question	-1817
▁concl	-1818
▁mis	-1819
ps	-1820
ironment	-1821
▁înce	-1822
▁establish	-1823
ral	-1824
▁negoci	-1825
▁number	-1826
ring	-1827
▁pat	-1828
onst	-1829
▁drepturile	-1830
DE	-1831
▁omului	-1832
cel	-1833
▁initi	-1834
▁atunci	-1835
▁îi	-1836
ez	-1837
elf	-1838
▁Bosnia	-1839
ko	-1840
▁common	-1841
▁si	-1842
ovina	-1843
▁effort	-1844
ria	-1845
erge	-1846
ply	-1847
▁asigur	-1848
▁eval	-1849
▁reduc	-1850
rit	-1851
▁legal	-1852
anc	-1853
fe	-1854
▁europeană	-1855
enţi	-1856
lemen	-1857
▁bună	-1858
▁Turcia	-1859
▁war	-1860
▁partea	-1861
▁cro	-1862
▁aten	-1863
adic	-1864
▁răm	-1865
▁progres	-1866
asă	-1867
▁Trebuie	-1868
ture	-1869
▁acela	-1870
▁ade	-1871
▁îns	-1872
▁chiar	-1873
▁bas	-1874
▁differen	-1875
par	-1876
▁trei	-1877
▁allow	-1878
▁minor	-1879
bon	-1880
▁tem	-1881
▁follow	-1882
▁pur	-1883
▁solicit	-1884
▁procesul	-1885
▁necess	-1886
▁politice	-1887
oase	-1888
ason	-1889
▁perioad	-1890
ner	-1891
▁Madam	-1892
amentul	-1893
▁demonst	-1894
▁coord	-1895
▁ai	-1896
ațion	-1897
▁hope	-1898
▁three	-1899
▁For	-1900
isc	-1901
▁Aceasta	-1902
▁întreprin	-1903
▁specific	-1904
▁drepturilor	-1905
▁issues	-1906
▁12	-1907
▁000	-1908
▁timpul	-1909
▁dezvoltare	-1910
▁şti	-1911
▁nuc	-1912
▁Consiliul	-1913
siv	-1914
abor	-1915
ious	-1916
dies	-1917
▁aim	-1918
▁able	-1919
▁început	-1920
▁cauz	-1921
▁spus	-1922
reg	-1923
struct	-1924
▁Croatia	-1925
▁acţi	-1926
wards	-1927
▁business	-1928
imin	-1929
▁abs	-1930
come	-1931
▁certain	-1932
▁sm	-1933
reign	-1934
tr	-1935
▁tut	-1936
▁siguran	-1937
▁cooperation	-1938
▁2010	-1939
▁remain	-1940
rează	-1941
▁aceea	-1942
▁grow	-1943
▁Sch	-1944
▁ann	-1945
▁ON	-1946
ors	-1947
▁view	-1948
▁clar	-1949
▁lo	-1950
▁may	-1951
ning	-1952
▁parlament	-1953
▁9	-1954
▁next	-1955
enţa	-1956
▁your	-1957
vid	-1958
▁provid	-1959
▁probleme	-1960
telor	-1961
ately	-1962
▁role	-1963
▁noastră	-1964
▁Serbian	-1965
▁mă	-1966
▁invol	-1967
▁Turk	-1968
▁trade	-1969
▁institutions	-1970
▁recun	-1971
▁responsabil	-1972
▁environment	-1973
▁exprim	-1974
▁without	-1975
▁beh	-1976
▁conform	-1977
The	-1978
iere	-1979
▁câte	-1980
▁persoane	-1981
▁contra	-1982
▁fur	-1983
▁opport	-1984
▁La	-1985
▁point	-1986
▁comer	-1987
▁implic	-1988
▁change	-1989
▁cop	-1990
▁Tot	-1991
uit	-1992
ward	-1993
▁On	-1994
▁information	-1995
▁dialog	-1996
mi	-1997
ole	-1998
▁statelor	-1999
▁context	-2000
▁dest	-2001
▁îl	-2002
▁înde	-2003
▁financiare	-2004
▁raportul	-2005
▁Acesta	-2006
aga	-2007
ument	-2008
tit	-2009
▁pozi	-2010
▁accept	-2011
iste	-2012
▁date	-2013
▁Din	-2014
▁bun	-2015
▁authorities	-2016
ality	-2017
▁rat	-2018
▁tuturor	-2019
▁astăzi	-2020
anism	-2021
ether	-2022
mes	-2023
▁problems	-2024
▁objec	-2025
▁offici	-2026
▁He	-2027
▁Grec	-2028
fă	-2029
▁cand	-2030
▁evalu	-2031
rile	-2032
gh	-2033
ţum	-2034
▁job	-2035
tri	-2036
▁Cent	-2037
▁permite	-2038
▁anul	-2039
▁recom	-2040
▁before	-2041
▁areas	-2042
▁minist	-2043
▁aspect	-2044
▁reason	-2045
ști	-2046
sive	-2047
▁sf	-2048
▁aș	-2049
▁proiect	-2050
▁problemă	-2051
▁via	-2052
▁Pe	-2053
ines	-2054
▁Gro	-2055
▁ţară	-2056
▁final	-2057
ked	-2058
▁Prime	-2059
▁cazul	-2060
▁while	-2061
ilea	-2062
reedom	-2063
▁local	-2064
▁dum	-2065
ței	-2066
."	-2067
▁Minist	-2068
▁needs	-2069
▁strong	-2070
▁indic	-2071
▁14	-2072
bru	-2073
ists	-2074
▁necessary	-2075
its	-2076
ployment	-2077
▁economy	-2078
▁dev	-2079
▁susţin	-2080
▁motiv	-2081
atului	-2082
▁Germ	-2083
tăţii	-2084
▁deal	-2085
fa	-2086
mente	-2087
▁hand	-2088
▁monitor	-2089
zb	-2090
▁sur	-2091
▁By	-2092
urale	-2093
▁told	-2094
dul	-2095
▁solidari	-2096
▁strategy	-2097
▁2020	-2098
▁why	-2099
▁curs	-2100
▁candid	-2101
▁Belgrade	-2102
ered	-2103
▁desch	-2104
▁too	-2105
▁progress	-2106
▁evid	-2107
▁wel	-2108
▁30	-2109
▁directive	-2110
▁poten	-2111
▁2008	-2112
▁Or	-2113
ape	-2114
▁relations	-2115
▁Treaty	-2116
▁examp	-2117
▁aici	-2118
▁health	-2119
sions	-2120
ută	-2121
rimin	-2122
▁women	-2123
uk	-2124
▁pen	-2125
▁main	-2126
▁provoc	-2127
▁numai	-2128
lea	-2129
other	-2130
arie	-2131
untem	-2132
▁dor	-2133
▁deput	-2134
▁ţările	-2135
▁Ge	-2136
▁legăt	-2137
▁elec	-2138
▁Di	-2139
ates	-2140
inţa	-2141
▁obiective	-2142
▁îng	-2143
▁towards	-2144
▁Greece	-2145
▁taken	-2146
▁Ad	-2147
▁Trat	-2148
▁afec	-2149
▁desc	-2150
aţiile	-2151
ote	-2152
▁exemplu	-2153
▁however	-2154
alf	-2155
▁ofici	-2156
sibility	-2157
ln	-2158
▁better	-2159
▁norm	-2160
▁doresc	-2161
lation	-2162
▁ret	-2163
ird	-2164
▁energe	-2165
▁course	-2166
▁săptăm	-2167
▁pregă	-2168
▁înainte	-2169
▁particularly	-2170
man	-2171
esion	-2172
▁comb	-2173
▁identi	-2174
▁mulţum	-2175
▁then	-2176
unea	-2177
▁confr	-2178
▁effective	-2179
▁parten	-2180
▁câteva	-2181
▁Turkish	-2182
porte	-2183
▁lup	-2184
▁off	-2185
▁action	-2186
▁dific	-2187
lov	-2188
▁Român	-2189
▁euros	-2190
▁politica	-2191
atic	-2192
▁ONU	-2193
inţ	-2194
bun	-2195
▁inclusiv	-2196
▁11	-2197
▁red	-2198
▁gen	-2199
▁pas	-2200
▁clos	-2201
▁bro	-2202
atori	-2203
▁dur	-2204
ivers	-2205
▁agricult	-2206
ants	-2207
▁El	-2208
ita	-2209
▁tec	-2210
iilor	-2211
mittee	-2212
▁Romania	-2213
▁propri	-2214
▁child	-2215
țele	-2216
▁cuv	-2217
gth	-2218
▁power	-2219
▁deter	-2220
▁compani	-2221
▁produs	-2222
▁serious	-2223
ded	-2224
▁bi	-2225
co	-2226
▁diffic	-2227
▁freedom	-2228
▁account	-2229
rarea	-2230
▁show	-2231
▁means	-2232
enţă	-2233
▁publice	-2234
▁stren	-2235
▁sfâr	-2236
▁Committee	-2237
lec	-2238
▁25	-2239
▁trat	-2240
▁further	-2241
▁Fin	-2242
ristina	-2243
▁puţin	-2244
▁strength	-2245
▁peste	-2246
▁democratic	-2247
▁negotiations	-2248
▁rapporte	-2249
▁tru	-2250
mework	-2251
▁minister	-2252
sidency	-2253
lect	-2254
▁Dom	-2255
▁ide	-2256
ff	-2257
▁zi	-2258
CE	-2259
▁guvernul	-2260
▁mea	-2261
▁improve	-2262
▁wri	-2263
▁example	-2264
▁data	-2265
▁million	-2266
▁dezvoltarea	-2267
▁acestora	-2268
ught	-2269
▁justi	-2270
▁diferi	-2271
▁obs	-2272
▁sug	-2273
ova	-2274
vic	-2275
etty	-2276
uters	-2277
▁move	-2278
▁parliament	-2279
▁%	-2280
rum	-2281
▁milioane	-2282
fied	-2283
▁ear	-2284
▁una	-2285
▁mand	-2286
▁referitoare	-2287
▁afac	-2288
iuni	-2289
tives	-2290
▁rele	-2291
▁come	-2292
▁persoan	-2293
▁doamn	-2294
▁spun	-2295
▁civil	-2296
▁Europei	-2297
rag	-2298
▁foreign	-2299
▁președinte	-2300
▁Grup	-2301
FP	-2302
na	-2303
▁crime	-2304
inc	-2305
▁sper	-2306
pecial	-2307
izarea	-2308
zboi	-2309
▁regional	-2310
Getty	-2311
▁pay	-2312
▁find	-2313
ităţilor	-2314
▁europen	-2315
▁increase	-2316
oz	-2317
▁întâln	-2318
▁Images	-2319
▁membru	-2320
ulture	-2321
▁United	-2322
inte	-2323
▁provide	-2324
▁atten	-2325
▁sociale	-2326
▁Balk	-2327
▁give	-2328
ases	-2329
▁lung	-2330
▁If	-2331
▁numele	-2332
▁given	-2333
▁cond	-2334
▁imm	-2335
▁En	-2336
eric	-2337
▁aw	-2338
▁Pristina	-2339
▁problema	-2340
▁îndepl	-2341
pun	-2342
▁fundamental	-2343
anovic	-2344
▁anti	-2345
▁urma	-2346
▁rece	-2347
▁back	-2348
▁get	-2349
▁depl	-2350
toare	-2351
▁întâm	-2352
▁discut	-2353
▁putern	-2354
▁efforts	-2355
▁plă	-2356
▁victim	-2357
▁alb	-2358
atice	-2359
▁post	-2360
▁preven	-2361
▁încât	-2362
▁critic	-2363
arde	-2364
ential	-2365
▁among	-2366
ouse	-2367
▁Ital	-2368
▁resour	-2369
▁second	-2370
▁Geor	-2371
tiva	-2372
urii	-2373
▁Group	-2374
în	-2375
▁Dacă	-2376
▁cir	-2377
ined	-2378
▁ori	-2379
▁famil	-2380
▁different	-2381
▁termen	-2382
țe	-2383
/11	-2384
ților	-2385
abona	-2386
▁aşte	-2387
▁Aceste	-2388
▁importante	-2389
▁far	-2390
ime	-2391
sition	-2392
▁Parti	-2393
▁exper	-2394
▁lid	-2395
▁standard	-2396
▁asigura	-2397
▁nostru	-2398
▁include	-2399
▁Lisabona	-2400
▁Mil	-2401
▁terms	-2402
ive	-2403
ned	-2404
▁Cred	-2405
▁Lisbon	-2406
▁individ	-2407
▁meeting	-2408
▁Domn	-2409
▁capac	-2410
urt	-2411
▁instrument	-2412
▁unul	-2413
entă	-2414
▁gent	-2415
▁total	-2416
▁great	-2417
▁Unite	-2418
▁play	-2419
▁saf	-2420
tori	-2421
plom	-2422
istan	-2423
atorii	-2424
▁whether	-2425
▁capital	-2426
romis	-2427
▁bord	-2428
▁conditions	-2429
▁compromis	-2430
▁importantă	-2431
▁gentlemen	-2432
uşi	-2433
ese	-2434
▁13	-2435
▁resp	-2436
▁sublin	-2437
▁reach	-2438
ath	-2439
urd	-2440
▁conflict	-2441
▁pa	-2442
ness	-2443
▁bloc	-2444
▁aspec	-2445
ximativ	-2446
▁Fran	-2447
gin	-2448
earch	-2449
▁Aş	-2450
▁cru	-2451
fy	-2452
▁discuss	-2453
▁agen	-2454
▁medic	-2455
ătoare	-2456
▁competen	-2457
iber	-2458
▁foc	-2459
▁externe	-2460
eace	-2461
▁domnilor	-2462
▁fight	-2463
▁infra	-2464
▁Sunt	-2465
▁signific	-2466
▁hap	-2467
dific	-2468
▁legate	-2469
▁Social	-2470
▁rules	-2471
rului	-2472
▁Mrs	-2473
▁orice	-2474
ining	-2475
▁cauza	-2476
▁asisten	-2477
▁adv	-2478
▁Belgrad	-2479
arc	-2480
▁2007	-2481
atives	-2482
▁growth	-2483
tin	-2484
▁Bru	-2485
▁zon	-2486
▁approach	-2487
▁rapid	-2488
▁ales	-2489
..	-2490
▁Grecia	-2491
unile	-2492
▁adopted	-2493
▁coleg	-2494
▁small	-2495
▁Gu	-2496
▁bal	-2497
▁experi	-2498
▁week	-2499
pel	-2500
▁18	-2501
▁27	-2502
tării	-2503
▁adevă	-2504
arious	-2505
▁chall	-2506
alt	-2507
▁alt	-2508
▁Comm	-2509
▁Fund	-2510
▁stud	-2511
▁răspuns	-2512
igra	-2513
▁position	-2514
▁enti	-2515
▁orig	-2516
▁press	-2517
▁access	-2518
▁păr	-2519
els	-2520
unteneg	-2521
▁did	-2522
▁fiecare	-2523
▁writing	-2524
ustain	-2525
/10	-2526
▁mate	-2527
▁unde	-2528
▁food	-2529
▁climate	-2530
▁prob	-2531
▁unele	-2532
▁efici	-2533
▁reglement	-2534
ultate	-2535
▁deven	-2536
▁used	-2537
▁Sk	-2538
▁addi	-2539
▁strengthen	-2540
▁dată	-2541
▁talks	-2542
▁relig	-2543
nic	-2544
round	-2545
▁To	-2546
▁Domnule	-2547
▁feme	-2548
▁down	-2549
imente	-2550
▁guaran	-2551
▁(1	-2552
▁excl	-2553
▁framework	-2554
▁build	-2555
▁aşa	-2556
▁baza	-2557
ecv	-2558
▁become	-2559
▁her	-2560
▁former	-2561
▁infrastruct	-2562
▁success	-2563
▁cerce	-2564
▁industri	-2565
ogn	-2566
▁resources	-2567
▁implementation	-2568
▁legislation	-2569
▁They	-2570
▁politicii	-2571
▁criză	-2572
▁ridic	-2573
/09	-2574
olul	-2575
ied	-2576
stand	-2577
ory	-2578
ck	-2579
▁elections	-2580
▁benefic	-2581
reb	-2582
▁step	-2583
▁determin	-2584
▁adă	-2585
bal	-2586
▁măsură	-2587
tenegro	-2588
▁gă	-2589
gether	-2590
▁together	-2591
operation	-2592
▁moder	-2593
▁services	-2594
▁17	-2595
▁ia	-2596
omet	-2597
▁ser	-2598
gi	-2599
▁diplom	-2600
oney	-2601
▁eficient	-2602
ecu	-2603
▁da	-2604
/07	-2605
gration	-2606
▁spune	-2607
▁război	-2608
▁working	-2609
▁adres	-2610
▁document	-2611
viz	-2612
▁obţin	-2613
▁combate	-2614
tare	-2615
▁recogn	-2616
▁members	-2617
▁europeni	-2618
iunii	-2619
ăn	-2620
▁săptămân	-2621
oarea	-2622
▁summit	-2623
▁concent	-2624
▁opinion	-2625
▁thank	-2626
▁construc	-2627
▁International	-2628
oa	-2629
▁eg	-2630
amnă	-2631
▁text	-2632
▁desfă	-2633
▁EUR	-2634
▁programme	-2635
ibil	-2636
/06	-2637
ruc	-2638
...	-2639
▁companies	-2640
▁says	-2641
ziti	-2642
▁Croaţia	-2643
▁achieve	-2644
osi	-2645
țile	-2646
▁stră	-2647
arge	-2648
▁Securi	-2649
▁standards	-2650
▁media	-2651
jlo	-2652
▁ţării	-2653
▁numă	-2654
▁obiectiv	-2655
▁perspec	-2656
▁exten	-2657
▁confrun	-2658
▁anim	-2659
icies	-2660
▁tele	-2661
▁locuri	-2662
▁sustain	-2663
▁facă	-2664
▁supra	-2665
▁bring	-2666
ety	-2667
▁calitate	-2668
atis	-2669
ising	-2670
▁products	-2671
lex	-2672
ogra	-2673
▁few	-2674
▁parties	-2675
▁securitate	-2676
ton	-2677
▁att	-2678
▁zile	-2679
▁funds	-2680
pecially	-2681
▁rate	-2682
▁situaţia	-2683
▁crește	-2684
▁welcome	-2685
▁sectorul	-2686
▁policies	-2687
▁third	-2688
▁criteri	-2689
▁necesare	-2690
agement	-2691
asing	-2692
▁Albanian	-2693
▁enter	-2694
▁cetăț	-2695
▁going	-2696
▁regiune	-2697
▁Prim	-2698
▁sănă	-2699
▁Mond	-2700
/05	-2701
ave	-2702
arul	-2703
▁Pentru	-2704
▁require	-2705
ității	-2706
▁chang	-2707
▁rapporteur	-2708
ability	-2709
▁furn	-2710
▁emis	-2711
pă	-2712
▁Go	-2713
ling	-2714
▁commun	-2715
▁fish	-2716
any	-2717
▁project	-2718
rale	-2719
uraj	-2720
▁poli	-2721
▁îngrij	-2722
▁privește	-2723
▁especially	-2724
▁key	-2725
▁head	-2726
▁significant	-2727
/04	-2728
▁investig	-2729
▁semnific	-2730
▁partid	-2731
▁sprijinul	-2732
fia	-2733
▁16	-2734
▁După	-2735
je	-2736
▁comune	-2737
▁present	-2738
used	-2739
▁et	-2740
▁juri	-2741
▁opportunity	-2742
▁pass	-2743
▁pare	-2744
▁ofer	-2745
▁(2	-2746
estiv	-2747
▁nouă	-2748
▁preşedintă	-2749
eie	-2750
▁ess	-2751
▁money	-2752
preună	-2753
▁sens	-2754
▁influ	-2755
▁aproximativ	-2756
▁done	-2757
▁sfârşit	-2758
/08	-2759
▁rămân	-2760
▁legătură	-2761
▁2011	-2762
▁police	-2763
nov	-2764
ressed	-2765
▁Regul	-2766
▁adăug	-2767
▁ph	-2768
ala	-2769
uia	-2770
▁assist	-2771
▁free	-2772
▁Slov	-2773
▁doilea	-2774
▁meu	-2775
▁aid	-2776
▁Se	-2777
▁promis	-2778
▁importance	-2779
orth	-2780
▁crimin	-2781
ocrat	-2782
▁simpl	-2783
▁ţara	-2784
▁introduc	-2785
▁aprob	-2786
▁pier	-2787
▁non	-2788
▁months	-2789
▁forward	-2790
▁menţion	-2791
ocia	-2792
gor	-2793
▁dreptul	-2794
▁referen	-2795
▁suntem	-2796
▁another	-2797
sia	-2798
▁Cy	-2799
ma	-2800
ash	-2801
nes	-2802
▁bil	-2803
regist	-2804
can	-2805
▁period	-2806
▁Acc	-2807
▁ven	-2808
▁afaceri	-2809
▁deleg	-2810
▁România	-2811
▁Direc	-2812
▁based	-2813
eamnă	-2814
atorilor	-2815
▁Members	-2816
▁found	-2817
▁modific	-2818
▁îmbunătăţi	-2819
▁Democra	-2820
▁difficult	-2821
/03	-2822
▁vre	-2823
▁află	-2824
▁Ş	-2825
▁repe	-2826
▁benef	-2827
fair	-2828
▁workers	-2829
▁matter	-2830
▁poziti	-2831
odată	-2832
▁ladies	-2833
tie	-2834
tial	-2835
▁children	-2836
ugos	-2837
▁equ	-2838
▁basis	-2839
▁existen	-2840
ozi	-2841
▁Party	-2842
▁lucră	-2843
▁Skop	-2844
sc	-2845
▁research	-2846
,000	-2847
▁dator	-2848
ustice	-2849
rucât	-2850
▁mention	-2851
”,	-2852
▁cooperare	-2853
iem	-2854
▁competitiv	-2855
▁regulation	-2856
▁prez	-2857
▁adevărat	-2858
utes	-2859
▁force	-2860
▁finanţ	-2861
▁less	-2862
itare	-2863
▁câşti	-2864
terior	-2865
▁Presidency	-2866
izare	-2867
pected	-2868
▁states	-2869
▁„	-2870
tat	-2871
▁pros	-2872
▁making	-2873
unţ	-2874
▁cun	-2875
▁Tra	-2876
▁înregist	-2877
▁export	-2878
▁oferi	-2879
per	-2880
▁conduc	-2881
▁altă	-2882
▁billion	-2883
▁mici	-2884
itori	-2885
▁nivelul	-2886
iu	-2887
▁rezultate	-2888
▁ocup	-2889
▁spre	-2890
▁explo	-2891
▁consec	-2892
MI	-2893
rilor	-2894
▁Greek	-2895
▁democracy	-2896
▁confirm	-2897
▁plus	-2898
▁prima	-2899
rael	-2900
▁Republic	-2901
▁Această	-2902
▁elabor	-2903
kes	-2904
▁discrimin	-2905
▁comună	-2906
▁full	-2907
▁împreună	-2908
▁peace	-2909
▁protej	-2910
▁greater	-2911
▁partn	-2912
▁affec	-2913
▁Er	-2914
▁proper	-2915
▁promov	-2916
ple	-2917
▁consult	-2918
0%	-2919
▁What	-2920
▁sever	-2921
ându	-2922
▁Afric	-2923
time	-2924
▁pute	-2925
ovski	-2926
▁reu	-2927
▁Potrivit	-2928
ef	-2929
▁elimin	-2930
▁doamnelor	-2931
▁integration	-2932
gest	-2933
▁scă	-2934
▁pregăti	-2935
▁interven	-2936
▁positive	-2937
▁suf	-2938
enda	-2939
▁New	-2940
▁energie	-2941
▁legislative	-2942
▁pus	-2943
▁introduce	-2944
oseb	-2945
▁iniţia	-2946
▁pesc	-2947
▁Cur	-2948
ană	-2949
▁încerc	-2950
▁sour	-2951
▁Russia	-2952
IT	-2953
ştia	-2954
▁const	-2955
▁vederea	-2956
▁demand	-2957
▁But	-2958
▁adecv	-2959
▁pop	-2960
ex	-2961
wh	-2962
jects	-2963
▁acelaşi	-2964
▁înseamnă	-2965
▁aib	-2966
ilm	-2967
▁ple	-2968
eneral	-2969
▁cetăţenilor	-2970
▁propunerea	-2971
▁substan	-2972
curi	-2973
alii	-2974
▁cooperarea	-2975
sel	-2976
uge	-2977
▁aibă	-2978
nea	-2979
▁numer	-2980
▁reac	-2981
▁eforturile	-2982
roc	-2983
▁dov	-2984
▁recon	-2985
▁tin	-2986
▁Dnă	-2987
go	-2988
ged	-2989
▁albane	-2990
▁create	-2991
▁internaţionale	-2992
▁judici	-2993
▁gran	-2994
▁happen	-2995
▁responsibility	-2996
pla	-2997
▁excel	-2998
▁rom	-2999
▁proiec	-3000
sequ	-3001
▁farm	-3002
▁crearea	-3003
▁mulţumesc	-3004
▁jobs	-3005
▁whole	-3006
▁rezult	-3007
inea	-3008
itat	-3009
▁According	-3010
bile	-3011
▁enc	-3012
▁solution	-3013
▁fisc	-3014
ination	-3015
▁turn	-3016
ober	-3017
▁event	-3018
▁conven	-3019
inci	-3020
▁preşedintele	-3021
▁party	-3022
▁financiar	-3023
▁least	-3024
▁All	-3025
▁mobil	-3026
▁behalf	-3027
DP	-3028
ah	-3029
tează	-3030
▁Barro	-3031
▁poin	-3032
▁credi	-3033
▁analiz	-3034
torii	-3035
▁Ob	-3036
ways	-3037
▁acuz	-3038
▁lans	-3039
▁crucial	-3040
▁facil	-3041
▁aproape	-3042
▁încuraj	-3043
▁proposals	-3044
▁stim	-3045
▁tribun	-3046
▁following	-3047
▁expect	-3048
▁naţionale	-3049
▁problemele	-3050
ared	-3051
van	-3052
▁air	-3053
▁arg	-3054
ateral	-3055
▁protect	-3056
reze	-3057
▁număr	-3058
▁Statele	-3059
▁prea	-3060
▁society	-3061
iunile	-3062
▁cetăţenii	-3063
▁ke	-3064
▁sen	-3065
unii	-3066
▁best	-3067
▁2006	-3068
▁patru	-3069
▁personal	-3070
onom	-3071
▁large	-3072
▁taking	-3073
position	-3074
▁military	-3075
”.	-3076
zut	-3077
▁vol	-3078
aje	-3079
selves	-3080
ES	-3081
▁venit	-3082
▁21	-3083
▁wish	-3084
▁rezol	-3085
▁necesar	-3086
▁mediu	-3087
▁Acord	-3088
▁Bank	-3089
▁simil	-3090
▁lume	-3091
▁încăl	-3092
▁artic	-3093
UA	-3094
pic	-3095
tici	-3096
▁desig	-3097
▁start	-3098
▁ent	-3099
▁four	-3100
▁China	-3101
▁depend	-3102
tific	-3103
▁decis	-3104
▁essential	-3105
side	-3106
▁bune	-3107
cident	-3108
▁oport	-3109
▁altern	-3110
alele	-3111
▁agreements	-3112
▁With	-3113
▁achie	-3114
▁întreprinder	-3115
tăţi	-3116
▁each	-3117
▁ten	-3118
▁nuclear	-3119
for	-3120
▁facem	-3121
▁life	-3122
▁anumite	-3123
▁diferite	-3124
▁chel	-3125
▁socială	-3126
▁accession	-3127
▁Rad	-3128
▁joint	-3129
▁education	-3130
▁coh	-3131
▁results	-3132
pris	-3133
▁several	-3134
▁Fore	-3135
▁Econom	-3136
▁Ce	-3137
arii	-3138
▁gar	-3139
oj	-3140
▁according	-3141
astră	-3142
▁financiară	-3143
io	-3144
▁deb	-3145
▁ec	-3146
▁member	-3147
za	-3148
▁oraş	-3149
▁currently	-3150
▁Monday	-3151
▁conclu	-3152
▁Kar	-3153
▁Mi	-3154
▁repor	-3155
▁crizei	-3156
▁industry	-3157
ood	-3158
govina	-3159
▁cultural	-3160
▁interests	-3161
▁Serbiei	-3162
▁investment	-3163
▁word	-3164
lam	-3165
▁2004	-3166
oung	-3167
line	-3168
▁complete	-3169
▁saying	-3170
vernment	-3171
▁transfer	-3172
ented	-3173
▁peric	-3174
▁anno	-3175
▁tehnolog	-3176
duse	-3177
▁vin	-3178
though	-3179
ick	-3180
▁inst	-3181
▁Iran	-3182
▁Sar	-3183
▁ask	-3184
ras	-3185
▁House	-3186
cember	-3187
▁short	-3188
▁low	-3189
▁câştig	-3190
▁statut	-3191
▁majority	-3192
itar	-3193
▁reviz	-3194
▁guvernului	-3195
▁due	-3196
▁amen	-3197
▁esen	-3198
▁increasing	-3199
ession	-3200
▁Strateg	-3201
▁she	-3202
▁clari	-3203
▁held	-3204
▁These	-3205
ţelor	-3206
cembrie	-3207
▁aderare	-3208
▁attention	-3209
▁speak	-3210
▁him	-3211
▁dumnea	-3212
▁SUA	-3213
▁act	-3214
aţiilor	-3215
▁Croatian	-3216
▁encour	-3217
▁deoseb	-3218
ean	-3219
▁dat	-3220
▁apă	-3221
▁safety	-3222
▁reforms	-3223
▁acesteia	-3224
▁măsurile	-3225
ences	-3226
▁officials	-3227
▁tradi	-3228
▁resurs	-3229
▁Foreign	-3230
▁decembrie	-3231
plică	-3232
▁desfăş	-3233
▁coordon	-3234
▁il	-3235
▁Herze	-3236
▁management	-3237
▁firm	-3238
▁declară	-3239
ații	-3240
▁mijlo	-3241
omething	-3242
▁oportun	-3243
▁miliarde	-3244
▁ș	-3245
cing	-3246
voastră	-3247
ska	-3248
▁private	-3249
▁buc	-3250
▁really	-3251
▁Comisie	-3252
aționale	-3253
zic	-3254
▁understand	-3255
▁expected	-3256
ugoslav	-3257
▁Organ	-3258
▁Democrat	-3259
▁projects	-3260
ştri	-3261
▁aver	-3262
▁Herzegovina	-3263
▁viitoare	-3264
▁servici	-3265
▁bază	-3266
▁thre	-3267
rus	-3268
▁ambi	-3269
▁prevent	-3270
▁concre	-3271
iting	-3272
▁mean	-3273
▁groups	-3274
▁proc	-3275
▁proposed	-3276
▁conv	-3277
▁fully	-3278
pozi	-3279
▁mn	-3280
▁cut	-3281
▁Fond	-3282
▁doi	-3283
▁past	-3284
▁cases	-3285
▁efectu	-3286
▁raportului	-3287
ges	-3288
▁întrucât	-3289
▁anului	-3290
▁terror	-3291
ătorii	-3292
▁Ra	-3293
▁ans	-3294
▁young	-3295
▁gestion	-3296
▁potrivit	-3297
▁something	-3298
▁oameni	-3299
▁mec	-3300
verse	-3301
▁Consider	-3302
anad	-3303
▁înţele	-3304
▁once	-3305
▁aliment	-3306
▁May	-3307
rare	-3308
▁Barroso	-3309
▁furniz	-3310
bă	-3311
ril	-3312
onia	-3313
icită	-3314
▁observ	-3315
dum	-3316
▁criza	-3317
▁dle	-3318
▁martie	-3319
▁regions	-3320
▁crimes	-3321
vs	-3322
cies	-3323
▁garan	-3324
▁community	-3325
▁Wor	-3326
▁Rusia	-3327
▁pune	-3328
iunie	-3329
▁clearly	-3330
▁defic	-3331
iez	-3332
▁preved	-3333
▁întreg	-3334
▁24	-3335
▁Cour	-3336
▁iunie	-3337
orului	-3338
▁internal	-3339
pi	-3340
▁climatice	-3341
amentele	-3342
▁assess	-3343
▁initiative	-3344
We	-3345
▁distri	-3346
dea	-3347
▁employment	-3348
▁dumneavoastră	-3349
▁applic	-3350
▁autorităţile	-3351
▁dlui	-3352
vail	-3353
▁restric	-3354
ca	-3355
▁luna	-3356
▁garant	-3357
▁around	-3358
echanism	-3359
▁parteneri	-3360
untenegru	-3361
▁ei	-3362
▁dvs	-3363
▁pescuit	-3364
ismului	-3365
▁fundamentale	-3366
ief	-3367
▁ago	-3368
▁vig	-3369
▁țări	-3370
▁Tratatul	-3371
▁look	-3372
eder	-3373
olo	-3374
▁mulţi	-3375
▁stability	-3376
▁aspecte	-3377
enh	-3378
▁printre	-3379
▁provision	-3380
▁Court	-3381
fairs	-3382
zil	-3383
▁focus	-3384
ruption	-3385
▁întreaga	-3386
▁Wed	-3387
▁day	-3388
lim	-3389
▁Macedonian	-3390
nesday	-3391
torilor	-3392
▁Sud	-3393
▁istor	-3394
▁Israel	-3395
utor	-3396
▁environmental	-3397
▁Preşedintele	-3398
▁creştere	-3399
hic	-3400
▁return	-3401
▁Wednesday	-3402
▁Ast	-3403
▁domeniu	-3404
▁yet	-3405
▁23	-3406
iciun	-3407
▁inov	-3408
▁status	-3409
estival	-3410
▁100	-3411
▁tip	-3412
itățile	-3413
▁cam	-3414
▁star	-3415
iercuri	-3416
bul	-3417
tle	-3418
▁IM	-3419
▁Cop	-3420
▁requ	-3421
▁begin	-3422
aged	-3423
▁Zag	-3424
▁piaţa	-3425
▁challeng	-3426
most	-3427
▁assistance	-3428
reşte	-3429
to	-3430
ileg	-3431
▁interne	-3432
▁Bor	-3433
▁Ml	-3434
▁stri	-3435
▁objectives	-3436
âng	-3437
▁review	-3438
▁Dj	-3439
cum	-3440
ţeg	-3441
▁always	-3442
▁involved	-3443
nec	-3444
▁strategic	-3445
▁technolog	-3446
▁uman	-3447
iled	-3448
▁nucle	-3449
▁momentul	-3450
▁char	-3451
▁hist	-3452
▁nicio	-3453
▁modern	-3454
▁Lib	-3455
anuary	-3456
▁motive	-3457
▁sustainable	-3458
▁agricultural	-3459
▁Ira	-3460
▁continua	-3461
▁continuă	-3462
▁cinci	-3463
▁Doamnă	-3464
▁membership	-3465
▁recomand	-3466
▁Ministrul	-3467
▁colle	-3468
▁separ	-3469
anuarie	-3470
▁preţ	-3471
▁ianuarie	-3472
adev	-3473
mend	-3474
▁Tadic	-3475
▁things	-3476
▁itself	-3477
▁conformitate	-3478
▁address	-3479
unch	-3480
▁ada	-3481
▁voi	-3482
▁risk	-3483
ighbour	-3484
usă	-3485
▁toţi	-3486
▁anunţ	-3487
▁innov	-3488
▁Zagreb	-3489
adevăr	-3490
alte	-3491
edia	-3492
▁fron	-3493
▁dialogue	-3494
▁receiv	-3495
▁prime	-3496
▁închei	-3497
țiilor	-3498
portul	-3499
▁violence	-3500
▁crea	-3501
▁subiect	-3502
▁appe	-3503
▁poată	-3504
umă	-3505
rid	-3506
▁coez	-3507
▁perform	-3508
▁principle	-3509
▁referendum	-3510
pos	-3511
▁terri	-3512
▁extind	-3513
▁agreed	-3514
▁Des	-3515
▁reun	-3516
▁mechanism	-3517
▁try	-3518
▁quality	-3519
▁chestiune	-3520
▁considerare	-3521
▁fail	-3522
▁production	-3523
ceed	-3524
▁era	-3525
▁nim	-3526
▁EC	-3527
▁oferă	-3528
ators	-3529
▁confruntă	-3530
▁adoptat	-3531
ctober	-3532
▁minim	-3533
▁origin	-3534
▁subject	-3535
▁teror	-3536
val	-3537
urat	-3538
▁lips	-3539
▁perman	-3540
▁sprijini	-3541
iance	-3542
▁various	-3543
▁concerns	-3544
▁continuare	-3545
▁pierd	-3546
▁acestuia	-3547
▁îngrijor	-3548
▁sl	-3549
▁Therefore	-3550
engen	-3551
hern	-3552
▁let	-3553
▁model	-3554
thing	-3555
▁needed	-3556
▁Of	-3557
▁ferm	-3558
▁contro	-3559
▁single	-3560
▁pach	-3561
▁instrumente	-3562
BiH	-3563
▁leaders	-3564
ombrie	-3565
▁salut	-3566
▁niciun	-3567
▁independent	-3568
▁organis	-3569
▁estim	-3570
▁supl	-3571
▁mondi	-3572
▁gas	-3573
▁net	-3574
ctombrie	-3575
▁camp	-3576
ily	-3577
▁exam	-3578
▁No	-3579
▁întâmpl	-3580
by	-3581
EC	-3582
thers	-3583
▁added	-3584
▁arest	-3585
▁flex	-3586
osc	-3587
▁called	-3588
▁aduce	-3589
▁Schengen	-3590
▁funcţion	-3591
▁sfârşitul	-3592
▁ileg	-3593
▁General	-3594
▁scopul	-3595
▁perioadă	-3596
▁cup	-3597
▁port	-3598
lui	-3599
▁propunere	-3600
▁emph	-3601
▁read	-3602
▁miercuri	-3603
titud	-3604
▁mic	-3605
2,	-3606
▁active	-3607
▁încred	-3608
▁acordul	-3609
uze	-3610
▁pet	-3611
▁Tran	-3612
▁World	-3613
▁atac	-3614
▁vorba	-3615
▁Sofia	-3616
▁octombrie	-3617
▁conduce	-3618
▁folos	-3619
▁Herţeg	-3620
▁supliment	-3621
ffic	-3622
▁rather	-3623
▁Turciei	-3624
▁înfi	-3625
▁confer	-3626
▁locale	-3627
▁opposition	-3628
▁Georg	-3629
erul	-3630
uale	-3631
▁rămâne	-3632
inate	-3633
▁stimul	-3634
▁funding	-3635
▁December	-3636
tory	-3637
▁Mai	-3638
▁începe	-3639
▁guarantee	-3640
▁often	-3641
mber	-3642
▁cuvânt	-3643
over	-3644
▁cores	-3645
▁consumers	-3646
▁serie	-3647
▁contract	-3648
▁concerned	-3649
▁copii	-3650
▁Aust	-3651
▁transform	-3652
▁anal	-3653
▁esenţi	-3654
▁28	-3655
ikol	-3656
▁kosov	-3657
eness	-3658
▁eas	-3659
▁dezbatere	-3660
▁probabil	-3661
▁Ass	-3662
▁aware	-3663
▁corup	-3664
uda	-3665
▁opozi	-3666
▁propuneri	-3667
▁having	-3668
▁pack	-3669
▁modul	-3670
▁excep	-3671
▁trecută	-3672
ovember	-3673
▁țările	-3674
erciale	-3675
▁aderarea	-3676
▁mas	-3677
▁Community	-3678
ler	-3679
istic	-3680
200	-3681
▁2005	-3682
▁lack	-3683
▁produse	-3684
▁Montenegro	-3685
▁multi	-3686
▁Totuşi	-3687
▁necesară	-3688
▁hold	-3689
▁until	-3690
▁rolul	-3691
▁sistemul	-3692
▁occ	-3693
▁Africa	-3694
▁soon	-3695
uesday	-3696
▁And	-3697
▁markets	-3698
iul	-3699
▁hot	-3700
inţe	-3701
sific	-3702
▁trafic	-3703
▁activities	-3704
▁sources	-3705
▁apăr	-3706
▁tour	-3707
iembrie	-3708
▁emphas	-3709
▁concrete	-3710
▁promote	-3711
▁tră	-3712
▁avail	-3713
▁Tuesday	-3714
▁five	-3715
ogan	-3716
▁won	-3717
▁independence	-3718
▁cat	-3719
▁Tir	-3720
▁coali	-3721
▁ir	-3722
▁Balkans	-3723
▁ajuta	-3724
▁dispozi	-3725
uren	-3726
▁depă	-3727
umente	-3728
▁late	-3729
▁tar	-3730
▁dorim	-3731
PA	-3732
▁company	-3733
▁challenges	-3734
▁solidarity	-3735
▁Secret	-3736
ats	-3737
▁părţi	-3738
▁recommend	-3739
oasă	-3740
unter	-3741
▁scop	-3742
▁sublini	-3743
▁activitatea	-3744
▁don	-3745
term	-3746
▁punerea	-3747
▁agenda	-3748
▁comerciale	-3749
unced	-3750
▁satis	-3751
▁solicită	-3752
tiz	-3753
▁potential	-3754
▁bl	-3755
▁practic	-3756
▁...	-3757
▁cerut	-3758
▁teritori	-3759
▁22	-3760
▁informaţii	-3761
▁regim	-3762
▁commitment	-3763
▁eu	-3764
▁50	-3765
▁Ha	-3766
▁Sw	-3767
▁posibilitatea	-3768
▁suprave	-3769
▁responsible	-3770
Re	-3771
▁ocaz	-3772
▁Agree	-3773
▁statement	-3774
▁cheltu	-3775
▁appropri	-3776
stac	-3777
▁June	-3778
▁Ank	-3779
▁consequ	-3780
▁keep	-3781
editer	-3782
ake	-3783
▁dim	-3784
tarea	-3785
prezent	-3786
less	-3787
▁labour	-3788
estern	-3789
▁sanc	-3790
row	-3791
acter	-3792
▁având	-3793
▁points	-3794
răc	-3795
▁Liber	-3796
▁eth	-3797
▁population	-3798
uză	-3799
▁suppor	-3800
▁exerc	-3801
ediul	-3802
▁criminal	-3803
▁faţa	-3804
▁developing	-3805
▁noiembrie	-3806
landa	-3807
▁obstac	-3808
▁referitor	-3809
FR	-3810
▁nord	-3811
▁Romanian	-3812
light	-3813
▁grani	-3814
ade	-3815
▁vâr	-3816
unilor	-3817
AFP	-3818
▁următoare	-3819
ably	-3820
▁sud	-3821
accept	-3822
▁uni	-3823
▁visit	-3824
▁își	-3825
▁competition	-3826
▁Grupului	-3827
pite	-3828
▁Copenh	-3829
▁Ber	-3830
rated	-3831
▁news	-3832
erence	-3833
▁vec	-3834
▁Tirana	-3835
▁pachet	-3836
▁punctul	-3837
▁border	-3838
▁systems	-3839
SE	-3840
▁lumea	-3841
▁cong	-3842
▁exer	-3843
amb	-3844
ajul	-3845
aţional	-3846
▁changes	-3847
▁provinc	-3848
▁Tri	-3849
▁internet	-3850
uly	-3851
▁Pap	-3852
stanbul	-3853
▁Aș	-3854
▁curând	-3855
▁26	-3856
icip	-3857
▁Preşedinte	-3858
/12	-3859
ock	-3860
▁big	-3861
▁AP	-3862
▁programmes	-3863
fin	-3864
▁ating	-3865
▁cohesion	-3866
oscut	-3867
▁dificil	-3868
▁team	-3869
▁comercial	-3870
▁locul	-3871
▁Government	-3872
pril	-3873
▁exclu	-3874
▁neighbour	-3875
▁Directive	-3876
ritan	-3877
▁recunoa	-3878
▁căror	-3879
▁urmează	-3880
OR	-3881
enţei	-3882
▁punc	-3883
▁traffic	-3884
▁Le	-3885
▁pover	-3886
▁siguranţă	-3887
ds	-3888
▁Port	-3889
▁viitorul	-3890
▁zona	-3891
▁perioada	-3892
▁priority	-3893
▁Ah	-3894
▁Istanbul	-3895
▁illeg	-3896
▁semnificativ	-3897
▁mor	-3898
▁March	-3899
▁costs	-3900
▁target	-3901
▁credit	-3902
▁interm	-3903
rut	-3904
hton	-3905
▁list	-3906
▁reducerea	-3907
▁words	-3908
▁începutul	-3909
ursday	-3910
▁oamenii	-3911
amentului	-3912
▁echili	-3913
▁materi	-3914
▁stop	-3915
▁field	-3916
ţial	-3917
ha	-3918
▁cross	-3919
▁Thursday	-3920
adă	-3921
▁Ca	-3922
▁aloc	-3923
erve	-3924
▁announced	-3925
▁Belar	-3926
▁times	-3927
▁provided	-3928
▁menţin	-3929
rilie	-3930
▁maint	-3931
ition	-3932
▁păre	-3933
țum	-3934
▁maintain	-3935
▁primit	-3936
▁Ab	-3937
ried	-3938
of	-3939
▁Ins	-3940
▁Boris	-3941
▁aprilie	-3942
fac	-3943
▁hear	-3944
▁cuprin	-3945
CT	-3946
▁along	-3947
verbal	-3948
▁sărăc	-3949
201	-3950
▁near	-3951
ently	-3952
▁Ankara	-3953
▁regret	-3954
▁available	-3955
▁utilizarea	-3956
▁broad	-3957
▁Vă	-3958
▁Let	-3959
▁aceştia	-3960
▁subliniez	-3961
▁mecanism	-3962
igration	-3963
▁toată	-3964
'.	-3965
▁doua	-3966
▁egal	-3967
▁resol	-3968
Reuters	-3969
▁Ashton	-3970
▁road	-3971
▁Bri	-3972
▁Inv	-3973
▁elector	-3974
▁Program	-3975
▁previous	-3976
▁Agreement	-3977
▁Erd	-3978
▁objective	-3979
sts	-3980
oting	-3981
▁test	-3982
▁ecolog	-3983
▁wea	-3984
▁Nikol	-3985
PL	-3986
▁preoc	-3987
▁six	-3988
▁juc	-3989
▁central	-3990
▁reprezentan	-3991
▁lupta	-3992
▁administrative	-3993
▁Ind	-3994
ință	-3995
▁ren	-3996
uirea	-3997
▁sep	-3998
▁others	-3999
▁electric	-4000
▁individual	-4001
▁Sloven	-4002
ann	-4003
▁închis	-4004
deauna	-4005
▁share	-4006
▁Reprezent	-4007
▁suficient	-4008
pens	-4009
▁concuren	-4010
escu	-4011
▁fell	-4012
▁ciuda	-4013
▁procedure	-4014
▁days	-4015
▁kind	-4016
fortun	-4017
▁complex	-4018
▁situaţie	-4019
▁increased	-4020
oară	-4021
▁Ave	-4022
▁Acestea	-4023
▁spor	-4024
▁sex	-4025
▁dispon	-4026
▁abordare	-4027
▁femeilor	-4028
▁fair	-4029
elles	-4030
▁January	-4031
▁victims	-4032
▁Reuters	-4033
ulie	-4034
▁imedi	-4035
atory	-4036
ides	-4037
ither	-4038
▁luat	-4039
▁acordat	-4040
▁vigoare	-4041
▁Bulgarian	-4042
▁execu	-4043
▁vedea	-4044
▁ge	-4045
▁launch	-4046
▁sci	-4047
▁package	-4048
▁limb	-4049
▁factor	-4050
alizarea	-4051
▁creşterea	-4052
punză	-4053
FOR	-4054
▁Dez	-4055
▁echip	-4056
▁mulțum	-4057
▁response	-4058
ights	-4059
▁prel	-4060
▁seen	-4061
-1	-4062
▁offer	-4063
aps	-4064
ebru	-4065
▁doub	-4066
▁natural	-4067
▁prezentat	-4068
▁regarding	-4069
ished	-4070
tes	-4071
▁bar	-4072
mier	-4073
▁deplin	-4074
▁giv	-4075
▁lit	-4076
▁concerning	-4077
ebruary	-4078
void	-4079
▁harm	-4080
▁Conven	-4081
ool	-4082
▁Minutes	-4083
▁iulie	-4084
▁semnat	-4085
▁internaţional	-4086
ias	-4087
▁confid	-4088
▁consid	-4089
▁marţi	-4090
▁took	-4091
▁addition	-4092
▁rândul	-4093
ding	-4094
▁bugetul	-4095
▁principal	-4096
iri	-4097
▁fer	-4098
▁vul	-4099
▁univers	-4100
▁corruption	-4101
rov	-4102
▁profit	-4103
rog	-4104
▁defin	-4105
▁finanț	-4106
▁poverty	-4107
ația	-4108
bruarie	-4109
rug	-4110
▁actually	-4111
▁jurid	-4112
▁februarie	-4113
▁altor	-4114
▁enough	-4115
▁adoptarea	-4116
▁amendments	-4117
▁CE	-4118
▁sarc	-4119
▁evident	-4120
ody	-4121
▁multă	-4122
▁presi	-4123
▁line	-4124
▁request	-4125
▁organised	-4126
ox	-4127
▁quick	-4128
LE	-4129
tember	-4130
▁produce	-4131
▁securitatea	-4132
▁extra	-4133
▁explic	-4134
▁counter	-4135
iază	-4136
▁președintă	-4137
▁ajutor	-4138
▁ajuns	-4139
▁reports	-4140
ross	-4141
▁anume	-4142
▁majoritatea	-4143
5%	-4144
unde	-4145
▁Există	-4146
▁cate	-4147
▁Între	-4148
part	-4149
Th	-4150
▁folosi	-4151
itari	-4152
▁Deşi	-4153
▁hard	-4154
▁Bra	-4155
▁principles	-4156
ători	-4157
▁Agency	-4158
ficiency	-4159
▁seem	-4160
aze	-4161
▁tex	-4162
▁transparency	-4163
iel	-4164
▁joi	-4165
che	-4166
entul	-4167
▁opinia	-4168
ajevo	-4169
▁unem	-4170
▁energetică	-4171
ede	-4172
ague	-4173
▁domenii	-4174
▁municip	-4175
▁One	-4176
▁plans	-4177
▁More	-4178
▁cursul	-4179
▁signed	-4180
eptember	-4181
▁creation	-4182
▁munc	-4183
▁enterpris	-4184
▁internaţională	-4185
▁comunic	-4186
▁ea	-4187
▁decisions	-4188
▁sure	-4189
▁membri	-4190
▁You	-4191
▁extremely	-4192
▁leader	-4193
▁Sarajevo	-4194
▁Sper	-4195
iunilor	-4196
▁necesitatea	-4197
▁vie	-4198
tembrie	-4199
▁remains	-4200
yl	-4201
▁Develop	-4202
▁acţiune	-4203
ulg	-4204
▁und	-4205
▁living	-4206
vor	-4207
▁rule	-4208
▁Sh	-4209
lande	-4210
▁apel	-4211
▁recip	-4212
▁libertatea	-4213
▁Ver	-4214
▁găsi	-4215
▁exerci	-4216
▁decizie	-4217
▁Raportul	-4218
▁Erdogan	-4219
▁exprimat	-4220
▁americ	-4221
▁ultimii	-4222
▁2009,	-4223
▁septembrie	-4224
tul	-4225
vant	-4226
▁comes	-4227
▁Mladic	-4228
▁dna	-4229
▁totu	-4230
▁emerg	-4231
▁profesion	-4232
▁aeri	-4233
▁circum	-4234
▁prepare	-4235
▁exact	-4236
▁Guvern	-4237
▁procesului	-4238
▁devenit	-4239
rant	-4240
▁căru	-4241
▁Skopje	-4242
▁deficit	-4243
▁president	-4244
▁acț	-4245
▁economiei	-4246
▁governments	-4247
ulate	-4248
▁across	-4249
▁Portug	-4250
oran	-4251
▁ajung	-4252
▁table	-4253
▁Belarus	-4254
▁tehn	-4255
▁facilit	-4256
cate	-4257
▁feel	-4258
▁complet	-4259
ența	-4260
▁top	-4261
▁visa	-4262
▁amount	-4263
rei	-4264
ştii	-4265
▁entire	-4266
▁alegerile	-4267
▁simply	-4268
urg	-4269
▁draw	-4270
▁never	-4271
▁orient	-4272
ursul	-4273
▁film	-4274
▁sensi	-4275
ured	-4276
ismul	-4277
▁avoid	-4278
▁față	-4279
▁aimed	-4280
▁apply	-4281
▁calea	-4282
▁noştri	-4283
▁Security	-4284
▁eng	-4285
▁Extern	-4286
▁hotăr	-4287
▁ethnic	-4288
ki	-4289
▁Sal	-4290
▁persoanelor	-4291
▁învă	-4292
ități	-4293
▁legiti	-4294
aniei	-4295
ssels	-4296
▁conference	-4297
▁obiectivele	-4298
▁29	-4299
▁express	-4300
▁regiunea	-4301
▁techn	-4302
▁Car	-4303
▁felicit	-4304
▁pace	-4305
▁vital	-4306
▁values	-4307
▁perspective	-4308
▁hon	-4309
▁Avem	-4310
▁tribunal	-4311
▁Sr	-4312
prus	-4313
▁Brussels	-4314
▁received	-4315
▁Mediter	-4316
▁October	-4317
▁centre	-4318
▁Cont	-4319
▁ze	-4320
▁Herţegovina	-4321
▁representatives	-4322
▁negocierile	-4323
▁protecţia	-4324
ține	-4325
▁Development	-4326
▁answ	-4327
▁Grupul	-4328
▁close	-4329
▁mentioned	-4330
ibile	-4331
▁join	-4332
ierea	-4333
tei	-4334
▁benefit	-4335
▁ran	-4336
osnia	-4337
▁Balkan	-4338
▁sistemului	-4339
▁asigure	-4340
▁procedură	-4341
▁immedi	-4342
▁subliniat	-4343
▁specifice	-4344
▁eforturi	-4345
xelles	-4346
▁lua	-4347
otdeauna	-4348
▁stress	-4349
▁nam	-4350
▁Rights	-4351
▁official	-4352
▁criteria	-4353
▁Bruxelles	-4354
▁parliamentary	-4355
ţiale	-4356
▁publică	-4357
▁organisations	-4358
uments	-4359
▁contribui	-4360
▁condus	-4361
▁practice	-4362
SCE	-4363
▁corec	-4364
▁anunţat	-4365
▁chestiuni	-4366
▁Mold	-4367
▁Partidul	-4368
▁Sol	-4369
▁Cyprus	-4370
▁requirements	-4371
▁Serv	-4372
▁businesses	-4373
▁enable	-4374
▁presup	-4375
▁RS	-4376
▁Affairs	-4377
▁idea	-4378
▁risc	-4379
▁mediului	-4380
▁numărul	-4381
ka	-4382
▁Dan	-4383
▁ţărilor	-4384
teze	-4385
fortunately	-4386
▁doing	-4387
▁cazuri	-4388
▁instruments	-4389
▁consumatorilor	-4390
ţionează	-4391
▁tas	-4392
ătorul	-4393
▁negocierilor	-4394
▁um	-4395
▁consens	-4396
oy	-4397
▁contain	-4398
▁economia	-4399
adar	-4400
▁early	-4401
▁stu	-4402
▁privinţa	-4403
▁statului	-4404
▁simplu	-4405
▁supravegh	-4406
▁500	-4407
anced	-4408
▁Trans	-4409
▁valor	-4410
▁famili	-4411
IB	-4412
▁First	-4413
▁scurt	-4414
▁căl	-4415
▁Într	-4416
▁det	-4417
olute	-4418
risti	-4419
unities	-4420
▁încheie	-4421
/02	-4422
▁Res	-4423
da	-4424
kovic	-4425
▁făc	-4426
▁justice	-4427
▁corespunză	-4428
▁travel	-4429
▁November	-4430
tile	-4431
3,	-4432
estions	-4433
▁comerţ	-4434
▁questions	-4435
▁appl	-4436
▁reven	-4437
▁employ	-4438
uty	-4439
▁accep	-4440
car	-4441
mai	-4442
atoare	-4443
ped	-4444
▁deli	-4445
▁efficiency	-4446
mon	-4447
▁achieved	-4448
aci	-4449
▁Cip	-4450
țial	-4451
şe	-4452
▁concluz	-4453
▁arată	-4454
▁vulner	-4455
tiere	-4456
▁cho	-4457
▁menţionat	-4458
fully	-4459
▁governance	-4460
▁40	-4461
▁bani	-4462
▁ceva	-4463
rată	-4464
▁cadru	-4465
▁fim	-4466
▁externă	-4467
▁Western	-4468
new	-4469
ență	-4470
▁mes	-4471
ression	-4472
▁adapt	-4473
▁illegal	-4474
▁reasons	-4475
▁service	-4476
ciz	-4477
▁Dec	-4478
▁thing	-4479
▁Politi	-4480
▁coeziune	-4481
▁cercetare	-4482
▁appropriate	-4483
▁soluţion	-4484
▁ţin	-4485
▁AFP	-4486
▁Kost	-4487
▁left	-4488
▁mass	-4489
▁preocup	-4490
▁reached	-4491
▁combaterea	-4492
▁deschis	-4493
▁piaţă	-4494
tees	-4495
▁Roma	-4496
inţele	-4497
▁contextul	-4498
tății	-4499
▁den	-4500
▁decizia	-4501
▁evenimente	-4502
▁naţional	-4503
lalte	-4504
alelor	-4505
▁negative	-4506
▁Av	-4507
unge	-4508
▁strategie	-4509
▁similar	-4510
▁forces	-4511
▁referă	-4512
▁zone	-4513
ni	-4514
▁crim	-4515
▁fellow	-4516
▁medium	-4517
▁Om	-4518
▁Partid	-4519
▁servicii	-4520
▁compromise	-4521
▁consequences	-4522
▁longer	-4523
▁vehic	-4524
▁judec	-4525
▁water	-4526
▁Primul	-4527
▁actual	-4528
▁corect	-4529
▁simplific	-4530
▁draft	-4531
▁procedures	-4532
▁puternic	-4533
▁actions	-4534
▁Rec	-4535
▁băn	-4536
▁larg	-4537
cal	-4538
ante	-4539
ars	-4540
▁existing	-4541
▁condiţiile	-4542
▁progrese	-4543
sian	-4544
year	-4545
▁Jap	-4546
▁mov	-4547
▁schimbările	-4548
▁consolidarea	-4549
▁priorities	-4550
ație	-4551
af	-4552
mb	-4553
șit	-4554
▁themselves	-4555
dă	-4556
oci	-4557
păr	-4558
▁rezolv	-4559
▁respond	-4560
▁ministrul	-4561
▁alegeri	-4562
▁defence	-4563
▁faptului	-4564
▁decide	-4565
▁înalt	-4566
▁deşi	-4567
ested	-4568
paign	-4569
▁întotdeauna	-4570
▁Represent	-4571
▁Karad	-4572
▁produselor	-4573
▁mess	-4574
▁connec	-4575
▁enterprises	-4576
▁qui	-4577
▁April	-4578
alisation	-4579
▁lin	-4580
▁Republica	-4581
▁rezoluţie	-4582
▁additional	-4583
▁fonduri	-4584
▁alăt	-4585
▁relaţiile	-4586
▁Tratatului	-4587
▁2009.	-4588
▁Artic	-4589
▁court	-4590
▁communic	-4591
▁consideră	-4592
ually	-4593
▁identific	-4594
▁disas	-4595
RO	-4596
50	-4597
▁surse	-4598
▁voting	-4599
▁required	-4600
ama	-4601
▁above	-4602
▁ign	-4603
▁salari	-4604
rib	-4605
▁asc	-4606
▁poziţia	-4607
ping	-4608
lantic	-4609
▁câştigat	-4610
▁pressure	-4611
▁might	-4612
▁bilateral	-4613
▁Democratic	-4614
▁using	-4615
▁coming	-4616
▁maxim	-4617
▁îmi	-4618
inde	-4619
▁training	-4620
▁application	-4621
iş	-4622
▁OSCE	-4623
▁dam	-4624
▁quite	-4625
▁doreşte	-4626
islav	-4627
▁Să	-4628
arcă	-4629
▁basic	-4630
atele	-4631
asa	-4632
▁fall	-4633
▁recently	-4634
▁Marea	-4635
jan	-4636
ena	-4637
▁Dar	-4638
▁instituţiile	-4639
▁prices	-4640
oni	-4641
rison	-4642
▁Rehn	-4643
▁decided	-4644
▁condamn	-4645
▁secret	-4646
▁farmers	-4647
▁Consiliu	-4648
▁opportunities	-4649
▁Însă	-4650
▁Sund	-4651
▁surs	-4652
▁turc	-4653
▁limit	-4654
▁Univers	-4655
▁campaign	-4656
▁1.	-4657
▁Muntenegru	-4658
nal	-4659
▁supported	-4660
lier	-4661
▁aţi	-4662
▁tro	-4663
▁election	-4664
▁uş	-4665
▁Germany	-4666
▁înfiinţ	-4667
▁energetice	-4668
▁promovarea	-4669
▁singur	-4670
▁valoare	-4671
▁run	-4672
ront	-4673
▁putut	-4674
▁proiecte	-4675
ităm	-4676
▁pleased	-4677
▁săptămâna	-4678
ued	-4679
▁suspend	-4680
▁raportor	-4681
ume	-4682
▁innovation	-4683
▁desigur	-4684
▁sufer	-4685
▁element	-4686
▁constituie	-4687
▁treat	-4688
▁submit	-4689
▁absolute	-4690
ible	-4691
oială	-4692
▁îndeplini	-4693
▁Comun	-4694
▁asigurăm	-4695
▁31	-4696
cra	-4697
inică	-4698
▁Ma	-4699
▁ajunge	-4700
▁Ath	-4701
▁specul	-4702
▁locu	-4703
uses	-4704
▁ajutorul	-4705
▁deschid	-4706
icepre	-4707
▁Organiz	-4708
▁drum	-4709
▁death	-4710
▁adoption	-4711
▁integrarea	-4712
▁muncii	-4713
▁candidate	-4714
▁Sunday	-4715
▁Cz	-4716
▁deta	-4717
eless	-4718
▁Acordul	-4719
▁infrastructure	-4720
▁true	-4721
itarian	-4722
lemented	-4723
/01	-4724
ţionale	-4725
orn	-4726
▁accesul	-4727
▁autom	-4728
▁exces	-4729
mer	-4730
carea	-4731
ământ	-4732
▁absol	-4733
▁Guvernul	-4734
ociere	-4735
▁family	-4736
▁Pop	-4737
▁stabile	-4738
▁school	-4739
▁cooperării	-4740
▁los	-4741
irit	-4742
eries	-4743
▁fig	-4744
▁congrat	-4745
▁partnership	-4746
nice	-4747
▁Agen	-4748
▁adăugat	-4749
▁serviciile	-4750
ptă	-4751
▁aprop	-4752
▁susțin	-4753
▁lucruri	-4754
▁July	-4755
▁whose	-4756
toc	-4757
▁sârbi	-4758
▁vârst	-4759
▁II	-4760
▁claim	-4761
aging	-4762
▁regime	-4763
▁fondurile	-4764
▁ty	-4765
▁proiectul	-4766
▁established	-4767
erb	-4768
▁bosnia	-4769
▁departe	-4770
3.	-4771
ands	-4772
▁Finally	-4773
▁impos	-4774
▁diferen	-4775
acy	-4776
inat	-4777
▁exch	-4778
▁regionale	-4779
▁rul	-4780
▁gaz	-4781
▁statis	-4782
▁soluţie	-4783
▁though	-4784
▁distribu	-4785
▁financing	-4786
▁Cam	-4787
▁cres	-4788
▁dintr	-4789
▁Inde	-4790
ociation	-4791
ration	-4792
▁regulations	-4793
▁Gaz	-4794
▁jumă	-4795
▁rating	-4796
▁included	-4797
▁certainly	-4798
▁Gre	-4799
▁dezast	-4800
▁trim	-4801
▁grave	-4802
▁steps	-4803
ațional	-4804
▁ensuring	-4805
▁external	-4806
▁penal	-4807
▁throughout	-4808
▁superv	-4809
▁alternative	-4810
▁jur	-4811
▁Czech	-4812
orde	-4813
▁Serbs	-4814
▁oficial	-4815
▁Yugoslav	-4816
▁femei	-4817
▁spori	-4818
▁contribution	-4819
PT	-4820
oneze	-4821
▁legitim	-4822
▁attem	-4823
▁reported	-4824
▁oil	-4825
▁tell	-4826
▁carried	-4827
▁interpre	-4828
/200	-4829
▁asked	-4830
▁2010,	-4831
alest	-4832
▁român	-4833
▁Mul	-4834
▁noul	-4835
▁şase	-4836
▁little	-4837
ledge	-4838
cer	-4839
kra	-4840
▁realizat	-4841
▁cetățenilor	-4842
preh	-4843
ises	-4844
▁păst	-4845
▁sitting	-4846
▁National	-4847
▁ped	-4848
ero	-4849
▁săi	-4850
ots	-4851
▁2008,	-4852
▁eficientă	-4853
▁Regulamentul	-4854
▁divers	-4855
▁emission	-4856
▁1,	-4857
vision	-4858
estic	-4859
▁lang	-4860
▁Economic	-4861
▁imag	-4862
▁protest	-4863
▁săptămâni	-4864
vious	-4865
▁defend	-4866
▁ultimele	-4867
▁circumstan	-4868
▁acolo	-4869
▁France	-4870
▁încheiat	-4871
▁value	-4872
▁intermediul	-4873
econom	-4874
▁spirit	-4875
▁quickly	-4876
undă	-4877
kovski	-4878
▁circul	-4879
if	-4880
▁forţei	-4881
▁pieţei	-4882
▁Slovenia	-4883
ângă	-4884
▁ridicat	-4885
rală	-4886
iation	-4887
▁affected	-4888
the	-4889
ances	-4890
▁alimente	-4891
▁High	-4892
hold	-4893
▁Ste	-4894
▁arăt	-4895
▁parc	-4896
▁modal	-4897
▁pi	-4898
▁fri	-4899
▁votul	-4900
▁iniția	-4901
▁energiei	-4902
▁rezultat	-4903
▁technical	-4904
▁speech	-4905
▁implemented	-4906
▁Buc	-4907
▁Was	-4908
▁brought	-4909
based	-4910
▁naţi	-4911
▁Portugal	-4912
rop	-4913
izi	-4914
ârzi	-4915
▁Italy	-4916
alizare	-4917
▁everyone	-4918
yn	-4919
▁propus	-4920
▁urmări	-4921
2.	-4922
▁Nord	-4923
unica	-4924
▁committed	-4925
▁expl	-4926
▁building	-4927
▁contribuie	-4928
▁ameninţ	-4929
▁matters	-4930
▁carry	-4931
▁Internet	-4932
▁Pact	-4933
▁condiţii	-4934
răm	-4935
ournal	-4936
▁February	-4937
lad	-4938
oted	-4939
▁aplicarea	-4940
▁effect	-4941
▁sănătate	-4942
▁găs	-4943
▁borders	-4944
force	-4945
▁împăr	-4946
▁prioritate	-4947
MIK	-4948
eks	-4949
▁levels	-4950
▁propor	-4951
▁Acum	-4952
▁internă	-4953
dată	-4954
▁After	-4955
▁unemployment	-4956
▁led	-4957
▁outside	-4958
▁drepturi	-4959
era	-4960
▁involve	-4961
▁naturale	-4962
▁vizite	-4963
ungari	-4964
▁refug	-4965
▁trece	-4966
▁makes	-4967
▁Mal	-4968
▁fal	-4969
oking	-4970
rants	-4971
▁vrea	-4972
uși	-4973
▁așa	-4974
▁Central	-4975
▁partners	-4976
hod	-4977
▁nimic	-4978
NL	-4979
▁Balcan	-4980
▁deveni	-4981
▁supply	-4982
ylum	-4983
overy	-4984
▁sport	-4985
unis	-4986
▁mer	-4987
▁colabor	-4988
▁Banc	-4989
▁civile	-4990
▁împied	-4991
▁cuvinte	-4992
haps	-4993
▁chief	-4994
▁send	-4995
▁dezvoltării	-4996
▁păcate	-4997
▁Reprezentant	-4998
▁debt	-4999
▁susţine	-5000
▁actuale	-5001
oli	-5002
▁home	-5003
▁receive	-5004
▁office	-5005
head	-5006
rării	-5007
▁Athens	-5008
▁întreprind	-5009
▁ști	-5010
▁interv	-5011
▁mențion	-5012
▁Partidului	-5013
▁persoanele	-5014
▁îmbunătăți	-5015
AP	-5016
▁Ukra	-5017
▁price	-5018
ons	-5019
▁exista	-5020
▁calls	-5021
▁printr	-5022
▁acordului	-5023
▁contribute	-5024
▁aştept	-5025
▁laws	-5026
▁mondial	-5027
aterale	-5028
▁almost	-5029
▁September	-5030
▁providing	-5031
ions	-5032
▁Moldova	-5033
▁acorduri	-5034
ației	-5035
rumut	-5036
▁Mă	-5037
▁şom	-5038
▁apar	-5039
▁Canad	-5040
hington	-5041
▁discuţiile	-5042
▁came	-5043
▁esenţial	-5044
▁X	-5045
way	-5046
▁Est	-5047
▁agricole	-5048
▁nor	-5049
▁While	-5050
▁weeks	-5051
▁Second	-5052
lay	-5053
▁ultimul	-5054
ensive	-5055
ţional	-5056
▁excell	-5057
▁Hungari	-5058
▁ratific	-5059
▁benefici	-5060
▁noile	-5061
▁Kostunica	-5062
▁flo	-5063
▁UNMIK	-5064
▁concept	-5065
▁agriculture	-5066
▁Representative	-5067
▁live	-5068
▁plen	-5069
▁everything	-5070
ya	-5071
▁Uniune	-5072
▁puțin	-5073
▁echilib	-5074
ban	-5075
▁cetăţeni	-5076
▁Bosnian	-5077
▁mâ	-5078
ption	-5079
▁becom	-5080
▁prevă	-5081
▁permis	-5082
▁protecţie	-5083
▁asistenţă	-5084
▁directivă	-5085
▁mind	-5086
▁reflec	-5087
ublic	-5088
▁deţin	-5089
▁expressed	-5090
▁întrebare	-5091
șe	-5092
▁evolu	-5093
▁Curtea	-5094
▁rid	-5095
▁resurse	-5096
▁afara	-5097
▁nothing	-5098
ânz	-5099
▁piața	-5100
▁capit	-5101
▁luate	-5102
dian	-5103
▁serviciilor	-5104
▁diver	-5105
▁Ir	-5106
orrow	-5107
▁pred	-5108
▁Doresc	-5109
▁deosebit	-5110
▁documente	-5111
▁competitiveness	-5112
Euro	-5113
rele	-5114
▁Fri	-5115
▁mission	-5116
▁îndeplin	-5117
▁win	-5118
▁Washington	-5119
▁construction	-5120
pose	-5121
▁preced	-5122
ros	-5123
▁situația	-5124
▁efficient	-5125
▁democratice	-5126
▁huge	-5127
▁permanent	-5128
▁Dim	-5129
▁petrol	-5130
▁Sc	-5131
▁link	-5132
▁afirmă	-5133
▁transf	-5134
▁mus	-5135
▁mut	-5136
▁Aten	-5137
▁Democrats	-5138
▁bugetului	-5139
▁When	-5140
▁presă	-5141
▁reuşit	-5142
▁îndoială	-5143
▁presented	-5144
▁discussion	-5145
inei	-5146
▁thus	-5147
▁monitoring	-5148
▁recunoaşte	-5149
poarte	-5150
▁monet	-5151
acedone	-5152
ităților	-5153
ovanovic	-5154
▁domestic	-5155
EP	-5156
▁prosp	-5157
▁duminică	-5158
▁mulțumesc	-5159
▁speran	-5160
▁director	-5161
cani	-5162
▁urgent	-5163
▁attempt	-5164
▁cust	-5165
▁later	-5166
▁behind	-5167
▁creștere	-5168
▁rapoarte	-5169
▁degra	-5170
diu	-5171
ărb	-5172
▁atenţia	-5173
▁banks	-5174
▁programul	-5175
▁dezbaterea	-5176
rem	-5177
▁2010.	-5178
▁devină	-5179
▁Energ	-5180
▁creating	-5181
▁nucleare	-5182
▁întreprinderile	-5183
▁veri	-5184
▁existat	-5185
▁Vi	-5186
▁ministru	-5187
▁relation	-5188
▁renew	-5189
▁leave	-5190
▁indeed	-5191
▁ambele	-5192
▁ground	-5193
NA	-5194
Mon	-5195
erica	-5196
▁Germania	-5197
▁approved	-5198
▁discuţii	-5199
acks	-5200
irii	-5201
▁tack	-5202
▁closed	-5203
▁reflect	-5204
▁provinciei	-5205
▁regulament	-5206
▁mijloace	-5207
▁Pet	-5208
▁tranz	-5209
arch	-5210
▁duce	-5211
▁Cor	-5212
sh	-5213
▁industria	-5214
▁Even	-5215
▁crescut	-5216
▁ever	-5217
▁niciodată	-5218
▁suplimentare	-5219
▁întâlnit	-5220
ograph	-5221
▁expla	-5222
▁implementing	-5223
igher	-5224
▁municipal	-5225
▁azil	-5226
▁lângă	-5227
alific	-5228
▁powers	-5229
▁strengthening	-5230
▁Human	-5231
▁prepar	-5232
▁mac	-5233
▁Balcani	-5234
▁ie	-5235
▁mine	-5236
gust	-5237
▁Plan	-5238
▁lear	-5239
dio	-5240
▁majore	-5241
▁solutions	-5242
▁Iraq	-5243
▁Banca	-5244
▁aflat	-5245
oms	-5246
iari	-5247
ațiile	-5248
▁festival	-5249
▁encourage	-5250
atur	-5251
▁lipsa	-5252
▁copiilor	-5253
▁mig	-5254
▁ruling	-5255
▁capacity	-5256
▁improving	-5257
▁provisions	-5258
▁Constitu	-5259
▁materie	-5260
▁industrial	-5261
▁Jo	-5262
▁pozitiv	-5263
uf	-5264
▁Some	-5265
▁trebu	-5266
▁Srp	-5267
ugust	-5268
▁zece	-5269
▁Ur	-5270
▁enorm	-5271
▁events	-5272
BC	-5273
▁fulf	-5274
▁talking	-5275
▁discussed	-5276
▁goal	-5277
▁name	-5278
▁Although	-5279
▁Alliance	-5280
know	-5281
tn	-5282
▁regiuni	-5283
▁equal	-5284
▁naționale	-5285
zed	-5286
▁My	-5287
apă	-5288
▁același	-5289
▁pension	-5290
▁caracter	-5291
▁fondurilor	-5292
▁dic	-5293
▁pati	-5294
ecut	-5295
▁Friday	-5296
▁electron	-5297
▁treilea	-5298
▁aud	-5299
▁Ministru	-5300
▁fran	-5301
▁gând	-5302
▁goods	-5303
▁mandate	-5304
▁standardele	-5305
ştilor	-5306
▁lege	-5307
▁puncte	-5308
▁accel	-5309
aptă	-5310
▁annual	-5311
▁emissions	-5312
▁bulg	-5313
▁ahead	-5314
▁companii	-5315
▁numeroase	-5316
▁Dra	-5317
▁achizi	-5318
▁existente	-5319
erva	-5320
▁Luk	-5321
▁Our	-5322
ordin	-5323
▁ready	-5324
▁împrumut	-5325
înţele	-5326
eful	-5327
istent	-5328
reland	-5329
Pre	-5330
▁Astfel	-5331
▁Srpska	-5332
▁aspects	-5333
▁method	-5334
▁favor	-5335
▁statul	-5336
▁Cypri	-5337
▁higher	-5338
▁reduction	-5339
▁message	-5340
ound	-5341
▁Ireland	-5342
▁membrii	-5343
▁amendment	-5344
▁politicile	-5345
▁munca	-5346
▁Article	-5347
▁Italia	-5348
',	-5349
▁obiectivul	-5350
▁Autor	-5351
▁movement	-5352
iţi	-5353
▁Pak	-5354
▁record	-5355
LEX	-5356
▁although	-5357
▁privinţă	-5358
▁scienti	-5359
▁respectarea	-5360
mite	-5361
▁ses	-5362
▁prison	-5363
▁treatment	-5364
▁funcțion	-5365
EL	-5366
KP	-5367
▁nere	-5368
▁Americ	-5369
▁domnule	-5370
▁ministers	-5371
tors	-5372
▁Arm	-5373
▁seam	-5374
▁resurselor	-5375
▁balance	-5376
▁committee	-5377
▁bărb	-5378
▁equi	-5379
▁evaluare	-5380
▁Ban	-5381
▁opt	-5382
▁boost	-5383
ministrul	-5384
uală	-5385
anific	-5386
▁light	-5387
▁spend	-5388
▁atenţie	-5389
▁assessment	-5390
▁interesul	-5391
opol	-5392
while	-5393
▁revizui	-5394
▁cheltuiel	-5395
▁Dav	-5396
▁macro	-5397
▁Gul	-5398
▁site	-5399
itious	-5400
idd	-5401
▁apoi	-5402
▁item	-5403
▁gui	-5404
sized	-5405
▁prefer	-5406
▁clarific	-5407
nd	-5408
▁Amb	-5409
▁Tod	-5410
▁Islam	-5411
Montenegro	-5412
▁Securitate	-5413
▁tend	-5414
▁produsele	-5415
itors	-5416
▁earlier	-5417
▁restruct	-5418
▁culture	-5419
%.	-5420
large	-5421
astern	-5422
▁relevant	-5423
▁mei	-5424
▁Prote	-5425
▁avant	-5426
▁German	-5427
▁conving	-5428
▁prevede	-5429
mar	-5430
▁lot	-5431
▁dang	-5432
▁negocieri	-5433
▁relating	-5434
▁Mus	-5435
▁history	-5436
urarea	-5437
lar	-5438
▁harmon	-5439
▁60	-5440
▁talk	-5441
▁încredere	-5442
▁initiatives	-5443
▁bre	-5444
▁sout	-5445
▁vizează	-5446
▁adoptate	-5447
cile	-5448
▁dimin	-5449
▁durabilă	-5450
▁land	-5451
▁defini	-5452
▁prosper	-5453
▁introducerea	-5454
ctor	-5455
▁sectors	-5456
▁declaraţie	-5457
It	-5458
▁refuge	-5459
▁Președin	-5460
eta	-5461
ranean	-5462
▁profession	-5463
▁lunii	-5464
▁strân	-5465
▁respective	-5466
▁noua	-5467
▁Skopie	-5468
aţionale	-5469
▁bank	-5470
▁dificul	-5471
▁august	-5472
▁complic	-5473
▁stabilitate	-5474
▁Justice	-5475
▁imediat	-5476
▁juridic	-5477
▁Sara	-5478
▁Macedoniei	-5479
CTY	-5480
▁cab	-5481
▁rein	-5482
▁asylum	-5483
▁includes	-5484
▁administration	-5485
▁invit	-5486
▁hotărâ	-5487
AS	-5488
▁dri	-5489
▁waste	-5490
asad	-5491
▁datelor	-5492
amentelor	-5493
▁solicitat	-5494
▁unii	-5495
orthern	-5496
▁solidaritate	-5497
▁mere	-5498
▁competitive	-5499
ging	-5500
▁armon	-5501
În	-5502
▁half	-5503
▁actuală	-5504
urală	-5505
▁hop	-5506
coming	-5507
▁ambitious	-5508
▁transparent	-5509
inătate	-5510
▁regards	-5511
tics	-5512
▁benefits	-5513
▁implementarea	-5514
▁old	-5515
▁opened	-5516
▁effects	-5517
▁înţeleg	-5518
▁centrale	-5519
ME	-5520
▁cauză	-5521
▁ofere	-5522
▁Hungarian	-5523
▁excellent	-5524
hib	-5525
▁obţine	-5526
▁macedone	-5527
▁dispute	-5528
▁considered	-5529
▁vrem	-5530
▁volunt	-5531
▁vac	-5532
▁Tunis	-5533
▁accord	-5534
▁sig	-5535
▁lives	-5536
▁ministry	-5537
▁instituţii	-5538
▁Mo	-5539
▁Europă	-5540
▁facing	-5541
▁albanez	-5542
▁created	-5543
▁refugia	-5544
▁politicians	-5545
▁Fur	-5546
▁paci	-5547
▁Fondul	-5548
just	-5549
▁une	-5550
ering	-5551
▁Ucra	-5552
▁Drept	-5553
▁făcute	-5554
▁supporting	-5555
▁obtain	-5556
▁consumer	-5557
lin	-5558
ristian	-5559
▁globală	-5560
be	-5561
▁TV	-5562
aff	-5563
▁Vest	-5564
▁planific	-5565
▁provides	-5566
▁intenţionează	-5567
struc	-5568
▁compreh	-5569
ferent	-5570
▁possibility	-5571
▁Sim	-5572
▁eficiente	-5573
▁parteneriat	-5574
▁fos	-5575
▁interesele	-5576
▁organizate	-5577
▁wants	-5578
aking	-5579
inian	-5580
▁Feder	-5581
enge	-5582
▁Dire	-5583
▁sent	-5584
▁agricol	-5585
▁Now	-5586
ajului	-5587
▁Ko	-5588
▁lăs	-5589
▁Ori	-5590
▁lab	-5591
▁seek	-5592
▁croat	-5593
▁shown	-5594
▁Georgia	-5595
▁mijlocii	-5596
▁sectoare	-5597
▁oferit	-5598
▁compens	-5599
▁leading	-5600
▁oamenilor	-5601
▁strategia	-5602
▁lib	-5603
▁terrorism	-5604
illed	-5605
▁capăt	-5606
▁promoting	-5607
met	-5608
ievo	-5609
▁ordin	-5610
▁decizii	-5611
▁puternică	-5612
lat	-5613
▁2.	-5614
▁soluţii	-5615
▁experience	-5616
▁trafficking	-5617
ush	-5618
▁toc	-5619
▁Be	-5620
▁successful	-5621
▁cine	-5622
▁motion	-5623
▁Austria	-5624
largement	-5625
▁age	-5626
▁Swed	-5627
▁putere	-5628
▁cover	-5629
▁tempor	-5630
nik	-5631
▁investiţii	-5632
▁rezultatele	-5633
▁aprobat	-5634
▁obvious	-5635
▁importanţa	-5636
▁arrest	-5637
▁operaţi	-5638
▁conşti	-5639
▁Saraievo	-5640
▁articolul	-5641
operi	-5642
▁Mari	-5643
▁sold	-5644
▁Last	-5645
▁entry	-5646
ail	-5647
▁198	-5648
▁Russian	-5649
▁constant	-5650
reia	-5651
▁log	-5652
▁EULEX	-5653
▁organisation	-5654
therm	-5655
▁tocmai	-5656
▁IMF	-5657
▁cip	-5658
▁KFOR	-5659
▁side	-5660
▁confidence	-5661
▁Pakistan	-5662
oul	-5663
▁Atena	-5664
▁îmbunătăţirea	-5665
▁function	-5666
▁cif	-5667
nei	-5668
agues	-5669
thermore	-5670
▁convin	-5671
▁organizat	-5672
înţeles	-5673
▁aşteaptă	-5674
▁asigurarea	-5675
sibil	-5676
▁vari	-5677
▁challenge	-5678
▁completely	-5679
▁dead	-5680
▁pună	-5681
▁categor	-5682
▁diplomatic	-5683
▁angajamentul	-5684
arily	-5685
▁avertiz	-5686
-0	-5687
KK	-5688
▁humanitarian	-5689
▁dig	-5690
▁moned	-5691
order	-5692
▁cipri	-5693
▁impoz	-5694
▁precis	-5695
▁Cri	-5696
▁numără	-5697
-201	-5698
osevic	-5699
▁vineri	-5700
▁propriet	-5701
inț	-5702
anted	-5703
rench	-5704
tocol	-5705
▁încearcă	-5706
▁direction	-5707
▁FMI	-5708
▁germ	-5709
▁Ukraine	-5710
▁prepared	-5711
▁away	-5712
▁shall	-5713
posed	-5714
▁tourism	-5715
▁garanta	-5716
buz	-5717
▁minority	-5718
▁beginning	-5719
▁rezultatul	-5720
▁sufficient	-5721
▁thous	-5722
utul	-5723
ădi	-5724
▁friend	-5725
▁dimensi	-5726
▁Finan	-5727
▁trying	-5728
▁stric	-5729
▁ape	-5730
▁vech	-5731
▁2007,	-5732
▁şedin	-5733
▁civili	-5734
▁demonstrat	-5735
agen	-5736
▁mil	-5737
▁seems	-5738
▁budgetary	-5739
▁absolutely	-5740
▁justific	-5741
▁Secretary	-5742
▁economies	-5743
mierul	-5744
▁opening	-5745
▁întâmplă	-5746
▁investments	-5747
▁clară	-5748
▁1990	-5749
▁alleg	-5750
▁caused	-5751
▁necesită	-5752
▁schimbărilor	-5753
ets	-5754
▁fre	-5755
▁celelalte	-5756
▁Totuși	-5757
▁prezintă	-5758
▁cetățenii	-5759
▁regională	-5760
gy	-5761
unte	-5762
▁recovery	-5763
▁resursele	-5764
▁dnei	-5765
▁People	-5766
▁suffer	-5767
▁autorităţilor	-5768
▁hom	-5769
▁grad	-5770
▁insist	-5771
▁despite	-5772
▁capacitatea	-5773
emor	-5774
▁Lat	-5775
▁lucrătorilor	-5776
▁2000	-5777
▁arti	-5778
▁calling	-5779
▁elemente	-5780
zinte	-5781
▁țară	-5782
▁teritoriul	-5783
iev	-5784
▁Bas	-5785
▁redus	-5786
▁cărora	-5787
▁totuşi	-5788
egu	-5789
iter	-5790
amber	-5791
▁reală	-5792
▁effectively	-5793
▁Po	-5794
▁sense	-5795
▁Canada	-5796
▁intensific	-5797
aari	-5798
▁radio	-5799
ying	-5800
▁carbon	-5801
▁standarde	-5802
▁participation	-5803
▁aus	-5804
▁honour	-5805
▁sectorului	-5806
tish	-5807
inated	-5808
▁tool	-5809
▁tom	-5810
▁Tele	-5811
aţilor	-5812
▁stage	-5813
▁acţion	-5814
▁destul	-5815
▁either	-5816
aț	-5817
ința	-5818
▁spok	-5819
▁Înalt	-5820
▁coordination	-5821
▁enh	-5822
▁Salut	-5823
euro	-5824
▁News	-5825
ativă	-5826
▁East	-5827
▁sârbe	-5828
▁America	-5829
▁autonom	-5830
apte	-5831
lines	-5832
▁Zoran	-5833
▁spect	-5834
▁redres	-5835
▁aceeaşi	-5836
▁CO	-5837
▁gain	-5838
▁beneficia	-5839
▁religious	-5840
▁bio	-5841
izate	-5842
▁describ	-5843
▁Ţ	-5844
▁Tribun	-5845
▁fiscal	-5846
▁practică	-5847
▁politicilor	-5848
▁Rez	-5849
▁sti	-5850
▁zonele	-5851
▁agencies	-5852
tead	-5853
▁instead	-5854
quis	-5855
▁precon	-5856
eli	-5857
▁luăm	-5858
▁exchange	-5859
▁guvernan	-5860
▁minorities	-5861
▁pescuitului	-5862
▁Action	-5863
▁measure	-5864
hood	-5865
▁cha	-5866
▁seama	-5867
▁căreia	-5868
▁globale	-5869
▁practici	-5870
cat	-5871
▁2001	-5872
▁offic	-5873
▁Milosevic	-5874
ritten	-5875
▁rural	-5876
▁reglementare	-5877
inet	-5878
CP	-5879
▁centrul	-5880
▁agency	-5881
▁failed	-5882
pte	-5883
erent	-5884
▁answer	-5885
▁creșterea	-5886
▁amân	-5887
▁înțele	-5888
▁experts	-5889
quate	-5890
▁paid	-5891
▁fraud	-5892
▁takes	-5893
▁perhaps	-5894
tisaari	-5895
▁comprehensive	-5896
▁Centre	-5897
▁burd	-5898
▁eliber	-5899
▁lucrurile	-5900
▁principiul	-5901
▁congratulate	-5902
ather	-5903
▁Mondi	-5904
▁alegerilor	-5905
▁reprezentant	-5906
▁statements	-5907
▁vicepre	-5908
▁jumătate	-5909
▁stabilit	-5910
▁aims	-5911
▁Today	-5912
ula	-5913
▁întreprinderi	-5914
esea	-5915
▁city	-5916
▁afectează	-5917
▁iniţiative	-5918
▁coast	-5919
▁progresul	-5920
▁respectiv	-5921
▁deputaţi	-5922
atorul	-5923
▁existe	-5924
▁establishing	-5925
▁colleagues	-5926
jected	-5927
▁discrimination	-5928
▁clas	-5929
▁sele	-5930
▁safegu	-5931
unic	-5932
▁difer	-5933
▁journal	-5934
▁Ahtisaari	-5935
▁cour	-5936
▁fishing	-5937
uage	-5938
▁finally	-5939
▁vizelor	-5940
▁discutat	-5941
▁Hague	-5942
▁alloc	-5943
▁clădi	-5944
▁toler	-5945
▁exploat	-5946
▁implică	-5947
▁liderii	-5948
▁Karadzic	-5949
arilor	-5950
▁transfront	-5951
▁Act	-5952
▁jurn	-5953
▁combat	-5954
▁grupuri	-5955
▁reality	-5956
▁adecvate	-5957
▁legislaţia	-5958
▁nea	-5959
▁ton	-5960
rong	-5961
▁rise	-5962
▁Stabil	-5963
▁Ungari	-5964
▁developed	-5965
rupt	-5966
▁bugetare	-5967
astro	-5968
itară	-5969
▁French	-5970
▁Cel	-5971
▁forței	-5972
yond	-5973
▁clare	-5974
▁grupul	-5975
▁During	-5976
▁Comp	-5977
▁danger	-5978
▁applied	-5979
▁passeng	-5980
▁siguranță	-5981
no	-5982
▁BBC	-5983
▁pensi	-5984
▁toţii	-5985
▁minimum	-5986
▁represents	-5987
▁asum	-5988
▁worth	-5989
struction	-5990
▁reducere	-5991
Ac	-5992
ţiuni	-5993
▁altele	-5994
▁overall	-5995
▁requires	-5996
▁Mediterranean	-5997
iza	-5998
▁Ofici	-5999
▁înloc	-6000
▁Furthermore	-6001
uel	-6002
▁cale	-6003
▁histor	-6004
▁highlight	-6005
▁self	-6006
ercial	-6007
▁ideea	-6008
▁unică	-6009
▁prezenta	-6010
▁largest	-6011
▁Voj	-6012
ătorilor	-6013
▁Secondly	-6014
zute	-6015
▁task	-6016
▁Haga	-6017
▁acţiuni	-6018
▁conserv	-6019
PE	-6020
ember	-6021
▁participat	-6022
orii	-6023
▁300	-6024
sibilities	-6025
▁lik	-6026
ls	-6027
▁abil	-6028
▁poor	-6029
▁daily	-6030
▁shows	-6031
▁viaţă	-6032
anim	-6033
▁British	-6034
gres	-6035
anish	-6036
▁şans	-6037
arest	-6038
▁zonă	-6039
pol	-6040
▁Inte	-6041
▁communication	-6042
▁Având	-6043
▁maritime	-6044
▁gesti	-6045
▁tomorrow	-6046
▁principalele	-6047
%,	-6048
▁abordarea	-6049
▁communities	-6050
going	-6051
▁serve	-6052
▁Te	-6053
▁condemn	-6054
▁culturale	-6055
▁gaze	-6056
▁practi	-6057
▁militare	-6058
cil	-6059
▁Also	-6060
▁implicate	-6061
▁grec	-6062
▁contr	-6063
▁luptă	-6064
▁multor	-6065
gn	-6066
▁anual	-6067
ibility	-6068
▁wanted	-6069
▁economie	-6070
▁loss	-6071
▁giving	-6072
▁organizată	-6073
▁trăi	-6074
▁ourselves	-6075
atică	-6076
iectul	-6077
▁lumii	-6078
▁wa	-6079
▁Leg	-6080
▁Sup	-6081
ungary	-6082
▁documents	-6083
mir	-6084
▁lov	-6085
▁adesea	-6086
▁Irlanda	-6087
▁disponibil	-6088
▁Lu	-6089
border	-6090
▁legii	-6091
▁acceler	-6092
▁fisheries	-6093
▁structurale	-6094
▁IMM	-6095
▁Greciei	-6096
▁coalition	-6097
▁emb	-6098
▁town	-6099
▁Alian	-6100
▁Şi	-6101
▁Sum	-6102
▁afla	-6103
▁Lj	-6104
point	-6105
▁known	-6106
▁raised	-6107
▁Festival	-6108
▁adoptată	-6109
chet	-6110
▁welcom	-6111
▁juridice	-6112
▁1999	-6113
▁USD	-6114
▁finaliz	-6115
▁Sea	-6116
▁frag	-6117
▁britan	-6118
▁subsid	-6119
▁femeile	-6120
In	-6121
ândi	-6122
▁Hungary	-6123
▁rezoluție	-6124
▁parlamentare	-6125
▁experien	-6126
▁sprijină	-6127
▁imig	-6128
▁acele	-6129
▁profes	-6130
▁vorbim	-6131
▁permită	-6132
▁Q	-6133
▁Nov	-6134
▁majoritate	-6135
▁compl	-6136
▁finance	-6137
▁înregistrat	-6138
▁nes	-6139
▁sărăciei	-6140
▁Mit	-6141
▁namely	-6142
▁conclud	-6143
vereign	-6144
▁iz	-6145
▁recognise	-6146
arter	-6147
▁următoarele	-6148
down	-6149
▁provocări	-6150
▁technology	-6151
▁dă	-6152
▁Many	-6153
enomen	-6154
▁posibilă	-6155
▁Sub	-6156
Nu	-6157
▁tit	-6158
pects	-6159
▁aduc	-6160
▁operation	-6161
▁discussions	-6162
▁publicaţiei	-6163
▁stabilitatea	-6164
ops	-6165
▁MEP	-6166
▁refuz	-6167
▁nature	-6168
▁instituţiilor	-6169
▁Gru	-6170
▁lip	-6171
iddle	-6172
▁primi	-6173
▁improved	-6174
HU	-6175
▁plant	-6176
▁absolut	-6177
reme	-6178
▁pasag	-6179
▁Pa	-6180
▁Partn	-6181
▁remind	-6182
▁unanim	-6183
▁coment	-6184
▁datorită	-6185
▁commitments	-6186
aţională	-6187
▁Trade	-6188
▁sovereign	-6189
▁Kurd	-6190
▁path	-6191
▁obţinut	-6192
▁bilaterale	-6193
orb	-6194
fying	-6195
tical	-6196
▁lost	-6197
▁ordinea	-6198
▁recente	-6199
rb	-6200
lag	-6201
▁remar	-6202
▁threat	-6203
âm	-6204
▁belie	-6205
▁George	-6206
ury	-6207
▁Har	-6208
▁bid	-6209
▁stoc	-6210
▁2008.	-6211
▁suver	-6212
▁energia	-6213
▁Market	-6214
▁calcul	-6215
lah	-6216
▁Bo	-6217
▁înche	-6218
▁adresa	-6219
▁beyond	-6220
jic	-6221
▁Buch	-6222
▁reducing	-6223
MEs	-6224
▁regiunile	-6225
▁Copenhagen	-6226
adem	-6227
▁Haiti	-6228
▁anteri	-6229
▁aplică	-6230
▁statutul	-6231
▁purs	-6232
ulties	-6233
▁influence	-6234
▁Irak	-6235
▁families	-6236
▁întrebări	-6237
▁delegation	-6238
▁strict	-6239
▁mâine	-6240
▁planul	-6241
SA	-6242
cin	-6243
▁Sing	-6244
▁metod	-6245
▁propune	-6246
▁Copenhaga	-6247
▁teren	-6248
▁likely	-6249
ieze	-6250
▁adopte	-6251
▁sy	-6252
▁targets	-6253
wor	-6254
▁aband	-6255
rage	-6256
▁fiscale	-6257
pons	-6258
▁Dep	-6259
aring	-6260
▁Suntem	-6261
▁cabinet	-6262
▁dedic	-6263
▁vârstă	-6264
▁degrabă	-6265
▁reforme	-6266
▁equip	-6267
▁adecvat	-6268
▁Bucharest	-6269
▁măsurilor	-6270
urare	-6271
▁heard	-6272
▁related	-6273
DS	-6274
▁dise	-6275
▁nations	-6276
sa	-6277
▁Col	-6278
▁nevoia	-6279
▁aspectele	-6280
▁relaţiilor	-6281
▁intel	-6282
gg	-6283
▁recunoscut	-6284
▁Partnership	-6285
▁arri	-6286
▁fear	-6287
▁closely	-6288
▁populaţiei	-6289
ously	-6290
▁Afgh	-6291
▁India	-6292
▁calitatea	-6293
▁started	-6294
▁North	-6295
▁accom	-6296
▁Croaţiei	-6297
▁problemelor	-6298
▁Ang	-6299
▁cause	-6300
anda	-6301
Various	-6302
▁eş	-6303
▁Apro	-6304
itorii	-6305
▁forum	-6306
▁dovadă	-6307
▁relationship	-6308
ciale	-6309
▁securităţii	-6310
grame	-6311
▁Belg	-6312
▁căruia	-6313
▁salv	-6314
▁diviz	-6315
▁multil	-6316
acceptable	-6317
▁demonstra	-6318
▁Ap	-6319
▁allowed	-6320
▁property	-6321
hol	-6322
▁thanks	-6323
▁Eastern	-6324
▁integrare	-6325
▁statutului	-6326
▁propunerile	-6327
▁difficulties	-6328
tări	-6329
▁GDP	-6330
▁colegii	-6331
ube	-6332
ligh	-6333
ional	-6334
▁pericol	-6335
▁compara	-6336
▁grupului	-6337
▁Bulgariei	-6338
▁totul	-6339
ficiente	-6340
▁Investi	-6341
▁conclusion	-6342
▁viaţa	-6343
▁auz	-6344
divers	-6345
▁PIB	-6346
▁formă	-6347
▁france	-6348
▁quoted	-6349
▁Internaţional	-6350
▁eliminarea	-6351
▁fab	-6352
▁Dezvol	-6353
▁interi	-6354
▁stabilite	-6355
▁Day	-6356
▁căut	-6357
▁reiter	-6358
▁controlul	-6359
▁inaccept	-6360
▁presidency	-6361
▁puse	-6362
▁presei	-6363
▁Tunisia	-6364
omb	-6365
▁PKK	-6366
titui	-6367
▁eveniment	-6368
▁Association	-6369
▁fug	-6370
▁combating	-6371
Di	-6372
buds	-6373
▁Conform	-6374
punerea	-6375
▁proteja	-6376
▁României	-6377
▁sk	-6378
căr	-6379
▁Urm	-6380
▁Me	-6381
ander	-6382
ika	-6383
▁sine	-6384
▁Ivan	-6385
▁Toate	-6386
▁scand	-6387
▁looking	-6388
▁răspund	-6389
▁mii	-6390
▁avans	-6391
▁verific	-6392
▁stabilirea	-6393
▁Under	-6394
▁language	-6395
amă	-6396
▁erau	-6397
theless	-6398
▁rapidă	-6399
European	-6400
col	-6401
atiz	-6402
▁efect	-6403
▁realiza	-6404
aman	-6405
▁How	-6406
renica	-6407
▁omolog	-6408
▁dreptate	-6409
▁largă	-6410
▁immigration	-6411
ert	-6412
evski	-6413
▁doved	-6414
▁sides	-6415
SETimes	-6416
▁Afghan	-6417
▁attacks	-6418
▁motivul	-6419
▁Jovanovic	-6420
ored	-6421
▁Nikola	-6422
▁programe	-6423
lym	-6424
▁radic	-6425
▁normal	-6426
▁poziţie	-6427
versi	-6428
▁micro	-6429
▁activity	-6430
▁dificilă	-6431
▁Christ	-6432
▁depuse	-6433
▁sw	-6434
▁vota	-6435
▁commercial	-6436
▁cul	-6437
▁surve	-6438
▁anterior	-6439
▁cuvântul	-6440
▁growing	-6441
▁Europeans	-6442
▁acknow	-6443
▁arătat	-6444
▁greu	-6445
▁dorit	-6446
▁intended	-6447
▁Energy	-6448
▁constitution	-6449
pta	-6450
▁oric	-6451
▁contact	-6452
▁discutăm	-6453
▁Pod	-6454
▁enj	-6455
▁pil	-6456
▁Film	-6457
▁conten	-6458
▁independenţa	-6459
▁unacceptable	-6460
▁deep	-6461
▁macedonean	-6462
▁else	-6463
▁încheierea	-6464
▁Vuk	-6465
anader	-6466
▁round	-6467
▁Ucraina	-6468
▁discuta	-6469
▁incul	-6470
▁reciproc	-6471
▁limite	-6472
▁Sanader	-6473
▁propriile	-6474
▁scientific	-6475
agă	-6476
ovan	-6477
anţii	-6478
▁anticip	-6479
▁dreptului	-6480
▁fostul	-6481
▁obligations	-6482
ils	-6483
abili	-6484
▁văzut	-6485
▁Olym	-6486
▁reale	-6487
▁structural	-6488
▁disap	-6489
▁alimentare	-6490
bo	-6491
▁Maj	-6492
▁Sreb	-6493
▁incid	-6494
budsman	-6495
ătoarea	-6496
▁closer	-6497
▁establishment	-6498
illing	-6499
▁province	-6500
▁strongly	-6501
▁plăte	-6502
▁armate	-6503
▁împărtă	-6504
▁constructive	-6505
oman	-6506
▁magh	-6507
▁ream	-6508
▁ceremon	-6509
▁resping	-6510
▁candidat	-6511
abilitatea	-6512
▁Externe	-6513
▁supraveghere	-6514
▁paş	-6515
▁acorde	-6516
▁discuţiilor	-6517
ll	-6518
atern	-6519
▁Thank	-6520
▁banii	-6521
▁Bucure	-6522
▁realitate	-6523
rocra	-6524
▁confrunt	-6525
inii	-6526
▁legi	-6527
▁mesaj	-6528
dem	-6529
torul	-6530
▁plac	-6531
▁ship	-6532
▁reţele	-6533
▁failure	-6534
▁proceed	-6535
anţă	-6536
ucra	-6537
▁underta	-6538
▁plas	-6539
▁disaster	-6540
▁indiferent	-6541
que	-6542
▁ep	-6543
▁încânt	-6544
▁gestiune	-6545
▁involvement	-6546
▁pled	-6547
▁analys	-6548
▁analy	-6549
▁lucrează	-6550
altă	-6551
ștri	-6552
▁perfec	-6553
▁facilitate	-6554
vet	-6555
▁mele	-6556
▁opoziţie	-6557
▁producers	-6558
▁thousands	-6559
▁importanţă	-6560
PI	-6561
▁Tay	-6562
▁ocuparea	-6563
▁Socialist	-6564
▁Vlad	-6565
▁becoming	-6566
▁posibile	-6567
▁libertate	-6568
▁trust	-6569
▁continues	-6570
▁Stat	-6571
▁Moreover	-6572
▁principiile	-6573
▁grav	-6574
rice	-6575
▁ways	-6576
▁chance	-6577
▁austeri	-6578
▁Bucureşti	-6579
▁reformele	-6580
▁149	-6581
ţiune	-6582
▁delay	-6583
▁comunitatea	-6584
eme	-6585
sească	-6586
▁noted	-6587
▁proiectului	-6588
eten	-6589
▁costurile	-6590
▁ned	-6591
▁cuno	-6592
▁prag	-6593
▁latest	-6594
▁pieței	-6595
5.	-6596
▁frontiere	-6597
▁Da	-6598
▁afectate	-6599
▁achieving	-6600
nt	-6601
plice	-6602
▁acelea	-6603
▁correct	-6604
▁pierdut	-6605
▁nucleară	-6606
izează	-6607
▁attack	-6608
▁domnul	-6609
▁scăzut	-6610
▁origine	-6611
▁american	-6612
▁launched	-6613
but	-6614
▁3.	-6615
▁network	-6616
▁accident	-6617
▁biodivers	-6618
▁practices	-6619
▁promove	-6620
▁îndepline	-6621
▁accordance	-6622
RS	-6623
▁oficialii	-6624
▁directly	-6625
▁văd	-6626
▁lider	-6627
▁prieten	-6628
antă	-6629
▁ocazia	-6630
▁disch	-6631
▁Brazil	-6632
tăţile	-6633
▁northern	-6634
▁Since	-6635
▁mechanisms	-6636
▁Em	-6637
ţile	-6638
▁cle	-6639
▁brea	-6640
▁informații	-6641
fon	-6642
▁traficului	-6643
▁$	-6644
▁Glob	-6645
▁slab	-6646
▁tabled	-6647
▁Ol	-6648
cipe	-6649
▁August	-6650
▁agricul	-6651
▁elaborat	-6652
▁birocra	-6653
bilă	-6654
▁Val	-6655
▁2011.	-6656
30	-6657
▁Băn	-6658
▁pozitive	-6659
▁increasingly	-6660
ER	-6661
ora	-6662
▁crede	-6663
▁stake	-6664
▁regener	-6665
▁întâmplat	-6666
▁Convention	-6667
onez	-6668
▁AKP	-6669
▁grant	-6670
▁preşedintelui	-6671
▁şef	-6672
▁săra	-6673
orează	-6674
▁2020.	-6675
▁întrebarea	-6676
5,	-6677
matic	-6678
▁mediul	-6679
▁permit	-6680
▁comunitar	-6681
▁submitted	-6682
▁Srebrenica	-6683
▁internaționale	-6684
▁2,	-6685
▁Cl	-6686
▁Britan	-6687
alestinian	-6688
▁săptămână	-6689
▁semnificative	-6690
IS	-6691
FT	-6692
▁aff	-6693
▁online	-6694
▁Strategy	-6695
zd	-6696
▁reces	-6697
▁valori	-6698
▁Japan	-6699
▁legea	-6700
iden	-6701
▁Iv	-6702
▁joc	-6703
▁upon	-6704
▁respecte	-6705
▁Mer	-6706
▁note	-6707
▁depus	-6708
▁partner	-6709
ees	-6710
▁du	-6711
▁advant	-6712
ațională	-6713
▁suggest	-6714
▁esențial	-6715
▁chestiunea	-6716
▁realizarea	-6717
▁immediately	-6718
▁compon	-6719
▁Ungaria	-6720
▁patients	-6721
▁Regulation	-6722
▁propunerii	-6723
osp	-6724
vere	-6725
▁study	-6726
▁recognition	-6727
LT	-6728
▁treaty	-6729
▁safeguard	-6730
ânga	-6731
right	-6732
▁doubt	-6733
Diverse	-6734
▁depinde	-6735
vin	-6736
▁contrac	-6737
rian	-6738
lighted	-6739
▁followed	-6740
▁knowledge	-6741
lective	-6742
▁flexibil	-6743
▁generale	-6744
▁Vice	-6745
▁terorismului	-6746
ract	-6747
▁ICTY	-6748
▁abol	-6749
▁Institu	-6750
▁impactul	-6751
▁răspunde	-6752
căm	-6753
▁anii	-6754
▁recommendations	-6755
han	-6756
range	-6757
▁celeb	-6758
▁transportul	-6759
▁incom	-6760
▁şeful	-6761
ţională	-6762
▁territory	-6763
uania	-6764
▁circumstances	-6765
▁institutional	-6766
DA	-6767
▁Gaza	-6768
▁tranzi	-6769
▁propuse	-6770
FI	-6771
rab	-6772
izat	-6773
▁works	-6774
▁trebuit	-6775
▁Recep	-6776
▁elected	-6777
▁trag	-6778
▁wrong	-6779
▁majoră	-6780
▁introduction	-6781
▁Mes	-6782
▁urged	-6783
▁lansat	-6784
▁definite	-6785
▁acţiunile	-6786
aper	-6787
poin	-6788
▁DPA	-6789
▁highest	-6790
▁emphasise	-6791
lands	-6792
▁auto	-6793
▁atitud	-6794
▁companiile	-6795
untenegrului	-6796
ills	-6797
▁acts	-6798
wise	-6799
▁votes	-6800
iţ	-6801
eniile	-6802
▁rates	-6803
▁Gi	-6804
▁Tayy	-6805
▁forest	-6806
▁convenit	-6807
▁Ash	-6808
▁Thaci	-6809
▁temei	-6810
▁dezbateri	-6811
ârziu	-6812
▁Spain	-6813
▁târziu	-6814
▁intrarea	-6815
▁legislativ	-6816
ester	-6817
▁comerț	-6818
▁alături	-6819
▁Preşedinţia	-6820
▁developments	-6821
án	-6822
▁poliţie	-6823
▁toți	-6824
▁raise	-6825
▁terţe	-6826
▁session	-6827
99	-6828
▁SMEs	-6829
▁Tayyip	-6830
▁damage	-6831
▁continent	-6832
agra	-6833
▁liderul	-6834
▁parlamentului	-6835
▁Aud	-6836
▁fiecă	-6837
▁spaţi	-6838
▁judicial	-6839
▁situaţiei	-6840
▁procedurile	-6841
road	-6842
▁Rel	-6843
▁fru	-6844
▁succeed	-6845
▁privitoare	-6846
▁energetic	-6847
▁extraordin	-6848
unem	-6849
▁institution	-6850
dra	-6851
▁parts	-6852
▁comand	-6853
▁Az	-6854
▁alone	-6855
▁goals	-6856
▁Olympic	-6857
▁schimbare	-6858
▁accent	-6859
▁cas	-6860
▁pedep	-6861
▁datoria	-6862
▁protejarea	-6863
EU	-6864
▁întâi	-6865
▁formul	-6866
▁Gruevski	-6867
▁consistent	-6868
▁guid	-6869
▁reformă	-6870
▁consolida	-6871
▁tari	-6872
▁Franţa	-6873
▁senten	-6874
▁cererea	-6875
▁Albaniei	-6876
inile	-6877
ades	-6878
▁măr	-6879
▁genu	-6880
▁Amend	-6881
▁gravă	-6882
▁diverse	-6883
▁obiectivelor	-6884
▁edi	-6885
▁scope	-6886
▁Unfortunately	-6887
ery	-6888
▁ora	-6889
where	-6890
called	-6891
itation	-6892
▁poliţiei	-6893
▁discharge	-6894
aug	-6895
▁abuz	-6896
▁2004,	-6897
▁calific	-6898
bilitatea	-6899
ipe	-6900
▁weak	-6901
itarea	-6902
▁authority	-6903
▁corupţiei	-6904
▁naţională	-6905
▁Cypriot	-6906
▁Italian	-6907
▁recognised	-6908
▁subliniază	-6909
bor	-6910
▁lucr	-6911
▁exerciţi	-6912
▁organism	-6913
▁ridicate	-6914
▁corespunzător	-6915
ivă	-6916
▁Kos	-6917
▁Asia	-6918
torial	-6919
De	-6920
▁hour	-6921
▁conţin	-6922
▁kosovari	-6923
▁union	-6924
▁simple	-6925
AC	-6926
ceşti	-6927
▁2006,	-6928
▁Firstly	-6929
▁connection	-6930
▁integrated	-6931
uy	-6932
uarea	-6933
▁textile	-6934
▁equality	-6935
▁participarea	-6936
erce	-6937
▁creat	-6938
▁Egy	-6939
elling	-6940
▁Justi	-6941
▁burden	-6942
▁Printre	-6943
▁reduced	-6944
▁reconcil	-6945
▁tranzac	-6946
▁gestionarea	-6947
▁Fondului	-6948
▁introduced	-6949
▁stre	-6950
▁nordul	-6951
▁trăiesc	-6952
Muntenegru	-6953
▁pericul	-6954
▁commission	-6955
▁partidului	-6956
▁norme	-6957
▁alimentară	-6958
▁technologies	-6959
atri	-6960
▁chec	-6961
▁părerea	-6962
▁critical	-6963
▁Sus	-6964
▁seven	-6965
▁staff	-6966
▁planned	-6967
▁domeniile	-6968
▁utilizate	-6969
inţei	-6970
▁preț	-6971
▁seriously	-6972
▁intra	-6973
▁occur	-6974
▁detali	-6975
▁încălc	-6976
▁abandon	-6977
▁separate	-6978
▁Chamber	-6979
▁ultima	-6980
▁setting	-6981
▁threate	-6982
vi	-6983
▁sem	-6984
▁risks	-6985
▁infrac	-6986
▁began	-6987
▁suppl	-6988
▁interz	-6989
țelor	-6990
▁Mart	-6991
▁forma	-6992
▁operations	-6993
rd	-6994
▁umane	-6995
ştin	-6996
embly	-6997
▁mandat	-6998
▁persons	-6999
▁relevan	-7000
ţăm	-7001
▁echit	-7002
▁Service	-7003
▁refugees	-7004
ilt	-7005
▁brut	-7006
ference	-7007
▁Proble	-7008
▁trimis	-7009
▁audi	-7010
elines	-7011
▁bodies	-7012
urate	-7013
▁desi	-7014
▁2011,	-7015
▁rămână	-7016
unct	-7017
▁Most	-7018
▁incen	-7019
▁severe	-7020
▁ocazie	-7021
▁product	-7022
▁Iugoslav	-7023
▁activitate	-7024
▁investigation	-7025
▁Cum	-7026
uvern	-7027
▁Spanish	-7028
▁thin	-7029
▁înaintea	-7030
▁Au	-7031
▁Lond	-7032
▁părere	-7033
▁victime	-7034
▁iniţiativă	-7035
num	-7036
▁Aut	-7037
▁Pen	-7038
▁capt	-7039
▁acordurile	-7040
wide	-7041
▁Stras	-7042
▁margin	-7043
▁vorbit	-7044
▁regular	-7045
▁starting	-7046
▁rati	-7047
▁stra	-7048
▁Libya	-7049
▁nearly	-7050
▁proven	-7051
▁Ombudsman	-7052
▁positions	-7053
▁reformelor	-7054
▁ones	-7055
▁plat	-7056
▁secure	-7057
▁Aceştia	-7058
▁biggest	-7059
▁forms	-7060
▁bazează	-7061
▁precisely	-7062
assad	-7063
▁premi	-7064
▁extent	-7065
▁resolve	-7066
ought	-7067
▁duty	-7068
▁speed	-7069
▁situație	-7070
▁acțiune	-7071
▁economii	-7072
▁PPE	-7073
▁închid	-7074
▁oficiali	-7075
▁procedura	-7076
▁inaug	-7077
▁consili	-7078
site	-7079
works	-7080
▁mutual	-7081
▁societate	-7082
▁aște	-7083
▁Programme	-7084
▁na	-7085
▁reforma	-7086
tului	-7087
▁limited	-7088
▁telecom	-7089
▁confruntăm	-7090
▁Ș	-7091
▁eti	-7092
▁normele	-7093
▁UK	-7094
▁forget	-7095
▁religi	-7096
▁serios	-7097
▁bog	-7098
ployed	-7099
▁privatiz	-7100
ports	-7101
▁Servici	-7102
▁Ivo	-7103
▁dnă	-7104
▁Până	-7105
▁highly	-7106
▁singura	-7107
▁problemei	-7108
ţit	-7109
ieşte	-7110
▁vânz	-7111
▁încrederea	-7112
isha	-7113
▁adus	-7114
▁goes	-7115
▁tort	-7116
▁Obiec	-7117
▁enjoy	-7118
▁Strategia	-7119
lis	-7120
▁Bl	-7121
nică	-7122
▁fot	-7123
▁cheie	-7124
▁protecție	-7125
▁Pon	-7126
▁manner	-7127
▁pacien	-7128
▁series	-7129
▁Desigur	-7130
▁alleged	-7131
▁imigran	-7132
▁Republicii	-7133
▁societatea	-7134
▁Air	-7135
▁average	-7136
▁sprijine	-7137
▁Rat	-7138
▁unil	-7139
▁remov	-7140
▁spani	-7141
▁Astăzi	-7142
anse	-7143
uals	-7144
▁Muslim	-7145
▁partide	-7146
▁Med	-7147
inding	-7148
▁balcan	-7149
▁Balcanii	-7150
▁populaţia	-7151
▁preşedinţia	-7152
timis	-7153
▁crize	-7154
▁helping	-7155
▁medical	-7156
abilitate	-7157
undred	-7158
▁Director	-7159
▁Ann	-7160
bourg	-7161
▁oraşul	-7162
▁Yugoslavia	-7163
▁mot	-7164
▁feat	-7165
▁bad	-7166
▁managed	-7167
▁speaker	-7168
▁professional	-7169
▁Unit	-7170
▁impune	-7171
▁noștri	-7172
▁fighting	-7173
This	-7174
▁trial	-7175
▁copiii	-7176
ațiilor	-7177
▁purpose	-7178
▁generală	-7179
▁informare	-7180
CO	-7181
▁Red	-7182
▁găzd	-7183
erează	-7184
▁lower	-7185
▁acorda	-7186
▁eviden	-7187
economic	-7188
▁puternice	-7189
terii	-7190
▁mică	-7191
mentul	-7192
▁simpli	-7193
▁80	-7194
anţi	-7195
▁conferinţă	-7196
▁rămas	-7197
alţi	-7198
▁hit	-7199
▁immediate	-7200
▁siguranţa	-7201
▁extinderea	-7202
▁gives	-7203
▁finanţare	-7204
▁Stu	-7205
▁guvernele	-7206
▁prezentate	-7207
▁comunităţii	-7208
▁participate	-7209
▁Ru	-7210
olului	-7211
▁north	-7212
▁counterpart	-7213
ga	-7214
▁Sit	-7215
▁der	-7216
▁Pers	-7217
▁acquis	-7218
▁demands	-7219
▁35	-7220
▁host	-7221
▁Agric	-7222
▁charges	-7223
▁renewable	-7224
SK	-7225
▁issued	-7226
▁medicale	-7227
▁politics	-7228
▁elaborarea	-7229
▁disponibile	-7230
▁specifically	-7231
▁dea	-7232
▁MEPs	-7233
▁etnice	-7234
▁promova	-7235
▁Stre	-7236
▁voic	-7237
▁atrag	-7238
▁promo	-7239
▁Băncii	-7240
▁enforce	-7241
▁evidence	-7242
▁schimbări	-7243
▁constitutional	-7244
▁vam	-7245
▁aflate	-7246
▁corectă	-7247
▁stressed	-7248
▁differences	-7249
Ch	-7250
▁Noi	-7251
▁Igor	-7252
tăţilor	-7253
▁semnal	-7254
▁outcome	-7255
▁leadership	-7256
▁figures	-7257
▁Albanians	-7258
▁criteriile	-7259
▁structures	-7260
py	-7261
▁War	-7262
▁flu	-7263
▁nav	-7264
▁punem	-7265
▁societăţii	-7266
rân	-7267
▁Per	-7268
▁drug	-7269
▁descăr	-7270
▁exclud	-7271
itul	-7272
pond	-7273
▁acordă	-7274
▁linked	-7275
▁străine	-7276
▁declaration	-7277
▁preşedinţiei	-7278
▁corespunzătoare	-7279
▁civilă	-7280
▁Despite	-7281
▁thought	-7282
▁finanţarea	-7283
▁demonstrate	-7284
▁turci	-7285
▁respectă	-7286
FE	-7287
▁Obama	-7288
▁legislaţiei	-7289
imir	-7290
▁Summit	-7291
▁merită	-7292
▁angajament	-7293
▁strategiei	-7294
▁York	-7295
▁Chiar	-7296
▁zonei	-7297
▁Policy	-7298
▁susţinut	-7299
▁Strasbourg	-7300
▁representative	-7301
▁pra	-7302
▁Şti	-7303
▁hous	-7304
▁oare	-7305
▁Radio	-7306
▁Poland	-7307
▁forced	-7308
▁customs	-7309
▁remember	-7310
▁parcursul	-7311
▁protecția	-7312
▁amin	-7313
▁presupune	-7314
▁improvement	-7315
ude	-7316
▁eight	-7317
▁planning	-7318
▁Afghanistan	-7319
▁income	-7320
▁Centrală	-7321
▁properly	-7322
▁spending	-7323
▁dob	-7324
▁campan	-7325
▁imigra	-7326
▁adequate	-7327
▁sanctions	-7328
▁perspectiva	-7329
▁liberalisation	-7330
▁dict	-7331
▁legată	-7332
▁topic	-7333
▁Inform	-7334
▁tehnice	-7335
cipl	-7336
lobod	-7337
▁Mosc	-7338
▁odată	-7339
▁spent	-7340
▁puteri	-7341
▁Berisha	-7342
▁satisfac	-7343
▁vizită	-7344
▁programului	-7345
rel	-7346
▁km	-7347
pira	-7348
▁Vot	-7349
▁Media	-7350
▁happened	-7351
vered	-7352
▁Ratko	-7353
▁reuni	-7354
▁mainly	-7355
▁funcţie	-7356
▁ongoing	-7357
▁partidele	-7358
▁rapporteurs	-7359
▁unfortunately	-7360
▁bari	-7361
▁platform	-7362
arity	-7363
▁rail	-7364
▁vedem	-7365
▁uniform	-7366
rish	-7367
▁ill	-7368
▁musul	-7369
▁deţine	-7370
ințele	-7371
▁Invest	-7372
▁curren	-7373
▁primele	-7374
▁cuprinză	-7375
-2	-7376
4,	-7377
▁vreme	-7378
▁elements	-7379
▁democratică	-7380
▁citat	-7381
ological	-7382
▁apărării	-7383
▁She	-7384
▁sea	-7385
▁Dimit	-7386
▁ambiţi	-7387
▁totodată	-7388
▁elim	-7389
landez	-7390
▁2020,	-7391
▁păcii	-7392
▁desfăș	-7393
▁interim	-7394
▁subsidiari	-7395
HR	-7396
▁wid	-7397
▁înto	-7398
omin	-7399
▁compar	-7400
▁stabili	-7401
▁incident	-7402
▁dos	-7403
▁membră	-7404
▁paragra	-7405
oke	-7406
▁aline	-7407
▁bringing	-7408
▁protocol	-7409
iro	-7410
▁Ali	-7411
▁animal	-7412
tenegrin	-7413
▁propria	-7414
▁industriei	-7415
▁standardelor	-7416
nu	-7417
▁supervision	-7418
baterea	-7419
▁Solana	-7420
ibet	-7421
▁alţi	-7422
▁whom	-7423
rested	-7424
▁Directiva	-7425
▁territorial	-7426
ără	-7427
▁ore	-7428
▁evita	-7429
▁Curţii	-7430
▁recuno	-7431
▁anumitor	-7432
▁body	-7433
▁buge	-7434
▁principiu	-7435
▁Fa	-7436
cent	-7437
▁views	-7438
▁avantaj	-7439
anţ	-7440
anul	-7441
uite	-7442
▁award	-7443
▁apropi	-7444
▁Vojislav	-7445
indu	-7446
▁uităm	-7447
▁privatis	-7448
▁considerat	-7449
▁amendamente	-7450
▁companiilor	-7451
▁conclusions	-7452
evic	-7453
inţi	-7454
▁Fol	-7455
▁del	-7456
▁pag	-7457
▁scăd	-7458
▁signal	-7459
▁însemn	-7460
▁Ministry	-7461
▁expression	-7462
▁draf	-7463
▁ştim	-7464
aturday	-7465
▁valorile	-7466
▁adj	-7467
▁rog	-7468
ințe	-7469
ţiva	-7470
▁Saturday	-7471
▁consensus	-7472
▁protecting	-7473
▁Anton	-7474
▁manif	-7475
▁conver	-7476
▁singură	-7477
▁mondială	-7478
▁lac	-7479
▁evaluarea	-7480
▁ajust	-7481
icire	-7482
▁dealing	-7483
pet	-7484
▁Man	-7485
▁antre	-7486
▁Stock	-7487
▁televiz	-7488
▁speciale	-7489
▁precedent	-7490
▁Afgan	-7491
▁Irish	-7492
▁cărui	-7493
▁juridică	-7494
▁sistemele	-7495
▁negotiating	-7496
▁prelu	-7497
▁partidul	-7498
▁începând	-7499
soci	-7500
▁Can	-7501
▁presus	-7502
President	-7503
▁esenţială	-7504
▁tinerilor	-7505
▁minorităţilor	-7506
rs	-7507
vizion	-7508
▁willing	-7509
▁regiunii	-7510
▁proceduri	-7511
▁400	-7512
artea	-7513
▁Cele	-7514
▁numerous	-7515
▁150	-7516
▁integri	-7517
▁optimis	-7518
▁încercat	-7519
▁Afganistan	-7520
▁guarantees	-7521
hi	-7522
kov	-7523
▁Lad	-7524
▁Înt	-7525
▁Spania	-7526
▁presid	-7527
▁sfârșit	-7528
▁tribunalul	-7529
jloc	-7530
▁ACP	-7531
▁conflicts	-7532
ciu	-7533
tite	-7534
▁20%	-7535
▁Slobod	-7536
▁strategii	-7537
▁demonstrează	-7538
▁Mor	-7539
▁Ram	-7540
▁ignor	-7541
▁acoperi	-7542
▁albanezi	-7543
▁cunoscut	-7544
▁răspunsul	-7545
▁passengers	-7546
▁Luka	-7547
▁electricity	-7548
inarea	-7549
▁deten	-7550
▁argument	-7551
▁conclude	-7552
▁continued	-7553
▁consumatorii	-7554
▁70	-7555
▁dialogul	-7556
▁suficiente	-7557
dez	-7558
uing	-7559
isted	-7560
▁burea	-7561
▁overcome	-7562
▁published	-7563
▁asking	-7564
▁nation	-7565
▁rejected	-7566
▁discussing	-7567
Am	-7568
itness	-7569
▁scandal	-7570
▁prezinte	-7571
▁Nat	-7572
▁Princip	-7573
▁suveran	-7574
▁supports	-7575
▁equipment	-7576
▁Def	-7577
times	-7578
▁Monet	-7579
▁emisiilor	-7580
rutin	-7581
produc	-7582
▁Proces	-7583
▁adding	-7584
▁noilor	-7585
alizării	-7586
▁transac	-7587
▁Sa	-7588
iului	-7589
▁Nations	-7590
▁Sy	-7591
▁Ul	-7592
berg	-7593
țială	-7594
▁coti	-7595
▁efic	-7596
urance	-7597
▁justiţiei	-7598
▁practical	-7599
▁sănătatea	-7600
▁Cei	-7601
▁sugg	-7602
intesc	-7603
▁2007.	-7604
▁decent	-7605
cad	-7606
rief	-7607
▁mix	-7608
▁ampl	-7609
▁ştiu	-7610
▁Mijlo	-7611
▁expend	-7612
▁repede	-7613
▁tineri	-7614
ont	-7615
▁granted	-7616
▁Pl	-7617
atch	-7618
▁unice	-7619
▁sexual	-7620
amentale	-7621
zy	-7622
riers	-7623
▁cumpă	-7624
▁Indeed	-7625
uat	-7626
▁web	-7627
▁adopta	-7628
▁listen	-7629
▁mijloc	-7630
▁payments	-7631
▁unic	-7632
▁ilegale	-7633
▁informat	-7634
rud	-7635
▁fil	-7636
▁flag	-7637
▁Belgradul	-7638
GO	-7639
gul	-7640
▁mini	-7641
ecutor	-7642
▁Depart	-7643
▁197	-7644
▁Fat	-7645
▁Vom	-7646
▁Middle	-7647
▁students	-7648
▁coordonare	-7649
▁stip	-7650
▁2005,	-7651
▁celui	-7652
▁tratat	-7653
▁discuţie	-7654
▁sprijinit	-7655
illa	-7656
▁Cea	-7657
enței	-7658
▁sinc	-7659
tiveness	-7660
▁discurs	-7661
▁integrării	-7662
reapta	-7663
▁ansamb	-7664
▁seeking	-7665
▁activităţi	-7666
▁aprovizion	-7667
▁prevention	-7668
each	-7669
▁aeriene	-7670
▁Acordului	-7671
▁migration	-7672
▁transmite	-7673
▁reprezenta	-7674
▁eforturilor	-7675
▁vicepreşedin	-7676
ames	-7677
▁Cult	-7678
▁intre	-7679
▁relaţii	-7680
▁terrorist	-7681
▁individuale	-7682
▁slow	-7683
▁uşor	-7684
▁acțion	-7685
▁worked	-7686
▁dovedit	-7687
▁naţiuni	-7688
▁sprijinirea	-7689
ovie	-7690
▁Mis	-7691
▁passed	-7692
▁deplină	-7693
▁animalelor	-7694
▁electronic	-7695
▁bugetar	-7696
▁pozitivă	-7697
cea	-7698
tivul	-7699
▁nimeni	-7700
▁spokes	-7701
▁ability	-7702
▁țărilor	-7703
▁adecvată	-7704
▁comments	-7705
▁presence	-7706
▁choice	-7707
▁expendit	-7708
▁AL	-7709
▁IT	-7710
atoriu	-7711
▁compla	-7712
▁instan	-7713
▁regist	-7714
▁puterea	-7715
▁arrested	-7716
▁efectele	-7717
▁continuing	-7718
abuc	-7719
oglu	-7720
▁pipel	-7721
▁confirmed	-7722
▁monitorizare	-7723
CS	-7724
ball	-7725
▁uri	-7726
▁safe	-7727
▁alarm	-7728
▁sched	-7729
pay	-7730
▁NGO	-7731
▁tackle	-7732
▁intervention	-7733
▁Form	-7734
▁faced	-7735
▁probably	-7736
▁obstacole	-7737
▁scen	-7738
▁bulgar	-7739
▁referi	-7740
▁kosovar	-7741
▁locurile	-7742
▁similare	-7743
▁Montenegrin	-7744
bly	-7745
▁Nou	-7746
abucco	-7747
▁agricultură	-7748
▁subven	-7749
▁performance	-7750
med	-7751
▁Spe	-7752
▁inculp	-7753
▁saving	-7754
▁oraşului	-7755
▁reprezentanţii	-7756
▁pic	-7757
▁por	-7758
uiesc	-7759
▁demis	-7760
▁noului	-7761
oreze	-7762
using	-7763
▁vine	-7764
▁green	-7765
▁convinced	-7766
▁consideration	-7767
▁easy	-7768
▁veţi	-7769
▁ambasad	-7770
▁welcomed	-7771
▁orică	-7772
▁stated	-7773
▁respins	-7774
▁mobility	-7775
▁house	-7776
▁electoral	-7777
▁participa	-7778
▁functioning	-7779
▁mist	-7780
▁persoană	-7781
ores	-7782
▁islam	-7783
▁activităţile	-7784
bătă	-7785
▁Libia	-7786
▁Ponte	-7787
▁limba	-7788
▁Deputy	-7789
▁vieţii	-7790
▁scrutin	-7791
ţea	-7792
tată	-7793
▁frec	-7794
ension	-7795
▁Cipru	-7796
▁mulți	-7797
▁plants	-7798
▁approval	-7799
arce	-7800
▁dub	-7801
▁Cost	-7802
âmbătă	-7803
▁macedon	-7804
▁Mijlociu	-7805
▁oficială	-7806
ainte	-7807
▁voice	-7808
▁compared	-7809
▁finanțare	-7810
bi	-7811
ically	-7812
▁Another	-7813
▁Nabucco	-7814
▁tab	-7815
▁încheia	-7816
▁merg	-7817
▁directe	-7818
▁propose	-7819
hă	-7820
trii	-7821
vent	-7822
izării	-7823
ţioneze	-7824
▁troops	-7825
▁addressed	-7826
▁structure	-7827
▁situations	-7828
▁dus	-7829
▁hundred	-7830
▁aderării	-7831
▁balanced	-7832
▁stronger	-7833
▁conducted	-7834
▁University	-7835
▁Olli	-7836
▁type	-7837
ize	-7838
▁ajungă	-7839
▁remarc	-7840
▁apărare	-7841
▁contradic	-7842
▁matern	-7843
▁domnului	-7844
ida	-7845
jud	-7846
estul	-7847
arului	-7848
▁afecta	-7849
▁buildings	-7850
▁oportunitate	-7851
UE	-7852
ancing	-7853
▁appeal	-7854
▁acordarea	-7855
▁described	-7856
▁sănătăţii	-7857
NS	-7858
ald	-7859
▁cunoa	-7860
▁Public	-7861
▁currency	-7862
▁situaţii	-7863
▁contribuit	-7864
▁guidelines	-7865
4.	-7866
▁ine	-7867
plause	-7868
▁şapte	-7869
▁guvernământ	-7870
▁bol	-7871
ţionat	-7872
▁Major	-7873
▁changed	-7874
▁companiei	-7875
▁religioase	-7876
▁vulnerable	-7877
▁enlargement	-7878
▁Doamn	-7879
▁Britanie	-7880
▁catastro	-7881
▁Camp	-7882
▁primă	-7883
▁comply	-7884
▁intelig	-7885
▁Mondială	-7886
▁character	-7887
▁creşterii	-7888
▁extindere	-7889
▁sărb	-7890
▁feder	-7891
▁măcar	-7892
▁Papand	-7893
▁acești	-7894
▁source	-7895
▁militar	-7896
▁anything	-7897
▁transmis	-7898
▁principale	-7899
▁ONG	-7900
▁lovit	-7901
▁voturi	-7902
▁urgenţă	-7903
▁raportoare	-7904
pren	-7905
▁celei	-7906
▁victimelor	-7907
eav	-7908
obile	-7909
▁mobile	-7910
▁Organisation	-7911
▁gender	-7912
▁Slobodan	-7913
▁destinate	-7914
▁revizuire	-7915
▁Ceea	-7916
▁consul	-7917
▁echipe	-7918
▁scrise	-7919
▁maximum	-7920
▁instrumentele	-7921
▁sârbă	-7922
▁trimite	-7923
▁violations	-7924
exic	-7925
▁flow	-7926
▁aerian	-7927
▁negociere	-7928
uţi	-7929
▁mid	-7930
▁affect	-7931
▁intensi	-7932
▁omologul	-7933
▁diferitele	-7934
bit	-7935
▁ştiinţi	-7936
▁accounts	-7937
▁Următorul	-7938
▁regimului	-7939
▁healthcare	-7940
92	-7941
▁câţiva	-7942
▁specială	-7943
limp	-7944
▁deg	-7945
nation	-7946
▁Mesic	-7947
eanwhile	-7948
▁rezerve	-7949
▁prevenirea	-7950
▁următoarea	-7951
unce	-7952
▁obțin	-7953
▁killed	-7954
▁shared	-7955
▁bineînţeles	-7956
body	-7957
erat	-7958
▁Van	-7959
▁Fron	-7960
▁Perm	-7961
▁stable	-7962
▁Swedish	-7963
▁decisive	-7964
▁transition	-7965
▁Oh	-7966
▁fl	-7967
▁oral	-7968
alizate	-7969
▁Office	-7970
▁agricolă	-7971
▁compania	-7972
▁meetings	-7973
.,	-7974
PS	-7975
urch	-7976
▁fix	-7977
▁pan	-7978
▁deșe	-7979
▁jucat	-7980
▁perfect	-7981
▁preveni	-7982
▁stricte	-7983
mp	-7984
▁brief	-7985
▁moartea	-7986
▁Business	-7987
▁democraţiei	-7988
▁internațional	-7989
holm	-7990
▁coup	-7991
▁Meanwhile	-7992
mos	-7993
▁Eu	-7994
▁Nic	-7995
relor	-7996
▁offered	-7997
▁cod	-7998
▁auzit	-7999
▁piață	-8000
▁proprietate	-8001
SV	-8002
sen	-8003
-199	-8004
alist	-8005
▁Când	-8006
▁underm	-8007
▁Polonia	-8008
▁poliţia	-8009
▁lic	-8010
▁Abdul	-8011
▁putting	-8012
▁withdra	-8013
▁exercise	-8014
▁freedoms	-8015
▁investors	-8016
▁asas	-8017
▁advoc	-8018
▁sistemelor	-8019
▁Autorităţile	-8020
▁Ho	-8021
itable	-8022
unerea	-8023
▁bunăst	-8024
iscrimin	-8025
▁membrilor	-8026
zon	-8027
▁esc	-8028
▁inh	-8029
▁atri	-8030
▁deputați	-8031
eth	-8032
▁Ham	-8033
▁lob	-8034
atelor	-8035
▁Djind	-8036
▁centru	-8037
▁voters	-8038
ming	-8039
▁speră	-8040
▁traged	-8041
▁privință	-8042
alia	-8043
▁Cub	-8044
țiale	-8045
▁trupe	-8046
▁unable	-8047
▁manifest	-8048
▁lucrătorii	-8049
▁miş	-8050
▁affairs	-8051
▁deliver	-8052
▁journalists	-8053
run	-8054
işti	-8055
unării	-8056
▁rurale	-8057
▁witness	-8058
▁acordată	-8059
țină	-8060
▁Lid	-8061
▁mag	-8062
▁pără	-8063
▁ideas	-8064
▁Papandre	-8065
▁dificile	-8066
▁direcţia	-8067
▁Ministerul	-8068
▁Nor	-8069
▁arme	-8070
▁heart	-8071
▁Orientul	-8072
▁durabile	-8073
▁Stability	-8074
▁Stockholm	-8075
▁Arab	-8076
▁fores	-8077
assador	-8078
▁sâmbătă	-8079
▁Djindjic	-8080
▁allowing	-8081
▁Got	-8082
▁rău	-8083
▁Inter	-8084
▁mandatul	-8085
▁avertizat	-8086
▁efectuate	-8087
▁poporului	-8088
▁autoritățile	-8089
elj	-8090
▁bat	-8091
▁exhib	-8092
mn	-8093
▁Neg	-8094
▁acea	-8095
▁destro	-8096
▁solidaritatea	-8097
uti	-8098
rain	-8099
derii	-8100
▁corpor	-8101
fică	-8102
itorul	-8103
plauze	-8104
▁front	-8105
▁Parten	-8106
▁coeren	-8107
▁Bran	-8108
▁lect	-8109
▁ties	-8110
▁island	-8111
▁useful	-8112
▁imports	-8113
▁educaţie	-8114
▁asistență	-8115
▁îndeplinirea	-8116
tex	-8117
Aplauze	-8118
▁imposi	-8119
▁militară	-8120
▁criticism	-8121
▁br	-8122
▁Declar	-8123
▁Papandreou	-8124
▁Peace	-8125
▁discipl	-8126
▁Ele	-8127
▁Mir	-8128
iască	-8129
▁hopes	-8130
standing	-8131
▁produced	-8132
▁concluded	-8133
▁ați	-8134
▁dia	-8135
▁taxe	-8136
plement	-8137
▁deosebită	-8138
▁proprietă	-8139
▁îndeplinească	-8140
oks	-8141
gorica	-8142
▁descris	-8143
▁rezolva	-8144
poses	-8145
▁Mexic	-8146
▁suffering	-8147
▁considerăm	-8148
▁sac	-8149
▁atenție	-8150
Ap	-8151
adow	-8152
▁Bro	-8153
▁atinge	-8154
▁comport	-8155
▁colleague	-8156
▁implicarea	-8157
▁deschiderea	-8158
▁masă	-8159
▁Comite	-8160
▁Never	-8161
▁associ	-8162
▁bazată	-8163
ministru	-8164
▁Financial	-8165
▁întâlnire	-8166
▁dezbaterii	-8167
Este	-8168
▁joacă	-8169
▁Progres	-8170
▁înceapă	-8171
▁numărului	-8172
▁semnificativă	-8173
▁Fra	-8174
▁ceil	-8175
▁bucur	-8176
▁happy	-8177
▁Indust	-8178
▁Defence	-8179
▁employees	-8180
▁apart	-8181
▁nefer	-8182
▁inclusion	-8183
mine	-8184
rește	-8185
▁sound	-8186
▁criterii	-8187
▁Podgorica	-8188
▁ey	-8189
odox	-8190
▁2012	-8191
▁networks	-8192
▁ecologice	-8193
▁Lith	-8194
▁Romp	-8195
▁went	-8196
▁ilegal	-8197
▁arrange	-8198
▁ALDE	-8199
▁biro	-8200
▁bomb	-8201
▁drog	-8202
▁vorbe	-8203
▁cancer	-8204
▁taxpay	-8205
▁emergency	-8206
uls	-8207
▁baze	-8208
▁exac	-8209
▁stay	-8210
▁aflăm	-8211
▁hours	-8212
▁binding	-8213
▁getting	-8214
▁pieţele	-8215
▁completed	-8216
▁grupurile	-8217
▁rezoluţia	-8218
▁immig	-8219
▁merge	-8220
▁ridică	-8221
mo	-8222
gipt	-8223
▁Lab	-8224
▁Other	-8225
▁maritim	-8226
▁Popular	-8227
▁forţele	-8228
▁sisteme	-8229
▁proiectele	-8230
▁individuals	-8231
▁understanding	-8232
ista	-8233
▁iniţi	-8234
▁recipro	-8235
▁Gotovina	-8236
▁Ky	-8237
▁devine	-8238
▁totală	-8239
▁Statelor	-8240
▁confirmat	-8241
ony	-8242
▁Cr	-8243
ruly	-8244
inţelor	-8245
▁folose	-8246
▁formal	-8247
▁deciziile	-8248
oph	-8249
▁înf	-8250
▁popular	-8251
▁telefon	-8252
▁lansarea	-8253
▁ulterior	-8254
▁Republika	-8255
▁abst	-8256
▁divid	-8257
▁Ice	-8258
▁comisarul	-8259
▁estimated	-8260
▁Dezbaterea	-8261
avi	-8262
iană	-8263
▁Civ	-8264
▁vit	-8265
▁colect	-8266
▁Auditors	-8267
▁bureaucra	-8268
▁provocare	-8269
▁Egipt	-8270
▁Egypt	-8271
▁4.	-8272
▁urge	-8273
▁Ohrid	-8274
▁break	-8275
ticile	-8276
▁occas	-8277
▁truly	-8278
amental	-8279
▁sperăm	-8280
▁Conturi	-8281
▁colegilor	-8282
At	-8283
▁stă	-8284
itage	-8285
▁purch	-8286
▁crimei	-8287
▁focused	-8288
,5	-8289
▁heav	-8290
▁animals	-8291
▁negativ	-8292
▁vehicles	-8293
rui	-8294
▁pov	-8295
▁detri	-8296
▁reduse	-8297
alitatea	-8298
▁reprezentat	-8299
▁neighbouring	-8300
▁reglementări	-8301
anţa	-8302
▁rig	-8303
▁drop	-8304
▁lună	-8305
▁accid	-8306
▁pachetul	-8307
▁released	-8308
cri	-8309
▁aprec	-8310
▁fulfil	-8311
▁repres	-8312
▁exactly	-8313
▁External	-8314
▁candidates	-8315
IA	-8316
jana	-8317
▁gave	-8318
▁scară	-8319
▁initial	-8320
▁programele	-8321
▁surpris	-8322
▁Mu	-8323
▁Oper	-8324
▁asoci	-8325
▁forme	-8326
▁Slovak	-8327
Applause	-8328
▁devreme	-8329
▁tratament	-8330
▁înfiinţarea	-8331
▁(3	-8332
▁Pres	-8333
▁jurnali	-8334
▁American	-8335
▁revizuirea	-8336
▁raportorului	-8337
sing	-8338
▁elig	-8339
▁renun	-8340
▁Mitrov	-8341
▁resolved	-8342
▁căr	-8343
titude	-8344
▁purtă	-8345
▁istoria	-8346
olic	-8347
▁Only	-8348
▁agre	-8349
▁controvers	-8350
▁închisoare	-8351
▁considerable	-8352
ulz	-8353
urată	-8354
▁rata	-8355
▁urmat	-8356
▁îndea	-8357
itorilor	-8358
olutions	-8359
▁Iceland	-8360
▁esenţiale	-8361
▁significantly	-8362
anis	-8363
regul	-8364
▁adaug	-8365
▁Cooper	-8366
▁suspect	-8367
▁justiţie	-8368
▁expenditure	-8369
▁cheltuielile	-8370
mul	-8371
ârz	-8372
irman	-8373
▁became	-8374
▁finală	-8375
▁redund	-8376
▁Nevertheless	-8377
▁ax	-8378
▁analysis	-8379
▁Protection	-8380
▁comunitare	-8381
▁Confer	-8382
▁abroad	-8383
▁consecinţă	-8384
▁consultaţi	-8385
▁Core	-8386
▁ofic	-8387
▁poporul	-8388
▁partenerii	-8389
mak	-8390
opoul	-8391
▁Agenţia	-8392
▁întâmpla	-8393
▁facilities	-8394
▁raportorul	-8395
▁regulatory	-8396
Of	-8397
ham	-8398
▁Conf	-8399
▁offers	-8400
▁content	-8401
▁accepted	-8402
lowing	-8403
▁Culture	-8404
▁privatisation	-8405
):	-8406
▁contac	-8407
▁banking	-8408
▁reading	-8409
▁Atlantic	-8410
▁principalul	-8411
▁Arc	-8412
▁urban	-8413
▁temeiul	-8414
▁votului	-8415
▁interese	-8416
▁alineatul	-8417
▁foot	-8418
▁belong	-8419
▁condiții	-8420
▁advantage	-8421
▁promotion	-8422
▁libertăţii	-8423
▁ed	-8424
▁warned	-8425
6,	-8426
dom	-8427
▁hy	-8428
▁army	-8429
▁deloc	-8430
▁century	-8431
▁Mitrovica	-8432
ger	-8433
urit	-8434
▁Alex	-8435
▁unit	-8436
▁migra	-8437
▁Proced	-8438
▁legale	-8439
▁totuși	-8440
IC	-8441
justment	-8442
▁pregătită	-8443
şt	-8444
str	-8445
▁deterior	-8446
▁dezastru	-8447
▁pipeline	-8448
▁următorii	-8449
▁gestionare	-8450
▁continuarea	-8451
▁paragraph	-8452
▁interested	-8453
anov	-8454
umul	-8455
▁simb	-8456
▁distru	-8457
▁privat	-8458
▁Ashdown	-8459
▁profesională	-8460
tia	-8461
/10)	-8462
zută	-8463
▁Top	-8464
▁lucra	-8465
▁publicat	-8466
▁thinking	-8467
▁Doamnelor	-8468
▁mări	-8469
▁2004.	-8470
▁minute	-8471
▁restul	-8472
imer	-8473
▁Mun	-8474
atest	-8475
▁fosta	-8476
▁lungul	-8477
▁sensitive	-8478
▁Si	-8479
ieli	-8480
▁suff	-8481
▁lista	-8482
▁soldi	-8483
▁prelung	-8484
▁involving	-8485
▁Secretarul	-8486
▁directivei	-8487
▁grupurilor	-8488
▁consumatori	-8489
ano	-8490
voy	-8491
▁Afac	-8492
▁Mich	-8493
▁copil	-8494
tlement	-8495
▁aşteptăm	-8496
▁prelimin	-8497
▁exerciţiu	-8498
▁şomajului	-8499
▁vir	-8500
zilor	-8501
▁singurul	-8502
▁disasters	-8503
▁publicului	-8504
▁inev	-8505
▁credem	-8506
▁easier	-8507
▁producţie	-8508
▁amendamentele	-8509
/201	-8510
ziilor	-8511
▁acoper	-8512
▁reguli	-8513
▁requirement	-8514
iţia	-8515
▁Has	-8516
▁aviz	-8517
▁extin	-8518
▁flood	-8519
▁obţinerea	-8520
▁anterioare	-8521
▁observa	-8522
▁valoarea	-8523
▁organizarea	-8524
erem	-8525
▁libere	-8526
▁Liberal	-8527
1,	-8528
▁Sej	-8529
▁Danube	-8530
▁subiec	-8531
▁întregul	-8532
▁costurilor	-8533
ima	-8534
ker	-8535
▁animale	-8536
▁greatest	-8537
▁repeated	-8538
▁întregii	-8539
▁Programul	-8540
▁democraţie	-8541
▁obligation	-8542
/09)	-8543
▁protected	-8544
▁Tal	-8545
ology	-8546
▁arch	-8547
▁built	-8548
▁placed	-8549
▁summer	-8550
▁călător	-8551
▁influen	-8552
▁poziția	-8553
▁închisă	-8554
▁Oficialii	-8555
▁lobby	-8556
▁concep	-8557
▁decades	-8558
▁fiscală	-8559
▁deschide	-8560
▁Parteneri	-8561
▁atingerea	-8562
▁partidelor	-8563
▁Doc	-8564
rijin	-8565
▁moving	-8566
▁studiu	-8567
▁deputat	-8568
▁eficienţa	-8569
▁construirea	-8570
orpor	-8571
▁manu	-8572
lemente	-8573
▁colegi	-8574
▁creează	-8575
▁folosite	-8576
▁iniţiativa	-8577
▁conflictului	-8578
▁înap	-8579
▁tensi	-8580
▁terțe	-8581
▁numero	-8582
▁preciz	-8583
▁release	-8584
▁informed	-8585
▁producţia	-8586
▁utilizării	-8587
▁restrictions	-8588
▁Su	-8589
▁King	-8590
▁Ladies	-8591
▁procedurii	-8592
▁investiţiile	-8593
▁drumul	-8594
▁Centrul	-8595
▁convins	-8596
▁distrug	-8597
▁operating	-8598
▁sometimes	-8599
▁symb	-8600
iştrii	-8601
▁Ea	-8602
▁Fer	-8603
ishing	-8604
▁deschisă	-8605
▁summitul	-8606
anj	-8607
rap	-8608
▁expen	-8609
▁factors	-8610
▁Sta	-8611
▁infec	-8612
▁joined	-8613
▁comerţului	-8614
EI	-8615
SP	-8616
osit	-8617
▁Num	-8618
▁Over	-8619
▁code	-8620
▁Criza	-8621
▁întâmp	-8622
▁Charter	-8623
▁millions	-8624
▁victimele	-8625
▁evaluation	-8626
cheie	-8627
▁optim	-8628
▁intrat	-8629
▁strugg	-8630
▁introdus	-8631
▁tehnologii	-8632
▁străinătate	-8633
nev	-8634
vie	-8635
▁Free	-8636
aliere	-8637
▁Situa	-8638
▁sursă	-8639
▁submin	-8640
▁suferă	-8641
▁exports	-8642
▁cotidian	-8643
▁southern	-8644
▁2003	-8645
▁soci	-8646
▁extend	-8647
▁textul	-8648
▁nevoile	-8649
▁directiva	-8650
qi	-8651
ăl	-8652
tieră	-8653
▁măsura	-8654
▁opposed	-8655
▁surprin	-8656
▁weapons	-8657
▁Annan	-8658
▁vechi	-8659
pointed	-8660
▁inspec	-8661
▁speaking	-8662
▁perspectivă	-8663
▁traditional	-8664
▁50%	-8665
oarele	-8666
▁Dragan	-8667
▁acuzat	-8668
▁impuse	-8669
▁riscul	-8670
▁încerca	-8671
▁schimbul	-8672
▁collective	-8673
nts	-8674
▁HI	-8675
plit	-8676
▁Fac	-8677
▁inj	-8678
▁Djuk	-8679
▁idee	-8680
▁țara	-8681
▁colec	-8682
omislav	-8683
▁incluz	-8684
▁Bosniei	-8685
▁substantial	-8686
antul	-8687
▁sute	-8688
▁facilita	-8689
▁peaceful	-8690
atlan	-8691
▁canti	-8692
▁destin	-8693
▁combatere	-8694
ival	-8695
▁cos	-8696
▁phase	-8697
▁declaraţia	-8698
ws	-8699
▁09	-8700
▁uș	-8701
bers	-8702
▁noii	-8703
▁scur	-8704
▁presa	-8705
▁genuine	-8706
▁încuraja	-8707
▁garanteze	-8708
▁directorul	-8709
▁nr	-8710
▁țin	-8711
active	-8712
▁Given	-8713
▁Report	-8714
▁shadow	-8715
▁uneori	-8716
▁prospects	-8717
uled	-8718
știn	-8719
▁range	-8720
▁sprijinim	-8721
▁iau	-8722
indic	-8723
▁selec	-8724
▁solve	-8725
▁monopol	-8726
▁material	-8727
▁pregătit	-8728
cadru	-8729
▁incluse	-8730
▁obviously	-8731
▁dispoziţie	-8732
▁places	-8733
esterday	-8734
▁salutat	-8735
▁oficiale	-8736
▁Investment	-8737
ram	-8738
▁peti	-8739
▁atmos	-8740
▁rezon	-8741
▁imposed	-8742
▁thereby	-8743
▁recunosc	-8744
vote	-8745
▁Gal	-8746
level	-8747
▁asta	-8748
▁expand	-8749
▁folosit	-8750
dik	-8751
enior	-8752
▁sond	-8753
▁villa	-8754
▁aprobarea	-8755
▁beneficii	-8756
▁cy	-8757
▁coll	-8758
▁push	-8759
▁plenary	-8760
▁importanța	-8761
▁totalitate	-8762
▁presidential	-8763
▁Den	-8764
▁Ech	-8765
▁Sârb	-8766
▁aborda	-8767
▁comment	-8768
▁medicală	-8769
▁Merk	-8770
▁allows	-8771
▁firstly	-8772
▁partener	-8773
▁vehicule	-8774
▁modalitate	-8775
▁ascult	-8776
▁realizate	-8777
▁globalizare	-8778
▁conces	-8779
▁rightly	-8780
▁echilibru	-8781
▁cheltuielilor	-8782
8,	-8783
▁2006.	-8784
▁greci	-8785
▁manag	-8786
▁contrary	-8787
tered	-8788
▁deși	-8789
▁repl	-8790
elfare	-8791
▁instance	-8792
▁dangerous	-8793
▁neighbours	-8794
▁stabilească	-8795
orted	-8796
▁ţine	-8797
▁converg	-8798
▁happening	-8799
▁enforcement	-8800
▁reîn	-8801
▁Crven	-8802
▁Author	-8803
▁depăşi	-8804
▁Japonia	-8805
▁actuala	-8806
▁bărbaţi	-8807
▁solicităm	-8808
▁Propunerea	-8809
▁consumption	-8810
▁FE	-8811
anti	-8812
▁liv	-8813
izeze	-8814
▁option	-8815
▁vision	-8816
▁înapoi	-8817
▁Special	-8818
▁Abdullah	-8819
▁Independ	-8820
▁Problema	-8821
ficien	-8822
▁format	-8823
▁îndepăr	-8824
ift	-8825
lace	-8826
▁contains	-8827
▁reference	-8828
▁feed	-8829
opoulos	-8830
▁abstain	-8831
▁afectat	-8832
▁continuăm	-8833
▁judiciary	-8834
OL	-8835
util	-8836
▁Sali	-8837
proape	-8838
▁admit	-8839
▁Sejdiu	-8840
▁devast	-8841
▁spunem	-8842
▁ansamblu	-8843
▁exerciți	-8844
OA	-8845
uta	-8846
tăți	-8847
izată	-8848
▁loans	-8849
arities	-8850
▁Single	-8851
▁anyone	-8852
▁provin	-8853
▁Portugalia	-8854
▁Li	-8855
▁Va	-8856
dict	-8857
▁causes	-8858
▁creeze	-8859
▁African	-8860
▁iniţial	-8861
▁solicita	-8862
▁traficul	-8863
▁Institute	-8864
▁Sam	-8865
▁sil	-8866
essor	-8867
▁pensii	-8868
▁victor	-8869
▁Regatul	-8870
▁Palestinian	-8871
Tur	-8872
ela	-8873
▁investiții	-8874
▁operational	-8875
eda	-8876
▁atins	-8877
▁board	-8878
▁afirma	-8879
▁sincere	-8880
▁formarea	-8881
▁Christian	-8882
▁sfer	-8883
Office	-8884
▁Green	-8885
▁Instit	-8886
▁played	-8887
▁reserv	-8888
▁Following	-8889
▁etc	-8890
▁hor	-8891
▁izol	-8892
▁chelt	-8893
institu	-8894
▁conţine	-8895
▁inovare	-8896
▁manufac	-8897
▁Research	-8898
▁adopting	-8899
▁comisiei	-8900
▁resident	-8901
▁scheduled	-8902
▁inițiative	-8903
dare	-8904
▁juris	-8905
▁appear	-8906
▁accepta	-8907
▁menţine	-8908
▁tinerii	-8909
▁reflectă	-8910
/07)	-8911
ilip	-8912
▁Baron	-8913
▁luată	-8914
▁Arctic	-8915
estivalul	-8916
▁Crvenkovski	-8917
tedly	-8918
▁adun	-8919
▁appre	-8920
▁locală	-8921
▁Transport	-8922
▁intereselor	-8923
▁Sah	-8924
▁înso	-8925
▁Radovan	-8926
▁participe	-8927
▁redresare	-8928
▁immigrants	-8929
▁improvements	-8930
1.	-8931
öm	-8932
ecution	-8933
▁adăugând	-8934
▁subiectul	-8935
▁honourable	-8936
▁monitorizarea	-8937
▁Bu	-8938
▁Ro	-8939
▁Dodik	-8940
▁ended	-8941
▁dezamă	-8942
▁schools	-8943
▁dezvoltate	-8944
▁mandatului	-8945
▁Ei	-8946
▁trec	-8947
▁incap	-8948
▁depart	-8949
▁friends	-8950
▁normelor	-8951
zen	-8952
aceu	-8953
▁got	-8954
ström	-8955
▁idei	-8956
▁întârz	-8957
▁signing	-8958
▁spatele	-8959
▁punctele	-8960
▁chap	-8961
▁methods	-8962
▁Proiectul	-8963
▁Joc	-8964
ideze	-8965
▁dure	-8966
▁hands	-8967
▁percep	-8968
▁pregăte	-8969
▁visited	-8970
▁Ciprului	-8971
▁primarily	-8972
barea	-8973
▁Tribunal	-8974
▁respected	-8975
▁potenţi	-8976
▁munteneg	-8977
▁remaining	-8978
uros	-8979
▁aero	-8980
▁warm	-8981
▁drawn	-8982
▁claims	-8983
▁acordăm	-8984
▁original	-8985
▁revision	-8986
▁condition	-8987
▁îndeaproape	-8988
▁surv	-8989
▁străini	-8990
▁egalitatea	-8991
▁Ci	-8992
▁Voi	-8993
▁West	-8994
▁altfel	-8995
▁Permite	-8996
▁cipriot	-8997
▁excessive	-8998
▁credibility	-8999
▁contribuabil	-9000
▁Anul	-9001
▁încer	-9002
▁enormous	-9003
▁excelentă	-9004
km	-9005
asta	-9006
▁ECR	-9007
▁duc	-9008
cilor	-9009
▁nave	-9010
▁Health	-9011
▁superi	-9012
▁vizitat	-9013
▁officers	-9014
▁exclusive	-9015
▁potenţial	-9016
lul	-9017
▁Sudan	-9018
▁Rezolu	-9019
▁comerţul	-9020
▁relevante	-9021
▁procedurilor	-9022
uner	-9023
▁Care	-9024
▁fuel	-9025
▁manage	-9026
▁science	-9027
▁vecinătate	-9028
umb	-9029
▁taxes	-9030
▁plural	-9031
▁Mondiale	-9032
▁transportului	-9033
▁sustainability	-9034
GF	-9035
rică	-9036
zone	-9037
▁ment	-9038
▁Dayton	-9039
▁define	-9040
atorului	-9041
▁impactului	-9042
IM	-9043
band	-9044
itect	-9045
▁Tibet	-9046
▁abuse	-9047
▁alţii	-9048
▁tinere	-9049
▁termeni	-9050
▁encouraging	-9051
ream	-9052
▁Sad	-9053
entele	-9054
▁legat	-9055
▁întoc	-9056
▁budgets	-9057
▁aceleaşi	-9058
▁Those	-9059
▁părți	-9060
▁Police	-9061
▁Reform	-9062
▁Frontex	-9063
▁liberal	-9064
▁barriers	-9065
▁acordurilor	-9066
TA	-9067
aku	-9068
lara	-9069
▁azi	-9070
▁Sprijin	-9071
▁utilizat	-9072
yed	-9073
▁05	-9074
self	-9075
▁Noua	-9076
▁vând	-9077
▁Britain	-9078
▁Islamic	-9079
▁concedi	-9080
▁guvernare	-9081
▁locurilor	-9082
▁principii	-9083
▁considerabil	-9084
ţământ	-9085
▁adică	-9086
▁încercăm	-9087
▁Djukanovic	-9088
▁prosecutor	-9089
9,	-9090
artic	-9091
▁maghi	-9092
▁regimul	-9093
▁acceptable	-9094
▁automobile	-9095
▁organizaţii	-9096
3%	-9097
▁02	-9098
▁Hol	-9099
▁Crimin	-9100
▁payment	-9101
▁umanitar	-9102
government	-9103
▁menționat	-9104
▁întâlnirea	-9105
vate	-9106
▁2002	-9107
▁sole	-9108
▁inund	-9109
▁Berlin	-9110
▁includă	-9111
▁peoples	-9112
▁vorbesc	-9113
etherlands	-9114
▁integrate	-9115
▁resolutions	-9116
ode	-9117
▁03	-9118
▁CAP	-9119
▁Lit	-9120
▁lines	-9121
▁awareness	-9122
▁suggested	-9123
▁Why	-9124
▁bin	-9125
▁sin	-9126
itele	-9127
▁relia	-9128
▁aspira	-9129
▁atenția	-9130
▁presiuni	-9131
▁sporirea	-9132
▁administraţia	-9133
7%	-9134
ser	-9135
▁Such	-9136
▁Solid	-9137
▁Third	-9138
▁categ	-9139
▁sacri	-9140
iversary	-9141
▁operate	-9142
▁interdic	-9143
▁cuts	-9144
▁tent	-9145
▁division	-9146
▁viitorului	-9147
▁flexibility	-9148
▁parlamentul	-9149
Ace	-9150
/08)	-9151
▁Sci	-9152
▁nine	-9153
▁Omului	-9154
▁cities	-9155
▁doamnă	-9156
▁dimension	-9157
▁legislaţie	-9158
▁susţinerea	-9159
▁Cre	-9160
▁Eur	-9161
▁His	-9162
▁mys	-9163
▁ultimately	-9164
▁soluţionarea	-9165
scă	-9166
▁Both	-9167
▁Black	-9168
▁aceşti	-9169
▁desemn	-9170
▁rezerv	-9171
▁citizen	-9172
▁disease	-9173
▁welfare	-9174
▁judiciar	-9175
keep	-9176
▁pain	-9177
▁subsi	-9178
▁tried	-9179
▁believes	-9180
▁OM	-9181
▁Gener	-9182
▁comise	-9183
▁ajustare	-9184
oto	-9185
amic	-9186
şesc	-9187
▁Pat	-9188
▁Deciz	-9189
▁learn	-9190
▁Azerb	-9191
▁spread	-9192
▁soldiers	-9193
▁accesului	-9194
▁compliance	-9195
▁sovereignty	-9196
otrivă	-9197
▁proprii	-9198
▁Baroness	-9199
▁primească	-9200
▁furnizarea	-9201
▁programelor	-9202
▁amendamentul	-9203
▁fundamentală	-9204
jevic	-9205
▁Every	-9206
▁parad	-9207
▁corecte	-9208
▁details	-9209
▁Politica	-9210
▁britanic	-9211
▁îmbunătățirea	-9212
ott	-9213
▁bear	-9214
▁prejud	-9215
▁controls	-9216
▁supravie	-9217
▁modificare	-9218
▁Netherlands	-9219
▁Cup	-9220
▁Dnev	-9221
▁scale	-9222
▁geogra	-9223
▁adresez	-9224
▁asigură	-9225
▁joining	-9226
▁withdraw	-9227
▁exprimare	-9228
▁Directivei	-9229
▁Președinte	-9230
▁modificări	-9231
▁anniversary	-9232
▁coordinated	-9233
ola	-9234
▁Sti	-9235
▁Educ	-9236
▁forth	-9237
▁imagine	-9238
▁Vladimir	-9239
▁exclusiv	-9240
▁electrice	-9241
▁36	-9242
ţiunea	-9243
▁ajute	-9244
▁intră	-9245
▁youth	-9246
▁schimba	-9247
▁provocările	-9248
▁dubl	-9249
▁prem	-9250
uiască	-9251
▁frequ	-9252
▁încre	-9253
imentul	-9254
▁reducă	-9255
▁eliminate	-9256
▁menţinerea	-9257
▁preţurilor	-9258
▁agriculturii	-9259
▁independente	-9260
ired	-9261
▁Dis	-9262
▁fabric	-9263
▁german	-9264
▁handic	-9265
▁threats	-9266
▁intention	-9267
▁dove	-9268
▁ferov	-9269
liaments	-9270
▁Înaltul	-9271
▁acknowled	-9272
▁statistics	-9273
Al	-9274
icei	-9275
peti	-9276
▁VOA	-9277
▁buy	-9278
▁Fără	-9279
▁studi	-9280
▁acelor	-9281
▁accused	-9282
▁speranţa	-9283
▁Framework	-9284
▁interesate	-9285
▁evenimentele	-9286
▁Two	-9287
itive	-9288
▁voiced	-9289
▁conducerea	-9290
▁determined	-9291
▁innovative	-9292
▁transactions	-9293
▁angajamentele	-9294
zii	-9295
▁delic	-9296
▁Fatmir	-9297
▁instal	-9298
▁obţină	-9299
▁companie	-9300
▁obstacles	-9301
▁rezolvarea	-9302
▁producătorii	-9303
gră	-9304
▁Budget	-9305
▁Rompuy	-9306
▁expert	-9307
▁condusă	-9308
▁chestiunile	-9309
▁Fost	-9310
dition	-9311
▁părin	-9312
▁Naţional	-9313
▁dramatic	-9314
▁discursul	-9315
▁processes	-9316
▁impossible	-9317
▁legislația	-9318
▁preventing	-9319
▁Paris	-9320
▁virtu	-9321
▁mijloacele	-9322
▁distribution	-9323
Ar	-9324
ționale	-9325
▁fenomen	-9326
▁referred	-9327
den	-9328
akes	-9329
artă	-9330
reau	-9331
oarelor	-9332
▁completă	-9333
iat	-9334
▁250	-9335
▁ştie	-9336
▁pointed	-9337
▁argumente	-9338
▁Poate	-9339
▁toții	-9340
▁Merkel	-9341
prene	-9342
▁worst	-9343
▁cunosc	-9344
▁Regional	-9345
▁intellig	-9346
▁expectations	-9347
off	-9348
inese	-9349
▁pusă	-9350
▁south	-9351
▁senior	-9352
▁etichet	-9353
▁asistenţa	-9354
There	-9355
▁Bush	-9356
▁envoy	-9357
▁Scopul	-9358
▁atrage	-9359
▁accepte	-9360
▁prevăzute	-9361
▁Loc	-9362
▁lose	-9363
▁Comer	-9364
▁treia	-9365
▁charge	-9366
▁aplicate	-9367
▁regiunilor	-9368
▁diplomatice	-9369
▁08	-9370
▁Sm	-9371
inda	-9372
▁sort	-9373
▁sărace	-9374
▁oferite	-9375
▁procure	-9376
▁attended	-9377
▁combusti	-9378
▁criticat	-9379
▁alternativ	-9380
▁economiile	-9381
▁recommendation	-9382
▁Eng	-9383
▁cli	-9384
stone	-9385
▁opri	-9386
▁firmly	-9387
▁național	-9388
▁amendament	-9389
▁06	-9390
▁dol	-9391
▁From	-9392
▁demn	-9393
▁Armen	-9394
▁aduse	-9395
▁teach	-9396
▁cazurile	-9397
▁cercetării	-9398
▁04	-9399
▁Pu	-9400
ăsescu	-9401
▁Exper	-9402
▁vorbi	-9403
▁Georgi	-9404
ruct	-9405
▁beg	-9406
▁Paul	-9407
▁atras	-9408
▁cărei	-9409
▁bucură	-9410
▁serioase	-9411
▁comunicare	-9412
▁strategies	-9413
▁legislativă	-9414
adda	-9415
▁loan	-9416
▁nume	-9417
▁tang	-9418
addafi	-9419
▁licit	-9420
▁resta	-9421
certain	-9422
▁appoint	-9423
▁Administ	-9424
▁Assembly	-9425
ota	-9426
colo	-9427
▁slov	-9428
tituirea	-9429
▁spaniol	-9430
▁sensibil	-9431
rep	-9432
▁Cap	-9433
▁Soc	-9434
▁exc	-9435
rovic	-9436
▁parl	-9437
▁Olimp	-9438
▁coope	-9439
▁Chinese	-9440
▁bariere	-9441
▁conduct	-9442
▁găsească	-9443
▁reporters	-9444
▁încălcare	-9445
▁internațională	-9446
▁acel	-9447
▁match	-9448
▁spoke	-9449
▁acordate	-9450
▁planului	-9451
▁republic	-9452
▁priorităţile	-9453
▁strengthened	-9454
▁analiza	-9455
▁compati	-9456
▁ceremony	-9457
▁nefericire	-9458
▁proiectelor	-9459
âna	-9460
▁rare	-9461
▁resig	-9462
▁Sistem	-9463
▁descoper	-9464
▁designed	-9465
Pe	-9466
92,	-9467
face	-9468
▁10%	-9469
▁lungă	-9470
▁afford	-9471
▁dezvolta	-9472
▁explicat	-9473
▁Comisarul	-9474
▁următorul	-9475
▁definitely	-9476
tivity	-9477
▁sosit	-9478
▁sports	-9479
▁îndemn	-9480
▁serviciu	-9481
▁Dezvoltare	-9482
▁parliaments	-9483
▁independenţei	-9484
7,	-9485
amo	-9486
oarte	-9487
▁durata	-9488
▁Kurdish	-9489
▁debates	-9490
▁geograph	-9491
▁lucrători	-9492
▁planurile	-9493
▁strategice	-9494
▁Os	-9495
/06)	-9496
enți	-9497
uter	-9498
▁aer	-9499
▁Stef	-9500
▁arbit	-9501
articolul	-9502
▁bugetară	-9503
▁exploitation	-9504
▁responsabile	-9505
▁Il	-9506
aren	-9507
tier	-9508
▁Ter	-9509
▁Army	-9510
▁fore	-9511
▁armed	-9512
▁cetățeni	-9513
▁academ	-9514
▁anumită	-9515
▁taxpayers	-9516
▁effectiveness	-9517
vis	-9518
cont	-9519
▁intim	-9520
▁Băsescu	-9521
▁Written	-9522
▁written	-9523
▁apărarea	-9524
▁schimbat	-9525
▁explained	-9526
▁instituțiile	-9527
imi	-9528
▁5.	-9529
▁Saf	-9530
▁Rusiei	-9531
▁adresată	-9532
stat	-9533
media	-9534
▁1992	-9535
▁club	-9536
▁tests	-9537
▁angajat	-9538
▁emisiile	-9539
▁register	-9540
▁comentari	-9541
▁conducere	-9542
▁teroriste	-9543
▁demonstrated	-9544
▁repeat	-9545
▁Compania	-9546
▁bosniaci	-9547
▁reuniunea	-9548
▁associated	-9549
serv	-9550
▁tone	-9551
General	-9552
▁courts	-9553
▁limită	-9554
▁Control	-9555
▁sporită	-9556
▁misiunea	-9557
▁reunific	-9558
▁reconstruc	-9559
nit	-9560
▁diminea	-9561
▁primary	-9562
▁încântat	-9563
▁inacceptabil	-9564
2%	-9565
▁Vo	-9566
▁uns	-9567
▁ştiri	-9568
▁îndrept	-9569
▁multilateral	-9570
▁contributions	-9571
▁infrastructurii	-9572
xemb	-9573
ature	-9574
▁doamna	-9575
▁examine	-9576
▁plătească	-9577
▁coordonarea	-9578
ada	-9579
▁Ph	-9580
▁Mlad	-9581
▁occup	-9582
▁promised	-9583
Serb	-9584
enko	-9585
October	-9586
▁deciziilor	-9587
iss	-9588
▁deri	-9589
▁mond	-9590
ţionez	-9591
▁senti	-9592
▁trept	-9593
ţiunile	-9594
▁expres	-9595
▁capable	-9596
▁adăugată	-9597
▁Comunitatea	-9598
itz	-9599
▁01	-9600
free	-9601
▁40%	-9602
▁Dor	-9603
țiuni	-9604
▁socio	-9605
▁uriaş	-9606
itoarea	-9607
quality	-9608
▁Asocia	-9609
▁costuri	-9610
▁premier	-9611
RL	-9612
▁PAC	-9613
making	-9614
▁Rober	-9615
▁lipsă	-9616
▁indică	-9617
▁strânsă	-9618
▁90	-9619
▁BH	-9620
irme	-9621
▁numit	-9622
ecutors	-9623
▁crises	-9624
▁extreme	-9625
▁Tribunalul	-9626
▁diversific	-9627
▁dign	-9628
▁plec	-9629
tively	-9630
▁adjunct	-9631
▁mondiale	-9632
▁războiului	-9633
▁investiţiilor	-9634
Rule	-9635
teed	-9636
▁Mării	-9637
▁găsim	-9638
▁bazate	-9639
▁waiting	-9640
▁ştirile	-9641
vironment	-9642
▁industrie	-9643
▁Globalisation	-9644
pes	-9645
▁mur	-9646
gress	-9647
▁plâng	-9648
▁Stream	-9649
▁replace	-9650
▁collabor	-9651
uts	-9652
▁Jose	-9653
▁stad	-9654
▁oferim	-9655
▁numbers	-9656
▁hundreds	-9657
▁condițiile	-9658
elui	-9659
▁dau	-9660
effer	-9661
▁bunuri	-9662
▁obicei	-9663
▁planuri	-9664
▁Criminal	-9665
▁Georgiev	-9666
▁Scheffer	-9667
▁certific	-9668
ield	-9669
rand	-9670
▁bit	-9671
▁Cuba	-9672
▁Noul	-9673
▁Unul	-9674
ulează	-9675
▁mereu	-9676
▁convic	-9677
▁gândim	-9678
▁deficien	-9679
▁asigurări	-9680
▁determine	-9681
4%	-9682
aste	-9683
▁cineva	-9684
▁sincer	-9685
▁bosniac	-9686
▁interiorul	-9687
▁procurement	-9688
Wh	-9689
elic	-9690
▁120	-9691
aster	-9692
▁Stoj	-9693
▁făcută	-9694
▁lucrăm	-9695
DK	-9696
▁Hoop	-9697
▁veni	-9698
▁2012.	-9699
▁worse	-9700
istered	-9701
▁formare	-9702
▁acceptat	-9703
văr	-9704
ieră	-9705
▁maş	-9706
makers	-9707
▁conști	-9708
▁applies	-9709
▁uncertain	-9710
▁cercetarea	-9711
▁solicitarea	-9712
▁consecinţele	-9713
/11)	-9714
item	-9715
▁600	-9716
▁pact	-9717
▁găsit	-9718
▁valid	-9719
▁intend	-9720
▁insistă	-9721
▁întârzi	-9722
▁monetary	-9723
▁(8	-9724
iști	-9725
▁Canc	-9726
▁Goran	-9727
▁worry	-9728
▁mențin	-9729
▁punere	-9730
▁finding	-9731
▁sarcina	-9732
nel	-9733
▁adap	-9734
▁reţea	-9735
terilor	-9736
▁investe	-9737
▁balcanice	-9738
▁preparing	-9739
▁disag	-9740
holders	-9741
▁părţile	-9742
▁niveluri	-9743
▁purposes	-9744
▁funcţionează	-9745
bur	-9746
▁IC	-9747
utch	-9748
March	-9749
▁Disc	-9750
▁fire	-9751
▁ital	-9752
▁juca	-9753
▁laid	-9754
▁şcol	-9755
▁2005.	-9756
▁Traian	-9757
▁opinie	-9758
▁Afaceri	-9759
▁guaranteed	-9760
uj	-9761
▁eradic	-9762
▁examin	-9763
▁figure	-9764
▁Nikolic	-9765
▁critică	-9766
▁Iugoslavie	-9767
▁considerată	-9768
▁Yet	-9769
▁Civil	-9770
▁învăț	-9771
▁retain	-9772
▁băncile	-9773
▁susține	-9774
▁extended	-9775
▁supravegherea	-9776
rez	-9777
/05)	-9778
▁fiz	-9779
▁nel	-9780
▁Hash	-9781
▁neîn	-9782
▁2013.	-9783
▁Belgian	-9784
▁Declara	-9785
▁savings	-9786
▁pensions	-9787
▁esențială	-9788
▁condiţiilor	-9789
▁transparenţă	-9790
▁păd	-9791
▁Bine	-9792
▁Mulţi	-9793
▁reuşi	-9794
▁duties	-9795
▁declared	-9796
▁pasagerilor	-9797
▁07	-9798
astă	-9799
▁Mag	-9800
ovinei	-9801
▁suferit	-9802
▁vizitei	-9803
▁ocupării	-9804
▁transfrontali	-9805
▁uci	-9806
▁lies	-9807
▁turi	-9808
▁înve	-9809
▁Elect	-9810
▁paper	-9811
▁intercon	-9812
▁urgently	-9813
▁industries	-9814
▁obligatoriu	-9815
des	-9816
▁mând	-9817
▁cerem	-9818
▁soluție	-9819
▁deschise	-9820
▁manufacture	-9821
▁consultation	-9822
▁muz	-9823
▁myself	-9824
▁simbol	-9825
▁handicap	-9826
▁soluțion	-9827
sec	-9828
wan	-9829
▁base	-9830
argeted	-9831
▁actualul	-9832
▁surselor	-9833
▁carefully	-9834
▁behavi	-9835
▁impose	-9836
▁skills	-9837
▁covered	-9838
▁funcţia	-9839
▁players	-9840
ovo	-9841
▁tw	-9842
▁turned	-9843
▁cultură	-9844
▁allocated	-9845
▁prosperity	-9846
▁infrastructură	-9847
▁onor	-9848
▁faces	-9849
▁space	-9850
▁truth	-9851
▁merely	-9852
▁explain	-9853
▁sărăcie	-9854
▁implicat	-9855
▁utilizare	-9856
▁tehnologie	-9857
▁Preşedinţiei	-9858
ba	-9859
kozy	-9860
▁flux	-9861
anţilor	-9862
▁curent	-9863
▁lucrat	-9864
▁alocate	-9865
▁atacuri	-9866
▁miniştri	-9867
▁materials	-9868
ices	-9869
▁hosp	-9870
▁rich	-9871
▁aborde	-9872
▁inclus	-9873
▁Gaddafi	-9874
▁angajaţi	-9875
▁procuror	-9876
▁Amendment	-9877
▁afacerilor	-9878
▁regenerabile	-9879
▁Ale	-9880
▁Jav	-9881
▁hote	-9882
amanlis	-9883
▁Former	-9884
▁lucreze	-9885
▁Alianţei	-9886
▁industriale	-9887
▁represented	-9888
utin	-9889
alizat	-9890
▁class	-9891
reprene	-9892
▁stands	-9893
▁digital	-9894
▁Înainte	-9895
▁ecologică	-9896
▁criticised	-9897
▁garantarea	-9898
▁bă	-9899
osed	-9900
▁Cha	-9901
aving	-9902
▁creăm	-9903
▁medie	-9904
▁Consum	-9905
▁unfair	-9906
Christian	-9907
sequently	-9908
▁prezenţa	-9909
▁diversity	-9910
▁operators	-9911
▁Karamanlis	-9912
6%	-9913
lying	-9914
▁2013	-9915
▁Prima	-9916
▁pieţe	-9917
▁spați	-9918
▁aplice	-9919
▁atribu	-9920
▁inevit	-9921
▁letter	-9922
▁teritor	-9923
▁culturii	-9924
▁principiului	-9925
▁30%	-9926
▁Sel	-9927
▁șom	-9928
useum	-9929
▁react	-9930
▁reușit	-9931
▁penalty	-9932
▁victory	-9933
▁promoveze	-9934
▁finanțarea	-9935
ilib	-9936
▁hid	-9937
▁ult	-9938
▁fine	-9939
aliştii	-9940
▁degree	-9941
▁murder	-9942
▁redusă	-9943
▁realise	-9944
▁Oc	-9945
▁uc	-9946
▁NGOs	-9947
▁reti	-9948
▁Încă	-9949
▁Jerem	-9950
▁conce	-9951
▁veter	-9952
▁Întrucât	-9953
▁association	-9954
▁recunoaşterea	-9955
cător	-9956
▁obiş	-9957
▁vize	-9958
▁dezvă	-9959
▁imper	-9960
▁jurul	-9961
▁entity	-9962
▁rising	-9963
▁Finance	-9964
▁identity	-9965
▁referire	-9966
▁implicaţi	-9967
▁sugerează	-9968
▁construcţia	-9969
ograf	-9970
▁eşec	-9971
▁forţ	-9972
▁Guant	-9973
▁Luxemb	-9974
▁echipa	-9975
▁petrec	-9976
▁fostului	-9977
▁interview	-9978
▁încercarea	-9979
▁morning	-9980
▁declarând	-9981
▁Obiectivul	-9982
▁Muntenegrului	-9983
▁earth	-9984
▁impres	-9985
▁limita	-9986
▁spectac	-9987
▁directives	-9988
▁includerea	-9989
ware	-9990
▁Its	-9991
▁Măs	-9992
▁ofiţ	-9993
▁adevăr	-9994
▁Basescu	-9995
▁presiune	-9996
▁administraţiei	-9997
▁PE	-9998
prom	-9999
▁resid	-10000
▁apropiat	-10001
▁desfăşurat	-10002
▁Op	-10003
ulted	-10004
▁Unii	-10005
▁droguri	-10006
▁equally	-10007
▁yesterday	-10008
▁entreprene	-10009
▁interinstitu	-10010
atre	-10011
urie	-10012
▁cresc	-10013
▁memor	-10014
▁Hashim	-10015
▁depună	-10016
▁Sarkozy	-10017
▁legally	-10018
▁Monetary	-10019
▁jurisdic	-10020
via	-10021
ones	-10022
▁block	-10023
▁chine	-10024
▁helped	-10025
▁defined	-10026
▁doamnei	-10027
▁venituri	-10028
▁circulaţie	-10029
▁identified	-10030
▁recunoaște	-10031
NE	-10032
ărie	-10033
ending	-10034
▁Yemen	-10035
▁anumit	-10036
▁consol	-10037
▁advance	-10038
▁nem	-10039
abling	-10040
tially	-10041
▁Sovie	-10042
▁plăti	-10043
▁poore	-10044
aboreze	-10045
▁Cameră	-10046
▁sarcină	-10047
▁sugerat	-10048
▁legături	-10049
▁reformei	-10050
▁creșterii	-10051
▁siguranța	-10052
▁universal	-10053
▁dialogului	-10054
estim	-10055
▁card	-10056
▁ameli	-10057
▁requested	-10058
▁suficientă	-10059
▁Environment	-10060
▁contributed	-10061
La	-10062
▁SA	-10063
bane	-10064
itig	-10065
▁Tai	-10066
▁VAT	-10067
▁saw	-10068
ugosla	-10069
▁2003,	-10070
▁aceștia	-10071
▁creării	-10072
▁găsirea	-10073
▁radical	-10074
▁cerinţele	-10075
ofia	-10076
▁TVA	-10077
▁lat	-10078
/2009	-10079
▁adere	-10080
▁concer	-10081
▁contam	-10082
▁showed	-10083
▁someone	-10084
▁dezvolte	-10085
▁competence	-10086
▁strategică	-10087
▁parlamentar	-10088
▁Regulamentului	-10089
eij	-10090
rict	-10091
isory	-10092
▁entit	-10093
democra	-10094
▁courage	-10095
▁transpl	-10096
▁campanie	-10097
▁reportedly	-10098
tini	-10099
▁Nim	-10100
▁Tec	-10101
▁afară	-10102
▁watch	-10103
▁breach	-10104
▁fondul	-10105
atlantic	-10106
▁lectură	-10107
▁changing	-10108
▁obligaţia	-10109
▁introducing	-10110
▁electricitate	-10111
▁EP	-10112
▁Malm	-10113
▁pedea	-10114
▁broadc	-10115
▁intelect	-10116
▁nivelurile	-10117
ley	-10118
▁diox	-10119
▁gold	-10120
▁ştiinţă	-10121
▁excelent	-10122
▁semnarea	-10123
▁behaviour	-10124
▁solicitare	-10125
▁profesionale	-10126
cu	-10127
▁3,	-10128
▁RFE	-10129
▁Tim	-10130
▁prove	-10131
▁scheme	-10132
▁united	-10133
▁deliber	-10134
▁emphasis	-10135
▁historic	-10136
▁targeted	-10137
osen	-10138
▁Radic	-10139
▁attrac	-10140
▁divided	-10141
▁experţi	-10142
▁remarks	-10143
▁trading	-10144
▁desfăşoară	-10145
▁concentreze	-10146
▁highlighted	-10147
▁harmonisation	-10148
▁pill	-10149
ficial	-10150
▁choose	-10151
▁croaţi	-10152
▁deputy	-10153
▁entirely	-10154
▁oportunităţi	-10155
▁Kon	-10156
▁Doar	-10157
▁Gene	-10158
▁core	-10159
guvern	-10160
▁digit	-10161
▁retrag	-10162
acitatea	-10163
▁contest	-10164
▁Adjustment	-10165
▁Drepturile	-10166
▁responsabilă	-10167
oca	-10168
▁Sil	-10169
▁Cetă	-10170
▁Atunci	-10171
▁exempl	-10172
▁insule	-10173
November	-10174
▁Jeremic	-10175
▁agricultura	-10176
▁Universitatea	-10177
asele	-10178
oresc	-10179
▁ieri	-10180
▁ling	-10181
▁Belgi	-10182
▁adoptăm	-10183
▁crească	-10184
▁heritage	-10185
gue	-10186
▁uz	-10187
▁dezb	-10188
▁pollu	-10189
▁apărut	-10190
▁enhance	-10191
▁înțeleg	-10192
ațiunilor	-10193
▁Lithuania	-10194
▁cuprinzătoare	-10195
May	-10196
▁45	-10197
▁6.	-10198
acan	-10199
ashi	-10200
uită	-10201
stead	-10202
▁fața	-10203
▁preserv	-10204
▁eventual	-10205
▁suffered	-10206
▁concluziile	-10207
▁consolidate	-10208
vot	-10209
▁prud	-10210
ilorad	-10211
▁adver	-10212
respond	-10213
▁housing	-10214
▁interzic	-10215
▁worldwide	-10216
▁collection	-10217
▁inovatoare	-10218
▁principala	-10219
▁Evenimentul	-10220
▁activităţii	-10221
▁anun	-10222
▁desire	-10223
▁forţelor	-10224
▁considering	-10225
ptul	-10226
▁Dutch	-10227
▁newsp	-10228
▁Laj	-10229
ublin	-10230
anisme	-10231
▁asocia	-10232
▁istoric	-10233
▁minutes	-10234
▁contracts	-10235
▁demanding	-10236
▁insurance	-10237
▁ut	-10238
▁wind	-10239
▁Milorad	-10240
▁anivers	-10241
▁dificultăţi	-10242
ych	-10243
irth	-10244
▁Women	-10245
▁emisii	-10246
▁explan	-10247
▁Belgium	-10248
▁armatei	-10249
▁scenari	-10250
▁Justiţie	-10251
▁condamnat	-10252
▁realistic	-10253
DZ	-10254
▁blue	-10255
▁grij	-10256
▁liberă	-10257
▁Freedom	-10258
▁religion	-10259
▁înregistrate	-10260
▁liberalizarea	-10261
dei	-10262
orough	-10263
▁expan	-10264
▁Struct	-10265
▁analiză	-10266
▁ilegală	-10267
▁neither	-10268
▁refuzat	-10269
▁finances	-10270
▁pieţelor	-10271
▁reasonable	-10272
▁reporterilor	-10273
mă	-10274
▁Naţi	-10275
landei	-10276
utului	-10277
▁chain	-10278
▁joace	-10279
▁accomp	-10280
▁decenii	-10281
▁dincolo	-10282
▁procent	-10283
▁guvernelor	-10284
ilst	-10285
▁aur	-10286
▁meci	-10287
▁ziua	-10288
batere	-10289
▁Rules	-10290
▁punish	-10291
▁eficace	-10292
▁largely	-10293
▁meaning	-10294
▁pledged	-10295
▁otherwise	-10296
▁compensation	-10297
If	-10298
▁ope	-10299
▁Rule	-10300
inilor	-10301
▁arrived	-10302
▁diferită	-10303
▁provocat	-10304
▁întoarce	-10305
▁existence	-10306
▁concentrăm	-10307
▁Ja	-10308
▁Luc	-10309
icite	-10310
▁Dnevnik	-10311
▁însemna	-10312
▁generate	-10313
▁incorpor	-10314
urb	-10315
war	-10316
/04)	-10317
▁Una	-10318
▁Biro	-10319
▁Ahmet	-10320
▁denum	-10321
▁ştiţi	-10322
▁comite	-10323
▁endors	-10324
▁luarea	-10325
▁turism	-10326
▁dezamăg	-10327
▁populaţie	-10328
uages	-10329
▁teste	-10330
▁Slovac	-10331
▁double	-10332
▁efectuat	-10333
▁misiunii	-10334
▁mecanisme	-10335
▁wide	-10336
reaptă	-10337
▁bazat	-10338
▁revol	-10339
▁expozi	-10340
▁suspec	-10341
▁Ambasad	-10342
▁şedinţei	-10343
▁colaborare	-10344
▁personally	-10345
▁participants	-10346
şii	-10347
▁Cas	-10348
ories	-10349
▁sumă	-10350
▁incon	-10351
▁bancar	-10352
▁natură	-10353
▁capabil	-10354
▁declare	-10355
▁propriul	-10356
NN	-10357
▁Jos	-10358
▁Dink	-10359
▁Food	-10360
▁Baltic	-10361
▁sigure	-10362
▁vizita	-10363
▁civilian	-10364
▁maintaining	-10365
/05;	-10366
fund	-10367
mark	-10368
propor	-10369
terane	-10370
▁design	-10371
▁prezid	-10372
▁analizăm	-10373
▁cunoaşte	-10374
▁rezisten	-10375
▁thorough	-10376
aştem	-10377
iştii	-10378
▁Ultim	-10379
▁forţă	-10380
▁tools	-10381
▁aplica	-10382
▁Austral	-10383
▁dorinţa	-10384
▁attitude	-10385
▁motivele	-10386
▁răspundă	-10387
▁Conference	-10388
▁consolideze	-10389
▁obligatorii	-10390
▁îngrijorare	-10391
▁Aşa	-10392
▁dyn	-10393
termin	-10394
▁wonder	-10395
▁precise	-10396
▁premierul	-10397
▁obligaţiile	-10398
Un	-10399
upe	-10400
▁Bak	-10401
/2010	-10402
▁acte	-10403
▁depoz	-10404
orească	-10405
▁cerere	-10406
▁search	-10407
▁familie	-10408
▁datoriei	-10409
▁identify	-10410
▁phenomen	-10411
▁Ambassador	-10412
▁Balcanilor	-10413
▁Federation	-10414
▁Socialists	-10415
here	-10416
enţii	-10417
lined	-10418
▁tren	-10419
▁Hamas	-10420
▁clean	-10421
▁tasks	-10422
▁sârbii	-10423
▁spiritul	-10424
sibly	-10425
▁bănci	-10426
▁decre	-10427
▁judges	-10428
▁constat	-10429
▁diferit	-10430
▁keeping	-10431
▁opoziţia	-10432
▁sârbilor	-10433
▁generally	-10434
▁determinat	-10435
răd	-10436
▁Gj	-10437
▁Mc	-10438
oler	-10439
▁cars	-10440
acteri	-10441
▁renov	-10442
▁metode	-10443
▁reaching	-10444
▁ministerul	-10445
▁Majoritatea	-10446
▁biodiversity	-10447
▁BEI	-10448
▁EIB	-10449
▁assum	-10450
▁indis	-10451
related	-10452
▁datele	-10453
▁sindic	-10454
▁approxim	-10455
▁explicit	-10456
▁Herţegovinei	-10457
▁reprezentanţi	-10458
pers	-10459
şeşte	-10460
▁patrim	-10461
▁Europol	-10462
▁executiv	-10463
▁Enlargement	-10464
▁contribuţie	-10465
▁Apăr	-10466
▁users	-10467
▁depune	-10468
▁construi	-10469
▁intellect	-10470
▁resulting	-10471
▁proceedings	-10472
▁teritorială	-10473
/06;	-10474
▁Tour	-10475
▁isol	-10476
▁2002,	-10477
▁heavy	-10478
▁reloc	-10479
▁depusă	-10480
▁sought	-10481
▁parents	-10482
▁medicines	-10483
▁participă	-10484
▁determination	-10485
9%	-10486
kom	-10487
▁gh	-10488
▁Are	-10489
▁cite	-10490
debate	-10491
eijing	-10492
▁verde	-10493
ankovic	-10494
aterală	-10495
▁folosesc	-10496
▁concentra	-10497
ceva	-10498
▁polu	-10499
buting	-10500
▁audit	-10501
▁Instead	-10502
▁interesting	-10503
▁DS	-10504
▁Not	-10505
▁ben	-10506
ioasă	-10507
▁Proc	-10508
▁avoc	-10509
▁ieşi	-10510
▁ineg	-10511
▁navig	-10512
▁losses	-10513
▁natura	-10514
▁arestat	-10515
▁reliable	-10516
▁educaţiei	-10517
▁committees	-10518
8.	-10519
Dacă	-10520
▁Kov	-10521
ierii	-10522
ordon	-10523
▁trai	-10524
atorie	-10525
oanele	-10526
▁provo	-10527
istance	-10528
▁hotărât	-10529
▁scădere	-10530
▁complement	-10531
▁Dl	-10532
▁dăm	-10533
▁insu	-10534
▁Instru	-10535
▁paying	-10536
▁Beijing	-10537
▁înţeles	-10538
▁aeroport	-10539
▁executive	-10540
▁Strategiei	-10541
▁ajutorului	-10542
▁contribuţia	-10543
▁800	-10544
▁san	-10545
orilor	-10546
▁recru	-10547
▁suport	-10548
▁depends	-10549
▁austerity	-10550
▁interpret	-10551
▁reamintesc	-10552
▁successfully	-10553
put	-10554
▁Mic	-10555
▁etapă	-10556
▁clause	-10557
▁limits	-10558
▁puţine	-10559
▁comisie	-10560
▁elimina	-10561
▁alegerea	-10562
▁apropiere	-10563
▁assets	-10564
▁cancel	-10565
▁execut	-10566
▁flight	-10567
titudine	-10568
▁Malmström	-10569
▁forthcoming	-10570
oub	-10571
pir	-10572
▁sets	-10573
▁Agenda	-10574
▁Geneva	-10575
▁vamale	-10576
▁offering	-10577
▁rezoluţii	-10578
▁conştienţi	-10579
▁diferitelor	-10580
mus	-10581
ull	-10582
▁Law	-10583
▁fle	-10584
▁deni	-10585
▁colla	-10586
▁brings	-10587
▁leaving	-10588
dezbatere	-10589
▁meanwhile	-10590
năt	-10591
▁har	-10592
▁Manu	-10593
server	-10594
tising	-10595
▁Peste	-10596
▁forţa	-10597
▁sunte	-10598
▁Aşadar	-10599
▁Branko	-10600
▁Susţin	-10601
▁violen	-10602
▁wealth	-10603
▁cercetă	-10604
▁massive	-10605
▁judiciare	-10606
▁electorale	-10607
▁Dum	-10608
ground	-10609
▁Milos	-10610
▁aducă	-10611
▁viață	-10612
▁încal	-10613
▁London	-10614
▁Sweden	-10615
▁pedeps	-10616
▁unific	-10617
▁Ministers	-10618
▁historical	-10619
▁Aproximativ	-10620
▁activităţilor	-10621
-200	-10622
ison	-10623
▁Cal	-10624
build	-10625
lifer	-10626
▁gone	-10627
▁mark	-10628
▁Korea	-10629
▁visas	-10630
▁cuprinde	-10631
▁situații	-10632
▁indicated	-10633
▁legitimate	-10634
▁rus	-10635
▁param	-10636
▁sudul	-10637
▁ambiți	-10638
▁concluzie	-10639
▁respectate	-10640
▁0.	-10641
▁Bes	-10642
ánamo	-10643
▁error	-10644
▁Planul	-10645
▁menite	-10646
▁furniza	-10647
▁modului	-10648
▁primesc	-10649
▁Totodată	-10650
▁Guantánamo	-10651
▁politicienii	-10652
▁Cehă	-10653
▁abţin	-10654
Atlantic	-10655
▁playing	-10656
▁opinions	-10657
▁languages	-10658
▁combustibil	-10659
▁descărcarea	-10660
ho	-10661
▁Jud	-10662
uable	-10663
▁milk	-10664
▁vreau	-10665
▁încon	-10666
▁lideri	-10667
▁pierde	-10668
▁tehnic	-10669
▁stations	-10670
▁exhibition	-10671
▁politicieni	-10672
TO	-10673
itată	-10674
urorul	-10675
▁dealt	-10676
▁înaltă	-10677
▁experti	-10678
▁Slovakia	-10679
▁flexible	-10680
▁labelling	-10681
uş	-10682
isa	-10683
/07;	-10684
▁Îmi	-10685
ceanu	-10686
▁Cauc	-10687
▁adera	-10688
▁centres	-10689
▁determina	-10690
▁infrastructura	-10691
adin	-10692
nici	-10693
▁Kingdom	-10694
▁charged	-10695
▁direcţie	-10696
▁dispropor	-10697
▁prezentată	-10698
▁respectivă	-10699
▁învăţământ	-10700
1%	-10701
▁Ri	-10702
elung	-10703
▁1995	-10704
▁alta	-10705
▁ecos	-10706
▁felul	-10707
▁attend	-10708
▁efecte	-10709
February	-10710
▁privile	-10711
▁urgentă	-10712
▁complain	-10713
▁regulile	-10714
▁specifică	-10715
▁alternativă	-10716
▁evenimentelor	-10717
ţim	-10718
ocid	-10719
rich	-10720
▁USA	-10721
▁sigură	-10722
assy	-10723
inal	-10724
onds	-10725
ătrân	-10726
▁Antonio	-10727
▁trecere	-10728
▁announce	-10729
▁indirect	-10730
▁increases	-10731
▁permiteţi	-10732
▁informaţiile	-10733
▁34	-10734
/03)	-10735
vski	-10736
▁Ras	-10737
▁save	-10738
▁Parvan	-10739
▁albaneze	-10740
RA	-10741
Cre	-10742
aled	-10743
▁rit	-10744
▁Prof	-10745
▁viză	-10746
▁Funds	-10747
▁ocupă	-10748
▁supuse	-10749
▁appreci	-10750
▁factori	-10751
▁temporary	-10752
▁protecţiei	-10753
▁recomandările	-10754
▁restructuring	-10755
8%	-10756
mas	-10757
June	-10758
ocide	-10759
▁died	-10760
▁manip	-10761
▁punerii	-10762
▁secular	-10763
▁democrație	-10764
▁folosească	-10765
▁prosecutors	-10766
▁(5	-10767
▁Ve	-10768
zens	-10769
▁Gold	-10770
▁Will	-10771
▁pate	-10772
▁asume	-10773
▁menţionez	-10774
▁importanță	-10775
▁%.	-10776
anka	-10777
▁lay	-10778
▁Drag	-10779
▁îndo	-10780
▁Linda	-10781
▁preal	-10782
▁activă	-10783
▁înconj	-10784
▁diseases	-10785
▁resulted	-10786
▁stabilim	-10787
▁succesul	-10788
▁cooperate	-10789
▁Thus	-10790
▁sell	-10791
▁acasă	-10792
▁fields	-10793
▁attract	-10794
▁showing	-10795
▁detailed	-10796
▁supplies	-10797
▁îndelung	-10798
▁previously	-10799
▁beneficiază	-10800
▁Nob	-10801
▁birth	-10802
▁embar	-10803
▁şansă	-10804
January	-10805
▁ulteri	-10806
▁scopuri	-10807
▁destinat	-10808
▁dimensiunea	-10809
▁Stabilisation	-10810
set	-10811
▁kur	-10812
▁reve	-10813
▁minime	-10814
▁Karadaku	-10815
▁subsidies	-10816
▁declaraţii	-10817
▁încălcarea	-10818
7-0	-10819
▁je	-10820
▁Bec	-10821
▁Wall	-10822
▁mort	-10823
overed	-10824
▁Votul	-10825
▁poliţi	-10826
▁stance	-10827
▁misiune	-10828
▁fiecărui	-10829
▁violenţă	-10830
▁12.	-10831
▁196	-10832
▁vinov	-10833
▁israel	-10834
▁centrală	-10835
dy	-10836
▁Mak	-10837
▁zero	-10838
rească	-10839
▁listă	-10840
▁quali	-10841
▁Javier	-10842
▁ciprio	-10843
▁durabil	-10844
▁wait	-10845
▁ajută	-10846
echilib	-10847
▁profund	-10848
▁asociere	-10849
▁concentrat	-10850
▁turismului	-10851
9.	-10852
▁SEE	-10853
▁porn	-10854
▁stau	-10855
▁reţin	-10856
ologice	-10857
▁susten	-10858
▁vecine	-10859
September	-10860
▁antrepren	-10861
▁dependent	-10862
▁extension	-10863
▁politically	-10864
cak	-10865
fax	-10866
▁75	-10867
▁Ib	-10868
▁Head	-10869
▁altceva	-10870
▁enhanced	-10871
▁arestarea	-10872
▁periculoase	-10873
▁oportunitatea	-10874
▁reconstruction	-10875
alle	-10876
țional	-10877
▁homes	-10878
▁constă	-10879
▁ameninț	-10880
▁efortul	-10881
▁condiţie	-10882
▁emerging	-10883
▁ordinary	-10884
▁acţioneze	-10885
▁Fundamental	-10886
▁legislației	-10887
▁Milan	-10888
▁Socie	-10889
▁chann	-10890
▁holding	-10891
▁facility	-10892
▁proportion	-10893
▁reprezentantul	-10894
▁(6	-10895
▁Penal	-10896
▁Ramad	-10897
▁floor	-10898
▁Natasa	-10899
▁Safety	-10900
▁becomes	-10901
▁repatri	-10902
▁migrants	-10903
▁violation	-10904
▁inițiativă	-10905
▁rezoluţiei	-10906
▁regulamentului	-10907
orse	-10908
▁Bil	-10909
▁poll	-10910
▁naşte	-10911
▁symbol	-10912
observer	-10913
erare	-10914
▁Pace	-10915
▁avia	-10916
▁Democ	-10917
▁dispă	-10918
▁recup	-10919
▁adresat	-10920
▁Procesul	-10921
▁reuniune	-10922
▁democraţia	-10923
▁îmbunătăţe	-10924
▁preconizează	-10925
▁brid	-10926
▁David	-10927
▁track	-10928
▁turcă	-10929
▁grounds	-10930
▁running	-10931
▁satisfă	-10932
▁direcția	-10933
▁Serviciul	-10934
▁existenţa	-10935
▁intențion	-10936
▁opoziţiei	-10937
▁stabilităţii	-10938
zhe	-10939
tățile	-10940
▁liter	-10941
▁confisc	-10942
▁examples	-10943
▁principiilor	-10944
▁Ră	-10945
▁Baj	-10946
▁impre	-10947
▁preţul	-10948
▁monetare	-10949
▁obstacol	-10950
▁preţurile	-10951
▁unilateral	-10952
▁regulamentul	-10953
ics	-10954
▁adân	-10955
▁phys	-10956
▁seats	-10957
▁Thirdly	-10958
▁Situaţia	-10959
▁Convenţia	-10960
▁atitudine	-10961
▁viitoarea	-10962
▁controversi	-10963
▁negotiation	-10964
▁seg	-10965
▁honest	-10966
▁postul	-10967
▁sesiune	-10968
▁Procedure	-10969
▁deputaţii	-10970
▁proposing	-10971
▁democrației	-10972
clam	-10973
▁Exp	-10974
▁slă	-10975
▁John	-10976
▁pron	-10977
▁știm	-10978
▁decade	-10979
▁exemple	-10980
▁guverne	-10981
▁Parvanov	-10982
▁corupţie	-10983
▁familiei	-10984
▁protests	-10985
▁turceşti	-10986
▁civilians	-10987
▁familiile	-10988
▁conflictul	-10989
usa	-10990
▁Dur	-10991
▁magaz	-10992
▁schem	-10993
▁seeks	-10994
▁demers	-10995
▁dignity	-10996
▁implice	-10997
▁îmbunătăț	-10998
▁comercială	-10999
▁progresele	-11000
▁concurenţei	-11001
▁vulnerabile	-11002
aro	-11003
icl	-11004
▁80%	-11005
▁Josi	-11006
▁kept	-11007
▁stag	-11008
▁infla	-11009
▁detain	-11010
▁rurală	-11011
▁recunos	-11012
▁warning	-11013
▁powerful	-11014
▁regulate	-11015
▁supravieţ	-11016
▁întrerupt	-11017
▁schimbarea	-11018
yan	-11019
▁tă	-11020
▁Și	-11021
▁impas	-11022
▁declan	-11023
▁aşteptă	-11024
▁reduceri	-11025
▁susţinem	-11026
▁sectoarele	-11027
▁substances	-11028
▁technological	-11029
▁Grow	-11030
▁diss	-11031
▁despă	-11032
▁sites	-11033
▁locali	-11034
▁francez	-11035
▁salvare	-11036
▁totally	-11037
▁difference	-11038
▁recomandări	-11039
▁municipalities	-11040
▁bis	-11041
▁Open	-11042
▁links	-11043
zheimer	-11044
▁alocat	-11045
▁ordine	-11046
▁protes	-11047
▁Without	-11048
▁relativ	-11049
▁treated	-11050
▁deadline	-11051
▁imposibil	-11052
▁resolving	-11053
RD	-11054
oren	-11055
▁gap	-11056
derea	-11057
illance	-11058
▁Taiwan	-11059
▁aflată	-11060
▁Decizia	-11061
▁analysts	-11062
▁spokesman	-11063
▁consecinţe	-11064
▁correspond	-11065
▁televiziune	-11066
▁discriminare	-11067
▁organizaţiile	-11068
erăb	-11069
mani	-11070
▁Gol	-11071
▁syn	-11072
▁scep	-11073
advant	-11074
▁abordăm	-11075
▁amounts	-11076
▁percent	-11077
▁2007-201	-11078
▁tourists	-11079
▁înaintat	-11080
▁constitui	-11081
▁transparență	-11082
TS	-11083
▁32	-11084
▁Vel	-11085
ajele	-11086
▁cens	-11087
alaltă	-11088
▁impun	-11089
▁Faptul	-11090
▁durată	-11091
▁moneda	-11092
itiative	-11093
▁valabil	-11094
▁recession	-11095
▁respectul	-11096
▁austeritate	-11097
▁complicated	-11098
CTA	-11099
ques	-11100
▁Deși	-11101
▁rrom	-11102
parent	-11103
▁acqui	-11104
▁nerăb	-11105
▁stock	-11106
▁Manuel	-11107
▁credite	-11108
▁infring	-11109
▁eficiența	-11110
▁integrată	-11111
▁considerate	-11112
▁Meh	-11113
▁alege	-11114
▁domin	-11115
▁genocid	-11116
▁attempts	-11117
▁disagree	-11118
▁inflation	-11119
▁articolului	-11120
▁modificarea	-11121
▁ratification	-11122
▁chem	-11123
▁Premi	-11124
▁derul	-11125
▁moral	-11126
▁exceed	-11127
▁institui	-11128
▁disadvant	-11129
▁tradition	-11130
▁pregătirea	-11131
▁promovează	-11132
▁settlement	-11133
▁progresului	-11134
▁globalisation	-11135
6.	-11136
ugg	-11137
usic	-11138
▁Pan	-11139
▁kil	-11140
cării	-11141
▁Anti	-11142
▁zbor	-11143
▁check	-11144
alizată	-11145
▁Lajcak	-11146
▁chosen	-11147
▁reinte	-11148
▁formaţi	-11149
▁reciprocă	-11150
▁transporturilor	-11151
LA	-11152
igu	-11153
nier	-11154
▁Malta	-11155
rateful	-11156
▁ocupare	-11157
▁Lituania	-11158
▁Alzheimer	-11159
▁valorilor	-11160
▁ameninţare	-11161
▁sate	-11162
▁Among	-11163
▁below	-11164
▁puteţi	-11165
governmental	-11166
7.	-11167
ALE	-11168
▁7.	-11169
redi	-11170
▁Novi	-11171
▁scena	-11172
▁prohib	-11173
▁propusă	-11174
▁involves	-11175
▁observat	-11176
▁împiedică	-11177
▁registered	-11178
Qa	-11179
▁(4	-11180
left	-11181
▁Had	-11182
organ	-11183
▁emite	-11184
▁soldaţi	-11185
▁applying	-11186
▁grateful	-11187
▁eficienţei	-11188
zile	-11189
April	-11190
▁Paci	-11191
▁fast	-11192
▁Verts	-11193
▁lapte	-11194
▁Servic	-11195
▁anuale	-11196
▁reject	-11197
▁comunitară	-11198
▁perspectivele	-11199
las	-11200
loom	-11201
▁90%	-11202
▁sco	-11203
irile	-11204
▁anch	-11205
▁Stipe	-11206
▁survey	-11207
▁sugesti	-11208
▁respecta	-11209
▁folosirea	-11210
▁prisoners	-11211
▁Festivalul	-11212
▁generation	-11213
▁menţionate	-11214
▁electronice	-11215
▁MP	-11216
▁Doha	-11217
▁Traj	-11218
▁Josip	-11219
▁sănăt	-11220
▁învăţ	-11221
▁Before	-11222
▁Growth	-11223
▁entered	-11224
▁addressing	-11225
▁Cooperation	-11226
atei	-11227
erei	-11228
▁room	-11229
▁murit	-11230
iştilor	-11231
unction	-11232
▁deserv	-11233
▁confrunta	-11234
▁estimează	-11235
▁anticipate	-11236
▁responsabili	-11237
▁suplimentară	-11238
iry	-11239
▁Ext	-11240
▁Elve	-11241
▁diagn	-11242
▁motor	-11243
▁Moscow	-11244
▁mostly	-11245
▁Christi	-11246
▁eastern	-11247
▁monedei	-11248
▁actively	-11249
▁perioade	-11250
▁umanitare	-11251
▁officially	-11252
▁television	-11253
▁acknowledge	-11254
▁guaranteeing	-11255
▁rot	-11256
ctate	-11257
▁endorse	-11258
▁interviu	-11259
▁opiniile	-11260
▁personale	-11261
▁ministerului	-11262
ffs	-11263
esta	-11264
▁div	-11265
erente	-11266
▁libera	-11267
▁tipuri	-11268
versities	-11269
▁reaction	-11270
▁independentă	-11271
▁surveillance	-11272
BG	-11273
▁lia	-11274
▁dras	-11275
▁soft	-11276
intele	-11277
ovehic	-11278
ampions	-11279
▁Gazprom	-11280
▁instituții	-11281
▁priorităţi	-11282
▁controversial	-11283
FA	-11284
▁gândi	-11285
▁croate	-11286
▁stipul	-11287
▁Barnier	-11288
▁answers	-11289
▁publicul	-11290
▁Buckovski	-11291
▁calităţii	-11292
▁beneficieze	-11293
▁speculation	-11294
▁Constitutional	-11295
izont	-11296
▁appears	-11297
▁bineven	-11298
▁mesajul	-11299
▁studies	-11300
▁Deoarece	-11301
▁autonomy	-11302
▁influenţa	-11303
▁700	-11304
▁pră	-11305
▁Mill	-11306
▁pacea	-11307
▁proud	-11308
▁Coreea	-11309
▁Martti	-11310
▁dovezi	-11311
▁approve	-11312
▁carrying	-11313
▁mediterane	-11314
▁împrumuturi	-11315
▁60%	-11316
▁Ben	-11317
▁noroc	-11318
▁exists	-11319
▁options	-11320
▁serioasă	-11321
▁consolidare	-11322
ney	-11323
▁HIV	-11324
▁reb	-11325
finan	-11326
▁Prag	-11327
▁fourth	-11328
▁contrar	-11329
▁Interior	-11330
▁aviation	-11331
▁apropierea	-11332
▁Agriculture	-11333
▁9.	-11334
usta	-11335
▁Carta	-11336
▁potriv	-11337
▁football	-11338
▁granting	-11339
▁delighted	-11340
▁celorlalte	-11341
▁descoperit	-11342
▁instituţie	-11343
▁rapoartele	-11344
▁Belgradului	-11345
▁participating	-11346
▁0,	-11347
avant	-11348
▁felt	-11349
atever	-11350
itelor	-11351
▁Aleks	-11352
▁Putem	-11353
▁știin	-11354
▁seeing	-11355
December	-11356
▁acoperă	-11357
▁Cypriots	-11358
▁commander	-11359
▁împiedica	-11360
atii	-11361
▁bra	-11362
table	-11363
▁Beta	-11364
▁bill	-11365
▁ideal	-11366
▁aşadar	-11367
▁proved	-11368
▁volati	-11369
▁council	-11370
▁requests	-11371
▁frontieră	-11372
▁autoritatea	-11373
▁funcţionarea	-11374
rah	-11375
raţi	-11376
şită	-11377
▁Del	-11378
▁1999,	-11379
▁Unele	-11380
▁obişn	-11381
▁anilor	-11382
▁congratul	-11383
▁beneficiul	-11384
ercul	-11385
▁Belgia	-11386
▁bulgari	-11387
▁intoler	-11388
▁preferen	-11389
▁preziden	-11390
▁unemployed	-11391
▁significance	-11392
▁Sri	-11393
▁2013,	-11394
▁masac	-11395
▁negli	-11396
▁night	-11397
▁Polish	-11398
▁obține	-11399
▁ajungem	-11400
▁violent	-11401
▁Brazilia	-11402
▁subiecte	-11403
▁affecting	-11404
▁criteriilor	-11405
eau	-11406
July	-11407
taţi	-11408
▁Conc	-11409
▁opun	-11410
▁resc	-11411
▁etnic	-11412
▁earthqu	-11413
▁evening	-11414
▁autovehic	-11415
nis	-11416
▁dup	-11417
▁neut	-11418
▁imperi	-11419
▁legală	-11420
▁rapide	-11421
▁Israeli	-11422
▁cultura	-11423
▁village	-11424
▁vremuri	-11425
▁utilizează	-11426
▁îngrijorarea	-11427
aly	-11428
▁55	-11429
▁meant	-11430
▁Suedia	-11431
▁stânga	-11432
▁raising	-11433
▁utiliza	-11434
▁organiza	-11435
▁aplicării	-11436
▁protejeze	-11437
Muntenegrului	-11438
▁Organizaţiei	-11439
org	-11440
▁Som	-11441
▁gri	-11442
annual	-11443
▁holds	-11444
▁extinde	-11445
▁Occident	-11446
▁occurred	-11447
▁Solidarity	-11448
▁închiderea	-11449
▁documentele	-11450
/04;	-11451
▁pof	-11452
erman	-11453
▁umană	-11454
▁băncilor	-11455
▁valuable	-11456
▁egalitate	-11457
▁Christians	-11458
▁definition	-11459
▁Democraţilor	-11460
▁entrepreneurs	-11461
▁reglementarea	-11462
▁ieft	-11463
▁warn	-11464
sparen	-11465
▁derog	-11466
▁acting	-11467
▁încalcă	-11468
▁entities	-11469
▁genocide	-11470
▁ridicată	-11471
▁pregătiţi	-11472
▁Structural	-11473
▁experienţă	-11474
▁approximately	-11475
▁informaţiilor	-11476
OK	-11477
şim	-11478
ower	-11479
▁Bud	-11480
ermen	-11481
amenii	-11482
▁false	-11483
▁depind	-11484
▁dispos	-11485
▁opinii	-11486
▁oppose	-11487
▁prompt	-11488
▁colegul	-11489
▁efectiv	-11490
▁distribui	-11491
▁personalului	-11492
PII	-11493
ţul	-11494
▁mos	-11495
▁van	-11496
▁Aleg	-11497
▁Once	-11498
uieşte	-11499
▁altul	-11500
▁sensul	-11501
▁Iranian	-11502
▁supraveg	-11503
▁exclusion	-11504
▁reuniunii	-11505
Ne	-11506
▁leads	-11507
▁types	-11508
▁Observ	-11509
▁unless	-11510
▁Islanda	-11511
▁albaneză	-11512
▁coopereze	-11513
▁subsidiarity	-11514
.)	-11515
AE	-11516
▁lawy	-11517
cities	-11518
▁călăt	-11519
▁firms	-11520
▁reput	-11521
▁unpre	-11522
▁directă	-11523
▁indicat	-11524
▁viziune	-11525
▁cheltuieli	-11526
▁regardless	-11527
▁conflictelor	-11528
▁simplificarea	-11529
▁Ev	-11530
text	-11531
▁ara	-11532
▁Academ	-11533
▁bazeze	-11534
▁Vicepre	-11535
▁Slovacia	-11536
▁justified	-11537
▁universities	-11538
eria	-11539
ânde	-11540
▁mal	-11541
potrivă	-11542
▁Schulz	-11543
▁himself	-11544
▁Americii	-11545
▁dezavant	-11546
▁exception	-11547
▁Pot	-11548
▁hos	-11549
▁sla	-11550
▁mărf	-11551
▁crimă	-11552
▁cetăţe	-11553
▁remove	-11554
▁reinfor	-11555
▁interior	-11556
▁suitable	-11557
▁structurile	-11558
HP	-11559
SF	-11560
vat	-11561
File	-11562
oana	-11563
▁Bab	-11564
▁Jan	-11565
usion	-11566
▁egale	-11567
▁church	-11568
▁spoken	-11569
ţionarea	-11570
▁species	-11571
▁abordări	-11572
▁educație	-11573
▁abstained	-11574
▁pollution	-11575
▁Bineînţeles	-11576
▁EF	-11577
eira	-11578
▁Jean	-11579
acking	-11580
▁Sever	-11581
▁heads	-11582
▁cutrem	-11583
▁intimid	-11584
▁nationals	-11585
▁residents	-11586
▁populației	-11587
▁comunicarea	-11588
▁experienced	-11589
▁discriminării	-11590
ael	-11591
▁Met	-11592
▁tox	-11593
▁murd	-11594
▁suma	-11595
apoarte	-11596
▁indict	-11597
▁pofida	-11598
▁intends	-11599
▁scăzute	-11600
▁soluții	-11601
▁amending	-11602
▁creative	-11603
▁destabil	-11604
▁supposed	-11605
▁upcoming	-11606
▁instituirea	-11607
▁internaţionali	-11608
ila	-11609
umn	-11610
râng	-11611
▁modi	-11612
▁tragic	-11613
ographic	-11614
▁happens	-11615
▁abordeze	-11616
▁Naţiunilor	-11617
▁deputaţilor	-11618
▁Internaţională	-11619
cle	-11620
inem	-11621
ătut	-11622
▁Gen	-11623
▁lif	-11624
arele	-11625
▁chea	-11626
ubercul	-11627
▁foster	-11628
▁strike	-11629
▁acţiona	-11630
▁ceilalţi	-11631
▁surround	-11632
▁miniştrii	-11633
▁constituţionale	-11634
▁Boz	-11635
țiune	-11636
▁dete	-11637
▁Talat	-11638
▁apari	-11639
ultural	-11640
▁exprima	-11641
▁sărăcia	-11642
▁entitled	-11643
▁experiencing	-11644
▁neighbourhood	-11645
▁reconciliation	-11646
ESCO	-11647
osex	-11648
▁Multe	-11649
▁imbal	-11650
▁ajutăm	-11651
▁drawing	-11652
▁nivelului	-11653
▁performan	-11654
▁tranziţie	-11655
▁applications	-11656
gs	-11657
cor	-11658
anta	-11659
mann	-11660
▁Banja	-11661
▁curaj	-11662
▁mount	-11663
▁trend	-11664
▁şansa	-11665
▁absurd	-11666
▁simplă	-11667
▁detalii	-11668
▁quarter	-11669
▁culturală	-11670
▁integrity	-11671
▁parlamentară	-11672
▁preocupările	-11673
SD	-11674
rad	-11675
▁Their	-11676
▁obser	-11677
▁ediţie	-11678
▁riscuri	-11679
▁Înaltului	-11680
▁bunăstarea	-11681
▁raportorilor	-11682
▁autorităților	-11683
cris	-11684
pati	-11685
▁Commun	-11686
▁please	-11687
▁premiul	-11688
▁rolului	-11689
ufficient	-11690
▁receiving	-11691
▁Pr	-11692
▁cen	-11693
▁temă	-11694
▁plată	-11695
▁biomet	-11696
▁latter	-11697
▁Telekom	-11698
▁agenţia	-11699
▁următor	-11700
▁mulţumit	-11701
▁finanţelor	-11702
▁producţiei	-11703
▁Ot	-11704
▁Syria	-11705
▁arunc	-11706
▁necon	-11707
▁conțin	-11708
▁detail	-11709
▁realizeze	-11710
▁întâlniri	-11711
▁răspunsuri	-11712
▁mobilizarea	-11713
▁stakeholders	-11714
aric	-11715
tail	-11716
▁arh	-11717
▁plays	-11718
▁pursue	-11719
▁Authority	-11720
▁interimar	-11721
▁voluntary	-11722
▁obligatorie	-11723
▁producătorilor	-11724
bili	-11725
pted	-11726
▁Sen	-11727
▁emo	-11728
zător	-11729
ţenii	-11730
▁band	-11731
▁precau	-11732
▁tonnes	-11733
▁neregul	-11734
▁romilor	-11735
▁evaluate	-11736
▁legislat	-11737
▁sublinia	-11738
▁tackling	-11739
▁Democracy	-11740
▁medicamente	-11741
▁representation	-11742
▁Any	-11743
▁stem	-11744
stânga	-11745
▁fermă	-11746
▁pesti	-11747
▁îndre	-11748
▁remuner	-11749
▁repetat	-11750
▁extremis	-11751
▁Information	-11752
▁Ref	-11753
pread	-11754
▁Svet	-11755
ingent	-11756
▁Person	-11757
▁armata	-11758
▁criminals	-11759
▁suspended	-11760
▁intentions	-11761
▁economiilor	-11762
▁telecomunic	-11763
vaz	-11764
▁FT	-11765
▁lă	-11766
inic	-11767
wing	-11768
▁nar	-11769
▁nom	-11770
arked	-11771
▁battle	-11772
▁amintim	-11773
▁instruc	-11774
▁articole	-11775
▁imediată	-11776
▁adoptării	-11777
▁negotiated	-11778
▁îndeplinit	-11779
▁contributing	-11780
▁flexibilitate	-11781
▁lec	-11782
▁vide	-11783
roslav	-11784
▁2003.	-11785
▁Produc	-11786
▁evalua	-11787
▁asociate	-11788
▁proposes	-11789
▁governing	-11790
▁structuri	-11791
▁investească	-11792
▁representing	-11793
▁Just	-11794
▁sued	-11795
uitori	-11796
▁carne	-11797
▁dinam	-11798
▁seară	-11799
▁hearing	-11800
▁believed	-11801
▁fragment	-11802
▁menţinere	-11803
▁ştiinţifice	-11804
▁îmbunătăţire	-11805
▁48	-11806
idem	-11807
▁cân	-11808
▁zeci	-11809
▁Congo	-11810
▁apără	-11811
▁unity	-11812
▁belief	-11813
▁player	-11814
▁stocks	-11815
▁tehnică	-11816
▁crucială	-11817
▁liderilor	-11818
▁rezoluția	-11819
▁garantează	-11820
▁autovehicule	-11821
▁provocărilor	-11822
arters	-11823
stance	-11824
▁ought	-11825
▁Londra	-11826
▁engage	-11827
▁wishes	-11828
tisation	-11829
▁dorește	-11830
▁dreapta	-11831
▁parcurs	-11832
▁penalties	-11833
▁prevenire	-11834
▁encouraged	-11835
▁prevederile	-11836
▁guvernamentale	-11837
17	-11838
kers	-11839
lays	-11840
▁fiu	-11841
Qaeda	-11842
inare	-11843
▁door	-11844
▁înră	-11845
alling	-11846
tivele	-11847
▁admis	-11848
▁black	-11849
▁carte	-11850
▁faith	-11851
▁întări	-11852
▁Liderii	-11853
▁exchang	-11854
▁refused	-11855
▁împiedic	-11856
▁Implement	-11857
▁coeziunea	-11858
▁deosebire	-11859
▁70%	-11860
▁EGF	-11861
▁alco	-11862
August	-11863
▁super	-11864
▁Direct	-11865
▁așadar	-11866
▁quanti	-11867
▁preluat	-11868
▁disposal	-11869
▁promises	-11870
▁serviciul	-11871
▁Pie	-11872
ofias	-11873
opard	-11874
zarea	-11875
▁2012,	-11876
▁image	-11877
▁opune	-11878
▁cererii	-11879
▁concert	-11880
▁missions	-11881
▁musulman	-11882
▁suspects	-11883
▁emphasised	-11884
▁reprezinte	-11885
▁Bah	-11886
▁och	-11887
itzer	-11888
▁Latin	-11889
▁apare	-11890
▁Costas	-11891
▁depline	-11892
▁profits	-11893
▁Protocol	-11894
▁susținut	-11895
▁Premierul	-11896
▁deficitul	-11897
▁Department	-11898
WI	-11899
▁37	-11900
ived	-11901
reen	-11902
ionat	-11903
▁Face	-11904
▁bound	-11905
▁vârsta	-11906
▁promise	-11907
▁cadrului	-11908
▁privința	-11909
▁pescuitul	-11910
oda	-11911
▁coal	-11912
▁desfi	-11913
▁insul	-11914
▁Stefan	-11915
▁System	-11916
▁marked	-11917
▁resort	-11918
▁tender	-11919
discrimin	-11920
▁eurozone	-11921
▁detention	-11922
▁regretabil	-11923
▁veniturile	-11924
şa	-11925
rupe	-11926
▁size	-11927
▁vaccin	-11928
▁comisia	-11929
idespread	-11930
▁constantly	-11931
▁eliberarea	-11932
▁arrangements	-11933
▁independenţă	-11934
asc	-11935
oiu	-11936
avor	-11937
eleg	-11938
rote	-11939
ueze	-11940
▁fia	-11941
▁nef	-11942
andum	-11943
aries	-11944
minent	-11945
▁2001,	-11946
▁atrac	-11947
▁Miroslav	-11948
▁learning	-11949
▁sacrific	-11950
▁speakers	-11951
▁comparaţie	-11952
▁Christofias	-11953
▁activitățile	-11954
abă	-11955
▁Vene	-11956
▁lemn	-11957
▁lich	-11958
▁înghe	-11959
oubtedly	-11960
▁closure	-11961
▁italian	-11962
▁siguranţei	-11963
▁transferul	-11964
▁transplant	-11965
▁exploatarea	-11966
▁Bla	-11967
▁awa	-11968
ardian	-11969
▁Integ	-11970
▁Greens	-11971
▁UNESCO	-11972
▁înalte	-11973
▁revenue	-11974
▁introduse	-11975
▁relațiile	-11976
▁viitoarele	-11977
▁educational	-11978
mun	-11979
rew	-11980
ârg	-11981
▁Es	-11982
month	-11983
▁egală	-11984
▁wider	-11985
▁lipsei	-11986
▁driving	-11987
▁înţelege	-11988
▁socialist	-11989
▁threatened	-11990
▁achievement	-11991
▁advertising	-11992
MRO	-11993
ouă	-11994
▁Ta	-11995
▁1998	-11996
ancies	-11997
▁negoc	-11998
▁polls	-11999
▁Mondial	-12000
itzerland	-12001
▁speeches	-12002
▁provincia	-12003
▁violenţei	-12004
▁principală	-12005
▁summitului	-12006
-20	-12007
scale	-12008
▁meat	-12009
▁Games	-12010
▁secre	-12011
▁easily	-12012
▁fotbal	-12013
▁scurtă	-12014
▁dynamic	-12015
▁facilite	-12016
▁rezoluții	-12017
▁caracteris	-12018
▁dezechilib	-12019
▁concentrate	-12020
▁producători	-12021
▁rezultatelor	-12022
▁Nici	-12023
▁alia	-12024
▁rată	-12025
▁apele	-12026
▁coherent	-12027
▁indictees	-12028
▁Ed	-12029
▁Zi	-12030
▁che	-12031
▁vast	-12032
siunea	-12033
urally	-12034
▁actor	-12035
▁preci	-12036
▁route	-12037
▁Madeira	-12038
▁restore	-12039
▁cealaltă	-12040
▁obiectul	-12041
▁Australia	-12042
▁expansion	-12043
▁geographical	-12044
▁mobilisation	-12045
▁considerabile	-12046
▁simplification	-12047
▁Îm	-12048
▁păt	-12049
▁names	-12050
dreapta	-12051
▁croată	-12052
▁neglij	-12053
▁modelul	-12054
▁urgență	-12055
▁greceşti	-12056
▁occident	-12057
▁echitabil	-12058
▁posibilul	-12059
▁reinforce	-12060
▁documentul	-12061
▁detrimentul	-12062
essen	-12063
▁arms	-12064
▁aust	-12065
encies	-12066
▁pilot	-12067
▁rundă	-12068
▁vreun	-12069
Tomislav	-12070
▁demogra	-12071
▁version	-12072
▁științi	-12073
▁Asociere	-12074
▁procesele	-12075
US	-12076
ragă	-12077
▁Kal	-12078
▁Then	-12079
▁Dorim	-12080
▁preia	-12081
▁relax	-12082
▁decline	-12083
▁homosex	-12084
▁taxation	-12085
▁satisfied	-12086
▁recunoască	-12087
▁organizaţie	-12088
tel	-12089
▁eye	-12090
▁mână	-12091
Serbia	-12092
isteri	-12093
▁Pactul	-12094
▁bazele	-12095
▁temper	-12096
▁decisiv	-12097
▁jeopard	-12098
▁manieră	-12099
▁deciziei	-12100
▁competent	-12101
▁negotiate	-12102
▁politician	-12103
▁widespread	-12104
▁transparenţa	-12105
NG	-12106
fies	-12107
▁Work	-12108
▁taxă	-12109
▁dairy	-12110
▁Hasani	-12111
titudinea	-12112
▁endorsed	-12113
▁muntenegre	-12114
▁generations	-12115
poc	-12116
chid	-12117
▁clon	-12118
▁teme	-12119
tersen	-12120
▁Stand	-12121
▁woman	-12122
▁Lastly	-12123
▁Statis	-12124
▁federal	-12125
▁restaur	-12126
▁oricărei	-12127
▁Permiteţi	-12128
▁esențiale	-12129
▁teritoriale	-12130
▁Parliamentary	-12131
ajic	-12132
coli	-12133
răci	-12134
▁Joint	-12135
▁caută	-12136
▁slabe	-12137
ţionate	-12138
▁Barcel	-12139
▁tratate	-12140
▁apparent	-12141
▁furnizate	-12142
▁situației	-12143
▁foundations	-12144
cere	-12145
▁Vic	-12146
aliza	-12147
▁kill	-12148
▁shar	-12149
▁Filip	-12150
▁Forum	-12151
▁assume	-12152
▁legisl	-12153
▁constan	-12154
▁vecinii	-12155
▁sancţiuni	-12156
▁începerea	-12157
▁înfiinţat	-12158
▁relatively	-12159
▁îndeplinite	-12160
psa	-12161
qual	-12162
▁Gar	-12163
▁Rev	-12164
▁zil	-12165
▁neol	-12166
▁catch	-12167
▁tărie	-12168
▁studii	-12169
▁follows	-12170
▁gândesc	-12171
▁schimbe	-12172
▁prezente	-12173
▁elsewhere	-12174
▁extensive	-12175
▁utilizeze	-12176
▁Switzerland	-12177
▁intellectual	-12178
NR	-12179
Dem	-12180
iki	-12181
sed	-12182
abit	-12183
ading	-12184
ibilă	-12185
▁fază	-12186
▁inad	-12187
Kosovo	-12188
cătoare	-12189
▁Estonia	-12190
▁graniţa	-12191
▁smaller	-12192
▁Sistemul	-12193
▁abordează	-12194
▁materiale	-12195
▁structura	-12196
▁președintele	-12197
▁instituțiilor	-12198
acic	-12199
▁Rug	-12200
▁Tom	-12201
▁ball	-12202
derile	-12203
şească	-12204
▁câști	-12205
▁revolu	-12206
▁served	-12207
▁greatly	-12208
▁missing	-12209
▁piețele	-12210
▁Particip	-12211
▁condiţia	-12212
▁Barcelona	-12213
▁incidents	-12214
▁beneficial	-12215
▁Stabilizare	-12216
▁possibilities	-12217
10	-12218
▁WTO	-12219
▁die	-12220
▁diz	-12221
▁upd	-12222
▁tras	-12223
keeping	-12224
▁Jessen	-12225
▁attach	-12226
▁Ţările	-12227
▁Solicit	-12228
▁careful	-12229
▁cumpără	-12230
▁coaliţie	-12231
▁prezenţi	-12232
▁10.	-12233
▁Bog	-12234
▁turis	-12235
▁Competi	-12236
▁diagnos	-12237
▁discută	-12238
▁spaţiul	-12239
▁enabling	-12240
unications	-12241
raj	-12242
long	-12243
▁blo	-12244
preze	-12245
▁imun	-12246
Petersen	-12247
▁Telecom	-12248
▁expects	-12249
▁Internal	-12250
▁adresate	-12251
▁credibil	-12252
▁obţinute	-12253
▁exprimate	-12254
▁indicators	-12255
▁sprijinului	-12256
▁4,	-12257
▁Ze	-12258
▁VMRO	-12259
▁Ivica	-12260
▁Nobel	-12261
▁oraşe	-12262
▁dovede	-12263
▁located	-12264
şedintele	-12265
▁arguments	-12266
▁consisten	-12267
▁confruntat	-12268
▁systematic	-12269
▁Drepturilor	-12270
▁constructiv	-12271
▁credibilitatea	-12272
PC	-12273
▁%,	-12274
asting	-12275
▁Discu	-12276
▁fruit	-12277
▁repar	-12278
▁Martin	-12279
▁assure	-12280
▁cereri	-12281
▁marine	-12282
▁poartă	-12283
▁lessons	-12284
▁chairman	-12285
▁sentence	-12286
▁Naţională	-12287
▁provocate	-12288
▁referring	-12289
▁succeeded	-12290
▁electorală	-12291
▁preparation	-12292
stad	-12293
▁nomin	-12294
▁sfera	-12295
▁suede	-12296
▁Robert	-12297
▁unique	-12298
▁tensions	-12299
▁incentives	-12300
▁realitatea	-12301
▁economically	-12302
esty	-12303
▁OMC	-12304
▁Paper	-12305
▁români	-12306
▁poorest	-12307
▁înființ	-12308
▁Austrian	-12309
▁încercare	-12310
▁consolidăm	-12311
▁religioasă	-12312
▁alimentelor	-12313
meze	-12314
▁book	-12315
▁deşe	-12316
▁exag	-12317
▁holid	-12318
▁pharm	-12319
tăților	-12320
▁cauzate	-12321
▁familii	-12322
▁transit	-12323
▁cetăţean	-12324
▁informal	-12325
▁Political	-12326
▁asigurare	-12327
▁descoperi	-12328
▁riscurile	-12329
▁familiilor	-12330
▁phenomenon	-12331
▁angajamente	-12332
▁bureaucracy	-12333
▁funcționarea	-12334
.”	-12335
aves	-12336
▁irres	-12337
▁echipă	-12338
▁Pacific	-12339
▁failing	-12340
▁multiet	-12341
▁Israelul	-12342
▁struggle	-12343
▁Technolog	-12344
▁33	-12345
imbab	-12346
▁cari	-12347
▁gene	-12348
▁vacc	-12349
rating	-12350
thodox	-12351
▁stare	-12352
▁anuală	-12353
▁ignore	-12354
▁Monitor	-12355
▁apropie	-12356
▁echipei	-12357
▁încălzi	-12358
▁obtained	-12359
▁facilitarea	-12360
azz	-12361
ino	-12362
siune	-12363
▁Fish	-12364
▁gest	-12365
▁opus	-12366
▁facts	-12367
▁țării	-12368
▁whilst	-12369
▁Michael	-12370
▁cheltui	-12371
▁presiunea	-12372
▁comunităţi	-12373
▁modernizarea	-12374
▁tribunalului	-12375
▁11.	-12376
▁Mod	-12377
edere	-12378
▁lini	-12379
▁vină	-12380
▁knows	-12381
▁Extind	-12382
▁except	-12383
▁făcând	-12384
▁previz	-12385
▁acțiuni	-12386
▁bancare	-12387
▁sexuală	-12388
economice	-12389
▁multiple	-12390
▁promovare	-12391
▁sfârșitul	-12392
▁graniţelor	-12393
▁stabileşte	-12394
▁Internaţionale	-12395
▁Vuj	-12396
▁massac	-12397
▁multin	-12398
▁critici	-12399
▁farming	-12400
▁manipul	-12401
▁integral	-12402
▁atacurile	-12403
▁lucrările	-12404
▁transatlantic	-12405
▁instrumentelor	-12406
let	-12407
pse	-12408
entr	-12409
▁Kla	-12410
▁pret	-12411
▁Dunării	-12412
▁command	-12413
▁disappe	-12414
▁organise	-12415
▁indispens	-12416
▁favourable	-12417
▁finalizarea	-12418
▁Commissioners	-12419
pool	-12420
uate	-12421
▁HDZ	-12422
anied	-12423
▁imens	-12424
▁vizit	-12425
▁Şeful	-12426
▁şanse	-12427
▁widely	-12428
▁Poliţia	-12429
▁ambelor	-12430
▁pretext	-12431
▁Orthodox	-12432
▁airlines	-12433
▁ambition	-12434
▁educaţia	-12435
▁irlandez	-12436
▁proteste	-12437
ampionship	-12438
▁importanţi	-12439
▁potenţialul	-12440
AR	-12441
tii	-12442
icii	-12443
itch	-12444
▁aveţi	-12445
▁impar	-12446
▁Protec	-12447
▁reperc	-12448
▁votare	-12449
sitional	-12450
▁istorie	-12451
▁removed	-12452
▁streets	-12453
▁weekend	-12454
▁Confeder	-12455
▁încrederii	-12456
▁Š	-12457
/08;	-12458
▁tac	-12459
oniei	-12460
arding	-12461
imbabwe	-12462
▁sediul	-12463
▁Tourism	-12464
▁abordat	-12465
▁folosim	-12466
▁lactate	-12467
tivitatea	-12468
▁acţionăm	-12469
▁Declaraţii	-12470
▁exceptional	-12471
OS	-12472
ense	-12473
hard	-12474
▁boy	-12475
▁arăta	-12476
▁hotel	-12477
▁votez	-12478
▁losing	-12479
▁puterii	-12480
▁Document	-12481
▁Ț	-12482
▁65	-12483
▁Ay	-12484
/09;	-12485
▁Laz	-12486
chete	-12487
▁agend	-12488
▁pilon	-12489
▁Comerţ	-12490
▁intens	-12491
▁mother	-12492
▁contrast	-12493
▁Transparen	-12494
▁echilibrat	-12495
▁înţelegere	-12496
Rus	-12497
▁Pal	-12498
▁defe	-12499
▁game	-12500
▁deces	-12501
▁swift	-12502
▁salută	-12503
▁istorice	-12504
▁Slovenian	-12505
▁jumătatea	-12506
▁concurenţă	-12507
▁experienţa	-12508
▁alternativi	-12509
mod	-12510
▁46	-12511
bust	-12512
heze	-12513
oski	-12514
▁Lea	-12515
stadt	-12516
▁vite	-12517
▁apăra	-12518
▁epidem	-12519
▁Science	-12520
▁affects	-12521
▁collect	-12522
▁dezvălu	-12523
▁drafted	-12524
▁healthy	-12525
▁poziție	-12526
▁recentă	-12527
▁sending	-12528
▁falsific	-12529
▁turismul	-12530
▁caracteri	-12531
▁menţionează	-12532
▁radioactive	-12533
argă	-12534
▁Cer	-12535
▁ira	-12536
▁considers	-12537
▁refugiaţi	-12538
▁destruction	-12539
▁undertaking	-12540
40	-12541
▁nep	-12542
ricii	-12543
▁Milo	-12544
iecare	-12545
▁Adria	-12546
▁Bloom	-12547
▁devin	-12548
▁drugs	-12549
▁tripar	-12550
▁dezbatem	-12551
▁district	-12552
▁neoliber	-12553
▁nevoilor	-12554
▁prevăzut	-12555
▁americane	-12556
▁Institutul	-12557
▁undertaken	-12558
▁refugiaţilor	-12559
▁reglementările	-12560
▁Câ	-12561
imaj	-12562
tape	-12563
▁Ear	-12564
▁pies	-12565
anseze	-12566
▁Siria	-12567
tisment	-12568
▁transl	-12569
▁parţial	-12570
▁corupţia	-12571
▁credible	-12572
▁discuție	-12573
▁economis	-12574
▁evaluări	-12575
▁Education	-12576
▁datorează	-12577
▁extending	-12578
▁alegătorii	-12579
▁stimulente	-12580
▁Organizaţia	-12581
▁concentrează	-12582
MNE	-12583
▁42	-12584
ourg	-12585
rica	-12586
▁Bur	-12587
▁dese	-12588
▁hran	-12589
existen	-12590
▁doubts	-12591
entially	-12592
▁distinc	-12593
▁tragedy	-12594
▁închise	-12595
▁Zimbabwe	-12596
▁îndreaptă	-12597
▁combaterii	-12598
▁undoubtedly	-12599
▁declaraţiile	-12600
WIFT	-12601
▁voc	-12602
odina	-12603
▁2050	-12604
necess	-12605
▁rejec	-12606
▁tough	-12607
▁absorb	-12608
▁consor	-12609
▁aplicat	-12610
▁privată	-12611
▁arestare	-12612
▁frecvent	-12613
▁personnel	-12614
gub	-12615
▁eș	-12616
look	-12617
▁veto	-12618
▁deals	-12619
▁dovedi	-12620
etheless	-12621
▁1992-199	-12622
▁resource	-12623
▁conflicte	-12624
▁pierderea	-12625
▁consecință	-12626
▁modernisation	-12627
▁43	-12628
▁sad	-12629
▁reaf	-12630
▁Dublin	-12631
▁reamin	-12632
▁Borisov	-12633
▁sharing	-12634
▁Centrale	-12635
▁maghiară	-12636
▁preserve	-12637
▁graniţele	-12638
▁capacitate	-12639
▁macedoneni	-12640
▁declarations	-12641
▁îmbunătăţească	-12642
izăm	-12643
what	-12644
▁Bos	-12645
aties	-12646
▁Davut	-12647
▁sales	-12648
▁Rugova	-12649
▁Război	-12650
▁causing	-12651
▁Apărării	-12652
▁acuzaţii	-12653
▁treaties	-12654
▁contained	-12655
▁reducerii	-12656
▁întregime	-12657
▁legitimacy	-12658
▁preventive	-12659
▁armonizarea	-12660
▁intensificarea	-12661
ira	-12662
oti	-12663
sch	-12664
▁râ	-12665
▁(12	-12666
eljko	-12667
▁Plus	-12668
▁ușor	-12669
▁Clint	-12670
▁chair	-12671
▁demar	-12672
▁units	-12673
▁aminte	-12674
▁situat	-12675
▁suspic	-12676
▁aceeași	-12677
▁marking	-12678
▁expensive	-12679
▁intensifice	-12680
▁collaboration	-12681
▁ali	-12682
▁dee	-12683
▁Four	-12684
aților	-12685
▁resum	-12686
▁couple	-12687
▁refuză	-12688
▁Moscova	-12689
▁aferent	-12690
▁numirea	-12691
▁seekers	-12692
▁marketing	-12693
▁întârziere	-12694
▁appointment	-12695
▁comisarului	-12696
▁industrială	-12697
do	-12698
law	-12699
oon	-12700
▁Dub	-12701
▁ucid	-12702
▁deplas	-12703
▁inegal	-12704
▁robust	-12705
▁strâns	-12706
▁absence	-12707
▁zonelor	-12708
▁primului	-12709
▁intermedi	-12710
▁eventually	-12711
▁pacienţilor	-12712
uare	-12713
▁Net	-12714
DPMNE	-12715
▁inade	-12716
▁rezid	-12717
▁touch	-12718
▁freely	-12719
▁invited	-12720
▁agenţiei	-12721
▁infringe	-12722
▁operator	-12723
▁răspândi	-12724
▁simplify	-12725
▁spaniolă	-12726
▁electrică	-12727
▁instability	-12728
▁insufficient	-12729
din	-12730
anez	-12731
book	-12732
sivă	-12733
▁Taj	-12734
stood	-12735
uries	-12736
▁etape	-12737
▁spună	-12738
▁Labour	-12739
▁waters	-12740
▁acuzaţi	-12741
▁gazelor	-12742
▁accentul	-12743
▁permitem	-12744
▁Portugues	-12745
▁appointed	-12746
▁sănătății	-12747
▁împotrivă	-12748
▁încălcări	-12749
▁maintained	-12750
rip	-12751
▁38	-12752
post	-12753
▁2000,	-12754
▁Turkmen	-12755
▁comerțul	-12756
▁cazurilor	-12757
▁Investiţii	-12758
▁asistenţei	-12759
▁guvernanță	-12760
▁Independent	-12761
▁citizenship	-12762
yet	-12763
▁(7	-12764
etting	-12765
▁moved	-12766
▁tarif	-12767
▁deeply	-12768
▁female	-12769
▁relans	-12770
▁proprie	-12771
▁turning	-12772
lementeze	-12773
▁interzis	-12774
▁mijlocul	-12775
▁pregătite	-12776
▁societății	-12777
▁(9	-12778
▁Ni	-12779
▁Ple	-12780
▁San	-12781
▁bus	-12782
▁izb	-12783
ţiona	-12784
▁Bler	-12785
▁frum	-12786
▁deaths	-12787
▁amended	-12788
▁consent	-12789
▁lasting	-12790
▁unitate	-12791
▁capabilă	-12792
▁pedeapsa	-12793
▁tubercul	-12794
▁urmăreşte	-12795
ID	-12796
voc	-12797
ICTY	-12798
cele	-12799
▁cau	-12800
▁glad	-12801
▁Ţara	-12802
▁șase	-12803
▁Fostul	-12804
▁Mostar	-12805
▁bugete	-12806
▁Current	-12807
▁aparţin	-12808
▁volatil	-12809
▁salaries	-12810
▁afacerile	-12811
▁societies	-12812
▁protecţion	-12813
▁consolidată	-12814
▁importurile	-12815
iam	-12816
istul	-12817
▁medal	-12818
▁actors	-12819
▁agenţii	-12820
▁crimele	-12821
▁reporting	-12822
▁comentarii	-12823
▁constitute	-12824
▁beneficiile	-12825
▁privatizare	-12826
▁prezidenţiale	-12827
IP	-12828
enna	-12829
▁neo	-12830
osure	-12831
▁buna	-12832
▁Deleg	-12833
▁penale	-12834
▁transn	-12835
▁poziţii	-12836
▁rezolve	-12837
▁tension	-12838
▁Pactului	-12839
▁features	-12840
▁ratified	-12841
▁cuvintele	-12842
▁respectării	-12843
ae	-12844
eku	-12845
▁5,	-12846
ţită	-12847
▁squ	-12848
apers	-12849
ectare	-12850
▁marea	-12851
▁marks	-12852
▁spons	-12853
▁perpet	-12854
▁frecven	-12855
▁fiecărei	-12856
▁precizat	-12857
▁Comitetul	-12858
▁Davutoglu	-12859
▁reflected	-12860
noc	-12861
▁5%	-12862
count	-12863
oring	-12864
▁Aici	-12865
▁race	-12866
urător	-12867
▁SWIFT	-12868
▁escal	-12869
▁proof	-12870
▁votăm	-12871
▁Dinkic	-12872
▁Mexico	-12873
▁luptei	-12874
▁ridica	-12875
▁secolul	-12876
▁patrulea	-12877
▁mandatory	-12878
▁pregătire	-12879
An	-12880
tal	-12881
atal	-12882
▁Pros	-12883
▁Putin	-12884
▁brutal	-12885
▁concret	-12886
▁student	-12887
▁cererile	-12888
▁debating	-12889
▁prospect	-12890
▁worrying	-12891
▁destroyed	-12892
▁conferinţa	-12893
▁Organizației	-12894
▁documentelor	-12895
▁8.	-12896
seşte	-12897
▁Here	-12898
▁Left	-12899
▁Year	-12900
sified	-12901
▁concil	-12902
▁delays	-12903
▁larger	-12904
▁legile	-12905
▁milion	-12906
▁Oamenii	-12907
▁irregul	-12908
▁possibly	-12909
▁privitor	-12910
▁intensive	-12911
▁maternity	-12912
▁repeatedly	-12913
▁Dus	-12914
▁judg	-12915
tările	-12916
▁Crăci	-12917
prezece	-12918
▁greacă	-12919
▁season	-12920
▁visits	-12921
▁verdict	-12922
▁graniţei	-12923
▁intenţia	-12924
▁restabil	-12925
▁whatever	-12926
▁adevărată	-12927
▁background	-12928
▁dispoziție	-12929
▁invitation	-12930
▁Pad	-12931
▁SIS	-12932
▁Vas	-12933
anual	-12934
▁simt	-12935
▁wage	-12936
▁migran	-12937
▁amelior	-12938
▁indiviz	-12939
▁sporite	-12940
▁drafting	-12941
▁unnecess	-12942
▁Josipovic	-12943
▁Portuguese	-12944
▁acţiunilor	-12945
hnic	-12946
inse	-12947
lish	-12948
reci	-12949
uleze	-12950
lected	-12951
▁Lanka	-12952
▁grijă	-12953
▁custom	-12954
▁impuls	-12955
▁rețele	-12956
▁câştiga	-12957
▁deserve	-12958
▁oferind	-12959
▁imported	-12960
▁occasion	-12961
▁realizăm	-12962
▁extinderii	-12963
▁highlights	-12964
▁Comitetului	-12965
▁principalii	-12966
▁veniturilor	-12967
▁regenerabilă	-12968
aca	-12969
arb	-12970
hne	-12971
▁sume	-12972
umărul	-12973
▁Carla	-12974
▁estic	-12975
▁calend	-12976
▁limitat	-12977
▁moderne	-12978
▁Olympics	-12979
▁afectată	-12980
▁ambiţios	-12981
▁redundant	-12982
▁echipamente	-12983
▁frontierele	-12984
▁încurajarea	-12985
eu	-12986
▁Aţi	-12987
▁Nea	-12988
▁wai	-12989
urity	-12990
vinov	-12991
▁incer	-12992
▁consci	-12993
▁slight	-12994
▁aştepta	-12995
▁intense	-12996
▁singure	-12997
▁întâlni	-12998
▁despăgub	-12999
▁profesor	-13000
▁passenger	-13001
▁supervisory	-13002
▁comunităţilor	-13003
▁FEG	-13004
▁înl	-13005
▁ACTA	-13006
▁Jurn	-13007
▁grat	-13008
ologie	-13009
▁Carte	-13010
▁Cerce	-13011
▁story	-13012
ierilor	-13013
▁extrac	-13014
▁metodă	-13015
▁retros	-13016
▁spaţiu	-13017
▁feeling	-13018
▁indicted	-13019
▁returned	-13020
▁subliniem	-13021
▁indictment	-13022
jik	-13023
test	-13024
▁bul	-13025
ideţi	-13026
▁Alte	-13027
▁viața	-13028
▁extins	-13029
▁legilor	-13030
▁negocia	-13031
▁relates	-13032
▁welcomes	-13033
▁Mediapool	-13034
▁comandant	-13035
▁nerăbdare	-13036
▁comerțului	-13037
▁nevertheless	-13038
pass	-13039
▁sor	-13040
▁evac	-13041
▁Split	-13042
▁spring	-13043
▁faliment	-13044
▁inovării	-13045
▁continuat	-13046
▁implicare	-13047
▁appreciate	-13048
▁salariilor	-13049
▁organizaţiilor	-13050
RT	-13051
enty	-13052
resh	-13053
skovic	-13054
▁newly	-13055
▁signs	-13056
▁Soviet	-13057
▁asumat	-13058
▁formed	-13059
▁starea	-13060
▁dispari	-13061
▁termenul	-13062
▁elementele	-13063
▁populations	-13064
▁acknowledged	-13065
▁Coh	-13066
▁Jel	-13067
▁seră	-13068
▁tema	-13069
▁Found	-13070
▁texts	-13071
cedented	-13072
▁obliged	-13073
▁urmărit	-13074
▁abordate	-13075
▁friendly	-13076
▁remained	-13077
▁automatic	-13078
▁consolidat	-13079
▁impression	-13080
▁demographic	-13081
▁transferred	-13082
▁willingness	-13083
aid	-13084
▁Că	-13085
rime	-13086
▁Boj	-13087
▁PAS	-13088
ordan	-13089
sight	-13090
▁roads	-13091
▁upgra	-13092
▁lumina	-13093
▁utmost	-13094
▁Crăciun	-13095
▁menţină	-13096
▁şedinţe	-13097
▁descentr	-13098
▁hospital	-13099
▁dictators	-13100
▁employers	-13101
▁provincie	-13102
▁caracteriz	-13103
▁agricultorii	-13104
▁fum	-13105
▁gră	-13106
▁ung	-13107
▁Stud	-13108
▁deop	-13109
▁cofin	-13110
▁logic	-13111
Aceasta	-13112
▁Iranul	-13113
▁contem	-13114
▁datori	-13115
▁deepen	-13116
▁voteze	-13117
▁Clinton	-13118
▁Contact	-13119
▁implica	-13120
▁taxelor	-13121
▁revenues	-13122
▁certainty	-13123
▁favorabil	-13124
▁lawmakers	-13125
▁Administra	-13126
▁competences	-13127
▁internationally	-13128
▁Pă	-13129
▁CNN	-13130
▁Fuk	-13131
▁Cioc	-13132
▁oară	-13133
▁vess	-13134
▁PASOK	-13135
▁îndră	-13136
▁Latvia	-13137
▁Vienna	-13138
▁Journal	-13139
▁producție	-13140
▁competitivă	-13141
ún	-13142
oşi	-13143
back	-13144
▁Nig	-13145
▁Ros	-13146
osebi	-13147
▁aflu	-13148
▁emig	-13149
▁Kosov	-13150
▁firme	-13151
▁lăsat	-13152
▁ajutat	-13153
▁apreci	-13154
▁inside	-13155
alestini	-13156
▁founded	-13157
▁collapse	-13158
▁allegedly	-13159
▁locuitori	-13160
▁substance	-13161
▁constructivă	-13162
▁Ug	-13163
kets	-13164
▁Vol	-13165
▁vreo	-13166
alişti	-13167
▁frust	-13168
▁reass	-13169
ducerea	-13170
▁armată	-13171
▁finale	-13172
▁predec	-13173
▁station	-13174
▁tourist	-13175
▁aspectul	-13176
▁deficits	-13177
▁descuraj	-13178
▁disputes	-13179
▁entering	-13180
▁immunity	-13181
▁Draskovic	-13182
▁communist	-13183
▁confident	-13184
▁societăţi	-13185
▁tratatului	-13186
▁controlului	-13187
▁tratamentul	-13188
alls	-13189
oaie	-13190
zare	-13191
▁şco	-13192
ength	-13193
unted	-13194
▁entuz	-13195
▁flows	-13196
▁încad	-13197
▁Barrot	-13198
▁Recent	-13199
▁distin	-13200
▁English	-13201
▁amongst	-13202
▁numelui	-13203
▁definiti	-13204
▁militari	-13205
▁profundă	-13206
▁bunurilor	-13207
▁clădirilor	-13208
▁percentage	-13209
▁regrettable	-13210
pere	-13211
▁Yes	-13212
▁chim	-13213
ushima	-13214
▁advis	-13215
operate	-13216
▁shares	-13217
▁solidă	-13218
▁Economy	-13219
▁articol	-13220
▁familia	-13221
▁inspect	-13222
▁refugee	-13223
▁capitala	-13224
▁financed	-13225
▁obligaţi	-13226
▁întâmple	-13227
▁complaints	-13228
▁cotidianul	-13229
▁suplimentar	-13230
▁încurajează	-13231
UN	-13232
enia	-13233
▁art	-13234
justi	-13235
▁Jaap	-13236
▁wine	-13237
cinate	-13238
▁assass	-13239
▁greenh	-13240
▁sporit	-13241
▁comisii	-13242
▁destina	-13243
▁explică	-13244
▁susţină	-13245
▁categorii	-13246
▁Turkmenistan	-13247
▁participated	-13248
▁unprecedented	-13249
TE	-13250
/10;	-13251
▁Ljub	-13252
▁cast	-13253
person	-13254
▁aside	-13255
▁judge	-13256
ogether	-13257
▁deseori	-13258
▁pierderi	-13259
▁solicite	-13260
▁transmit	-13261
▁perioadei	-13262
▁scrisoare	-13263
▁restrictive	-13264
ès	-13265
▁-,	-13266
▁wages	-13267
▁Mehmet	-13268
▁acţiunea	-13269
▁assembly	-13270
▁clasific	-13271
▁redresarea	-13272
▁transforma	-13273
▁întregului	-13274
▁prezentarea	-13275
▁îmbunătăţit	-13276
▁suveranitatea	-13277
DC	-13278
iner	-13279
amped	-13280
▁hung	-13281
▁vadă	-13282
▁About	-13283
▁Appro	-13284
▁Small	-13285
▁deceni	-13286
▁simult	-13287
▁terori	-13288
▁voinţa	-13289
▁ilegali	-13290
▁praised	-13291
▁obstacle	-13292
▁restrict	-13293
▁Alexander	-13294
▁retrospec	-13295
▁încântată	-13296
▁accompanied	-13297
▁echilibrată	-13298
▁mecanismele	-13299
▁reprezentând	-13300
▁manufacturers	-13301
ancy	-13302
usal	-13303
▁Adop	-13304
▁SFOR	-13305
▁vară	-13306
▁Colle	-13307
▁cifre	-13308
▁lupte	-13309
▁march	-13310
▁covers	-13311
▁meargă	-13312
▁predic	-13313
▁envision	-13314
▁software	-13315
▁decentral	-13316
▁elaboreze	-13317
▁multianual	-13318
▁purtătorul	-13319
▁Serviciului	-13320
▁convingerea	-13321
▁presentation	-13322
lock	-13323
▁avi	-13324
▁dăună	-13325
▁score	-13326
▁engine	-13327
▁weaken	-13328
quarters	-13329
▁formată	-13330
▁reafirm	-13331
▁trebuia	-13332
▁capitole	-13333
▁somewhat	-13334
▁influenţă	-13335
▁inițiativa	-13336
▁investigate	-13337
tra	-13338
▁Iar	-13339
Laura	-13340
tures	-13341
▁Move	-13342
▁ucis	-13343
▁Musta	-13344
▁Numai	-13345
▁şcoli	-13346
▁Daniel	-13347
▁Olanda	-13348
▁propag	-13349
▁clarify	-13350
▁extinsă	-13351
▁sarcini	-13352
▁Progress	-13353
▁arestaţi	-13354
▁consumul	-13355
▁Christmas	-13356
▁candidaţi	-13357
▁inculpaţi	-13358
▁occasions	-13359
▁susţinută	-13360
▁securității	-13361
▁întreprinse	-13362
aș	-13363
ato	-13364
omir	-13365
otas	-13366
stal	-13367
▁psi	-13368
ariat	-13369
utate	-13370
▁linii	-13371
▁trate	-13372
▁primii	-13373
▁Azerbai	-13374
▁offices	-13375
▁garanţii	-13376
▁qualific	-13377
▁încheiate	-13378
▁university	-13379
▁disponibiliz	-13380
TP	-13381
adi	-13382
like	-13383
known	-13384
▁Vorb	-13385
▁eyes	-13386
▁vice	-13387
▁emisă	-13388
▁piece	-13389
▁ameste	-13390
▁sondaj	-13391
▁exprimă	-13392
▁privesc	-13393
▁impresia	-13394
▁investing	-13395
▁naturally	-13396
▁anterioară	-13397
▁autoritate	-13398
▁earthquake	-13399
▁greenhouse	-13400
▁Comunităţii	-13401
▁extraordinary	-13402
▁Iz	-13403
akis	-13404
ugen	-13405
şten	-13406
▁apei	-13407
▁creș	-13408
▁stic	-13409
recast	-13410
▁clauz	-13411
▁nemul	-13412
▁troub	-13413
▁ţinut	-13414
▁Valent	-13415
▁imaginea	-13416
▁secondly	-13417
▁respectat	-13418
▁permanentă	-13419
cred	-13420
mele	-13421
ocam	-13422
▁Verh	-13423
▁calm	-13424
▁metri	-13425
▁vigil	-13426
Macedon	-13427
▁organe	-13428
▁pragul	-13429
▁revised	-13430
▁excepţia	-13431
▁protejate	-13432
▁îndeosebi	-13433
▁comunitate	-13434
▁journalist	-13435
▁practicile	-13436
▁prețurilor	-13437
▁modificările	-13438
▁discriminarea	-13439
DI	-13440
tig	-13441
uim	-13442
▁(15	-13443
▁Rem	-13444
olved	-13445
▁Tari	-13446
▁dura	-13447
▁pure	-13448
▁ocupe	-13449
reshold	-13450
▁Greeks	-13451
▁Region	-13452
▁proviz	-13453
▁vieții	-13454
▁sexuale	-13455
▁călători	-13456
▁inovarea	-13457
▁physical	-13458
▁Fukushima	-13459
▁Națiunilor	-13460
▁egalităţii	-13461
0,	-13462
25	-13463
],	-13464
ey	-13465
son	-13466
şel	-13467
▁Aj	-13468
iasm	-13469
▁(18	-13470
▁194	-13471
▁Atât	-13472
▁alin	-13473
▁gath	-13474
▁scri	-13475
▁Alber	-13476
▁colon	-13477
▁prăbu	-13478
ţionată	-13479
▁autost	-13480
▁chapter	-13481
▁coordin	-13482
atlantice	-13483
▁focusing	-13484
▁superior	-13485
▁vorbitor	-13486
▁protestat	-13487
▁undermine	-13488
▁speculative	-13489
▁propunerilor	-13490
Pro	-13491
Cred	-13492
grad	-13493
mail	-13494
▁1,5	-13495
ateri	-13496
itând	-13497
▁Ceku	-13498
▁subs	-13499
▁izbuc	-13500
enţilor	-13501
▁aderat	-13502
▁greşit	-13503
▁treacă	-13504
▁Armenia	-13505
▁Interne	-13506
▁conducă	-13507
▁incredi	-13508
▁bankrupt	-13509
▁hotărâre	-13510
▁indicate	-13511
▁kosovare	-13512
▁Employment	-13513
▁mecanismul	-13514
▁investigations	-13515
▁25%	-13516
▁Wel	-13517
ovska	-13518
▁Deuts	-13519
▁meets	-13520
▁Așadar	-13521
▁Raport	-13522
▁checks	-13523
▁costis	-13524
▁Ciocoiu	-13525
▁directed	-13526
▁remarcat	-13527
▁voturilor	-13528
▁understood	-13529
arh	-13530
▁Fi	-13531
ship	-13532
▁Non	-13533
▁Sur	-13534
▁Merc	-13535
▁Kosor	-13536
▁Where	-13537
▁facto	-13538
▁tells	-13539
▁dobânz	-13540
▁houses	-13541
▁rescue	-13542
▁broader	-13543
▁jointly	-13544
▁picture	-13545
▁Services	-13546
▁combined	-13547
▁invested	-13548
▁limitate	-13549
▁Fisheries	-13550
▁condemned	-13551
▁efectelor	-13552
▁suspected	-13553
▁consolidării	-13554
▁transparente	-13555
umi	-13556
▁Bis	-13557
▁Lie	-13558
▁coin	-13559
▁dram	-13560
▁forţe	-13561
▁items	-13562
▁rapidly	-13563
▁Aleksand	-13564
▁diplomat	-13565
▁Vujanovic	-13566
▁accidents	-13567
▁acuzaţiile	-13568
▁foundation	-13569
▁efficiently	-13570
▁(21	-13571
titul	-13572
▁Mark	-13573
▁belg	-13574
▁clash	-13575
▁supus	-13576
▁Săptăm	-13577
building	-13578
▁atmosfer	-13579
▁covering	-13580
▁ecologic	-13581
▁managing	-13582
▁pasageri	-13583
▁ambitions	-13584
▁interzice	-13585
▁necessity	-13586
▁datoriilor	-13587
▁macedonene	-13588
▁rezoluției	-13589
▁sufficiently	-13590
▁3%	-13591
zuel	-13592
▁hol	-13593
▁mem	-13594
▁cifră	-13595
▁phone	-13596
▁retire	-13597
▁Because	-13598
▁numărat	-13599
▁torture	-13600
▁alocarea	-13601
▁Cetăţenii	-13602
▁readiness	-13603
▁salariile	-13604
▁cuprinzător	-13605
▁transitional	-13606
▁îngrijorătoare	-13607
atia	-13608
prof	-13609
raid	-13610
▁149)	-13611
▁ramb	-13612
▁Viena	-13613
▁music	-13614
ecision	-13615
▁Latină	-13616
▁denied	-13617
▁pericl	-13618
▁păstra	-13619
atlantică	-13620
▁category	-13621
▁humanity	-13622
▁weakness	-13623
▁criminale	-13624
▁prevederi	-13625
▁respectăm	-13626
▁deșeurilor	-13627
▁desfăşurare	-13628
▁potentially	-13629
▁macroeconomic	-13630
▁communications	-13631
▁irregularities	-13632
▁Ki	-13633
onic	-13634
turn	-13635
▁Ves	-13636
▁rug	-13637
▁sho	-13638
▁Like	-13639
▁Micro	-13640
▁Muham	-13641
▁helps	-13642
comings	-13643
▁invite	-13644
▁suspen	-13645
▁Numărul	-13646
▁urgency	-13647
▁afirmând	-13648
▁monetară	-13649
▁sensible	-13650
▁competenţe	-13651
▁experiment	-13652
▁consecințele	-13653
▁preparations	-13654
Ex	-13655
arta	-13656
▁Rex	-13657
▁hum	-13658
▁miș	-13659
▁sake	-13660
▁părăs	-13661
opoliti	-13662
osition	-13663
ressing	-13664
▁afraid	-13665
▁timely	-13666
▁trecem	-13667
chiderea	-13668
▁acuzare	-13669
▁purtate	-13670
▁strânse	-13671
▁folosită	-13672
▁operează	-13673
▁muntenegrean	-13674
UI	-13675
asi	-13676
ians	-13677
▁Ştim	-13678
▁argue	-13679
▁smugg	-13680
▁Ivanov	-13681
▁Reding	-13682
▁plătit	-13683
▁urmeze	-13684
▁analyst	-13685
▁locului	-13686
▁locuiesc	-13687
▁îmbătrân	-13688
productive	-13689
▁threshold	-13690
▁achievements	-13691
▁parlamentele	-13692
▁(17	-13693
▁gata	-13694
▁ţină	-13695
▁Angel	-13696
▁Croat	-13697
▁envis	-13698
▁dolari	-13699
▁dispune	-13700
▁interac	-13701
▁killing	-13702
▁sunteţi	-13703
▁Adriatic	-13704
▁Speaking	-13705
▁vânzarea	-13706
▁discutate	-13707
▁productive	-13708
▁conflictele	-13709
▁uncertainty	-13710
▁shortcomings	-13711
▁vicepreşedinte	-13712
istri	-13713
▁Mand	-13714
▁Ibrah	-13715
▁perce	-13716
▁length	-13717
▁patent	-13718
▁vitală	-13719
▁începem	-13720
▁feroviar	-13721
▁incidente	-13722
▁applicable	-13723
▁coordinate	-13724
▁Președinția	-13725
▁bureaucratic	-13726
Sch	-13727
/03;	-13728
▁195	-13729
asion	-13730
▁boli	-13731
▁atent	-13732
▁surpl	-13733
cession	-13734
▁Libyan	-13735
▁cultiv	-13736
▁Muslims	-13737
▁relaţia	-13738
▁dezastre	-13739
▁tangible	-13740
▁activități	-13741
▁guvernanța	-13742
▁organizeze	-13743
▁environmentally	-13744
Com	-13745
iles	-13746
oric	-13747
▁pir	-13748
▁inef	-13749
▁rota	-13750
▁stâr	-13751
▁veți	-13752
▁Recon	-13753
▁limbă	-13754
▁airport	-13755
▁claimed	-13756
▁reacţie	-13757
▁Northern	-13758
▁reuniuni	-13759
▁atitudinea	-13760
▁creditelor	-13761
fra	-13762
zeci	-13763
Activ	-13764
▁Deci	-13765
ighten	-13766
▁Bakoy	-13767
poziţia	-13768
▁aștept	-13769
▁solely	-13770
▁compete	-13771
▁insulei	-13772
▁newspaper	-13773
▁ownership	-13774
▁Cooperarea	-13775
▁personalul	-13776
▁processing	-13777
▁întrebării	-13778
▁delegations	-13779
▁competitivitate	-13780
cia	-13781
atru	-13782
olas	-13783
▁(28	-13784
▁Post	-13785
▁Well	-13786
▁artis	-13787
▁ascul	-13788
oniului	-13789
▁fairly	-13790
▁primăv	-13791
▁Fiecare	-13792
▁naştere	-13793
▁separat	-13794
▁website	-13795
▁limitată	-13796
▁respects	-13797
▁threaten	-13798
▁ştirilor	-13799
▁detriment	-13800
▁dezavantaj	-13801
▁echilibrul	-13802
▁terrorists	-13803
▁map	-13804
▁impus	-13805
▁trigg	-13806
▁Blerta	-13807
▁republ	-13808
▁întrun	-13809
▁Croația	-13810
▁artists	-13811
▁blocked	-13812
▁actualei	-13813
▁asigurat	-13814
▁campania	-13815
▁initially	-13816
▁Foundation	-13817
▁deschidere	-13818
▁pachetului	-13819
AKP	-13820
allel	-13821
▁haven	-13822
▁spite	-13823
▁însăr	-13824
▁dismis	-13825
▁marile	-13826
▁topics	-13827
▁viable	-13828
▁procese	-13829
▁regimes	-13830
▁gathered	-13831
▁visitors	-13832
▁Neighbour	-13833
▁populația	-13834
▁utilizată	-13835
▁întrebările	-13836
▁agricultorilor	-13837
▁Fe	-13838
arak	-13839
tual	-13840
▁(23	-13841
▁înv	-13842
/2008	-13843
▁căld	-13844
▁Paddy	-13845
▁linie	-13846
▁repet	-13847
▁privim	-13848
▁urging	-13849
ervative	-13850
▁Haradin	-13851
▁clădiri	-13852
▁miliard	-13853
▁soluţia	-13854
▁amintesc	-13855
▁Centrului	-13856
▁producția	-13857
▁assessments	-13858
▁instituţionale	-13859
kt	-13860
ipa	-13861
athy	-13862
▁PSD	-13863
▁umb	-13864
▁Adun	-13865
▁Viol	-13866
▁crima	-13867
▁kinds	-13868
▁banilor	-13869
▁portugh	-13870
▁privacy	-13871
▁annually	-13872
▁repetate	-13873
▁fishermen	-13874
▁convention	-13875
▁maternitate	-13876
iţând	-13877
phere	-13878
▁kurd	-13879
▁Nicos	-13880
▁Press	-13881
▁itali	-13882
▁antren	-13883
▁modele	-13884
▁bulgare	-13885
▁conduse	-13886
▁suedeză	-13887
▁scăderea	-13888
▁vreodată	-13889
▁Conferinţa	-13890
▁accessible	-13891
Arh	-13892
ieri	-13893
▁(11	-13894
ranch	-13895
▁agra	-13896
politi	-13897
uanian	-13898
▁indig	-13899
▁ratei	-13900
▁seara	-13901
Creştin	-13902
▁Marina	-13903
▁finish	-13904
▁retail	-13905
▁closing	-13906
▁forests	-13907
▁sursele	-13908
▁contacts	-13909
▁foremost	-13910
▁istorică	-13911
▁presupus	-13912
▁reflects	-13913
▁americani	-13914
▁supporters	-13915
▁determinarea	-13916
▁organizaţiei	-13917
▁înconjurător	-13918
urul	-13919
▁fif	-13920
▁Foni	-13921
▁forg	-13922
▁Count	-13923
▁Iraqi	-13924
▁backed	-13925
▁headed	-13926
▁inutil	-13927
▁talked	-13928
▁declanş	-13929
▁exclude	-13930
▁kilomet	-13931
▁persecu	-13932
▁experţii	-13933
▁architect	-13934
▁autorităţi	-13935
▁concurenţa	-13936
▁mobilitate	-13937
▁organismele	-13938
▁municipality	-13939
▁consultations	-13940
alon	-13941
▁ceară	-13942
▁cinem	-13943
▁nişte	-13944
▁regiz	-13945
▁maximă	-13946
▁Perhaps	-13947
▁înrăută	-13948
▁afectaţi	-13949
▁boosting	-13950
▁accidente	-13951
▁comunicat	-13952
▁finanţării	-13953
▁operaţiuni	-13954
ERD	-13955
▁47	-13956
▁Ti	-13957
▁Ven	-13958
▁Citi	-13959
▁Home	-13960
Arhivă	-13961
tories	-13962
▁Chief	-13963
▁engle	-13964
ilitary	-13965
▁Schimb	-13966
▁explor	-13967
▁reveni	-13968
▁codeciz	-13969
▁preţuri	-13970
▁rezervă	-13971
▁Airlines	-13972
▁advanced	-13973
▁crizelor	-13974
▁copilului	-13975
▁violenței	-13976
▁Discuţiile	-13977
▁încurajeze	-13978
▁exporturile	-13979
▁prosecution	-13980
▁reglementărilor	-13981
bb	-13982
VIT	-13983
▁Na	-13984
▁Koz	-13985
zstan	-13986
▁Ante	-13987
▁Ziua	-13988
▁none	-13989
▁ține	-13990
icarea	-13991
▁scuti	-13992
▁Foniqi	-13993
▁quotas	-13994
▁Cohesion	-13995
▁violenţa	-13996
▁dezvoltat	-13997
▁ratificat	-13998
▁Ms	-13999
▁Gra	-14000
▁Ziv	-14001
▁haz	-14002
▁Rexhe	-14003
▁coach	-14004
▁Ciprul	-14005
▁coastă	-14006
▁prelua	-14007
▁române	-14008
▁creates	-14009
▁treptat	-14010
▁Bakoyann	-14011
▁complexe	-14012
▁computer	-14013
▁tratatul	-14014
▁întreagă	-14015
▁Bloomberg	-14016
▁underline	-14017
▁Luxembourg	-14018
▁aniversare	-14019
▁expressing	-14020
▁constituţie	-14021
▁importantly	-14022
▁îmbunătăţiri	-14023
II	-14024
feld	-14025
inos	-14026
pone	-14027
▁Pav	-14028
istics	-14029
▁Heads	-14030
▁filme	-14031
▁video	-14032
▁bridge	-14033
▁costul	-14034
▁lichid	-14035
▁owners	-14036
ţiunilor	-14037
▁pesticid	-14038
unctioning	-14039
▁imbalances	-14040
▁paşapoarte	-14041
▁participare	-14042
▁Mat	-14043
▁Dator	-14044
▁cease	-14045
▁cited	-14046
▁virus	-14047
ământul	-14048
▁Cancún	-14049
▁reunit	-14050
▁taxele	-14051
▁expense	-14052
▁tranzit	-14053
▁urgente	-14054
tionality	-14055
▁comisari	-14056
▁limitele	-14057
▁reiterat	-14058
▁similară	-14059
▁Rezoluţia	-14060
▁producing	-14061
▁inadequate	-14062
▁propriilor	-14063
▁identificarea	-14064
enni	-14065
zând	-14066
părat	-14067
▁paşi	-14068
▁înlăt	-14069
▁vecină	-14070
▁postpone	-14071
▁riscului	-14072
▁qualified	-14073
▁memorandum	-14074
▁răspundere	-14075
▁agricultori	-14076
▁obiectivului	-14077
acco	-14078
ilia	-14079
isch	-14080
orte	-14081
affirm	-14082
▁Frank	-14083
▁reply	-14084
▁cauzat	-14085
▁bearing	-14086
▁Ivanovic	-14087
▁aplicată	-14088
▁fermitate	-14089
▁geopoliti	-14090
▁hotărârea	-14091
▁Nikolovski	-14092
▁essentially	-14093
▁mobilitatea	-14094
▁partnerships	-14095
▁mân	-14096
orage	-14097
▁blog	-14098
tioned	-14099
▁piețe	-14100
▁decidă	-14101
ocamdată	-14102
▁harmful	-14103
▁absolută	-14104
▁oarecare	-14105
▁replaced	-14106
▁imigranţi	-14107
▁introducă	-14108
▁administrat	-14109
▁intelligence	-14110
▁prioritățile	-14111
For	-14112
▁EB	-14113
▁EFD	-14114
▁fit	-14115
orial	-14116
▁Cond	-14117
▁gamb	-14118
▁opre	-14119
▁Klaus	-14120
▁liqui	-14121
▁train	-14122
▁hoping	-14123
▁mişcare	-14124
▁patient	-14125
▁trupele	-14126
▁întruni	-14127
▁expresie	-14128
lementează	-14129
▁conţinutul	-14130
▁harmonised	-14131
▁unnecessary	-14132
▁îndeplinesc	-14133
dis	-14134
ster	-14135
▁Cad	-14136
tribu	-14137
▁Apoi	-14138
▁declin	-14139
▁descri	-14140
▁fragile	-14141
▁şomajul	-14142
▁Guardian	-14143
▁petrecut	-14144
▁connected	-14145
▁difficulty	-14146
▁discovered	-14147
▁riscurilor	-14148
▁convergence	-14149
▁parlamentari	-14150
▁authorisation	-14151
gen	-14152
veg	-14153
▁ez	-14154
▁TPII	-14155
▁boyc	-14156
▁begun	-14157
▁blame	-14158
▁teamă	-14159
▁distor	-14160
▁femeie	-14161
▁ţinând	-14162
▁obstruc	-14163
▁Irakului	-14164
▁aprobată	-14165
▁predomin	-14166
▁protejăm	-14167
▁Haradinaj	-14168
▁illegally	-14169
▁susţinere	-14170
▁încurajăm	-14171
▁revolution	-14172
▁recunoaştem	-14173
▁inacceptabilă	-14174
15	-14175
▁6,	-14176
aker	-14177
șesc	-14178
▁(10	-14179
OLVIT	-14180
ereze	-14181
▁Echo	-14182
▁bail	-14183
▁oppo	-14184
enţial	-14185
▁Bania	-14186
▁evite	-14187
▁advice	-14188
▁monedă	-14189
▁moşten	-14190
▁ramburs	-14191
▁Campania	-14192
▁Industry	-14193
▁insistat	-14194
▁mountain	-14195
▁purchase	-14196
▁expoziţie	-14197
CR	-14198
bg	-14199
bic	-14200
▁Gy	-14201
/11;	-14202
abled	-14203
ţială	-14204
▁boic	-14205
▁unre	-14206
▁Verhe	-14207
▁movie	-14208
▁poses	-14209
▁Lamped	-14210
▁unions	-14211
▁inhabit	-14212
▁nevinov	-14213
▁bugetele	-14214
▁chapters	-14215
▁massacre	-14216
▁defending	-14217
▁construcţie	-14218
▁raportoarei	-14219
GA	-14220
▁Oz	-14221
▁ol	-14222
ners	-14223
iling	-14224
▁pici	-14225
▁Peter	-14226
▁aflaţi	-14227
▁rutier	-14228
determin	-14229
▁Popescu	-14230
▁codific	-14231
▁coopera	-14232
▁elabora	-14233
▁reaffirm	-14234
▁dezbaterile	-14235
▁oficialilor	-14236
lak	-14237
uci	-14238
giene	-14239
▁ucişi	-14240
▁extrăd	-14241
▁prerog	-14242
▁Radical	-14243
▁flights	-14244
▁heading	-14245
▁stimula	-14246
▁storage	-14247
▁Săptămâna	-14248
▁Verheugen	-14249
▁finalizat	-14250
▁încheiere	-14251
▁intervenţie	-14252
▁numeroasele	-14253
▁appropriations	-14254
ţite	-14255
▁Zap	-14256
place	-14257
▁Rama	-14258
▁recep	-14259
▁Global	-14260
▁apărea	-14261
▁etnică	-14262
▁supusă	-14263
▁Babacan	-14264
▁intitul	-14265
▁propriu	-14266
▁shortly	-14267
▁aprofund	-14268
▁ascultat	-14269
▁Naţionale	-14270
▁umanitară	-14271
▁competenţa	-14272
▁dependence	-14273
▁consolidation	-14274
▁Mot	-14275
erele	-14276
obili	-14277
▁abia	-14278
▁șans	-14279
▁luând	-14280
▁remark	-14281
▁săraci	-14282
▁Several	-14283
▁cutting	-14284
▁railway	-14285
▁correctly	-14286
▁generalul	-14287
▁engagement	-14288
▁preocupări	-14289
▁Transparency	-14290
▁libertăţilor	-14291
▁investitorilor	-14292
MO	-14293
▁Arg	-14294
▁Bay	-14295
acord	-14296
▁știu	-14297
▁accus	-14298
▁afric	-14299
▁aleşi	-14300
▁innoc	-14301
▁plata	-14302
▁spuse	-14303
▁wrote	-14304
▁SOLVIT	-14305
▁banned	-14306
▁routes	-14307
▁select	-14308
▁Supreme	-14309
▁debated	-14310
▁stabilă	-14311
▁farmaceu	-14312
▁suggests	-14313
▁europenii	-14314
▁ministeri	-14315
▁palestini	-14316
▁pensiilor	-14317
▁potențial	-14318
▁întâlnirii	-14319
▁inteligente	-14320
▁professionals	-14321
iș	-14322
luj	-14323
.000	-14324
alli	-14325
enic	-14326
neal	-14327
▁(20	-14328
▁unf	-14329
estea	-14330
▁Church	-14331
▁Iniţia	-14332
▁autumn	-14333
▁curţii	-14334
▁excluz	-14335
▁gather	-14336
▁disputa	-14337
▁Venezuel	-14338
▁impresion	-14339
▁observers	-14340
▁allocation	-14341
▁identitate	-14342
anas	-14343
▁etn	-14344
▁Sand	-14345
▁mach	-14346
▁puts	-14347
▁câtor	-14348
▁ferme	-14349
▁volum	-14350
▁Govern	-14351
▁middle	-14352
▁revine	-14353
▁îndrăz	-14354
▁engaged	-14355
▁capabili	-14356
▁mistakes	-14357
▁promoted	-14358
▁vorbeşte	-14359
▁initiated	-14360
▁realizată	-14361
munications	-14362
▁preocupare	-14363
▁tehnologia	-14364
▁capacităţii	-14365
▁constitutes	-14366
▁facilitating	-14367
▁arc	-14368
▁bron	-14369
▁Board	-14370
▁ships	-14371
▁unite	-14372
▁adoptă	-14373
▁arrests	-14374
▁opposite	-14375
▁parallel	-14376
▁terrible	-14377
▁Lampedusa	-14378
▁deputații	-14379
▁soluţiona	-14380
▁telefonie	-14381
▁consequence	-14382
FTA	-14383
▁(19	-14384
▁Lup	-14385
owned	-14386
▁Kofi	-14387
▁ends	-14388
depend	-14389
▁hence	-14390
▁looks	-14391
▁îngro	-14392
▁sugges	-14393
▁Ibrahim	-14394
▁Through	-14395
▁injured	-14396
▁victorie	-14397
▁agenţiile	-14398
▁entertain	-14399
▁prevented	-14400
▁stabilită	-14401
▁discipline	-14402
▁comentariile	-14403
▁bea	-14404
▁Muze	-14405
▁Makfax	-14406
▁pillar	-14407
▁Rexhepi	-14408
▁armelor	-14409
▁coastal	-14410
▁câtorva	-14411
▁irlande	-14412
▁neapărat	-14413
▁acțiunile	-14414
▁delivered	-14415
▁desfăşura	-14416
▁asigurării	-14417
▁demonstrates	-14418
ogle	-14419
▁(13	-14420
▁(25	-14421
▁Imp	-14422
ancel	-14423
gener	-14424
▁tape	-14425
▁fears	-14426
▁renum	-14427
▁Diplom	-14428
▁climat	-14429
▁floods	-14430
▁gained	-14431
▁finished	-14432
▁intervene	-14433
▁judiciară	-14434
▁înregistrează	-14435
MS	-14436
▁(27	-14437
▁Lip	-14438
▁OHR	-14439
▁SDS	-14440
țeles	-14441
▁2014	-14442
▁Iată	-14443
heolog	-14444
▁fewer	-14445
▁minut	-14446
tically	-14447
▁Mladen	-14448
▁genera	-14449
▁prizon	-14450
▁suprem	-14451
▁alegere	-14452
▁mâinile	-14453
▁neutral	-14454
▁oarecum	-14455
▁opţiune	-14456
▁spunând	-14457
▁turişti	-14458
▁aceleași	-14459
▁gambling	-14460
▁respinge	-14461
▁Currently	-14462
▁colective	-14463
?"	-14464
▁,	-14465
▁Îi	-14466
ilty	-14467
roup	-14468
soft	-14469
▁(22	-14470
▁(29	-14471
▁15%	-14472
erate	-14473
▁Două	-14474
▁wake	-14475
[...]
