<unk>	0
<s>	0
</s>	0
▁t	-0
he	-1
▁a	-2
▁в	-3
in	-4
▁п	-5
ou	-6
re	-7
▁н	-8
▁the	-9
on	-10
ти	-11
▁w	-12
▁s	-13
▁з	-14
ро	-15
er	-16
at	-17
▁с	-18
▁c	-19
▁д	-20
an	-21
▁o	-22
it	-23
is	-24
▁м	-25
ра	-26
▁т	-27
en	-28
▁b	-29
or	-30
ко	-31
но	-32
es	-33
▁f	-34
ст	-35
▁m	-36
▁to	-37
ни	-38
▁p	-39
ва	-40
▁на	-41
▁б	-42
го	-43
ll	-44
▁d	-45
ер	-46
на	-47
ли	-48
▁an	-49
ні	-50
▁по	-51
ing	-52
▁y	-53
▁of	-54
ed	-55
ри	-56
▁in	-57
ть	-58
▁h	-59
▁th	-60
ar	-61
▁you	-62
▁і	-63
ен	-64
ід	-65
le	-66
ль	-67
▁n	-68
▁and	-69
▁не	-70
то	-71
ка	-72
om	-73
ся	-74
во	-75
▁о	-76
ion	-77
▁I	-78
al	-79
ic	-80
▁за	-81
ve	-82
▁я	-83
▁W	-84
що	-85
ла	-86
ня	-87
ки	-88
st	-89
▁ви	-90
▁Y	-91
▁l	-92
▁T	-93
ці	-94
▁до	-95
▁g	-96
ви	-97
▁be	-98
ot	-99
те	-100
▁що	-101
ло	-102
▁у	-103
▁В	-104
мо	-105
▁e	-106
▁You	-107
▁про	-108
та	-109
as	-110
ів	-111
ow	-112
▁re	-113
му	-114
▁ч	-115
▁а	-116
▁мо	-117
▁is	-118
ent	-119
ля	-120
ми	-121
ре	-122
▁-	-123
ві	-124
ку	-125
ди	-126
ct	-127
ма	-128
▁та	-129
et	-130
▁бу	-131
же	-132
ay	-133
▁ко	-134
se	-135
ле	-136
▁on	-137
▁ро	-138
ro	-139
да	-140
ld	-141
▁that	-142
сь	-143
▁u	-144
id	-145
лі	-146
im	-147
по	-148
▁it	-149
▁for	-150
▁ц	-151
рі	-152
ну	-153
ill	-154
▁S	-155
ого	-156
ly	-157
▁ha	-158
▁від	-159
ver	-160
ut	-161
▁he	-162
ере	-163
ig	-164
га	-165
ra	-166
ce	-167
кі	-168
ith	-169
де	-170
ува	-171
▁we	-172
▁A	-173
▁wh	-174
ation	-175
чи	-176
▁П	-177
мі	-178
▁st	-179
не	-180
бо	-181
ch	-182
▁ва	-183
▁Т	-184
лю	-185
▁k	-186
..	-187
ру	-188
▁М	-189
хо	-190
▁are	-191
ння	-192
▁Н	-193
▁The	-194
▁C	-195
if	-196
▁к	-197
▁not	-198
ча	-199
am	-200
ться	-201
іль	-202
▁with	-203
ir	-204
od	-205
...	-206
ення	-207
out	-208
▁при	-209
▁have	-210
▁can	-211
▁your	-212
ur	-213
ши	-214
▁(	-215
▁ма	-216
▁will	-217
ту	-218
ad	-219
▁ne	-220
▁як	-221
би	-222
▁M	-223
▁1	-224
ol	-225
до	-226
▁do	-227
▁Я	-228
сі	-229
ше	-230
за	-231
all	-232
ke	-233
op	-234
ому	-235
ді	-236
▁"	-237
▁те	-238
▁as	-239
▁С	-240
her	-241
nd	-242
▁це	-243
▁Ви	-244
▁Д	-245
▁H	-246
ter	-247
▁ж	-248
il	-249
ста	-250
них	-251
▁this	-252
▁К	-253
▁se	-254
ний	-255
▁con	-256
ant	-257
сто	-258
ess	-259
ht	-260
▁Wh	-261
▁or	-262
▁pro	-263
ду	-264
our	-265
▁me	-266
▁com	-267
▁G	-268
▁de	-269
ould	-270
▁зна	-271
us	-272
ul	-273
▁во	-274
▁P	-275
ate	-276
▁We	-277
▁для	-278
▁U	-279
▁З	-280
ge	-281
▁B	-282
ers	-283
ore	-284
pp	-285
▁ін	-286
▁ві	-287
ri	-288
со	-289
▁роз	-290
▁А	-291
ust	-292
▁2	-293
▁D	-294
▁ф	-295
▁ми	-296
сти	-297
▁може	-298
ight	-299
and	-300
▁sh	-301
▁г	-302
си	-303
nt	-304
▁al	-305
▁е	-306
▁й	-307
ist	-308
ті	-309
ють	-310
▁«	-311
сть	-312
ive	-313
▁Б	-314
▁ex	-315
ck	-316
че	-317
▁wor	-318
▁мі	-319
▁“	-320
пи	-321
▁su	-322
ве	-323
▁r	-324
▁У	-325
est	-326
▁ре	-327
▁N	-328
▁was	-329
▁Th	-330
ble	-331
▁go	-332
▁at	-333
art	-334
па	-335
тися	-336
ment	-337
ба	-338
ного	-339
▁то	-340
rom	-341
▁пере	-342
pe	-343
ort	-344
▁ї	-345
▁E	-346
▁є	-347
▁ба	-348
▁ch	-349
▁all	-350
▁мож	-351
▁kn	-352
▁R	-353
hen	-354
ain	-355
ome	-356
▁лю	-357
сті	-358
від	-359
▁пра	-360
ме	-361
▁le	-362
се	-363
▁L	-364
лу	-365
ity	-366
▁O	-367
▁ра	-368
ор	-369
▁під	-370
▁lo	-371
▁F	-372
▁сво	-373
res	-374
▁know	-375
▁ab	-376
▁ча	-377
увати	-378
▁ста	-379
▁from	-380
су	-381
ву	-382
▁де	-383
▁ти	-384
▁го	-385
▁О	-386
th	-387
пе	-388
os	-389
жа	-390
▁хо	-391
▁j	-392
▁v	-393
раї	-394
▁ні	-395
qu	-396
ies	-397
ine	-398
три	-399
end	-400
▁Ц	-401
▁–	-402
ie	-403
um	-404
▁us	-405
▁буде	-406
▁ка	-407
em	-408
бе	-409
un	-410
єте	-411
кий	-412
▁ш	-413
▁so	-414
ється	-415
▁па	-416
зи	-417
бу	-418
▁об	-419
one	-420
зна	-421
вати	-422
iv	-423
ього	-424
▁х	-425
ally	-426
ect	-427
▁they	-428
very	-429
▁but	-430
тя	-431
ші	-432
ry	-433
el	-434
ci	-435
▁або	-436
ake	-437
ків	-438
вер	-439
ємо	-440
ok	-441
▁ді	-442
▁сп	-443
ind	-444
▁Ч	-445
▁чи	-446
▁about	-447
00	-448
▁ду	-449
▁си	-450
жи	-451
▁what	-452
▁щоб	-453
ції	-454
ря	-455
▁by	-456
▁да	-457
ure	-458
▁ці	-459
бі	-460
▁які	-461
▁our	-462
▁Р	-463
▁По	-464
ear	-465
▁Ми	-466
ast	-467
▁pl	-468
ame	-469
ної	-470
▁І	-471
▁На	-472
ще	-473
зу	-474
▁и	-475
pt	-476
мен	-477
▁Ва	-478
▁one	-479
ним	-480
▁но	-481
▁my	-482
ere	-483
▁ме	-484
▁так	-485
ard	-486
▁li	-487
ther	-488
ime	-489
▁pe	-490
▁want	-491
▁ст	-492
ions	-493
▁who	-494
▁need	-495
ich	-496
▁What	-497
ай	-498
▁them	-499
rou	-500
are	-501
▁жи	-502
▁біль	-503
тів	-504
▁мен	-505
▁Ко	-506
▁comp	-507
▁sa	-508
ian	-509
▁man	-510
нні	-511
кла	-512
ak	-513
ud	-514
▁од	-515
ез	-516
ень	-517
so	-518
▁його	-519
▁has	-520
дь	-521
▁there	-522
це	-523
ople	-524
▁im	-525
▁any	-526
ost	-527
▁out	-528
ong	-529
▁more	-530
гі	-531
▁This	-532
▁te	-533
▁со	-534
ide	-535
▁ве	-536
▁тако	-537
▁J	-538
▁get	-539
ab	-540
▁він	-541
▁&	-542
▁вико	-543
og	-544
каза	-545
▁if	-546
▁пот	-547
ous	-548
ice	-549
нь	-550
▁int	-551
ag	-552
▁Це	-553
са	-554
▁Не	-555
cc	-556
▁се	-557
гра	-558
▁up	-559
▁—	-560
▁It	-561
▁сві	-562
▁Та	-563
гу	-564
▁people	-565
кти	-566
iz	-567
ких	-568
▁like	-569
age	-570
▁але	-571
▁their	-572
▁Г	-573
▁зро	-574
▁что	-575
ia	-576
per	-577
▁все	-578
▁са	-579
▁en	-580
ack	-581
рів	-582
сту	-583
ша	-584
ount	-585
▁вони	-586
пу	-587
▁су	-588
▁кон	-589
▁just	-590
ною	-591
ink	-592
краї	-593
▁ни	-594
ace	-595
pl	-596
сько	-597
here	-598
▁За	-599
▁work	-600
▁можете	-601
▁K	-602
▁no	-603
reat	-604
▁нас	-605
аль	-606
▁time	-607
ття	-608
ile	-609
▁Х	-610
orm	-611
au	-612
▁don	-613
ливо	-614
kra	-615
ose	-616
▁їх	-617
▁ди	-618
▁бути	-619
▁other	-620
ff	-621
об	-622
▁bec	-623
ven	-624
чу	-625
ire	-626
gh	-627
▁He	-628
жу	-629
act	-630
ays	-631
шо	-632
▁which	-633
▁cont	-634
кіль	-635
▁also	-636
▁всі	-637
ans	-638
▁ad	-639
▁should	-640
▁Ukra	-641
▁допо	-642
▁Your	-643
▁ag	-644
вори	-645
рав	-646
сно	-647
чі	-648
ep	-649
▁пови	-650
▁най	-651
шу	-652
▁only	-653
пі	-654
▁year	-655
цій	-656
▁right	-657
▁were	-658
▁un	-659
лід	-660
▁бо	-661
▁him	-662
▁see	-663
ical	-664
▁tr	-665
ber	-666
▁коли	-667
▁some	-668
сте	-669
▁res	-670
▁без	-671
ування	-672
▁э	-673
▁також	-674
▁3	-675
ін	-676
ite	-677
▁his	-678
▁20	-679
ult	-680
▁When	-681
▁рі	-682
▁пі	-683
тер	-684
▁than	-685
▁cl	-686
зо	-687
ree	-688
▁part	-689
▁would	-690
ріб	-691
▁якщо	-692
ations	-693
▁when	-694
ших	-695
▁пер	-696
▁fe	-697
▁вас	-698
ха	-699
port	-700
▁Во	-701
ючи	-702
ги	-703
».	-704
ній	-705
▁викори	-706
ця	-707
▁new	-708
▁how	-709
▁Щ	-710
▁спо	-711
ними	-712
▁God	-713
▁ком	-714
ip	-715
ence	-716
▁With	-717
).	-718
ac	-719
▁тому	-720
vel	-721
ue	-722
тра	-723
▁every	-724
чно	-725
▁may	-726
▁In	-727
able	-728
дя	-729
ord	-730
hing	-731
▁here	-732
▁ту	-733
ase	-734
ild	-735
▁ку	-736
▁did	-737
бити	-738
▁Мо	-739
ance	-740
▁co	-741
ary	-742
▁pr	-743
▁допомо	-744
▁Як	-745
ільки	-746
▁Л	-747
ign	-748
ження	-749
▁час	-750
цю	-751
▁dis	-752
form	-753
▁можна	-754
nder	-755
ap	-756
ню	-757
ang	-758
▁19	-759
▁ли	-760
▁V	-761
▁бага	-762
▁пре	-763
▁свої	-764
▁сто	-765
▁лі	-766
фор	-767
▁think	-768
▁люди	-769
du	-770
▁вам	-771
ність	-772
▁отри	-773
.”	-774
▁qu	-775
▁Бо	-776
▁her	-777
ress	-778
ause	-779
ife	-780
повід	-781
▁потріб	-782
sel	-783
вий	-784
пер	-785
ings	-786
про	-787
▁off	-788
ach	-789
▁Ти	-790
▁это	-791
фі	-792
▁Ch	-793
▁And	-794
ються	-795
▁been	-796
▁сказа	-797
▁Украї	-798
гля	-799
ем	-800
ден	-801
мати	-802
▁змі	-803
▁того	-804
мер	-805
▁act	-806
▁St	-807
▁app	-808
▁pre	-809
вно	-810
▁було	-811
йте	-812
ція	-813
▁world	-814
▁Why	-815
irst	-816
ass	-817
tern	-818
лення	-819
▁now	-820
дин	-821
▁зав	-822
▁per	-823
ated	-824
кт	-825
lo	-826
дні	-827
▁ar	-828
▁бы	-829
ish	-830
▁sp	-831
ick	-832
вих	-833
ens	-834
кри	-835
lp	-836
▁under	-837
ail	-838
▁цього	-839
▁count	-840
▁said	-841
▁пи	-842
вор	-843
▁краї	-844
кра	-845
хід	-846
зі	-847
▁They	-848
фе	-849
iff	-850
▁use	-851
own	-852
▁spe	-853
▁можу	-854
▁ци	-855
▁make	-856
ory	-857
вання	-858
чення	-859
▁пла	-860
▁could	-861
льно	-862
▁мене	-863
▁help	-864
▁більше	-865
ар	-866
▁had	-867
▁tra	-868
▁який	-869
▁its	-870
▁these	-871
хи	-872
▁повинні	-873
▁Про	-874
▁Коли	-875
▁bet	-876
шь	-877
ке	-878
uss	-879
▁first	-880
ким	-881
ial	-882
con	-883
єю	-884
нів	-885
цію	-886
ub	-887
wo	-888
ком	-889
▁5	-890
▁її	-891
▁acc	-892
▁Ukraine	-893
▁Що	-894
ru	-895
▁am	-896
▁she	-897
▁years	-898
▁even	-899
▁fo	-900
▁ser	-901
ць	-902
▁4	-903
▁look	-904
wn	-905
▁ще	-906
▁good	-907
▁over	-908
▁бі	-909
▁робо	-910
ition	-911
бле	-912
▁тільки	-913
йо	-914
ран	-915
other	-916
▁Ро	-917
▁No	-918
▁very	-919
▁просто	-920
▁дуже	-921
▁дру	-922
▁будь	-923
ors	-924
▁say	-925
▁life	-926
▁га	-927
вто	-928
omet	-929
▁find	-930
рт	-931
▁відповід	-932
▁diff	-933
єш	-934
▁використо	-935
itt	-936
біль	-937
▁inc	-938
род	-939
чити	-940
cial	-941
вся	-942
▁take	-943
▁хоче	-944
▁зі	-945
▁201	-946
вні	-947
alk	-948
▁ты	-949
▁Є	-950
▁most	-951
▁does	-952
."	-953
ren	-954
ah	-955
ан	-956
▁вла	-957
ound	-958
▁був	-959
раз	-960
ook	-961
спо	-962
▁So	-963
ents	-964
▁comm	-965
▁хто	-966
▁into	-967
▁кра	-968
ark	-969
▁програ	-970
av	-971
ational	-972
ходи	-973
▁До	-974
▁because	-975
▁вона	-976
ун	-977
▁back	-978
▁вели	-979
▁багато	-980
▁got	-981
дей	-982
роб	-983
▁вже	-984
▁тебе	-985
▁сер	-986
щи	-987
шого	-988
ступ	-989
лися	-990
▁Un	-991
fore	-992
".	-993
si	-994
▁happ	-995
▁життя	-996
ces	-997
ction	-998
▁pos	-999
▁міс	-1000
▁Так	-1001
▁Ф	-1002
ious	-1003
оло	-1004
▁rem	-1005
▁sy	-1006
urn	-1007
ності	-1008
▁bu	-1009
лів	-1010
нсь	-1011
том	-1012
xt	-1013
▁[	-1014
ща	-1015
зво	-1016
ady	-1017
pport	-1018
віть	-1019
thing	-1020
▁років	-1021
lic	-1022
жна	-1023
self	-1024
ном	-1025
oy	-1026
ject	-1027
▁pers	-1028
▁af	-1029
▁must	-1030
клад	-1031
▁way	-1032
▁ніж	-1033
uch	-1034
▁That	-1035
▁des	-1036
▁two	-1037
еред	-1038
▁прий	-1039
▁many	-1040
ful	-1041
▁gu	-1042
ерез	-1043
ram	-1044
ple	-1045
▁людей	-1046
кою	-1047
we	-1048
ному	-1049
▁важ	-1050
vers	-1051
▁працю	-1052
▁були	-1053
▁where	-1054
мага	-1055
чні	-1056
▁можуть	-1057
▁somet	-1058
ange	-1059
▁such	-1060
▁br	-1061
int	-1062
ливі	-1063
прав	-1064
ise	-1065
▁bel	-1066
ны	-1067
єї	-1068
▁Але	-1069
ник	-1070
▁own	-1071
рати	-1072
▁dec	-1073
йсь	-1074
відо	-1075
ov	-1076
нути	-1077
▁There	-1078
▁Z	-1079
вро	-1080
▁Russ	-1081
▁гро	-1082
ater	-1083
uro	-1084
вля	-1085
▁ro	-1086
▁Чому	-1087
▁То	-1088
▁But	-1089
▁reg	-1090
▁себе	-1091
▁child	-1092
сля	-1093
▁осо	-1094
▁again	-1095
▁Е	-1096
▁going	-1097
коли	-1098
▁Э	-1099
▁call	-1100
▁змо	-1101
▁...	-1102
We	-1103
cess	-1104
▁має	-1105
▁полі	-1106
▁знай	-1107
▁then	-1108
ew	-1109
▁буду	-1110
важа	-1111
▁пос	-1112
при	-1113
▁ke	-1114
йно	-1115
▁rec	-1116
шення	-1117
кого	-1118
▁fu	-1119
зь	-1120
▁person	-1121
▁потрібно	-1122
▁never	-1123
),	-1124
форма	-1125
ері	-1126
red	-1127
arn	-1128
get	-1129
▁em	-1130
ates	-1131
лося	-1132
▁Він	-1133
▁rel	-1134
▁ру	-1135
lect	-1136
pect	-1137
ет	-1138
▁кож	-1139
вого	-1140
▁much	-1141
дна	-1142
▁зо	-1143
▁sc	-1144
ave	-1145
ily	-1146
кто	-1147
▁от	-1148
▁говори	-1149
▁cons	-1150
жди	-1151
▁При	-1152
ng	-1153
ities	-1154
ments	-1155
▁кіль	-1156
вича	-1157
▁тут	-1158
▁Якщо	-1159
na	-1160
ром	-1161
ks	-1162
вид	-1163
ways	-1164
▁мені	-1165
▁навіть	-1166
▁inv	-1167
▁come	-1168
▁нав	-1169
ців	-1170
▁зу	-1171
▁day	-1172
▁200	-1173
▁start	-1174
пані	-1175
▁Вони	-1176
▁май	-1177
iness	-1178
ght	-1179
aw	-1180
▁дос	-1181
тку	-1182
▁дума	-1183
stem	-1184
▁att	-1185
ft	-1186
iss	-1187
ци	-1188
day	-1189
▁ind	-1190
ific	-1191
жі	-1192
ove	-1193
▁pol	-1194
▁wr	-1195
сну	-1196
▁well	-1197
▁кори	-1198
ьогодні	-1199
ска	-1200
erm	-1201
вої	-1202
▁зали	-1203
rough	-1204
нити	-1205
▁To	-1206
▁них	-1207
▁вы	-1208
▁Euro	-1209
ody	-1210
ual	-1211
ника	-1212
ict	-1213
▁If	-1214
нок	-1215
▁ор	-1216
▁long	-1217
▁Да	-1218
▁різ	-1219
▁differe	-1220
▁лише	-1221
velop	-1222
▁feel	-1223
▁ph	-1224
ough	-1225
▁року	-1226
▁after	-1227
▁яка	-1228
any	-1229
ert	-1230
▁something	-1231
▁import	-1232
▁через	-1233
▁доб	-1234
▁always	-1235
▁цей	-1236
▁inform	-1237
▁those	-1238
▁систе	-1239
кту	-1240
▁нам	-1241
стю	-1242
▁Ма	-1243
дати	-1244
ob	-1245
▁поча	-1246
ей	-1247
сли	-1248
stand	-1249
▁И	-1250
▁ent	-1251
▁produ	-1252
▁6	-1253
ied	-1254
гою	-1255
▁Ні	-1256
▁авто	-1257
ший	-1258
ство	-1259
▁talk	-1260
дат	-1261
▁Europe	-1262
▁розу	-1263
der	-1264
▁му	-1265
▁stud	-1266
▁голо	-1267
чних	-1268
ьому	-1269
▁bus	-1270
row	-1271
olog	-1272
▁запи	-1273
он	-1274
oc	-1275
кільки	-1276
ath	-1277
▁really	-1278
▁real	-1279
▁Ка	-1280
ман	-1281
ident	-1282
ved	-1283
вувати	-1284
▁повер	-1285
ряд	-1286
round	-1287
mer	-1288
igh	-1289
йсько	-1290
▁фі	-1291
▁sm	-1292
▁зробити	-1293
▁ті	-1294
▁10	-1295
riend	-1296
▁над	-1297
▁чу	-1298
hed	-1299
▁Go	-1300
▁great	-1301
вити	-1302
▁Хо	-1303
▁po	-1304
має	-1305
кре	-1306
ork	-1307
ade	-1308
шим	-1309
▁too	-1310
▁str	-1311
inian	-1312
▁із	-1313
▁through	-1314
▁conf	-1315
gan	-1316
ys	-1317
▁пробле	-1318
чо	-1319
ieve	-1320
▁love	-1321
»,	-1322
▁car	-1323
▁ob	-1324
▁зб	-1325
▁develop	-1326
▁add	-1327
▁tell	-1328
▁один	-1329
▁trans	-1330
▁system	-1331
▁три	-1332
▁була	-1333
бува	-1334
▁ус	-1335
▁down	-1336
ell	-1337
▁раз	-1338
нов	-1339
▁підтри	-1340
pen	-1341
ph	-1342
▁'	-1343
ather	-1344
▁ra	-1345
▁інформа	-1346
ства	-1347
▁before	-1348
пра	-1349
она	-1350
les	-1351
рії	-1352
▁ле	-1353
let	-1354
тання	-1355
▁Те	-1356
▁завжди	-1357
▁фай	-1358
▁стра	-1359
▁Вам	-1360
▁орга	-1361
ced	-1362
▁same	-1363
▁після	-1364
шої	-1365
▁кі	-1366
cy	-1367
ons	-1368
▁само	-1369
▁Ш	-1370
кс	-1371
▁тре	-1372
Ми	-1373
▁aw	-1374
▁information	-1375
▁exper	-1376
▁ask	-1377
▁understand	-1378
знача	-1379
▁оста	-1380
li	-1381
вою	-1382
ньо	-1383
гти	-1384
▁Ты	-1385
ning	-1386
▁still	-1387
▁How	-1388
▁Who	-1389
▁Ukrainian	-1390
▁Yes	-1391
oney	-1392
▁ev	-1393
▁prog	-1394
ves	-1395
▁pres	-1396
▁прави	-1397
вали	-1398
ives	-1399
▁country	-1400
ually	-1401
▁mod	-1402
sible	-1403
▁ри	-1404
логі	-1405
ower	-1406
▁Well	-1407
▁Oh	-1408
коно	-1409
▁7	-1410
ху	-1411
▁Se	-1412
лен	-1413
▁більш	-1414
de	-1415
нг	-1416
▁цьому	-1417
▁name	-1418
You	-1419
дів	-1420
▁different	-1421
▁eff	-1422
нта	-1423
▁prov	-1424
▁let	-1425
▁num	-1426
▁че	-1427
▁свою	-1428
▁try	-1429
▁important	-1430
ows	-1431
▁why	-1432
▁допомогою	-1433
hip	-1434
▁mon	-1435
eah	-1436
доро	-1437
стро	-1438
▁fam	-1439
▁Чи	-1440
▁used	-1441
",	-1442
чний	-1443
▁Do	-1444
віт	-1445
▁place	-1446
▁ос	-1447
ери	-1448
ract	-1449
▁bl	-1450
ент	-1451
▁компані	-1452
000	-1453
▁отрима	-1454
ices	-1455
ержа	-1456
▁відкри	-1457
обхід	-1458
гом	-1459
▁set	-1460
▁можливо	-1461
ників	-1462
▁business	-1463
тати	-1464
▁гру	-1465
▁She	-1466
ne	-1467
ms	-1468
ered	-1469
▁інших	-1470
ries	-1471
чина	-1472
▁friend	-1473
iew	-1474
imes	-1475
стрі	-1476
▁play	-1477
ists	-1478
▁without	-1479
ize	-1480
▁поба	-1481
▁give	-1482
ited	-1483
▁рів	-1484
▁inst	-1485
нення	-1486
▁def	-1487
▁able	-1488
▁повин	-1489
old	-1490
cept	-1491
▁support	-1492
ank	-1493
▁All	-1494
als	-1495
ands	-1496
▁won	-1497
▁будуть	-1498
льні	-1499
▁ac	-1500
▁день	-1501
▁fin	-1502
▁слу	-1503
вір	-1504
▁яко	-1505
жно	-1506
▁політи	-1507
бя	-1508
ility	-1509
▁істо	-1510
ating	-1511
▁пов	-1512
▁там	-1513
arch	-1514
▁хочу	-1515
▁он	-1516
▁вважа	-1517
▁ніколи	-1518
▁8	-1519
бли	-1520
▁each	-1521
▁Re	-1522
дов	-1523
aking	-1524
▁части	-1525
▁Де	-1526
▁%	-1527
ular	-1528
ках	-1529
uth	-1530
▁9	-1531
▁end	-1532
ution	-1533
▁plan	-1534
▁ла	-1535
▁фор	-1536
▁Sh	-1537
▁сло	-1538
▁imp	-1539
rit	-1540
▁сказав	-1541
▁cho	-1542
вим	-1543
час	-1544
▁home	-1545
▁better	-1546
▁learn	-1547
be	-1548
ittle	-1549
▁дозво	-1550
▁proble	-1551
▁Is	-1552
▁che	-1553
▁sim	-1554
без	-1555
▁last	-1556
ars	-1557
▁cour	-1558
які	-1559
20	-1560
▁необхід	-1561
▁Па	-1562
ics	-1563
onna	-1564
відом	-1565
ative	-1566
стру	-1567
▁чому	-1568
▁же	-1569
up	-1570
яви	-1571
▁things	-1572
▁роби	-1573
▁меня	-1574
▁Это	-1575
зне	-1576
▁всіх	-1577
бут	-1578
ty	-1579
▁best	-1580
▁ass	-1581
▁/	-1582
▁serv	-1583
гли	-1584
стра	-1585
▁intern	-1586
бира	-1587
лася	-1588
▁care	-1589
▁sur	-1590
▁sign	-1591
ворю	-1592
мент	-1593
chn	-1594
ought	-1595
▁list	-1596
▁X	-1597
▁пе	-1598
▁gonna	-1599
▁wom	-1600
чого	-1601
▁швид	-1602
▁році	-1603
ready	-1604
ener	-1605
▁happen	-1606
pon	-1607
яти	-1608
▁еле	-1609
▁ins	-1610
олові	-1611
▁money	-1612
gy	-1613
нку	-1614
▁vis	-1615
gin	-1616
▁поді	-1617
▁спра	-1618
▁розумі	-1619
▁пред	-1620
▁ваш	-1621
▁might	-1622
ктив	-1623
▁влас	-1624
клю	-1625
▁будете	-1626
▁перед	-1627
безпе	-1628
сії	-1629
ting	-1630
чного	-1631
став	-1632
▁made	-1633
ouse	-1634
▁Від	-1635
гда	-1636
▁спи	-1637
ner	-1638
▁розви	-1639
▁mean	-1640
▁Го	-1641
ками	-1642
▁украї	-1643
▁already	-1644
erest	-1645
ince	-1646
мери	-1647
ене	-1648
▁місце	-1649
▁little	-1650
led	-1651
пад	-1652
▁вирі	-1653
▁визна	-1654
бов	-1655
▁Но	-1656
lud	-1657
▁change	-1658
кими	-1659
ata	-1660
▁min	-1661
дже	-1662
oth	-1663
▁пока	-1664
▁органі	-1665
▁program	-1666
ween	-1667
kay	-1668
▁фа	-1669
▁Євро	-1670
ages	-1671
єм	-1672
▁зроби	-1673
not	-1674
▁cur	-1675
▁law	-1676
▁зможе	-1677
▁cre	-1678
▁мати	-1679
ont	-1680
▁Ну	-1681
▁lot	-1682
▁держа	-1683
▁бачи	-1684
▁зараз	-1685
▁open	-1686
▁didn	-1687
▁While	-1688
▁тех	-1689
сло	-1690
ern	-1691
▁той	-1692
▁осно	-1693
▁between	-1694
▁використа	-1695
ax	-1696
▁вер	-1697
блі	-1698
hes	-1699
▁hum	-1700
▁ско	-1701
▁існу	-1702
▁би	-1703
веде	-1704
▁між	-1705
▁чолові	-1706
its	-1707
atch	-1708
ness	-1709
нки	-1710
стува	-1711
▁believe	-1712
▁become	-1713
ники	-1714
писа	-1715
вані	-1716
▁sub	-1717
▁використову	-1718
▁another	-1719
▁children	-1720
▁сьогодні	-1721
тро	-1722
▁fact	-1723
▁lead	-1724
▁Yeah	-1725
▁прое	-1726
▁creat	-1727
uture	-1728
тягом	-1729
ues	-1730
ever	-1731
▁number	-1732
▁кла	-1733
▁interest	-1734
omm	-1735
кли	-1736
чної	-1737
ving	-1738
▁найбіль	-1739
зумі	-1740
lease	-1741
▁знаю	-1742
ute	-1743
вне	-1744
▁form	-1745
ss	-1746
ешь	-1747
▁prot	-1748
ait	-1749
▁found	-1750
▁проти	-1751
akes	-1752
▁ret	-1753
▁chang	-1754
▁Where	-1755
цт	-1756
uring	-1757
сла	-1758
▁men	-1759
▁Й	-1760
▁проце	-1761
ського	-1762
▁around	-1763
▁Бу	-1764
▁sit	-1765
▁клі	-1766
▁De	-1767
”.	-1768
ption	-1769
▁проду	-1770
▁робити	-1771
▁мне	-1772
▁state	-1773
▁сі	-1774
▁слід	-1775
ts	-1776
пла	-1777
▁three	-1778
▁requ	-1779
ску	-1780
▁зай	-1781
roup	-1782
▁kill	-1783
ures	-1784
ливість	-1785
ool	-1786
зуль	-1787
яз	-1788
дій	-1789
▁met	-1790
ccess	-1791
енер	-1792
дно	-1793
▁тво	-1794
▁future	-1795
▁України	-1796
тні	-1797
▁rep	-1798
ten	-1799
▁Мі	-1800
▁немає	-1801
▁Ін	-1802
▁thing	-1803
▁вс	-1804
▁det	-1805
▁word	-1806
▁prof	-1807
▁нада	-1808
ох	-1809
▁today	-1810
▁сту	-1811
conom	-1812
▁прав	-1813
зом	-1814
▁techn	-1815
▁майбут	-1816
▁ска	-1817
▁being	-1818
▁дій	-1819
кономі	-1820
▁everything	-1821
▁disc	-1822
над	-1823
▁наз	-1824
тей	-1825
▁світ	-1826
▁cle	-1827
льний	-1828
▁інші	-1829
▁loc	-1830
▁fil	-1831
▁бізне	-1832
▁Russia	-1833
▁yourself	-1834
▁countries	-1835
ували	-1836
вести	-1837
ціаль	-1838
alth	-1839
ines	-1840
▁old	-1841
▁pay	-1842
▁кро	-1843
arm	-1844
ША	-1845
▁часу	-1846
▁цих	-1847
▁дося	-1848
▁кри	-1849
▁cor	-1850
▁как	-1851
▁high	-1852
▁med	-1853
▁щось	-1854
▁sure	-1855
▁keep	-1856
▁захи	-1857
llow	-1858
ib	-1859
ix	-1860
▁exp	-1861
▁зако	-1862
▁sec	-1863
▁мають	-1864
ніше	-1865
вичай	-1866
▁тим	-1867
тор	-1868
шими	-1869
▁усі	-1870
▁тобі	-1871
The	-1872
▁використовувати	-1873
▁show	-1874
▁дослід	-1875
нього	-1876
▁безпе	-1877
▁read	-1878
▁цю	-1879
яза	-1880
▁ide	-1881
ately	-1882
ток	-1883
,”	-1884
▁пар	-1885
▁company	-1886
▁світі	-1887
▁put	-1888
▁quest	-1889
ember	-1890
ism	-1891
жнарод	-1892
▁Be	-1893
▁My	-1894
▁val	-1895
meric	-1896
▁contin	-1897
▁тра	-1898
вій	-1899
illion	-1900
▁США	-1901
▁project	-1902
▁дити	-1903
▁питання	-1904
irect	-1905
▁An	-1906
▁спів	-1907
▁mark	-1908
▁право	-1909
▁резуль	-1910
рю	-1911
▁добре	-1912
ворити	-1913
▁process	-1914
▁live	-1915
▁meet	-1916
бра	-1917
▁зміни	-1918
▁product	-1919
дав	-1920
▁fl	-1921
▁вста	-1922
▁свій	-1923
▁втра	-1924
▁$	-1925
тов	-1926
▁вп	-1927
▁data	-1928
лан	-1929
ased	-1930
▁успі	-1931
bs	-1932
▁Russian	-1933
сів	-1934
▁inf	-1935
▁Ж	-1936
▁под	-1937
▁пара	-1938
▁experi	-1939
▁своє	-1940
▁organ	-1941
▁doing	-1942
▁mem	-1943
▁coll	-1944
ward	-1945
жен	-1946
значає	-1947
▁ува	-1948
▁cannot	-1949
▁cent	-1950
▁бли	-1951
▁ну	-1952
▁справ	-1953
рти	-1954
▁rece	-1955
▁тебя	-1956
▁гра	-1957
▁Americ	-1958
▁користува	-1959
▁світу	-1960
▁15	-1961
ської	-1962
▁наші	-1963
▁хоро	-1964
ention	-1965
▁power	-1966
▁йому	-1967
▁наш	-1968
vern	-1969
cond	-1970
▁inter	-1971
▁cert	-1972
▁своїх	-1973
вя	-1974
▁моло	-1975
▁економі	-1976
▁sol	-1977
▁Ба	-1978
▁яку	-1979
обра	-1980
▁Все	-1981
▁fun	-1982
▁next	-1983
▁main	-1984
▁ваші	-1985
▁Ра	-1986
▁знайти	-1987
▁его	-1988
▁ref	-1989
▁pass	-1990
lly	-1991
▁rest	-1992
ically	-1993
▁polit	-1994
▁треба	-1995
▁includ	-1996
дити	-1997
▁Can	-1998
ворення	-1999
▁відно	-2000
▁family	-2001
▁Pro	-2002
▁exam	-2003
▁нього	-2004
▁можемо	-2005
▁stop	-2006
▁For	-2007
▁Not	-2008
▁Don	-2009
▁дво	-2010
єн	-2011
▁мы	-2012
▁протягом	-2013
▁отримати	-2014
rib	-2015
▁ed	-2016
ivers	-2017
▁Пере	-2018
ared	-2019
лом	-2020
сить	-2021
алі	-2022
▁respon	-2023
▁success	-2024
▁Хто	-2025
▁вік	-2026
▁щодо	-2027
▁av	-2028
▁month	-2029
еріга	-2030
pr	-2031
▁dep	-2032
▁наступ	-2033
▁dem	-2034
пону	-2035
▁anything	-2036
▁file	-2037
▁два	-2038
▁leg	-2039
▁el	-2040
air	-2041
кати	-2042
▁всь	-2043
кість	-2044
▁знаєте	-2045
chool	-2046
слу	-2047
▁possible	-2048
шт	-2049
ublic	-2050
▁чином	-2051
lete	-2052
жливо	-2053
▁partic	-2054
▁повідом	-2055
чува	-2056
▁теле	-2057
▁econom	-2058
▁ty	-2059
▁result	-2060
сом	-2061
uc	-2062
irl	-2063
ient	-2064
▁ext	-2065
▁цієї	-2066
▁follow	-2067
▁коман	-2068
▁effect	-2069
rol	-2070
нах	-2071
▁випад	-2072
▁бать	-2073
▁few	-2074
бою	-2075
▁саме	-2076
▁invest	-2077
сія	-2078
▁adv	-2079
▁Ме	-2080
▁human	-2081
ized	-2082
▁краще	-2083
ital	-2084
кої	-2085
cu	-2086
▁Al	-2087
ety	-2088
ional	-2089
ге	-2090
▁As	-2091
бы	-2092
▁бажа	-2093
ерів	-2094
▁міль	-2095
унк	-2096
▁намага	-2097
rent	-2098
▁against	-2099
▁free	-2100
▁яких	-2101
тті	-2102
▁away	-2103
▁ад	-2104
▁level	-2105
▁course	-2106
▁both	-2107
нан	-2108
▁из	-2109
▁дізна	-2110
вав	-2111
▁eas	-2112
ope	-2113
▁big	-2114
тім	-2115
▁lar	-2116
ціона	-2117
дом	-2118
uck	-2119
рен	-2120
▁wee	-2121
дж	-2122
▁thought	-2123
▁тепер	-2124
▁продов	-2125
▁шля	-2126
кін	-2127
▁ефе	-2128
▁stand	-2129
ox	-2130
чну	-2131
ватися	-2132
▁неза	-2133
arth	-2134
▁international	-2135
чне	-2136
нє	-2137
чки	-2138
▁build	-2139
▁одна	-2140
▁turn	-2141
▁18	-2142
ntil	-2143
▁наших	-2144
▁fore	-2145
пера	-2146
▁consid	-2147
▁order	-2148
▁зустрі	-2149
льних	-2150
▁sk	-2151
приклад	-2152
тами	-2153
▁висо	-2154
ried	-2155
▁kind	-2156
▁cr	-2157
▁done	-2158
az	-2159
▁доро	-2160
ably	-2161
шли	-2162
▁days	-2163
чна	-2164
▁розпо	-2165
▁фо	-2166
лого	-2167
▁дов	-2168
▁Україні	-2169
▁доступ	-2170
няти	-2171
ets	-2172
▁European	-2173
ут	-2174
мку	-2175
▁commun	-2176
вед	-2177
▁US	-2178
gg	-2179
▁іде	-2180
налі	-2181
urch	-2182
▁pri	-2183
▁col	-2184
▁Зна	-2185
▁Са	-2186
▁ім	-2187
зиден	-2188
▁Will	-2189
тно	-2190
вили	-2191
гато	-2192
▁уні	-2193
йти	-2194
eg	-2195
▁часто	-2196
нами	-2197
▁means	-2198
▁art	-2199
▁спе	-2200
▁book	-2201
less	-2202
▁ар	-2203
▁залиша	-2204
▁Ar	-2205
▁hist	-2206
ural	-2207
▁міжнарод	-2208
▁захо	-2209
▁gener	-2210
nce	-2211
ection	-2212
льо	-2213
▁зрозумі	-2214
▁Ду	-2215
тері	-2216
▁expl	-2217
▁їм	-2218
вши	-2219
▁вз	-2220
сп	-2221
шити	-2222
▁р	-2223
▁mat	-2224
▁міся	-2225
ерт	-2226
стя	-2227
▁гото	-2228
голо	-2229
рто	-2230
тся	-2231
▁conc	-2232
од	-2233
▁даних	-2234
▁пого	-2235
▁small	-2236
ters	-2237
▁199	-2238
▁вій	-2239
ants	-2240
▁потре	-2241
рон	-2242
туа	-2243
▁чого	-2244
line	-2245
ницт	-2246
▁відо	-2247
▁тих	-2248
▁особи	-2249
нова	-2250
iving	-2251
▁грома	-2252
▁point	-2253
ric	-2254
▁Ві	-2255
кій	-2256
▁пози	-2257
▁Wor	-2258
жні	-2259
вими	-2260
▁роботи	-2261
▁during	-2262
▁нічого	-2263
▁енер	-2264
нову	-2265
зації	-2266
тою	-2267
▁можливість	-2268
▁Yet	-2269
▁Для	-2270
Wh	-2271
▁Ве	-2272
▁hand	-2273
▁friends	-2274
▁свого	-2275
▁12	-2276
▁often	-2277
ason	-2278
пере	-2279
▁begin	-2280
▁Ре	-2281
ско	-2282
▁spec	-2283
▁using	-2284
▁ter	-2285
будь	-2286
▁called	-2287
▁ки	-2288
клада	-2289
▁стати	-2290
ктів	-2291
io	-2292
▁run	-2293
ee	-2294
джу	-2295
тив	-2296
▁move	-2297
сіб	-2298
rist	-2299
мерика	-2300
▁hu	-2301
▁since	-2302
▁‘	-2303
▁body	-2304
▁group	-2305
▁gr	-2306
ired	-2307
▁викона	-2308
▁told	-2309
▁working	-2310
▁Ки	-2311
▁Q	-2312
▁жін	-2313
angu	-2314
▁while	-2315
▁пода	-2316
▁war	-2317
▁nothing	-2318
ird	-2319
▁собі	-2320
▁return	-2321
▁Con	-2322
▁здоро	-2323
▁special	-2324
▁сай	-2325
▁gra	-2326
▁навча	-2327
▁Вона	-2328
▁left	-2329
яс	-2330
нологі	-2331
ense	-2332
нці	-2333
▁одного	-2334
▁хочете	-2335
▁поми	-2336
▁відбува	-2337
▁кни	-2338
med	-2339
▁♪	-2340
▁практи	-2341
▁head	-2342
▁direct	-2343
дово	-2344
ood	-2345
▁комп	-2346
gether	-2347
▁together	-2348
вай	-2349
▁New	-2350
▁oper	-2351
▁char	-2352
рія	-2353
ision	-2354
▁prom	-2355
▁означає	-2356
▁ever	-2357
вичайно	-2358
бливо	-2359
ins	-2360
▁enough	-2361
ield	-2362
▁рішення	-2363
▁wait	-2364
body	-2365
мента	-2366
▁Let	-2367
▁govern	-2368
ised	-2369
лько	-2370
iven	-2371
юди	-2372
▁30	-2373
▁less	-2374
▁почина	-2375
▁кілька	-2376
▁second	-2377
▁»	-2378
ology	-2379
йн	-2380
land	-2381
▁доку	-2382
▁обла	-2383
ctor	-2384
▁вироб	-2385
▁працювати	-2386
щі	-2387
▁dr	-2388
▁забезпе	-2389
▁Now	-2390
amp	-2391
▁blo	-2392
▁Ваш	-2393
лла	-2394
▁послу	-2395
ret	-2396
нням	-2397
ization	-2398
▁ге	-2399
▁шу	-2400
hether	-2401
▁От	-2402
▁pop	-2403
selves	-2404
▁certain	-2405
яв	-2406
▁100	-2407
▁країни	-2408
▁Hey	-2409
▁такі	-2410
▁вашого	-2411
риста	-2412
▁зем	-2413
▁create	-2414
мні	-2415
▁ситуа	-2416
ський	-2417
▁Он	-2418
▁разом	-2419
▁girl	-2420
▁health	-2421
▁отриму	-2422
oh	-2423
ger	-2424
▁поки	-2425
▁фінан	-2426
arly	-2427
▁someone	-2428
▁показа	-2429
ote	-2430
мін	-2431
▁buy	-2432
▁чер	-2433
▁компанії	-2434
ature	-2435
нії	-2436
лень	-2437
▁night	-2438
ash	-2439
▁парт	-2440
▁incre	-2441
льного	-2442
▁hard	-2443
ene	-2444
▁шко	-2445
ние	-2446
▁job	-2447
pportun	-2448
▁current	-2449
▁const	-2450
▁Tr	-2451
▁dist	-2452
▁personal	-2453
▁bre	-2454
▁профе	-2455
▁situ	-2456
вари	-2457
▁stay	-2458
▁hour	-2459
▁пам	-2460
sw	-2461
▁запро	-2462
▁слова	-2463
▁(1	-2464
▁демо	-2465
▁house	-2466
▁ener	-2467
ково	-2468
єтеся	-2469
▁стан	-2470
▁впли	-2471
▁мере	-2472
▁mess	-2473
▁дітей	-2474
ream	-2475
▁hear	-2476
▁sci	-2477
▁miss	-2478
▁opportun	-2479
aut	-2480
пусти	-2481
▁Госпо	-2482
ск	-2483
▁лег	-2484
▁очі	-2485
▁school	-2486
▁select	-2487
▁пото	-2488
уватися	-2489
▁control	-2490
мки	-2491
жити	-2492
▁вда	-2493
рту	-2494
app	-2495
▁Ex	-2496
рім	-2497
бір	-2498
▁вигля	-2499
▁знову	-2500
▁повинен	-2501
▁Just	-2502
ided	-2503
▁коро	-2504
▁нау	-2505
▁sl	-2506
льту	-2507
▁Тому	-2508
сите	-2509
сні	-2510
▁контро	-2511
▁ліка	-2512
лаго	-2513
▁experience	-2514
▁saf	-2515
▁allow	-2516
▁leave	-2517
▁результа	-2518
▁times	-2519
fort	-2520
▁mov	-2521
▁бра	-2522
▁Christ	-2523
▁check	-2524
цією	-2525
man	-2526
кому	-2527
ond	-2528
▁Что	-2529
▁дол	-2530
▁пу	-2531
▁profess	-2532
шов	-2533
▁pract	-2534
чите	-2535
▁beh	-2536
ify	-2537
▁whole	-2538
▁young	-2539
▁On	-2540
▁Си	-2541
▁needs	-2542
▁спа	-2543
ina	-2544
ував	-2545
ять	-2546
▁подо	-2547
oday	-2548
мовір	-2549
▁women	-2550
стей	-2551
ined	-2552
мови	-2553
▁.	-2554
▁langu	-2555
▁until	-2556
▁сказати	-2557
перед	-2558
▁million	-2559
▁problem	-2560
▁access	-2561
▁зможете	-2562
ton	-2563
яких	-2564
▁Ad	-2565
▁complete	-2566
▁else	-2567
▁necess	-2568
▁Цей	-2569
▁others	-2570
▁strong	-2571
бля	-2572
▁Пі	-2573
▁вибо	-2574
▁kid	-2575
▁prob	-2576
▁grow	-2577
каз	-2578
ває	-2579
рах	-2580
,"	-2581
жуть	-2582
▁ю	-2583
me	-2584
рити	-2585
▁city	-2586
ible	-2587
▁останні	-2588
▁mil	-2589
леж	-2590
▁серед	-2591
▁0	-2592
ємося	-2593
▁%1	-2594
▁роботу	-2595
▁найкра	-2596
▁близь	-2597
▁water	-2598
рні	-2599
ished	-2600
▁prev	-2601
чати	-2602
▁mar	-2603
▁розмі	-2604
▁реаль	-2605
▁технологі	-2606
▁Дж	-2607
▁social	-2608
фо	-2609
▁дійсно	-2610
▁Intern	-2611
▁market	-2612
▁смер	-2613
▁знати	-2614
▁energy	-2615
▁Мы	-2616
▁мину	-2617
▁least	-2618
дела	-2619
▁екс	-2620
bers	-2621
▁народ	-2622
▁мільйо	-2623
ived	-2624
▁сти	-2625
ньому	-2626
ases	-2627
певне	-2628
чів	-2629
▁choose	-2630
стер	-2631
▁деякі	-2632
ських	-2633
▁came	-2634
▁account	-2635
кування	-2636
lish	-2637
▁гроші	-2638
чить	-2639
▁Come	-2640
▁оскільки	-2641
▁appro	-2642
▁Are	-2643
▁могли	-2644
▁supp	-2645
orry	-2646
ral	-2647
▁expect	-2648
▁relations	-2649
ustom	-2650
▁view	-2651
▁параме	-2652
▁rese	-2653
arent	-2654
ур	-2655
▁Може	-2656
urity	-2657
звичай	-2658
▁case	-2659
▁тро	-2660
▁remain	-2661
▁exist	-2662
▁doesn	-2663
ходить	-2664
ати	-2665
▁таких	-2666
▁інстру	-2667
ваний	-2668
▁значення	-2669
ex	-2670
▁Ці	-2671
▁права	-2672
▁heart	-2673
▁тоді	-2674
терне	-2675
▁програми	-2676
▁вами	-2677
sib	-2678
▁di	-2679
ruct	-2680
,000	-2681
дії	-2682
▁mom	-2683
▁хло	-2684
▁design	-2685
▁Or	-2686
▁example	-2687
▁fight	-2688
гії	-2689
кувати	-2690
▁люби	-2691
▁допомогти	-2692
рь	-2693
▁особливо	-2694
▁answ	-2695
lob	-2696
work	-2697
itions	-2698
--	-2699
▁діа	-2700
▁ready	-2701
▁студен	-2702
orn	-2703
▁activ	-2704
▁відвід	-2705
▁наро	-2706
▁dev	-2707
▁Mr	-2708
most	-2709
▁залиши	-2710
▁дані	-2711
▁нази	-2712
вели	-2713
▁World	-2714
кси	-2715
лашт	-2716
▁pat	-2717
▁test	-2718
▁сторі	-2719
▁ним	-2720
ories	-2721
▁прода	-2722
шою	-2723
▁elect	-2724
▁підтриму	-2725
▁once	-2726
▁es	-2727
▁kde	-2728
гро	-2729
▁зобра	-2730
▁remember	-2731
▁Щоб	-2732
▁яке	-2733
мов	-2734
гла	-2735
aj	-2736
osed	-2737
▁Без	-2738
▁соціаль	-2739
кон	-2740
▁cap	-2741
-1	-2742
▁різних	-2743
oun	-2744
брати	-2745
▁i	-2746
рами	-2747
▁багать	-2748
▁людина	-2749
▁позна	-2750
▁iss	-2751
сій	-2752
▁par	-2753
кона	-2754
▁aut	-2755
ik	-2756
ners	-2757
▁поста	-2758
▁docu	-2759
води	-2760
зе	-2761
▁ву	-2762
▁євро	-2763
▁wanted	-2764
тко	-2765
▁visit	-2766
▁таке	-2767
▁mind	-2768
erv	-2769
ither	-2770
єдна	-2771
▁bring	-2772
льна	-2773
▁Germ	-2774
сила	-2775
лювати	-2776
dition	-2777
ale	-2778
▁These	-2779
▁перегля	-2780
▁seem	-2781
дження	-2782
▁Вас	-2783
▁11	-2784
тки	-2785
▁var	-2786
▁зда	-2787
▁political	-2788
▁схо	-2789
▁звер	-2790
com	-2791
лені	-2792
▁net	-2793
ames	-2794
спіль	-2795
▁auth	-2796
▁досвід	-2797
▁development	-2798
ering	-2799
зно	-2800
▁Pol	-2801
ality	-2802
cri	-2803
▁seen	-2804
▁says	-2805
трі	-2806
▁present	-2807
▁дія	-2808
▁ca	-2809
▁важли	-2810
▁тек	-2811
▁Sp	-2812
▁зв	-2813
▁probably	-2814
вних	-2815
рямо	-2816
▁ris	-2817
▁елект	-2818
▁Со	-2819
▁equ	-2820
▁study	-2821
менти	-2822
▁тор	-2823
atic	-2824
ann	-2825
▁cult	-2826
play	-2827
ier	-2828
▁інформацію	-2829
жить	-2830
▁looking	-2831
нд	-2832
▁ціка	-2833
▁Then	-2834
▁ey	-2835
▁May	-2836
▁history	-2837
▁вклю	-2838
▁government	-2839
▁ago	-2840
пити	-2841
біт	-2842
▁знайде	-2843
гре	-2844
▁вза	-2845
▁чтобы	-2846
▁full	-2847
хто	-2848
▁50	-2849
▁bad	-2850
ross	-2851
▁within	-2852
▁Okay	-2853
▁культу	-2854
▁вив	-2855
лити	-2856
ock	-2857
▁використання	-2858
the	-2859
▁пун	-2860
▁true	-2861
▁тер	-2862
icult	-2863
ктор	-2864
▁витра	-2865
▁Вы	-2866
▁key	-2867
aster	-2868
ides	-2869
▁Під	-2870
чини	-2871
▁завда	-2872
льної	-2873
▁тися	-2874
▁aff	-2875
правді	-2876
▁wind	-2877
▁спіль	-2878
▁ця	-2879
▁class	-2880
▁Бога	-2881
хай	-2882
▁Pl	-2883
▁росі	-2884
рем	-2885
▁Га	-2886
itive	-2887
▁мої	-2888
▁конф	-2889
▁25	-2890
▁fre	-2891
ror	-2892
▁Eng	-2893
▁кур	-2894
▁Fr	-2895
▁four	-2896
▁Ї	-2897
ходя	-2898
ный	-2899
▁теж	-2900
ified	-2901
▁фото	-2902
ління	-2903
багато	-2904
lobal	-2905
▁потім	-2906
▁ши	-2907
▁trying	-2908
ians	-2909
▁problems	-2910
”,	-2911
версите	-2912
щення	-2913
▁Ю	-2914
ards	-2915
▁функ	-2916
iversity	-2917
▁question	-2918
ванта	-2919
ца	-2920
ledge	-2921
оти	-2922
▁кого	-2923
вен	-2924
▁public	-2925
▁Today	-2926
book	-2927
▁офі	-2928
▁людини	-2929
▁спро	-2930
▁Pr	-2931
▁тран	-2932
▁everyone	-2933
▁уча	-2934
▁суспіль	-2935
▁changes	-2936
▁одно	-2937
▁цим	-2938
еру	-2939
▁пості	-2940
ния	-2941
чені	-2942
▁Ця	-2943
лей	-2944
ode	-2945
вано	-2946
ноп	-2947
▁protect	-2948
▁рік	-2949
▁українсь	-2950
▁маши	-2951
явля	-2952
▁Af	-2953
▁варто	-2954
▁custom	-2955
▁Ваша	-2956
▁Хоча	-2957
reen	-2958
▁думаю	-2959
ploy	-2960
▁доста	-2961
▁она	-2962
чним	-2963
▁dri	-2964
тити	-2965
▁necessary	-2966
▁кількість	-2967
рію	-2968
▁Look	-2969
тах	-2970
▁замі	-2971
▁Lord	-2972
▁люд	-2973
▁difficult	-2974
▁швидко	-2975
iqu	-2976
шні	-2977
▁сім	-2978
▁обо	-2979
utes	-2980
▁америка	-2981
▁спі	-2982
▁зни	-2983
▁роки	-2984
ron	-2985
вала	-2986
▁Алла	-2987
▁team	-2988
▁beaut	-2989
▁філь	-2990
ogle	-2991
▁sing	-2992
нувати	-2993
els	-2994
▁treat	-2995
хі	-2996
▁past	-2997
▁situation	-2998
▁кор	-2999
▁idea	-3000
▁fuck	-3001
▁services	-3002
▁відбувається	-3003
лось	-3004
▁почу	-3005
br	-3006
стів	-3007
▁wrong	-3008
▁бізнес	-3009
▁гі	-3010
тт	-3011
▁hope	-3012
▁закін	-3013
▁applic	-3014
▁mother	-3015
▁occ	-3016
▁Тако	-3017
▁dest	-3018
▁soci	-3019
Th	-3020
▁students	-3021
▁проблеми	-3022
▁Ваші	-3023
▁дозволя	-3024
▁game	-3025
▁boy	-3026
вний	-3027
▁week	-3028
дер	-3029
сок	-3030
▁provide	-3031
ator	-3032
пози	-3033
▁shall	-3034
▁Сьогодні	-3035
▁поверну	-3036
AT	-3037
▁16	-3038
▁пропону	-3039
tain	-3040
▁єди	-3041
▁Росії	-3042
▁збере	-3043
▁опера	-3044
mb	-3045
клика	-3046
inal	-3047
тувати	-3048
ями	-3049
▁est	-3050
▁стане	-3051
▁mor	-3052
▁матері	-3053
▁знаходи	-3054
нка	-3055
талі	-3056
ift	-3057
▁автомо	-3058
▁happened	-3059
сім	-3060
▁offic	-3061
▁іно	-3062
▁far	-3063
▁text	-3064
мою	-3065
▁Бі	-3066
спе	-3067
▁almost	-3068
нен	-3069
ські	-3070
▁ach	-3071
▁One	-3072
▁цій	-3073
▁field	-3074
▁compet	-3075
▁системи	-3076
▁compan	-3077
....	-3078
▁language	-3079
▁opt	-3080
veral	-3081
ерк	-3082
▁conn	-3083
▁gl	-3084
▁mus	-3085
raph	-3086
▁Одна	-3087
▁зага	-3088
▁кожен	-3089
▁okay	-3090
▁сим	-3091
ристи	-3092
▁Україна	-3093
▁додат	-3094
▁father	-3095
▁Cl	-3096
▁avail	-3097
▁будемо	-3098
▁майже	-3099
Ви	-3100
ister	-3101
кції	-3102
▁мар	-3103
iful	-3104
▁хоті	-3105
▁agree	-3106
яку	-3107
▁ща	-3108
▁words	-3109
▁президен	-3110
кові	-3111
▁dra	-3112
▁report	-3113
alf	-3114
гів	-3115
▁Також	-3116
cent	-3117
▁кноп	-3118
вать	-3119
▁coming	-3120
▁деся	-3121
oint	-3122
▁нор	-3123
щу	-3124
▁eat	-3125
сування	-3126
▁раніше	-3127
▁створю	-3128
зм	-3129
ментів	-3130
▁makes	-3131
cially	-3132
▁відчува	-3133
▁пору	-3134
▁Google	-3135
▁months	-3136
▁Le	-3137
▁доведе	-3138
▁finan	-3139
▁author	-3140
вністю	-3141
▁благо	-3142
▁heard	-3143
omen	-3144
▁air	-3145
▁речі	-3146
▁досяг	-3147
▁поло	-3148
▁помі	-3149
▁боро	-3150
▁багатьох	-3151
ency	-3152
пейсь	-3153
сити	-3154
дня	-3155
▁local	-3156
▁засто	-3157
лся	-3158
▁pur	-3159
▁webs	-3160
▁прин	-3161
▁спри	-3162
▁Without	-3163
▁prep	-3164
▁пошу	-3165
▁death	-3166
разу	-3167
ateg	-3168
ый	-3169
їха	-3170
▁написа	-3171
▁actually	-3172
▁United	-3173
льну	-3174
жень	-3175
▁sw	-3176
▁tool	-3177
▁Тепер	-3178
▁Would	-3179
дає	-3180
▁ша	-3181
▁коле	-3182
жувати	-3183
▁побачити	-3184
where	-3185
▁woman	-3186
ource	-3187
▁вашої	-3188
my	-3189
▁fr	-3190
▁Com	-3191
▁став	-3192
▁досить	-3193
▁ло	-3194
▁soon	-3195
▁reason	-3196
▁сторо	-3197
▁зло	-3198
▁Бог	-3199
▁close	-3200
най	-3201
док	-3202
слід	-3203
▁кар	-3204
шість	-3205
▁drink	-3206
201	-3207
▁меди	-3208
▁yet	-3209
▁food	-3210
▁воло	-3211
resent	-3212
▁later	-3213
графі	-3214
▁several	-3215
вають	-3216
юся	-3217
▁*	-3218
▁Дже	-3219
▁збира	-3220
▁відпо	-3221
▁декіль	-3222
▁тиж	-3223
▁#	-3224
ляти	-3225
▁Його	-3226
▁service	-3227
▁хлоп	-3228
▁місця	-3229
▁bas	-3230
▁важливо	-3231
iet	-3232
рита	-3233
▁нові	-3234
чено	-3235
▁был	-3236
▁hold	-3237
▁вби	-3238
дійс	-3239
▁lost	-3240
ext	-3241
▁Comm	-3242
десь	-3243
▁ele	-3244
▁такий	-3245
▁ха	-3246
▁знаємо	-3247
▁companies	-3248
ogn	-3249
▁online	-3250
aken	-3251
▁завер	-3252
тере	-3253
▁took	-3254
▁найбільш	-3255
ault	-3256
▁large	-3257
▁deal	-3258
▁маєте	-3259
▁двох	-3260
рою	-3261
▁products	-3262
нглі	-3263
▁обме	-3264
▁win	-3265
▁Us	-3266
▁дня	-3267
▁зберіга	-3268
▁available	-3269
дар	-3270
▁неї	-3271
блю	-3272
▁step	-3273
▁україн	-3274
▁мій	-3275
▁asked	-3276
▁quick	-3277
▁оці	-3278
▁впевне	-3279
▁повідомлення	-3280
витися	-3281
▁talking	-3282
ью	-3283
вана	-3284
▁given	-3285
зувати	-3286
▁пош	-3287
].	-3288
ky	-3289
ляр	-3290
ньої	-3291
▁Можна	-3292
▁Get	-3293
▁Нет	-3294
сур	-3295
▁відповідаль	-3296
▁save	-3297
дума	-3298
▁уже	-3299
▁type	-3300
▁polic	-3301
▁клю	-3302
▁hours	-3303
▁сдела	-3304
▁розгля	-3305
▁getting	-3306
ug	-3307
▁including	-3308
чувати	-3309
▁created	-3310
▁top	-3311
▁режи	-3312
▁light	-3313
рій	-3314
▁room	-3315
лась	-3316
▁доведеться	-3317
▁ваших	-3318
▁trust	-3319
▁країн	-3320
▁програма	-3321
рок	-3322
▁comes	-3323
ining	-3324
вому	-3325
▁допомага	-3326
ration	-3327
▁speak	-3328
▁States	-3329
нови	-3330
ump	-3331
▁educ	-3332
▁dead	-3333
▁At	-3334
▁бе	-3335
▁offer	-3336
▁військо	-3337
▁кре	-3338
▁здат	-3339
▁раді	-3340
iron	-3341
▁term	-3342
реш	-3343
ential	-3344
leep	-3345
дуть	-3346
▁якого	-3347
▁громадя	-3348
ery	-3349
▁bro	-3350
ктивно	-3351
▁есть	-3352
ament	-3353
▁хвили	-3354
йтеся	-3355
cl	-3356
▁йде	-3357
лено	-3358
▁happy	-3359
way	-3360
▁send	-3361
▁ними	-3362
▁cal	-3363
▁peace	-3364
aly	-3365
фіка	-3366
▁saw	-3367
▁тем	-3368
▁bit	-3369
ules	-3370
▁дів	-3371
▁змінити	-3372
дини	-3373
▁спосо	-3374
itary	-3375
eration	-3376
▁14	-3377
▁ек	-3378
▁17	-3379
▁набагато	-3380
▁нап	-3381
чень	-3382
шей	-3383
▁здійс	-3384
▁space	-3385
їв	-3386
▁нами	-3387
▁необхідно	-3388
ently	-3389
▁наза	-3390
▁proper	-3391
▁віль	-3392
▁ризи	-3393
▁security	-3394
come	-3395
▁continue	-3396
▁five	-3397
▁близько	-3398
▁side	-3399
тен	-3400
цен	-3401
▁новий	-3402
▁whether	-3403
▁13	-3404
▁наприклад	-3405
▁share	-3406
▁свя	-3407
▁створити	-3408
?”	-3409
▁Sy	-3410
▁если	-3411
▁створення	-3412
▁please	-3413
▁встанов	-3414
веді	-3415
▁нет	-3416
твер	-3417
▁lives	-3418
▁sorry	-3419
icle	-3420
DE	-3421
▁priv	-3422
▁повністю	-3423
▁аб	-3424
▁cost	-3425
idd	-3426
рам	-3427
▁rev	-3428
▁Ind	-3429
ерито	-3430
▁адре	-3431
▁longer	-3432
▁Ку	-3433
ury	-3434
▁Ди	-3435
▁прийня	-3436
▁нашої	-3437
idence	-3438
▁всього	-3439
▁дела	-3440
▁thous	-3441
▁40	-3442
▁knowledge	-3443
▁short	-3444
▁управ	-3445
▁parent	-3446
▁Пер	-3447
▁стосу	-3448
ources	-3449
?"	-3450
hod	-3451
▁accept	-3452
▁форма	-3453
▁Work	-3454
▁line	-3455
epend	-3456
▁--	-3457
▁націона	-3458
augh	-3459
▁фінансо	-3460
який	-3461
▁Роз	-3462
▁кому	-3463
50	-3464
▁went	-3465
▁зві	-3466
▁веб	-3467
lex	-3468
ills	-3469
ination	-3470
▁нашого	-3471
▁serious	-3472
▁відноси	-3473
▁research	-3474
ян	-3475
▁дола	-3476
▁одним	-3477
▁spend	-3478
pecially	-3479
▁press	-3480
▁matter	-3481
▁receive	-3482
▁мето	-3483
▁bab	-3484
ником	-3485
▁truth	-3486
olution	-3487
▁кожного	-3488
ajor	-3489
fer	-3490
▁трохи	-3491
▁могу	-3492
нти	-3493
▁світо	-3494
▁economic	-3495
▁search	-3496
▁поряд	-3497
igure	-3498
▁терито	-3499
блять	-3500
▁news	-3501
дувати	-3502
мовля	-3503
▁tem	-3504
▁друз	-3505
▁dream	-3506
▁пояс	-3507
iting	-3508
▁поля	-3509
▁днів	-3510
▁Спо	-3511
att	-3512
▁pain	-3513
дяки	-3514
▁пане	-3515
▁університе	-3516
▁дода	-3517
▁страте	-3518
▁якому	-3519
тньо	-3520
ео	-3521
ститу	-3522
▁одні	-3523
▁серйо	-3524
▁object	-3525
▁таким	-3526
▁national	-3527
▁global	-3528
▁вра	-3529
▁гар	-3530
сона	-3531
▁pot	-3532
ior	-3533
▁wants	-3534
▁comput	-3535
▁дж	-3536
юсь	-3537
▁cop	-3538
▁respect	-3539
мів	-3540
▁розді	-3541
▁accord	-3542
вини	-3543
▁watch	-3544
▁дві	-3545
▁contact	-3546
▁демокра	-3547
▁guy	-3548
▁Wind	-3549
▁opportunity	-3550
▁знаєш	-3551
▁son	-3552
▁спосіб	-3553
▁walk	-3554
▁ней	-3555
▁known	-3556
▁option	-3557
aps	-3558
oid	-3559
ріан	-3560
▁моде	-3561
▁manage	-3562
▁among	-3563
▁здоров	-3564
▁зроста	-3565
▁інформації	-3566
cus	-3567
aces	-3568
▁недо	-3569
outh	-3570
▁обі	-3571
ison	-3572
▁жі	-3573
▁eng	-3574
▁клієн	-3575
льним	-3576
▁Вели	-3577
▁розвитку	-3578
fu	-3579
▁,	-3580
por	-3581
вів	-3582
▁існує	-3583
▁Пра	-3584
▁каже	-3585
▁EU	-3586
▁Мені	-3587
▁маємо	-3588
▁recogn	-3589
▁кін	-3590
▁свобо	-3591
▁Нам	-3592
▁лід	-3593
ята	-3594
cle	-3595
лись	-3596
триму	-3597
ulation	-3598
▁relationship	-3599
▁аль	-3600
▁вказа	-3601
▁norm	-3602
▁started	-3603
ding	-3604
ivid	-3605
▁зму	-3606
▁guys	-3607
▁prin	-3608
▁files	-3609
▁suff	-3610
▁employ	-3611
▁adm	-3612
▁listen	-3613
лку	-3614
лы	-3615
▁робить	-3616
▁belie	-3617
▁хочемо	-3618
▁Можливо	-3619
ances	-3620
▁face	-3621
▁повинна	-3622
▁making	-3623
чин	-3624
льне	-3625
▁можливості	-3626
▁было	-3627
▁здесь	-3628
прави	-3629
eng	-3630
▁Some	-3631
▁міні	-3632
стр	-3633
▁моя	-3634
ной	-3635
▁bo	-3636
▁успіш	-3637
▁exact	-3638
▁area	-3639
▁склад	-3640
▁results	-3641
▁Did	-3642
rop	-3643
зму	-3644
ences	-3645
▁запо	-3646
▁своєї	-3647
нювати	-3648
▁Однак	-3649
▁clear	-3650
▁жод	-3651
▁пога	-3652
▁ласка	-3653
тр	-3654
▁isn	-3655
▁Тут	-3656
▁ваша	-3657
▁збіль	-3658
iol	-3659
▁сам	-3660
ваних	-3661
▁Таким	-3662
▁active	-3663
▁method	-3664
ов	-3665
▁зупи	-3666
▁En	-3667
▁країні	-3668
▁конку	-3669
▁having	-3670
▁вида	-3671
▁ква	-3672
▁дові	-3673
▁ресур	-3674
▁плану	-3675
▁сучас	-3676
▁pa	-3677
ков	-3678
▁насправді	-3679
▁жити	-3680
▁appear	-3681
▁дії	-3682
пре	-3683
▁відчу	-3684
▁представ	-3685
▁Please	-3686
▁випадку	-3687
▁цент	-3688
ike	-3689
▁когда	-3690
▁anyone	-3691
чив	-3692
тера	-3693
▁rights	-3694
use	-3695
сер	-3696
▁Ста	-3697
йде	-3698
▁дослідження	-3699
ec	-3700
зем	-3701
osp	-3702
діва	-3703
▁говорити	-3704
ott	-3705
vert	-3706
▁His	-3707
▁заяви	-3708
▁entire	-3709
▁житті	-3710
▁modern	-3711
▁скла	-3712
▁праг	-3713
▁particip	-3714
▁major	-3715
▁earth	-3716
▁hig	-3717
▁самі	-3718
▁military	-3719
рьох	-3720
▁хоча	-3721
▁Face	-3722
▁position	-3723
ique	-3724
▁уби	-3725
▁музи	-3726
▁розроб	-3727
▁society	-3728
▁Co	-3729
ереди	-3730
▁Pres	-3731
▁scient	-3732
▁age	-3733
▁всё	-3734
▁Man	-3735
▁виріши	-3736
дови	-3737
▁travel	-3738
▁експер	-3739
▁говорить	-3740
▁American	-3741
▁themselves	-3742
чка	-3743
ling	-3744
ube	-3745
▁prop	-3746
▁surpr	-3747
мося	-3748
вин	-3749
ission	-3750
medi	-3751
▁taking	-3752
▁Ді	-3753
▁phot	-3754
▁джере	-3755
▁Mar	-3756
▁partners	-3757
чен	-3758
▁App	-3759
orrow	-3760
▁brother	-3761
▁Ла	-3762
▁Пів	-3763
▁перет	-3764
воре	-3765
▁нових	-3766
ony	-3767
▁vers	-3768
▁зазна	-3769
▁represent	-3770
небудь	-3771
▁зображення	-3772
gest	-3773
▁налашт	-3774
▁своїм	-3775
iod	-3776
▁24	-3777
стити	-3778
▁website	-3779
▁financial	-3780
▁історії	-3781
ium	-3782
anks	-3783
▁охо	-3784
▁менше	-3785
▁effective	-3786
▁perform	-3787
;.	-3788
▁value	-3789
▁вимага	-3790
їз	-3791
▁Она	-3792
▁specific	-3793
▁чле	-3794
▁Кита	-3795
ising	-3796
різ	-3797
▁Су	-3798
▁жур	-3799
▁працює	-3800
▁neg	-3801
▁регі	-3802
▁env	-3803
▁safe	-3804
▁партн	-3805
▁either	-3806
▁bra	-3807
▁скоро	-3808
чку	-3809
▁Пре	-3810
▁бло	-3811
менту	-3812
▁організа	-3813
▁подіб	-3814
мовірно	-3815
▁призна	-3816
мк	-3817
▁sex	-3818
▁початку	-3819
sy	-3820
▁боль	-3821
лий	-3822
▁проблем	-3823
зок	-3824
нуть	-3825
солю	-3826
чними	-3827
▁знає	-3828
▁knows	-3829
лоба	-3830
▁living	-3831
зер	-3832
▁lose	-3833
▁sound	-3834
▁чека	-3835
▁всьому	-3836
гід	-3837
▁Ни	-3838
cause	-3839
▁address	-3840
▁land	-3841
gm	-3842
ats	-3843
▁зву	-3844
▁подоба	-3845
▁чоти	-3846
бота	-3847
▁Кон	-3848
▁fall	-3849
▁attack	-3850
▁малень	-3851
▁перекона	-3852
▁especially	-3853
▁міг	-3854
▁Su	-3855
міні	-3856
▁довго	-3857
▁Which	-3858
▁Facebook	-3859
▁Ph	-3860
▁гу	-3861
▁програм	-3862
▁зрозуміти	-3863
ры	-3864
▁Jes	-3865
▁уго	-3866
ung	-3867
▁beautiful	-3868
лка	-3869
сут	-3870
▁break	-3871
▁hands	-3872
▁China	-3873
цу	-3874
▁прива	-3875
▁опи	-3876
▁following	-3877
itiz	-3878
ply	-3879
▁быть	-3880
lu	-3881
▁discuss	-3882
▁Sc	-3883
йської	-3884
▁forg	-3885
▁sent	-3886
▁нега	-3887
▁English	-3888
▁z	-3889
дою	-3890
▁поперед	-3891
ialog	-3892
сив	-3893
ression	-3894
▁нез	-3895
▁Мар	-3896
sibility	-3897
▁minutes	-3898
▁ident	-3899
▁jo	-3900
суль	-3901
▁site	-3902
side	-3903
▁professional	-3904
▁пів	-3905
хом	-3906
▁Зем	-3907
▁Thus	-3908
▁меню	-3909
▁contain	-3910
▁списку	-3911
▁Every	-3912
▁участь	-3913
▁займа	-3914
шен	-3915
ients	-3916
▁fail	-3917
▁ваше	-3918
▁stat	-3919
сувати	-3920
▁Women	-3921
▁works	-3922
▁варіан	-3923
▁задово	-3924
рак	-3925
▁er	-3926
anger	-3927
▁Доб	-3928
itor	-3929
▁sleep	-3930
▁abs	-3931
▁собою	-3932
▁198	-3933
utions	-3934
▁спост	-3935
▁ap	-3936
▁communic	-3937
тель	-3938
▁lim	-3939
atever	-3940
ones	-3941
▁doctor	-3942
orth	-3943
▁enter	-3944
▁particular	-3945
ристо	-3946
▁lab	-3947
▁alone	-3948
by	-3949
▁міста	-3950
▁impro	-3951
fect	-3952
міну	-3953
rect	-3954
▁обра	-3955
▁файла	-3956
рд	-3957
▁будин	-3958
▁Pe	-3959
йся	-3960
стре	-3961
▁music	-3962
▁phys	-3963
▁la	-3964
▁answer	-3965
▁charact	-3966
▁нашу	-3967
▁Как	-3968
хів	-3969
▁half	-3970
▁Май	-3971
▁easy	-3972
▁тради	-3973
Name	-3974
разд	-3975
ська	-3976
▁кер	-3977
▁pray	-3978
▁dig	-3979
▁hon	-3980
▁усіх	-3981
▁рівень	-3982
▁обов	-3983
▁шука	-3984
co	-3985
▁individ	-3986
воро	-3987
▁sal	-3988
▁сла	-3989
▁became	-3990
▁item	-3991
▁Най	-3992
ційних	-3993
пів	-3994
▁saying	-3995
▁period	-3996
щий	-3997
▁fund	-3998
▁independ	-3999
▁legal	-4000
шла	-4001
сс	-4002
▁blood	-4003
▁безпеки	-4004
iter	-4005
▁eyes	-4006
спорт	-4007
▁chance	-4008
▁переда	-4009
робіт	-4010
▁готові	-4011
▁!	-4012
▁phone	-4013
▁чем	-4014
▁depend	-4015
▁network	-4016
▁хочуть	-4017
▁зви	-4018
чає	-4019
▁абсолю	-4020
▁більшість	-4021
joy	-4022
verse	-4023
▁parents	-4024
дить	-4025
▁hot	-4026
▁bene	-4027
▁перева	-4028
▁baby	-4029
aith	-4030
▁cou	-4031
▁amount	-4032
▁decision	-4033
ctions	-4034
▁пері	-4035
▁nat	-4036
▁orig	-4037
▁manag	-4038
▁consider	-4039
▁реко	-4040
▁President	-4041
▁бан	-4042
сію	-4043
pes	-4044
▁citiz	-4045
▁tri	-4046
цем	-4047
▁technology	-4048
▁одну	-4049
Ко	-4050
ниці	-4051
fully	-4052
кових	-4053
▁knew	-4054
▁відкрити	-4055
▁чис	-4056
▁фізи	-4057
▁color	-4058
soci	-4059
▁die	-4060
▁вмі	-4061
▁пита	-4062
▁перший	-4063
▁dou	-4064
▁Young	-4065
▁професій	-4066
ny	-4067
надто	-4068
▁sell	-4069
now	-4070
▁Ось	-4071
▁перемо	-4072
▁только	-4073
▁їхні	-4074
▁window	-4075
▁Будь	-4076
шній	-4077
▁mater	-4078
ironment	-4079
ological	-4080
лля	-4081
▁їй	-4082
▁inn	-4083
▁скільки	-4084
▁questions	-4085
новити	-4086
▁addition	-4087
▁ряд	-4088
шому	-4089
▁hur	-4090
▁нати	-4091
▁third	-4092
▁точно	-4093
▁indust	-4094
▁відповіда	-4095
▁command	-4096
гно	-4097
▁поди	-4098
▁foreign	-4099
▁віри	-4100
▁detail	-4101
▁потен	-4102
ane	-4103
▁осві	-4104
муть	-4105
▁подоро	-4106
ведення	-4107
▁story	-4108
▁immedi	-4109
ored	-4110
AR	-4111
▁enc	-4112
пуска	-4113
▁focus	-4114
▁action	-4115
▁members	-4116
▁скориста	-4117
коло	-4118
▁Jesus	-4119
▁simply	-4120
oot	-4121
▁message	-4122
▁document	-4123
tr	-4124
▁achieve	-4125
▁repl	-4126
нима	-4127
ected	-4128
read	-4129
▁легко	-4130
▁ve	-4131
ты	-4132
ches	-4133
edom	-4134
тних	-4135
▁cond	-4136
нець	-4137
▁вашу	-4138
▁діти	-4139
тери	-4140
▁відда	-4141
ability	-4142
▁Within	-4143
▁moment	-4144
▁кілько	-4145
▁такого	-4146
▁1.	-4147
▁anim	-4148
▁хотів	-4149
yle	-4150
ples	-4151
▁Me	-4152
▁шан	-4153
▁viol	-4154
▁wonder	-4155
віщо	-4156
▁російсь	-4157
трів	-4158
▁пора	-4159
▁taken	-4160
мір	-4161
cing	-4162
▁choice	-4163
▁Par	-4164
IN	-4165
ксу	-4166
▁дати	-4167
▁глоба	-4168
▁function	-4169
ям	-4170
tings	-4171
▁explain	-4172
▁user	-4173
▁attention	-4174
ТО	-4175
ape	-4176
чному	-4177
вах	-4178
жда	-4179
▁quite	-4180
ze	-4181
▁зга	-4182
ograph	-4183
▁они	-4184
lf	-4185
галі	-4186
▁Зав	-4187
▁служ	-4188
приєм	-4189
▁becom	-4190
▁різні	-4191
▁Am	-4192
чей	-4193
міна	-4194
▁post	-4195
▁wife	-4196
▁чита	-4197
▁Боже	-4198
ched	-4199
▁іншими	-4200
▁risk	-4201
▁Тоді	-4202
▁війни	-4203
to	-4204
▁прямо	-4205
▁image	-4206
▁техні	-4207
▁Просто	-4208
ead	-4209
par	-4210
ництва	-4211
▁ЄС	-4212
▁estab	-4213
rodu	-4214
▁ill	-4215
▁completely	-4216
te	-4217
▁Te	-4218
лює	-4219
erve	-4220
irit	-4221
30	-4222
руч	-4223
▁individual	-4224
ta	-4225
▁Мне	-4226
bt	-4227
▁thinking	-4228
▁Bl	-4229
▁зале	-4230
▁форму	-4231
▁single	-4232
▁співпра	-4233
шта	-4234
▁файл	-4235
ged	-4236
▁бачити	-4237
▁tre	-4238
тин	-4239
▁Good	-4240
▁годин	-4241
▁leaders	-4242
▁момент	-4243
▁потребу	-4244
На	-4245
▁помо	-4246
▁жаль	-4247
▁policy	-4248
никами	-4249
▁яким	-4250
▁назад	-4251
тій	-4252
▁реа	-4253
▁path	-4254
ivil	-4255
▁англі	-4256
ask	-4257
inist	-4258
uff	-4259
▁воро	-4260
ude	-4261
відоми	-4262
▁Вико	-4263
▁вну	-4264
кро	-4265
for	-4266
▁відомо	-4267
▁завдання	-4268
жо	-4269
▁правда	-4270
▁signific	-4271
▁гли	-4272
▁закон	-4273
▁весь	-4274
▁America	-4275
▁wish	-4276
▁переві	-4277
▁material	-4278
мом	-4279
ціа	-4280
▁pret	-4281
▁write	-4282
▁інтере	-4283
ule	-4284
▁Tra	-4285
▁killed	-4286
200	-4287
▁Earth	-4288
лем	-4289
▁Які	-4290
ете	-4291
▁Після	-4292
чий	-4293
▁обго	-4294
▁Br	-4295
▁needed	-4296
▁enjoy	-4297
▁determ	-4298
▁date	-4299
▁доларів	-4300
▁предста	-4301
сай	-4302
▁плане	-4303
вайте	-4304
▁benef	-4305
▁fav	-4306
▁record	-4307
▁розта	-4308
uly	-4309
дія	-4310
тії	-4311
▁kgm	-4312
▁jour	-4313
▁Sw	-4314
лений	-4315
рої	-4316
▁regard	-4317
▁Here	-4318
▁simple	-4319
▁смі	-4320
▁пові	-4321
льності	-4322
▁система	-4323
ended	-4324
▁usually	-4325
ots	-4326
▁сере	-4327
.)	-4328
▁порів	-4329
▁невели	-4330
▁побу	-4331
▁навчання	-4332
▁ann	-4333
▁тру	-4334
▁чоловік	-4335
зує	-4336
antly	-4337
▁сами	-4338
▁напо	-4339
читися	-4340
▁живе	-4341
▁tour	-4342
▁ніхто	-4343
▁забо	-4344
▁cra	-4345
▁x	-4346
▁жінок	-4347
▁dialog	-4348
▁іншого	-4349
ideo	-4350
▁rad	-4351
ware	-4352
волю	-4353
▁common	-4354
▁вікно	-4355
▁ефектив	-4356
▁Лі	-4357
▁forget	-4358
тріб	-4359
▁майбутнє	-4360
▁Ed	-4361
▁людя	-4362
▁повто	-4363
теся	-4364
ючись	-4365
▁сказала	-4366
▁21	-4367
▁воно	-4368
▁справж	-4369
ires	-4370
▁дізнатися	-4371
▁жа	-4372
▁quickly	-4373
▁hell	-4374
▁небезпе	-4375
▁регу	-4376
▁60	-4377
▁kids	-4378
mm	-4379
▁Тре	-4380
ises	-4381
▁пси	-4382
▁Фран	-4383
▁ens	-4384
▁гаран	-4385
▁upon	-4386
ims	-4387
▁University	-4388
бер	-4389
▁faith	-4390
▁Windows	-4391
лайн	-4392
"?	-4393
ційні	-4394
ilities	-4395
▁актив	-4396
мані	-4397
▁зов	-4398
▁нале	-4399
вного	-4400
▁вашому	-4401
unch	-4402
ole	-4403
тка	-4404
ilt	-4405
▁електрон	-4406
тру	-4407
▁бізнесу	-4408
▁computer	-4409
▁exactly	-4410
ler	-4411
▁циф	-4412
▁gave	-4413
▁відбу	-4414
▁занадто	-4415
▁mag	-4416
▁reform	-4417
▁зробили	-4418
ют	-4419
dom	-4420
▁зго	-4421
▁threat	-4422
▁прекра	-4423
ull	-4424
▁хі	-4425
▁мало	-4426
▁percent	-4427
▁projects	-4428
▁tw	-4429
ey	-4430
▁вдалося	-4431
▁environment	-4432
2.	-4433
▁morning	-4434
▁зовсім	-4435
▁нужно	-4436
чему	-4437
▁норма	-4438
▁?	-4439
нт	-4440
▁столі	-4441
▁itself	-4442
▁цін	-4443
шка	-4444
тому	-4445
▁Рі	-4446
чили	-4447
▁popular	-4448
▁підтвер	-4449
▁будет	-4450
цеп	-4451
▁шлях	-4452
▁though	-4453
sh	-4454
▁попу	-4455
This	-4456
▁comb	-4457
▁відео	-4458
▁interesting	-4459
put	-4460
▁successful	-4461
ски	-4462
▁зробив	-4463
▁Ag	-4464
▁правильно	-4465
▁своєму	-4466
▁країнах	-4467
▁принци	-4468
▁персона	-4469
▁Of	-4470
▁аналі	-4471
▁ката	-4472
▁мали	-4473
▁вияви	-4474
▁Ча	-4475
oly	-4476
▁Right	-4477
aring	-4478
мна	-4479
▁симво	-4480
▁2014	-4481
ilar	-4482
urther	-4483
▁jud	-4484
▁wouldn	-4485
▁partner	-4486
▁purp	-4487
▁based	-4488
шки	-4489
Tube	-4490
▁maybe	-4491
▁changed	-4492
▁sold	-4493
▁event	-4494
unt	-4495
▁began	-4496
▁ря	-4497
▁rules	-4498
▁якості	-4499
▁широ	-4500
▁потрібні	-4501
▁смо	-4502
ництво	-4503
▁твари	-4504
ites	-4505
▁pict	-4506
▁змін	-4507
вається	-4508
день	-4509
▁Internet	-4510
When	-4511
▁мною	-4512
▁freedom	-4513
▁список	-4514
▁величе	-4515
сід	-4516
▁Im	-4517
▁така	-4518
▁».	-4519
перше	-4520
▁стратегі	-4521
AN	-4522
▁ce	-4523
▁territ	-4524
жче	-4525
roy	-4526
▁любов	-4527
▁грошей	-4528
▁компанія	-4529
▁ant	-4530
▁ак	-4531
▁Maybe	-4532
eed	-4533
▁Ab	-4534
ush	-4535
▁page	-4536
▁previous	-4537
itten	-4538
▁інтер	-4539
▁autom	-4540
▁створе	-4541
гляд	-4542
▁автомобі	-4543
▁fear	-4544
▁yes	-4545
ському	-4546
ster	-4547
ется	-4548
▁inside	-4549
ступа	-4550
чною	-4551
▁непо	-4552
▁чор	-4553
▁according	-4554
▁рід	-4555
▁чудо	-4556
▁постійно	-4557
over	-4558
▁вибір	-4559
of	-4560
▁ал	-4561
▁тур	-4562
atives	-4563
hers	-4564
▁vict	-4565
▁users	-4566
чатку	-4567
▁проект	-4568
▁створи	-4569
▁systems	-4570
ген	-4571
▁разу	-4572
▁perfect	-4573
▁наст	-4574
▁будів	-4575
▁YouTube	-4576
▁tot	-4577
▁загро	-4578
ходу	-4579
▁окре	-4580
йського	-4581
▁natural	-4582
raid	-4583
▁Our	-4584
▁моли	-4585
рта	-4586
▁землі	-4587
▁запа	-4588
▁party	-4589
reng	-4590
публі	-4591
ees	-4592
лому	-4593
▁princi	-4594
▁Res	-4595
тек	-4596
тиме	-4597
▁six	-4598
▁education	-4599
ные	-4600
▁fac	-4601
▁немо	-4602
irm	-4603
▁законо	-4604
вна	-4605
▁стру	-4606
What	-4607
▁op	-4608
так	-4609
▁Інтерне	-4610
▁их	-4611
ensive	-4612
нський	-4613
▁місто	-4614
▁Отже	-4615
▁увагу	-4616
▁button	-4617
джа	-4618
▁opp	-4619
чених	-4620
▁конкре	-4621
ai	-4622
apan	-4623
▁кто	-4624
lished	-4625
▁early	-4626
wards	-4627
▁нена	-4628
▁закри	-4629
▁potential	-4630
нди	-4631
чній	-4632
▁деяких	-4633
ковий	-4634
▁rele	-4635
▁Дума	-4636
▁місяців	-4637
▁зазвичай	-4638
демо	-4639
▁unique	-4640
▁співробіт	-4641
▁втрати	-4642
▁мільйонів	-4643
▁camp	-4644
▁передба	-4645
▁хотіли	-4646
▁coop	-4647
irt	-4648
▁Се	-4649
aven	-4650
▁self	-4651
▁рівня	-4652
▁danger	-4653
▁наслід	-4654
єнта	-4655
▁Word	-4656
▁компа	-4657
▁заб	-4658
▁знання	-4659
▁Об	-4660
▁cir	-4661
▁эти	-4662
▁crit	-4663
▁selected	-4664
used	-4665
▁box	-4666
▁official	-4667
вал	-4668
▁НА	-4669
цями	-4670
▁require	-4671
▁жінки	-4672
▁підго	-4673
рять	-4674
▁source	-4675
▁various	-4676
plement	-4677
▁beginning	-4678
▁далі	-4679
▁рекомен	-4680
▁mer	-4681
▁rather	-4682
часно	-4683
▁bank	-4684
artment	-4685
фа	-4686
гає	-4687
▁была	-4688
▁хтось	-4689
▁матеріа	-4690
▁port	-4691
fact	-4692
ured	-4693
▁role	-4694
▁ways	-4695
▁людям	-4696
рони	-4697
пло	-4698
▁correct	-4699
▁очіку	-4700
▁допоможе	-4701
▁ple	-4702
▁інве	-4703
▁добро	-4704
▁non	-4705
▁democ	-4706
▁європейсь	-4707
ER	-4708
▁наша	-4709
ume	-4710
чок	-4711
▁happens	-4712
▁вибрати	-4713
urance	-4714
серед	-4715
▁fire	-4716
▁Хоче	-4717
▁Там	-4718
▁стає	-4719
uk	-4720
▁місці	-4721
▁streng	-4722
▁настільки	-4723
чих	-4724
imate	-4725
fortun	-4726
▁transl	-4727
▁Church	-4728
▁further	-4729
▁afraid	-4730
▁мережі	-4731
▁Ст	-4732
icro	-4733
▁юри	-4734
▁Brit	-4735
▁similar	-4736
▁Set	-4737
▁quality	-4738
▁immediately	-4739
▁wasn	-4740
▁click	-4741
▁skills	-4742
▁розши	-4743
▁файлів	-4744
▁потрібна	-4745
фи	-4746
дьми	-4747
ceed	-4748
▁дружи	-4749
▁припи	-4750
▁himself	-4751
▁отримаєте	-4752
▁слово	-4753
▁достатньо	-4754
▁мав	-4755
▁197	-4756
▁диза	-4757
▁sense	-4758
▁спеціаль	-4759
eal	-4760
куп	-4761
льність	-4762
▁нового	-4763
▁дитина	-4764
▁div	-4765
▁креди	-4766
▁Біль	-4767
▁actions	-4768
▁автомати	-4769
▁абсолютно	-4770
вы	-4771
▁implement	-4772
▁кош	-4773
erence	-4774
ators	-4775
▁Моло	-4776
▁price	-4777
▁проблема	-4778
load	-4779
itution	-4780
шко	-4781
▁Зе	-4782
▁сф	-4783
ціалі	-4784
▁Німе	-4785
▁понад	-4786
▁fine	-4787
;,	-4788
▁Cent	-4789
▁recomm	-4790
▁звичай	-4791
▁групи	-4792
▁наше	-4793
▁display	-4794
▁weap	-4795
▁Лю	-4796
▁Проте	-4797
oul	-4798
▁Rep	-4799
▁пло	-4800
▁tom	-4801
go	-4802
▁increase	-4803
▁Крім	-4804
▁received	-4805
irth	-4806
▁obs	-4807
▁одне	-4808
▁Ли	-4809
▁along	-4810
▁install	-4811
▁sometimes	-4812
ests	-4813
▁каза	-4814
▁інший	-4815
▁Union	-4816
▁проте	-4817
▁одному	-4818
▁options	-4819
▁пристро	-4820
лл	-4821
йоми	-4822
▁civil	-4823
▁Japan	-4824
▁попро	-4825
форму	-4826
▁mist	-4827
▁issues	-4828
▁president	-4829
гий	-4830
▁роди	-4831
▁init	-4832
▁Because	-4833
▁спроб	-4834
▁considered	-4835
10	-4836
gs	-4837
чч	-4838
▁звичайно	-4839
▁tradition	-4840
▁Was	-4841
кова	-4842
▁реалі	-4843
▁держави	-4844
▁дозволи	-4845
пти	-4846
ohn	-4847
лки	-4848
▁meeting	-4849
▁influ	-4850
▁пункт	-4851
▁gain	-4852
▁вікна	-4853
▁моє	-4854
▁enem	-4855
?»	-4856
гна	-4857
▁поз	-4858
vious	-4859
йну	-4860
▁Ваше	-4861
▁Two	-4862
вному	-4863
▁користувача	-4864
сон	-4865
▁000	-4866
▁areas	-4867
▁програму	-4868
▁відповідь	-4869
▁Ска	-4870
▁людьми	-4871
▁онлайн	-4872
ттє	-4873
▁шо	-4874
▁mult	-4875
▁гри	-4876
нам	-4877
▁teach	-4878
▁citizens	-4879
доби	-4880
▁мови	-4881
силь	-4882
▁Если	-4883
▁тисяч	-4884
▁керів	-4885
жива	-4886
мени	-4887
▁except	-4888
▁late	-4889
▁office	-4890
▁low	-4891
▁еще	-4892
▁nice	-4893
мках	-4894
▁thank	-4895
▁поле	-4896
живання	-4897
нює	-4898
urs	-4899
якого	-4900
▁мета	-4901
oon	-4902
▁imag	-4903
▁підви	-4904
▁redu	-4905
▁якої	-4906
▁conflic	-4907
che	-4908
тифіка	-4909
▁прово	-4910
вами	-4911
▁партне	-4912
▁destroy	-4913
кру	-4914
▁Uh	-4915
▁напря	-4916
▁Ту	-4917
стан	-4918
▁size	-4919
▁However	-4920
▁взяти	-4921
увала	-4922
▁positive	-4923
▁подобається	-4924
ят	-4925
▁Му	-4926
▁конфлі	-4927
▁International	-4928
▁uh	-4929
▁наскільки	-4930
▁інтерне	-4931
▁normal	-4932
▁outside	-4933
▁practice	-4934
ML	-4935
▁нави	-4936
▁reach	-4937
▁продовжу	-4938
▁events	-4939
▁bar	-4940
pped	-4941
▁ones	-4942
▁бю	-4943
asing	-4944
▁decided	-4945
▁Therefore	-4946
чь	-4947
нських	-4948
▁уніка	-4949
▁application	-4950
rought	-4951
▁процес	-4952
▁track	-4953
▁weeks	-4954
acy	-4955
▁рівні	-4956
▁запу	-4957
▁релі	-4958
тори	-4959
▁этого	-4960
ходять	-4961
▁Part	-4962
днання	-4963
трима	-4964
▁building	-4965
вним	-4966
▁сюди	-4967
▁зовні	-4968
▁сподіва	-4969
вет	-4970
ству	-4971
▁Tur	-4972
▁version	-4973
бой	-4974
▁cell	-4975
▁поши	-4976
▁знайдете	-4977
▁customers	-4978
!»	-4979
ili	-4980
▁важко	-4981
▁потра	-4982
▁управління	-4983
▁забу	-4984
Це	-4985
▁dam	-4986
▁іншим	-4987
2,	-4988
▁хвилин	-4989
шло	-4990
roll	-4991
решті	-4992
▁тобою	-4993
▁effort	-4994
imum	-4995
▁Open	-4996
▁worth	-4997
▁Європі	-4998
певно	-4999
▁production	-5000
wh	-5001
▁помер	-5002
мії	-5003
rew	-5004
like	-5005
дому	-5006
ndred	-5007
olute	-5008
▁Ле	-5009
opt	-5010
▁relig	-5011
▁знаходиться	-5012
нія	-5013
слуго	-5014
тора	-5015
хати	-5016
▁194	-5017
бів	-5018
▁Gu	-5019
oke	-5020
▁чі	-5021
▁invol	-5022
▁Qu	-5023
▁vol	-5024
▁своїй	-5025
▁стали	-5026
haps	-5027
▁Всі	-5028
▁нага	-5029
bo	-5030
▁worry	-5031
чита	-5032
ially	-5033
▁можеш	-5034
▁tax	-5035
▁(19	-5036
ko	-5037
тний	-5038
▁внутрі	-5039
▁может	-5040
af	-5041
▁вдо	-5042
▁behind	-5043
▁Germany	-5044
бом	-5045
▁Ge	-5046
itted	-5047
▁Mos	-5048
▁харак	-5049
▁disapp	-5050
світ	-5051
asure	-5052
новлення	-5053
▁бороть	-5054
usb	-5055
▁лу	-5056
▁ось	-5057
▁front	-5058
▁•	-5059
duct	-5060
▁Амери	-5061
▁незалеж	-5062
▁Ukrainians	-5063
▁2015	-5064
селення	-5065
▁allows	-5066
▁мир	-5067
fortunately	-5068
▁спостеріга	-5069
▁died	-5070
им	-5071
фон	-5072
▁character	-5073
▁avoid	-5074
0-	-5075
кош	-5076
▁Церк	-5077
▁subject	-5078
ціо	-5079
▁door	-5080
▁comfort	-5081
▁Che	-5082
▁police	-5083
isions	-5084
тельно	-5085
▁assist	-5086
▁bud	-5087
▁почати	-5088
▁поро	-5089
▁перебува	-5090
▁private	-5091
▁>	-5092
ada	-5093
▁сей	-5094
▁pack	-5095
▁purch	-5096
пля	-5097
▁інозем	-5098
▁поверта	-5099
еріть	-5100
▁added	-5101
▁Німеч	-5102
zy	-5103
nal	-5104
rap	-5105
▁перш	-5106
▁якій	-5107
▁Use	-5108
▁Ісу	-5109
▁Allah	-5110
▁model	-5111
▁підтримки	-5112
сний	-5113
▁этом	-5114
чать	-5115
1.	-5116
▁області	-5117
▁Росія	-5118
!"	-5119
▁знають	-5120
▁жерт	-5121
▁resources	-5122
ниця	-5123
▁due	-5124
▁дале	-5125
▁кордо	-5126
▁pretty	-5127
reme	-5128
чего	-5129
gu	-5130
key	-5131
нув	-5132
▁Слу	-5133
▁числі	-5134
▁використов	-5135
oice	-5136
▁вір	-5137
▁якими	-5138
вної	-5139
хні	-5140
istic	-5141
▁tried	-5142
sych	-5143
▁сен	-5144
▁black	-5145
▁medical	-5146
▁tomorrow	-5147
нено	-5148
▁тео	-5149
▁myself	-5150
▁King	-5151
▁clos	-5152
▁economy	-5153
вісти	-5154
▁super	-5155
gn	-5156
рення	-5157
▁clean	-5158
men	-5159
▁можли	-5160
▁поведі	-5161
lcome	-5162
▁deep	-5163
▁карти	-5164
тків	-5165
▁Have	-5166
▁content	-5167
▁трьох	-5168
▁навколо	-5169
▁fast	-5170
▁hundred	-5171
▁поко	-5172
▁Давай	-5173
light	-5174
▁своїми	-5175
▁склада	-5176
une	-5177
слов	-5178
▁War	-5179
▁Aust	-5180
ressed	-5181
▁её	-5182
▁Жін	-5183
▁Car	-5184
▁Люди	-5185
▁наді	-5186
icient	-5187
▁сталося	-5188
ying	-5189
▁management	-5190
тує	-5191
нські	-5192
▁gone	-5193
rench	-5194
зії	-5195
того	-5196
▁Any	-5197
▁усь	-5198
▁menu	-5199
▁роль	-5200
▁across	-5201
▁Пи	-5202
▁culture	-5203
▁regular	-5204
ports	-5205
▁реда	-5206
▁takes	-5207
▁perm	-5208
▁разів	-5209
▁brought	-5210
▁публі	-5211
▁however	-5212
▁природ	-5213
▁ten	-5214
▁required	-5215
head	-5216
▁guess	-5217
▁нев	-5218
▁favor	-5219
▁ее	-5220
dict	-5221
▁Rem	-5222
▁дозволяє	-5223
мка	-5224
inary	-5225
▁похо	-5226
▁дні	-5227
▁зру	-5228
▁concern	-5229
▁потрібен	-5230
шай	-5231
▁behav	-5232
▁викли	-5233
▁higher	-5234
▁ради	-5235
▁конта	-5236
ification	-5237
▁community	-5238
▁born	-5239
ерен	-5240
▁вне	-5241
▁haven	-5242
▁Потріб	-5243
щих	-5244
▁innov	-5245
▁separ	-5246
▁dise	-5247
▁запла	-5248
ruction	-5249
▁результати	-5250
▁мл	-5251
дять	-5252
aught	-5253
iding	-5254
▁дере	-5255
itle	-5256
▁birth	-5257
▁роблять	-5258
гор	-5259
▁хочеш	-5260
bar	-5261
рой	-5262
▁Ав	-5263
▁дома	-5264
▁звід	-5265
▁likely	-5266
▁правило	-5267
шує	-5268
▁рекла	-5269
▁часом	-5270
▁struct	-5271
▁здається	-5272
▁1,	-5273
cious	-5274
▁town	-5275
▁nature	-5276
▁hor	-5277
▁телефо	-5278
▁mot	-5279
bit	-5280
word	-5281
▁умо	-5282
ційно	-5283
▁макси	-5284
як	-5285
empt	-5286
лена	-5287
▁сили	-5288
▁video	-5289
▁organiz	-5290
▁структу	-5291
▁працюють	-5292
ціка	-5293
▁emot	-5294
▁клаві	-5295
жать	-5296
▁teac	-5297
▁chall	-5298
▁лікар	-5299
▁уря	-5300
▁організації	-5301
▁cred	-5302
▁додому	-5303
▁Бе	-5304
якую	-5305
▁cla	-5306
▁цен	-5307
динок	-5308
▁частиною	-5309
▁cover	-5310
▁gen	-5311
▁бере	-5312
▁проекту	-5313
Коли	-5314
▁приро	-5315
▁Ser	-5316
▁вибра	-5317
▁cut	-5318
▁величез	-5319
▁Tw	-5320
мпані	-5321
▁Afric	-5322
лами	-5323
вить	-5324
чора	-5325
▁cause	-5326
▁чим	-5327
льному	-5328
▁waiting	-5329
▁відповідно	-5330
▁block	-5331
▁People	-5332
рий	-5333
▁John	-5334
▁fold	-5335
▁near	-5336
▁pick	-5337
▁KDE	-5338
▁red	-5339
▁інте	-5340
ATO	-5341
▁deg	-5342
▁East	-5343
▁Поль	-5344
▁instead	-5345
▁грі	-5346
asons	-5347
ередині	-5348
▁забезпечення	-5349
▁=	-5350
гій	-5351
▁force	-5352
ква	-5353
нули	-5354
▁син	-5355
apt	-5356
▁приз	-5357
▁кольо	-5358
▁частина	-5359
▁христи	-5360
▁improve	-5361
▁Show	-5362
▁looks	-5363
▁крити	-5364
▁Європи	-5365
стві	-5366
▁cases	-5367
1,	-5368
ради	-5369
▁боку	-5370
▁Cr	-5371
▁всю	-5372
▁йти	-5373
▁fully	-5374
тяг	-5375
▁дає	-5376
▁одя	-5377
▁полу	-5378
▁серйоз	-5379
▁запропону	-5380
Не	-5381
dy	-5382
кой	-5383
▁пропози	-5384
▁завтра	-5385
шень	-5386
▁conv	-5387
▁org	-5388
▁запита	-5389
вує	-5390
▁associ	-5391
▁programs	-5392
▁exc	-5393
▁arri	-5394
▁декілька	-5395
бач	-5396
ствен	-5397
▁road	-5398
чений	-5399
▁Cont	-5400
▁вилу	-5401
▁емо	-5402
▁піти	-5403
▁підтримку	-5404
▁interested	-5405
ney	-5406
▁doll	-5407
▁станда	-5408
oo	-5409
▁швидше	-5410
▁взагалі	-5411
нського	-5412
▁нашому	-5413
▁Они	-5414
▁collect	-5415
▁understanding	-5416
[1	-5417
▁справи	-5418
▁анти	-5419
liament	-5420
▁values	-5421
▁insurance	-5422
▁допомоги	-5423
▁German	-5424
▁інвести	-5425
чем	-5426
▁Conf	-5427
▁копі	-5428
▁196	-5429
arant	-5430
▁очень	-5431
буть	-5432
▁Min	-5433
▁deli	-5434
▁засо	-5435
▁dru	-5436
бере	-5437
▁хоте	-5438
▁підприєм	-5439
amer	-5440
reet	-5441
дера	-5442
▁Дру	-5443
▁husb	-5444
▁introdu	-5445
сна	-5446
важаючи	-5447
▁застосо	-5448
▁Із	-5449
▁студентів	-5450
estern	-5451
▁сейчас	-5452
▁гово	-5453
▁conditions	-5454
▁UN	-5455
illions	-5456
▁великий	-5457
▁gas	-5458
▁Кар	-5459
▁mass	-5460
▁стала	-5461
▁будинку	-5462
дами	-5463
тре	-5464
cript	-5465
▁безкош	-5466
гами	-5467
дина	-5468
▁віру	-5469
▁apply	-5470
▁French	-5471
▁planet	-5472
сві	-5473
▁tar	-5474
▁твої	-5475
cer	-5476
▁води	-5477
▁activities	-5478
▁воз	-5479
▁Бого	-5480
aughter	-5481
▁defin	-5482
роз	-5483
▁progress	-5484
ev	-5485
inese	-5486
▁прид	-5487
▁справді	-5488
▁aud	-5489
▁ord	-5490
oss	-5491
▁ху	-5492
нутися	-5493
▁store	-5494
▁Inst	-5495
▁шта	-5496
AS	-5497
ighb	-5498
▁soul	-5499
▁твоя	-5500
▁above	-5501
▁прості	-5502
▁harm	-5503
▁фотографі	-5504
▁свід	-5505
anna	-5506
нува	-5507
▁Those	-5508
▁систему	-5509
▁laws	-5510
aste	-5511
iddle	-5512
▁остан	-5513
вок	-5514
пустити	-5515
▁дитини	-5516
lear	-5517
▁built	-5518
▁вигра	-5519
▁tou	-5520
▁career	-5521
▁рамках	-5522
▁маю	-5523
▁адже	-5524
▁миші	-5525
▁spirit	-5526
▁goes	-5527
action	-5528
наймні	-5529
reci	-5530
▁виконання	-5531
▁surv	-5532
шувати	-5533
▁обіця	-5534
▁середови	-5535
racy	-5536
▁писа	-5537
▁учас	-5538
ційний	-5539
▁енергії	-5540
▁команди	-5541
iles	-5542
▁допомогу	-5543
IS	-5544
▁dark	-5545
▁wall	-5546
▁media	-5547
▁номер	-5548
▁план	-5549
▁досягти	-5550
▁ideas	-5551
▁easily	-5552
▁By	-5553
▁кана	-5554
▁показано	-5555
▁industry	-5556
жені	-5557
▁поту	-5558
▁відсо	-5559
uration	-5560
гети	-5561
▁кажу	-5562
▁діалого	-5563
▁прине	-5564
▁побачите	-5565
▁посила	-5566
▁carry	-5567
yn	-5568
ды	-5569
ступу	-5570
▁ensure	-5571
▁Пара	-5572
▁включа	-5573
▁досягнення	-5574
ma	-5575
фри	-5576
▁сте	-5577
пто	-5578
▁зди	-5579
чевид	-5580
mail	-5581
▁web	-5582
нської	-5583
▁Зараз	-5584
▁прийняти	-5585
▁жінка	-5586
▁worked	-5587
▁Col	-5588
▁куди	-5589
▁Day	-5590
▁хви	-5591
зніше	-5592
▁нею	-5593
▁medic	-5594
▁увазі	-5595
▁Сер	-5596
▁Thank	-5597
▁sun	-5598
itch	-5599
sequ	-5600
sec	-5601
▁взя	-5602
amed	-5603
▁пом	-5604
▁колі	-5605
▁places	-5606
пара	-5607
▁activity	-5608
▁largest	-5609
▁уряд	-5610
▁файли	-5611
▁Pre	-5612
▁useful	-5613
▁Chinese	-5614
▁фе	-5615
мець	-5616
енера	-5617
▁чотири	-5618
7-	-5619
str	-5620
юз	-5621
▁ability	-5622
▁fucking	-5623
erc	-5624
йма	-5625
cient	-5626
▁Навіщо	-5627
▁ситуації	-5628
▁dom	-5629
▁seek	-5630
▁husband	-5631
ME	-5632
▁или	-5633
▁зобов	-5634
▁історію	-5635
▁бачили	-5636
▁copy	-5637
face	-5638
het	-5639
▁двер	-5640
▁нову	-5641
▁colle	-5642
▁physical	-5643
▁Ty	-5644
City	-5645
rael	-5646
3,	-5647
▁hosp	-5648
▁фран	-5649
▁loss	-5650
▁акти	-5651
ftware	-5652
ней	-5653
▁больше	-5654
▁відразу	-5655
лок	-5656
▁2.	-5657
немо	-5658
сили	-5659
тації	-5660
▁поза	-5661
▁North	-5662
▁Росі	-5663
спекти	-5664
▁сма	-5665
▁song	-5666
▁absolute	-5667
▁діяльності	-5668
▁скористатися	-5669
▁Ті	-5670
єшся	-5671
▁сті	-5672
▁gives	-5673
▁приго	-5674
дування	-5675
жіть	-5676
метри	-5677
▁межа	-5678
▁якби	-5679
гази	-5680
▁чув	-5681
льними	-5682
▁aware	-5683
▁друзів	-5684
atically	-5685
▁allowed	-5686
▁forward	-5687
▁written	-5688
▁вашим	-5689
▁відріз	-5690
▁заявив	-5691
▁майбутньому	-5692
ціями	-5693
▁клієнтів	-5694
▁bed	-5695
▁Сло	-5696
▁Comp	-5697
▁engine	-5698
cil	-5699
▁всім	-5700
▁goal	-5701
▁strateg	-5702
more	-5703
▁psych	-5704
▁послуг	-5705
▁отримання	-5706
▁responsible	-5707
▁кімна	-5708
▁90	-5709
crib	-5710
тего	-5711
▁диви	-5712
terday	-5713
▁законодав	-5714
нем	-5715
нить	-5716
▁gets	-5717
▁руки	-5718
▁seems	-5719
▁думку	-5720
);	-5721
тон	-5722
язані	-5723
▁aren	-5724
▁ship	-5725
▁успіху	-5726
▁creation	-5727
▁Per	-5728
▁зах	-5729
▁king	-5730
▁Gr	-5731
▁See	-5732
явити	-5733
▁whom	-5734
▁бачив	-5735
▁obtain	-5736
val	-5737
▁table	-5738
▁century	-5739
▁treatment	-5740
▁sir	-5741
▁мою	-5742
никнути	-5743
cul	-5744
рті	-5745
▁галу	-5746
ued	-5747
▁indic	-5748
▁населення	-5749
adem	-5750
▁літа	-5751
▁гор	-5752
▁general	-5753
3.	-5754
▁поня	-5755
▁статті	-5756
▁Звичайно	-5757
▁Jew	-5758
▁заванта	-5759
atform	-5760
▁іннова	-5761
▁політики	-5762
▁вимо	-5763
▁shows	-5764
▁training	-5765
▁президент	-5766
важ	-5767
view	-5768
▁вря	-5769
льною	-5770
▁контек	-5771
▁купити	-5772
-2	-5773
mber	-5774
бувати	-5775
ляє	-5776
▁leav	-5777
▁Землі	-5778
lt	-5779
чит	-5780
▁живу	-5781
▁змен	-5782
близно	-5783
якої	-5784
▁yeah	-5785
▁зміню	-5786
▁opportunities	-5787
бто	-5788
▁лікування	-5789
казів	-5790
лежно	-5791
▁France	-5792
▁коха	-5793
роби	-5794
рко	-5795
▁swe	-5796
▁рах	-5797
▁issue	-5798
▁грати	-5799
trl	-5800
▁справед	-5801
▁налаштування	-5802
▁shit	-5803
▁member	-5804
▁neighb	-5805
▁будинок	-5806
чер	-5807
▁Ру	-5808
▁кру	-5809
▁питань	-5810
▁running	-5811
▁знадоби	-5812
▁Божи	-5813
▁менш	-5814
▁bless	-5815
▁метою	-5816
▁оброб	-5817
▁електро	-5818
▁thousand	-5819
вну	-5820
нська	-5821
▁події	-5822
рите	-5823
▁link	-5824
▁complex	-5825
▁feeling	-5826
▁захища	-5827
ience	-5828
▁таку	-5829
▁дис	-5830
icles	-5831
▁arch	-5832
▁відмови	-5833
▁Mon	-5834
▁декілько	-5835
▁sat	-5836
▁грав	-5837
▁concept	-5838
▁sugg	-5839
▁Тво	-5840
▁бор	-5841
▁Dis	-5842
▁робота	-5843
▁guarant	-5844
ОН	-5845
▁аби	-5846
PS	-5847
▁Father	-5848
щё	-5849
стри	-5850
▁State	-5851
▁глибо	-5852
сшта	-5853
▁друго	-5854
▁currently	-5855
▁Їх	-5856
▁нашим	-5857
лювання	-5858
▁Israel	-5859
▁documents	-5860
▁trade	-5861
▁розум	-5862
▁прийма	-5863
▁default	-5864
aff	-5865
rict	-5866
▁pub	-5867
▁Ско	-5868
▁couldn	-5869
▁магази	-5870
▁reality	-5871
!”	-5872
▁Wr	-5873
▁investig	-5874
ES	-5875
▁groups	-5876
▁Че	-5877
ніть	-5878
ategy	-5879
ктора	-5880
ван	-5881
▁викону	-5882
uses	-5883
▁intell	-5884
ival	-5885
▁cook	-5886
▁Добре	-5887
▁+	-5888
▁brain	-5889
ossible	-5890
▁server	-5891
▁Like	-5892
ниць	-5893
сю	-5894
бло	-5895
▁host	-5896
▁mention	-5897
▁ourselves	-5898
▁документа	-5899
лет	-5900
though	-5901
▁надій	-5902
ччя	-5903
▁device	-5904
▁пошуку	-5905
мей	-5906
▁USA	-5907
▁хорошо	-5908
▁attempt	-5909
ств	-5910
▁зе	-5911
▁гла	-5912
▁secret	-5913
▁capital	-5914
ON	-5915
▁Art	-5916
▁states	-5917
щим	-5918
▁бре	-5919
▁мого	-5920
▁Trans	-5921
По	-5922
▁факти	-5923
.’	-5924
ses	-5925
▁Poland	-5926
плю	-5927
▁кос	-5928
▁maintain	-5929
▁залишається	-5930
obile	-5931
▁народу	-5932
▁standard	-5933
▁protection	-5934
мось	-5935
▁прихо	-5936
▁reasons	-5937
▁частину	-5938
▁Dr	-5939
▁TV	-5940
anced	-5941
▁Only	-5942
▁da	-5943
▁log	-5944
cies	-5945
ближ	-5946
шнього	-5947
▁books	-5948
▁систем	-5949
▁science	-5950
лах	-5951
oman	-5952
arian	-5953
▁fram	-5954
▁зада	-5955
▁ціл	-5956
▁покуп	-5957
▁розповід	-5958
▁2020	-5959
ternal	-5960
▁должен	-5961
▁повідоми	-5962
▁відмін	-5963
▁transfer	-5964
aint	-5965
▁шкі	-5966
▁досі	-5967
ux	-5968
▁god	-5969
▁попере	-5970
там	-5971
чим	-5972
▁trou	-5973
▁секу	-5974
▁80	-5975
rest	-5976
▁status	-5977
ремя	-5978
▁card	-5979
▁захисту	-5980
▁кінця	-5981
▁процеду	-5982
▁ск	-5983
den	-5984
ges	-5985
▁2018	-5986
▁оголо	-5987
▁therefore	-5988
дну	-5989
▁hy	-5990
▁Des	-5991
ufact	-5992
▁нашій	-5993
нибудь	-5994
▁смерті	-5995
▁married	-5996
▁Vol	-5997
▁оби	-5998
▁випро	-5999
▁зберегти	-6000
пх	-6001
lin	-6002
▁озна	-6003
▁сю	-6004
▁Україну	-6005
▁бажаєте	-6006
iable	-6007
▁сайт	-6008
▁gotta	-6009
▁ймовірно	-6010
ops	-6011
▁22	-6012
▁молоди	-6013
▁комі	-6014
itting	-6015
▁Програ	-6016
▁сказали	-6017
▁приймати	-6018
▁території	-6019
вез	-6020
▁тіло	-6021
eter	-6022
▁плат	-6023
▁Треба	-6024
▁проводи	-6025
▁luck	-6026
▁forces	-6027
▁молоді	-6028
▁прости	-6029
▁нес	-6030
▁країна	-6031
▁contract	-6032
▁thousands	-6033
:%	-6034
▁іме	-6035
▁Авто	-6036
▁поїз	-6037
▁порівня	-6038
▁Whether	-6039
▁відчувати	-6040
.,	-6041
ned	-6042
▁cry	-6043
▁вули	-6044
itness	-6045
▁Har	-6046
▁період	-6047
wor	-6048
▁circ	-6049
▁важливі	-6050
бами	-6051
▁billion	-6052
▁почуття	-6053
▁Take	-6054
▁hurt	-6055
язково	-6056
▁decide	-6057
oms	-6058
▁mur	-6059
▁засно	-6060
▁developed	-6061
▁Нас	-6062
▁вбив	-6063
%.	-6064
єр	-6065
▁Вер	-6066
єтесь	-6067
▁уста	-6068
▁Аллаха	-6069
▁Ще	-6070
▁Який	-6071
▁котор	-6072
▁Тільки	-6073
▁proced	-6074
▁батьків	-6075
За	-6076
вре	-6077
▁2008	-6078
ных	-6079
щен	-6080
ською	-6081
▁виде	-6082
▁циві	-6083
▁happening	-6084
▁transport	-6085
▁Ло	-6086
▁місти	-6087
▁couple	-6088
▁великі	-6089
▁компаній	-6090
▁завдяки	-6091
▁responsibility	-6092
hib	-6093
▁IP	-6094
▁влади	-6095
▁кажуть	-6096
▁becomes	-6097
▁Використо	-6098
▁руха	-6099
▁заборо	-6100
▁conduct	-6101
▁НАТО	-6102
▁chann	-6103
▁назву	-6104
▁Три	-6105
▁Ctrl	-6106
▁виклика	-6107
сне	-6108
▁дра	-6109
▁region	-6110
▁Потрібно	-6111
▁продукти	-6112
▁параметри	-6113
ober	-6114
▁dad	-6115
▁Голо	-6116
▁паці	-6117
▁white	-6118
▁перего	-6119
йом	-6120
▁вий	-6121
ached	-6122
▁attract	-6123
▁неможливо	-6124
▁difference	-6125
▁Serv	-6126
▁користувачів	-6127
aced	-6128
▁Char	-6129
▁List	-6130
▁plans	-6131
▁pregn	-6132
▁contrib	-6133
▁визначити	-6134
5.	-6135
тий	-6136
▁earn	-6137
▁твор	-6138
▁шляху	-6139
ністю	-6140
▁придба	-6141
▁ему	-6142
▁opin	-6143
▁типо	-6144
▁significant	-6145
In	-6146
▁енергети	-6147
▁fair	-6148
▁fill	-6149
▁думати	-6150
▁бажання	-6151
▁зні	-6152
▁Under	-6153
▁ur	-6154
йська	-6155
▁журналі	-6156
▁learning	-6157
▁дого	-6158
▁whatever	-6159
гада	-6160
▁катего	-6161
▁спочатку	-6162
▁pie	-6163
▁мой	-6164
ську	-6165
▁held	-6166
▁суд	-6167
▁праців	-6168
▁пункту	-6169
▁громадян	-6170
▁соба	-6171
7.	-6172
нк	-6173
▁mach	-6174
▁популяр	-6175
▁organization	-6176
▁et	-6177
▁task	-6178
▁email	-6179
nown	-6180
▁ау	-6181
▁бід	-6182
▁acqu	-6183
▁вище	-6184
кового	-6185
▁контра	-6186
▁принаймні	-6187
щити	-6188
чої	-6189
):	-6190
▁краси	-6191
▁розташо	-6192
▁технології	-6193
нак	-6194
▁после	-6195
9,	-6196
воду	-6197
зова	-6198
▁huge	-6199
▁продовжувати	-6200
iverse	-6201
▁іноді	-6202
▁cooperation	-6203
RL	-6204
und	-6205
wise	-6206
▁Спа	-6207
якому	-6208
▁взаємо	-6209
la	-6210
roud	-6211
▁цифро	-6212
ём	-6213
▁Ар	-6214
▁мисте	-6215
▁громад	-6216
вості	-6217
▁разі	-6218
With	-6219
ючих	-6220
▁ton	-6221
ologies	-6222
▁вперше	-6223
▁article	-6224
▁конкурен	-6225
▁психо	-6226
тування	-6227
▁приблизно	-6228
▁York	-6229
▁Group	-6230
▁belong	-6231
▁finally	-6232
viet	-6233
ютер	-6234
▁сама	-6235
▁найближ	-6236
▁extra	-6237
▁країну	-6238
або	-6239
/201	-6240
▁Sam	-6241
▁shoot	-6242
▁types	-6243
гідно	-6244
▁occur	-6245
▁народи	-6246
ях	-6247
▁connect	-6248
▁розуміння	-6249
son	-6250
▁жиз	-6251
▁Господь	-6252
▁холо	-6253
▁28	-6254
ria	-6255
тар	-6256
▁кита	-6257
▁виклю	-6258
▁рефор	-6259
▁володі	-6260
▁подума	-6261
▁отримали	-6262
▁Em	-6263
тесь	-6264
▁Select	-6265
▁луч	-6266
▁коло	-6267
ese	-6268
▁Sm	-6269
▁вся	-6270
▁юриди	-6271
▁тя	-6272
right	-6273
▁заціка	-6274
тного	-6275
ційного	-6276
▁manufact	-6277
▁repe	-6278
▁stuff	-6279
▁original	-6280
▁Sec	-6281
▁agg	-6282
▁ear	-6283
▁заги	-6284
▁turned	-6285
▁міжнародних	-6286
▁Med	-6287
ницю	-6288
▁ціну	-6289
▁постій	-6290
▁якою	-6291
change	-6292
▁powerful	-6293
▁причин	-6294
дру	-6295
▁Bel	-6296
▁NATO	-6297
▁прибу	-6298
▁рахун	-6299
▁ринку	-6300
60	-6301
▁Him	-6302
▁Кри	-6303
▁Wait	-6304
▁наго	-6305
ring	-6306
▁terms	-6307
▁партнер	-6308
▁bord	-6309
▁animals	-6310
40	-6311
▁сх	-6312
▁conflict	-6313
erg	-6314
▁Нью	-6315
▁Apple	-6316
▁Gener	-6317
▁affect	-6318
▁recommend	-6319
airs	-6320
enty	-6321
▁2010	-6322
▁surprised	-6323
ціях	-6324
▁girls	-6325
▁бачимо	-6326
▁evidence	-6327
тком	-6328
▁напа	-6329
▁зустріча	-6330
4)	-6331
▁Джей	-6332
▁provided	-6333
ій	-6334
▁foot	-6335
7,	-6336
▁mail	-6337
рувати	-6338
itation	-6339
ным	-6340
▁figure	-6341
▁healthy	-6342
Com	-6343
▁Дуже	-6344
мий	-6345
ное	-6346
▁hit	-6347
▁десяти	-6348
▁realize	-6349
▁request	-6350
▁70	-6351
▁Mus	-6352
▁First	-6353
▁format	-6354
▁зао	-6355
▁basis	-6356
ped	-6357
▁встановити	-6358
▁flo	-6359
ством	-6360
▁drive	-6361
▁proud	-6362
▁population	-6363
eth	-6364
▁Ри	-6365
▁вашій	-6366
ef	-6367
▁[-	-6368
чаль	-6369
▁себя	-6370
▁title	-6371
aries	-6372
▁пря	-6373
▁консуль	-6374
▁підписа	-6375
два	-6376
▁clot	-6377
aur	-6378
ходити	-6379
▁demon	-6380
▁advert	-6381
▁станови	-6382
▁цією	-6383
▁cross	-6384
▁speed	-6385
▁люблю	-6386
▁remind	-6387
▁зір	-6388
▁Хоро	-6389
▁бюдже	-6390
itude	-6391
▁terror	-6392
▁weapons	-6393
▁спробувати	-6394
шся	-6395
лях	-6396
▁500	-6397
▁мерт	-6398
▁purpose	-6399
▁послуги	-6400
▁повернутися	-6401
▁truly	-6402
▁основі	-6403
▁playing	-6404
name	-6405
▁gun	-6406
▁пунк	-6407
▁повіт	-6408
▁контролю	-6409
Та	-6410
▁liter	-6411
▁territory	-6412
▁hair	-6413
▁cy	-6414
▁парла	-6415
uclear	-6416
▁Джо	-6417
▁сексу	-6418
▁почали	-6419
▁полягає	-6420
▁спільно	-6421
сня	-6422
▁exec	-6423
▁journal	-6424
▁представля	-6425
чик	-6426
cell	-6427
▁церк	-6428
▁names	-6429
mbol	-6430
▁Net	-6431
▁tab	-6432
▁мило	-6433
▁шанс	-6434
▁Через	-6435
▁sum	-6436
▁cars	-6437
▁Ir	-6438
ider	-6439
lebr	-6440
▁independent	-6441
▁рас	-6442
▁South	-6443
▁панелі	-6444
▁відповідає	-6445
▁Win	-6446
▁шукати	-6447
▁вважають	-6448
▁стосується	-6449
▁range	-6450
▁shown	-6451
▁різно	-6452
▁точки	-6453
inc	-6454
▁виста	-6455
▁сфері	-6456
▁complet	-6457
мы	-6458
ero	-6459
▁кора	-6460
▁center	-6461
▁details	-6462
▁join	-6463
▁види	-6464
▁стрі	-6465
▁сказал	-6466
▁@	-6467
▁[-]	-6468
▁tele	-6469
▁время	-6470
▁directly	-6471
▁dangerous	-6472
tt	-6473
▁напевно	-6474
▁самості	-6475
сами	-6476
▁star	-6477
▁переста	-6478
▁Пу	-6479
доба	-6480
▁обли	-6481
▁ключо	-6482
▁extreme	-6483
▁technical	-6484
Як	-6485
▁daughter	-6486
▁impossible	-6487
▁3.	-6488
▁усе	-6489
шості	-6490
▁influence	-6491
rage	-6492
▁Півні	-6493
тись	-6494
ступи	-6495
▁самого	-6496
▁дотриму	-6497
▁rule	-6498
▁відт	-6499
▁picture	-6500
пора	-6501
▁Fin	-6502
▁речей	-6503
▁prevent	-6504
▁platform	-6505
▁\	-6506
цять	-6507
▁Гар	-6508
▁Geor	-6509
▁регіо	-6510
▁approach	-6511
рахо	-6512
▁doubt	-6513
▁стало	-6514
▁максима	-6515
▁іден	-6516
▁думаєте	-6517
▁Spe	-6518
▁context	-6519
cow	-6520
руп	-6521
▁стар	-6522
▁могла	-6523
▁кнопку	-6524
▁торгів	-6525
стом	-6526
шені	-6527
▁мог	-6528
▁твій	-6529
▁боже	-6530
▁ствер	-6531
▁Soviet	-6532
▁Hell	-6533
ктуаль	-6534
▁впевнені	-6535
▁cat	-6536
▁draw	-6537
▁paid	-6538
▁Тебе	-6539
кло	-6540
▁істори	-6541
▁Вот	-6542
▁From	-6543
▁пізніше	-6544
▁особисто	-6545
pro	-6546
▁sus	-6547
▁него	-6548
▁analy	-6549
▁перші	-6550
▁desire	-6551
▁supposed	-6552
лін	-6553
▁Адже	-6554
▁ground	-6555
▁культур	-6556
5,	-6557
▁dog	-6558
▁виро	-6559
▁smart	-6560
▁правила	-6561
▁дав	-6562
▁film	-6563
▁туди	-6564
▁After	-6565
▁wrote	-6566
▁особли	-6567
▁відрізня	-6568
зві	-6569
atory	-6570
▁Tell	-6571
▁част	-6572
▁марке	-6573
▁Off	-6574
▁saved	-6575
▁Christian	-6576
▁гір	-6577
▁друг	-6578
cription	-6579
▁British	-6580
соло	-6581
▁cold	-6582
▁адміні	-6583
▁code	-6584
▁grand	-6585
oses	-6586
▁екра	-6587
▁агре	-6588
▁Наприклад	-6589
vere	-6590
▁Багато	-6591
▁декількох	-6592
ган	-6593
▁categ	-6594
▁причини	-6595
▁presence	-6596
ctors	-6597
iment	-6598
atures	-6599
▁moving	-6600
▁23	-6601
▁wanna	-6602
▁obvious	-6603
oe	-6604
кл	-6605
▁army	-6606
▁вплив	-6607
▁сусід	-6608
▁боя	-6609
▁мілья	-6610
▁poor	-6611
▁alive	-6612
▁прогре	-6613
▁діє	-6614
ratic	-6615
▁скаже	-6616
▁demand	-6617
▁німець	-6618
ief	-6619
▁ещё	-6620
itely	-6621
istics	-6622
діть	-6623
▁Саме	-6624
▁strategy	-6625
sc	-6626
порт	-6627
хані	-6628
мисло	-6629
▁2016	-6630
▁Жінки	-6631
▁стату	-6632
▁nation	-6633
▁великих	-6634
▁відносини	-6635
▁advant	-6636
▁impact	-6637
▁certainly	-6638
▁interests	-6639
▁віта	-6640
▁histor	-6641
рого	-6642
тан	-6643
▁осіб	-6644
▁print	-6645
▁работа	-6646
▁parties	-6647
▁budget	-6648
▁значно	-6649
9.	-6650
elt	-6651
ball	-6652
▁decl	-6653
▁prior	-6654
▁National	-6655
▁standards	-6656
▁ше	-6657
▁match	-6658
▁біблі	-6659
▁prison	-6660
▁stri	-6661
▁даний	-6662
▁століття	-6663
▁однієї	-6664
▁перегляду	-6665
▁towards	-6666
гія	-6667
лії	-6668
▁надо	-6669
▁теро	-6670
▁зробле	-6671
▁Unfortunately	-6672
▁уваги	-6673
▁Year	-6674
ension	-6675
▁далеко	-6676
сах	-6677
▁знаешь	-6678
plom	-6679
▁church	-6680
▁велика	-6681
▁ідеаль	-6682
▁hospital	-6683
bum	-6684
▁річ	-6685
▁Somet	-6686
▁давно	-6687
▁screen	-6688
ader	-6689
▁voice	-6690
▁більшості	-6691
itter	-6692
▁показ	-6693
▁тобой	-6694
жны	-6695
▁сон	-6696
▁това	-6697
▁additional	-6698
▁scientific	-6699
бй	-6700
когда	-6701
▁вдома	-6702
▁умови	-6703
▁клієнта	-6704
▁bal	-6705
▁где	-6706
▁зас	-6707
▁integ	-6708
▁loved	-6709
▁брати	-6710
▁notice	-6711
▁пор	-6712
iveness	-6713
▁інформація	-6714
umb	-6715
quer	-6716
Ти	-6717
umn	-6718
▁крім	-6719
▁тіла	-6720
▁серце	-6721
тна	-6722
▁райо	-6723
▁Since	-6724
▁total	-6725
▁погля	-6726
▁показу	-6727
▁своєю	-6728
▁співпрацю	-6729
▁секре	-6730
▁administ	-6731
їхати	-6732
▁celebr	-6733
▁location	-6734
оз	-6735
isis	-6736
ondon	-6737
▁info	-6738
▁trip	-6739
▁decisions	-6740
ession	-6741
▁захід	-6742
▁II	-6743
▁Jan	-6744
▁sens	-6745
verage	-6746
▁Moscow	-6747
▁людину	-6748
▁францу	-6749
▁потреби	-6750
▁кількості	-6751
▁страх	-6752
▁lik	-6753
▁Gree	-6754
▁Тобі	-6755
▁White	-6756
▁катало	-6757
known	-6758
накше	-6759
formation	-6760
▁низь	-6761
▁digital	-6762
▁кожному	-6763
дах	-6764
year	-6765
▁звіль	-6766
▁convers	-6767
▁замість	-6768
atab	-6769
терна	-6770
▁знали	-6771
▁ничего	-6772
▁телефон	-6773
▁imm	-6774
▁вихід	-6775
▁growth	-6776
▁heaven	-6777
▁використовують	-6778
▁ge	-6779
▁любо	-6780
▁camer	-6781
▁OK	-6782
▁images	-6783
▁ненави	-6784
▁перевір	-6785
▁чоловіків	-6786
▁lat	-6787
▁інше	-6788
▁gradu	-6789
▁інститу	-6790
▁Most	-6791
▁remains	-6792
лове	-6793
▁інди	-6794
▁compl	-6795
▁випу	-6796
▁tools	-6797
▁корот	-6798
▁знав	-6799
▁подат	-6800
▁Гаразд	-6801
▁суспільства	-6802
nces	-6803
тите	-6804
▁посла	-6805
▁messages	-6806
OR	-6807
никам	-6808
▁coun	-6809
▁підготов	-6810
pri	-6811
lier	-6812
▁ета	-6813
▁below	-6814
▁max	-6815
owers	-6816
▁sort	-6817
▁giving	-6818
сних	-6819
ground	-6820
ishing	-6821
useum	-6822
▁stage	-6823
▁щасли	-6824
▁suggest	-6825
▁Кра	-6826
▁еко	-6827
pects	-6828
▁однією	-6829
язку	-6830
▁burn	-6831
▁мобіль	-6832
▁револю	-6833
▁отримувати	-6834
▁Zel	-6835
▁торго	-6836
▁methods	-6837
луй	-6838
arily	-6839
lation	-6840
▁folder	-6841
▁полови	-6842
▁провести	-6843
ыта	-6844
▁ідеї	-6845
▁equip	-6846
▁appreci	-6847
бро	-6848
кам	-6849
▁27	-6850
vant	-6851
rible	-6852
▁тоже	-6853
▁thanks	-6854
▁сильно	-6855
▁strength	-6856
▁throughout	-6857
▁{	-6858
рець	-6859
▁улю	-6860
▁Мене	-6861
▁respond	-6862
▁Ха	-6863
▁Play	-6864
▁надати	-6865
▁investment	-6866
▁HT	-6867
oring	-6868
▁eight	-6869
▁безпо	-6870
▁London	-6871
▁promise	-6872
OU	-6873
симо	-6874
▁облі	-6875
казати	-6876
▁практично	-6877
кар	-6878
wide	-6879
▁mount	-6880
▁молит	-6881
▁комуні	-6882
▁File	-6883
▁Зелен	-6884
▁Ke	-6885
шніх	-6886
литися	-6887
▁автомобіль	-6888
5%	-6889
гент	-6890
▁Відкри	-6891
сніть	-6892
▁subm	-6893
▁книги	-6894
▁software	-6895
▁результат	-6896
It	-6897
нив	-6898
▁ri	-6899
▁Put	-6900
11	-6901
▁adopt	-6902
▁місті	-6903
▁config	-6904
▁weight	-6905
▁Лу	-6906
▁wide	-6907
▁прой	-6908
▁мистецт	-6909
▁amaz	-6910
osition	-6911
▁роботі	-6912
▁визнача	-6913
▁fly	-6914
▁More	-6915
▁target	-6916
▁вина	-6917
▁крок	-6918
▁думки	-6919
▁золо	-6920
▁Canada	-6921
▁велику	-6922
▁історія	-6923
▁whose	-6924
▁pressure	-6925
▁залежить	-6926
▁жор	-6927
▁base	-6928
ційної	-6929
▁warn	-6930
irection	-6931
▁Завдяки	-6932
ara	-6933
▁altern	-6934
▁неправи	-6935
его	-6936
▁Micro	-6937
▁сервер	-6938
▁активно	-6939
▁говорять	-6940
oph	-6941
мете	-6942
▁section	-6943
▁shouldn	-6944
▁(2	-6945
▁Аль	-6946
▁slow	-6947
arc	-6948
тності	-6949
стування	-6950
▁cultural	-6951
-3	-6952
AL	-6953
риф	-6954
▁Пе	-6955
дний	-6956
▁цілей	-6957
▁prepared	-6958
▁показати	-6959
▁майбутнього	-6960
▁eye	-6961
▁журна	-6962
usiness	-6963
▁meaning	-6964
▁зможуть	-6965
діа	-6966
▁court	-6967
▁parts	-6968
▁група	-6969
hood	-6970
mark	-6971
▁gold	-6972
▁clearly	-6973
▁mission	-6974
▁starting	-6975
▁поговори	-6976
hest	-6977
мість	-6978
itable	-6979
▁масшта	-6980
▁нашими	-6981
▁подаль	-6982
▁тиждень	-6983
oti	-6984
▁hate	-6985
box	-6986
▁вибору	-6987
▁employees	-6988
▁West	-6989
▁symbol	-6990
вяти	-6991
▁credit	-6992
▁marketing	-6993
ray	-6994
▁etc	-6995
eral	-6996
▁розмовля	-6997
▁authorities	-6998
▁вдя	-6999
▁замов	-7000
▁Thanks	-7001
▁Act	-7002
жив	-7003
▁ahead	-7004
▁повно	-7005
▁settings	-7006
▁_	-7007
▁сле	-7008
робити	-7009
спублі	-7010
▁словами	-7011
дон	-7012
▁вагі	-7013
▁ньому	-7014
▁предме	-7015
▁високо	-7016
ama	-7017
▁skin	-7018
▁instit	-7019
▁Western	-7020
діб	-7021
мкнути	-7022
lection	-7023
▁власні	-7024
▁силу	-7025
▁regist	-7026
▁гаразд	-7027
▁такими	-7028
%1	-7029
▁increasing	-7030
board	-7031
▁обста	-7032
▁Zelens	-7033
▁anymore	-7034
just	-7035
чека	-7036
▁Tom	-7037
▁пись	-7038
▁points	-7039
йду	-7040
▁games	-7041
OS	-7042
оте	-7043
пис	-7044
▁Япо	-7045
▁weak	-7046
▁greater	-7047
▁заклика	-7048
▁operation	-7049
еро	-7050
▁Думаю	-7051
▁комфор	-7052
жки	-7053
▁замо	-7054
▁присут	-7055
▁чекати	-7056
▁profession	-7057
▁наступного	-7058
▁створювати	-7059
▁такої	-7060
▁хворо	-7061
ританії	-7062
top	-7063
▁Time	-7064
▁View	-7065
▁vari	-7066
▁опла	-7067
▁offers	-7068
▁вирішити	-7069
▁Жи	-7070
▁bott	-7071
▁сумні	-7072
▁agreement	-7073
hold	-7074
ктом	-7075
стрів	-7076
йською	-7077
▁train	-7078
▁батько	-7079
▁ball	-7080
▁приєм	-7081
▁людиною	-7082
▁розуміти	-7083
▁organizations	-7084
tle	-7085
imed	-7086
▁stru	-7087
▁lt	-7088
▁Дай	-7089
▁condition	-7090
▁nuclear	-7091
4.	-7092
▁Свя	-7093
▁мор	-7094
▁справа	-7095
▁навички	-7096
▁Er	-7097
каде	-7098
бування	-7099
▁куп	-7100
▁запис	-7101
▁очевид	-7102
ffee	-7103
▁lie	-7104
▁gift	-7105
▁describ	-7106
▁millions	-7107
▁negative	-7108
▁можливостей	-7109
01	-7110
▁consum	-7111
▁минулого	-7112
чому	-7113
▁hop	-7114
▁touch	-7115
stances	-7116
▁приєдна	-7117
▁частини	-7118
▁народження	-7119
лених	-7120
▁нове	-7121
▁Потім	-7122
▁доступу	-7123
▁необхідні	-7124
ров	-7125
ancy	-7126
chen	-7127
давно	-7128
ruption	-7129
▁traditional	-7130
дова	-7131
стоя	-7132
▁Коро	-7133
▁recently	-7134
▁del	-7135
▁pan	-7136
▁Kore	-7137
▁зверта	-7138
▁esc	-7139
▁sym	-7140
▁stra	-7141
▁домо	-7142
▁style	-7143
4,	-7144
ворі	-7145
▁были	-7146
▁прис	-7147
▁equipment	-7148
▁паро	-7149
бри	-7150
▁чули	-7151
▁yours	-7152
▁creating	-7153
гані	-7154
▁шлю	-7155
▁ринок	-7156
▁Up	-7157
▁300	-7158
▁здо	-7159
▁мова	-7160
▁слів	-7161
▁connection	-7162
alt	-7163
лих	-7164
▁Bar	-7165
▁опти	-7166
▁famous	-7167
▁Президен	-7168
▁промисло	-7169
▁різномані	-7170
ades	-7171
attle	-7172
▁робите	-7173
do	-7174
лива	-7175
▁поса	-7176
чину	-7177
▁капі	-7178
▁lived	-7179
▁запису	-7180
▁writing	-7181
▁задоволення	-7182
usion	-7183
▁покра	-7184
▁levels	-7185
▁мабуть	-7186
▁include	-7187
iam	-7188
лер	-7189
▁ic	-7190
▁Law	-7191
▁млн	-7192
▁Вста	-7193
▁growing	-7194
▁першого	-7195
▁property	-7196
zer	-7197
ively	-7198
▁освіти	-7199
▁communication	-7200
▁UK	-7201
▁hero	-7202
▁маєш	-7203
▁виконувати	-7204
▁und	-7205
хунок	-7206
▁Does	-7207
▁Even	-7208
▁неви	-7209
▁нова	-7210
▁цілі	-7211
▁будеш	-7212
▁asking	-7213
▁кварти	-7214
▁страхо	-7215
▁продуктів	-7216
▁hol	-7217
▁oil	-7218
friend	-7219
▁minute	-7220
▁насоло	-7221
ночі	-7222
▁cand	-7223
▁rout	-7224
▁consequ	-7225
▁порядку	-7226
ulf	-7227
soft	-7228
▁зайня	-7229
▁довіря	-7230
▁forever	-7231
▁нарко	-7232
gram	-7233
▁fix	-7234
▁остро	-7235
▁crisis	-7236
▁dollars	-7237
▁госпо	-7238
▁мовою	-7239
▁shot	-7240
гувати	-7241
▁Austral	-7242
▁спеціалі	-7243
▁сце	-7244
кта	-7245
▁sector	-7246
чує	-7247
▁Pa	-7248
▁нео	-7249
▁Почему	-7250
жів	-7251
enced	-7252
▁виня	-7253
▁tonight	-7254
▁san	-7255
крема	-7256
▁типу	-7257
▁recent	-7258
▁disease	-7259
ведіть	-7260
▁occup	-7261
▁трима	-7262
▁anal	-7263
ріо	-7264
ючі	-7265
▁Fl	-7266
▁їсти	-7267
▁усвідом	-7268
віду	-7269
▁mine	-7270
дра	-7271
▁pun	-7272
▁жов	-7273
▁тип	-7274
чання	-7275
▁Republic	-7276
▁behavior	-7277
ологі	-7278
▁цілком	-7279
▁related	-7280
▁забезпечити	-7281
класти	-7282
▁підтримувати	-7283
спі	-7284
reed	-7285
▁тен	-7286
▁істи	-7287
▁Could	-7288
▁вважає	-7289
▁спробу	-7290
▁student	-7291
▁першу	-7292
▁provides	-7293
▁програмі	-7294
▁emb	-7295
▁Деякі	-7296
▁ким	-7297
▁мов	-7298
▁заре	-7299
▁challeng	-7300
літи	-7301
▁школи	-7302
▁leader	-7303
рей	-7304
cast	-7305
▁imagine	-7306
▁existing	-7307
▁defend	-7308
▁memory	-7309
room	-7310
ura	-7311
▁Reg	-7312
▁crazy	-7313
▁seven	-7314
нців	-7315
▁negoti	-7316
▁відповіді	-7317
▁керування	-7318
▁досліджень	-7319
ллі	-7320
▁tick	-7321
▁automatically	-7322
▁пля	-7323
▁sick	-7324
▁goals	-7325
▁бачите	-7326
ha	-7327
set	-7328
▁відправ	-7329
▁сімей	-7330
▁мільяр	-7331
▁справу	-7332
дного	-7333
▁Джон	-7334
▁захоче	-7335
▁допомагає	-7336
▁constantly	-7337
▁evil	-7338
▁perhaps	-7339
▁власний	-7340
▁говорили	-7341
▁Параметри	-7342
ом	-7343
кет	-7344
плі	-7345
▁демон	-7346
ented	-7347
▁відсут	-7348
▁шляхом	-7349
imin	-7350
▁реє	-7351
▁Africa	-7352
▁тисячі	-7353
нге	-7354
▁Add	-7355
▁URL	-7356
дають	-7357
▁rich	-7358
▁валю	-7359
chan	-7360
▁клу	-7361
▁established	-7362
pa	-7363
hem	-7364
▁впро	-7365
▁safety	-7366
▁Working	-7367
▁Зі	-7368
▁solve	-7369
▁колір	-7370
▁willing	-7371
▁готовий	-7372
▁Сто	-7373
▁argu	-7374
▁євре	-7375
▁Black	-7376
сибо	-7377
чена	-7378
▁повітря	-7379
▁purchase	-7380
див	-7381
▁им	-7382
ping	-7383
мика	-7384
▁фун	-7385
женні	-7386
▁трав	-7387
idden	-7388
▁Трам	-7389
мос	-7390
▁Хі	-7391
▁Cal	-7392
▁жах	-7393
▁живуть	-7394
▁сделать	-7395
▁pen	-7396
▁club	-7397
▁spent	-7398
▁друзі	-7399
▁сайту	-7400
▁стільки	-7401
▁інструментів	-7402
▁kon	-7403
▁очи	-7404
▁remove	-7405
▁Навіть	-7406
▁діста	-7407
▁«%	-7408
▁Fed	-7409
▁Very	-7410
▁cool	-7411
▁experts	-7412
▁fighting	-7413
oud	-7414
▁Stop	-7415
▁умовах	-7416
6.	-7417
Why	-7418
lig	-7419
лою	-7420
ная	-7421
вець	-7422
▁центра	-7423
звичайно	-7424
erson	-7425
▁lawy	-7426
▁текст	-7427
▁honest	-7428
▁вказати	-7429
утбо	-7430
▁име	-7431
▁слуха	-7432
▁Cor	-7433
▁Red	-7434
▁Лон	-7435
годня	-7436
▁дета	-7437
▁кров	-7438
▁regul	-7439
▁класи	-7440
▁numbers	-7441
▁ефективно	-7442
6,	-7443
acc	-7444
avy	-7445
нии	-7446
▁ign	-7447
▁accom	-7448
▁paper	-7449
▁надає	-7450
▁involved	-7451
вом	-7452
ocol	-7453
▁ядер	-7454
▁нової	-7455
▁обере	-7456
▁diplom	-7457
▁сол	-7458
▁карт	-7459
▁тексту	-7460
▁appropri	-7461
спа	-7462
ables	-7463
▁Моск	-7464
▁enemy	-7465
▁Может	-7466
▁однак	-7467
▁scientists	-7468
ленні	-7469
чиною	-7470
▁Great	-7471
▁easier	-7472
▁welcome	-7473
тк	-7474
йський	-7475
▁нарешті	-7476
▁зростання	-7477
▁уз	-7478
▁Сан	-7479
▁потому	-7480
▁позитив	-7481
▁capt	-7482
▁зору	-7483
▁галузі	-7484
AP	-7485
▁вчи	-7486
▁cities	-7487
▁Hi	-7488
time	-7489
▁direction	-7490
вере	-7491
▁felt	-7492
Comment	-7493
▁відміну	-7494
▁вважаємо	-7495
reg	-7496
▁Яка	-7497
▁final	-7498
▁методи	-7499
▁trouble	-7500
▁technologies	-7501
▁lay	-7502
▁ООН	-7503
izing	-7504
▁reading	-7505
▁materials	-7506
лив	-7507
пор	-7508
▁squ	-7509
▁circum	-7510
▁стражда	-7511
▁вирішили	-7512
силля	-7513
▁letter	-7514
▁processes	-7515
▁ин	-7516
rupt	-7517
▁чет	-7518
▁chem	-7519
▁механі	-7520
▁opinion	-7521
▁Эй	-7522
▁Бра	-7523
▁Пар	-7524
▁прои	-7525
бирати	-7526
▁determine	-7527
gar	-7528
▁Тож	-7529
стрій	-7530
▁greatest	-7531
▁absolutely	-7532
това	-7533
▁sea	-7534
стіше	-7535
▁ніби	-7536
▁уряду	-7537
▁clients	-7538
coh	-7539
сор	-7540
▁Air	-7541
▁Try	-7542
▁upd	-7543
▁Coll	-7544
▁appl	-7545
▁чергу	-7546
▁щастя	-7547
▁никогда	-7548
▁solution	-7549
пен	-7550
Your	-7551
▁mis	-7552
зація	-7553
▁чоловіка	-7554
мих	-7555
тура	-7556
▁din	-7557
▁lack	-7558
▁безпосеред	-7559
aign	-7560
▁failed	-7561
▁сильні	-7562
▁смерть	-7563
▁альтерна	-7564
▁уникнути	-7565
вей	-7566
ліз	-7567
▁Dad	-7568
cohol	-7569
можно	-7570
▁тобто	-7571
▁місяць	-7572
кову	-7573
osing	-7574
▁degree	-7575
▁усього	-7576
кер	-7577
iers	-7578
▁rid	-7579
▁ані	-7580
▁челове	-7581
▁Zelensky	-7582
▁generation	-7583
▁подивитися	-7584
▁Bra	-7585
▁таєм	-7586
▁Microsoft	-7587
▁включаючи	-7588
гри	-7589
▁Прав	-7590
▁opened	-7591
▁exchange	-7592
▁перспекти	-7593
під	-7594
чині	-7595
▁Sat	-7596
▁Півден	-7597
▁Існу	-7598
▁отримав	-7599
▁мову	-7600
▁хочешь	-7601
▁соціальних	-7602
▁WE	-7603
▁Сі	-7604
▁den	-7605
ivity	-7606
▁green	-7607
▁нижче	-7608
▁позво	-7609
▁тварин	-7610
▁definitely	-7611
ёт	-7612
жує	-7613
коб	-7614
▁ess	-7615
▁всередині	-7616
:1	-7617
▁неба	-7618
▁союз	-7619
▁сум	-7620
idents	-7621
▁обрати	-7622
▁вимагає	-7623
▁Моя	-7624
▁Mark	-7625
▁stars	-7626
▁сказать	-7627
▁ей	-7628
▁робимо	-7629
▁економіки	-7630
IC	-7631
▁nor	-7632
▁worse	-7633
▁любові	-7634
pty	-7635
нили	-7636
▁Поки	-7637
▁daily	-7638
▁flight	-7639
▁одру	-7640
▁понима	-7641
▁інвесто	-7642
▁гід	-7643
жалуй	-7644
▁learned	-7645
▁expected	-7646
лиш	-7647
aged	-7648
▁фон	-7649
▁любить	-7650
▁захворю	-7651
▁comfortable	-7652
ira	-7653
▁El	-7654
▁House	-7655
обто	-7656
▁пір	-7657
▁іншому	-7658
Про	-7659
сним	-7660
▁витрати	-7661
▁principles	-7662
▁kd	-7663
riage	-7664
▁відвідати	-7665
увань	-7666
▁coffee	-7667
▁telling	-7668
▁Mc	-7669
▁rate	-7670
▁купи	-7671
▁мной	-7672
▁items	-7673
▁Hel	-7674
▁veh	-7675
▁даже	-7676
▁виправ	-7677
▁patient	-7678
▁Give	-7679
▁факт	-7680
відомо	-7681
▁Налашт	-7682
▁спілку	-7683
▁university	-7684
▁note	-7685
▁собира	-7686
▁anywhere	-7687
odies	-7688
▁рабо	-7689
▁дівча	-7690
▁demonstr	-7691
▁інтернет	-7692
ship	-7693
▁review	-7694
▁одночасно	-7695
▁шту	-7696
▁Кана	-7697
▁зацікав	-7698
▁свободу	-7699
▁пропонує	-7700
▁сексуаль	-7701
▁..	-7702
▁регуляр	-7703
cks	-7704
нцю	-7705
▁Dav	-7706
▁вре	-7707
▁уда	-7708
▁їжі	-7709
astic	-7710
пізна	-7711
▁цими	-7712
жку	-7713
сою	-7714
▁комер	-7715
▁School	-7716
Ph	-7717
дан	-7718
iance	-7719
▁mode	-7720
▁виго	-7721
imately	-7722
▁planning	-7723
gel	-7724
лим	-7725
▁побачи	-7726
▁load	-7727
▁слаб	-7728
дається	-7729
▁покоління	-7730
▁технологій	-7731
єдну	-7732
▁використовує	-7733
▁Ky	-7734
▁вклад	-7735
oes	-7736
▁гео	-7737
▁virt	-7738
тія	-7739
▁хар	-7740
беріть	-7741
▁сигна	-7742
idge	-7743
зити	-7744
▁Twitter	-7745
▁expensive	-7746
▁IS	-7747
ging	-7748
▁Фай	-7749
льній	-7750
▁брат	-7751
▁поїзд	-7752
isation	-7753
▁Stud	-7754
▁drop	-7755
▁Тобто	-7756
▁дипло	-7757
▁Acc	-7758
▁Sorry	-7759
▁додав	-7760
▁додати	-7761
▁although	-7762
▁називають	-7763
ятати	-7764
▁prim	-7765
▁serve	-7766
▁Фе	-7767
▁helps	-7768
unk	-7769
тент	-7770
▁reve	-7771
▁этот	-7772
▁Trump	-7773
▁потуж	-7774
▁щодня	-7775
▁Crime	-7776
▁remov	-7777
▁українських	-7778
▁зра	-7779
▁satis	-7780
▁Ізраї	-7781
▁футбо	-7782
▁правду	-7783
▁General	-7784
▁leaving	-7785
▁продукт	-7786
ana	-7787
lands	-7788
▁lower	-7789
▁лучше	-7790
▁черво	-7791
цям	-7792
кістю	-7793
▁encou	-7794
▁виконати	-7795
:00	-7796
звою	-7797
▁варті	-7798
нете	-7799
▁вказів	-7800
▁товари	-7801
▁належить	-7802
cra	-7803
▁broad	-7804
▁commer	-7805
▁повернути	-7806
omb	-7807
▁Out	-7808
▁summer	-7809
язок	-7810
▁встре	-7811
▁efforts	-7812
▁Ant	-7813
▁життє	-7814
▁distrib	-7815
▁потенціа	-7816
▁автоматично	-7817
pid	-7818
тури	-7819
▁мама	-7820
▁канди	-7821
▁сайті	-7822
ходяться	-7823
▁транспорт	-7824
▁35	-7825
▁deb	-7826
▁назвою	-7827
▁улюбле	-7828
их	-7829
hern	-7830
▁basic	-7831
▁експери	-7832
шно	-7833
▁війна	-7834
▁ситуацію	-7835
▁Int	-7836
▁описа	-7837
▁client	-7838
Yes	-7839
ляють	-7840
▁2,	-7841
▁193	-7842
▁скар	-7843
▁двері	-7844
atabase	-7845
▁feelings	-7846
▁Чар	-7847
queror	-7848
▁legis	-7849
▁відобра	-7850
кція	-7851
▁Web	-7852
▁Бож	-7853
▁залу	-7854
▁Business	-7855
ech	-7856
▁average	-7857
▁campaign	-7858
▁Чу	-7859
▁2017	-7860
▁Many	-7861
▁отже	-7862
▁скри	-7863
▁error	-7864
▁former	-7865
▁демократи	-7866
ps	-7867
rab	-7868
▁концеп	-7869
▁самостійно	-7870
▁breat	-7871
▁supported	-7872
▁appropriate	-7873
гію	-7874
стви	-7875
▁expert	-7876
▁релігій	-7877
▁sn	-7878
ains	-7879
antic	-7880
ським	-7881
▁Польщі	-7882
▁алкого	-7883
▁число	-7884
▁mobile	-7885
▁когось	-7886
▁процесу	-7887
ктри	-7888
▁sin	-7889
▁виді	-7890
▁гори	-7891
▁компле	-7892
▁початко	-7893
▁100%	-7894
▁Ne	-7895
▁вка	-7896
відки	-7897
▁вихо	-7898
▁strugg	-7899
▁devices	-7900
ат	-7901
▁Кто	-7902
▁warm	-7903
▁порядке	-7904
▁надзвичайно	-7905
uted	-7906
нність	-7907
йс	-7908
eared	-7909
▁серве	-7910
▁дизайн	-7911
сять	-7912
▁advice	-7913
▁theory	-7914
▁consult	-7915
▁діяльність	-7916
кцію	-7917
▁incred	-7918
▁middle	-7919
▁spread	-7920
▁Ніколи	-7921
жалуйста	-7922
▁існування	-7923
дро	-7924
▁безу	-7925
▁худо	-7926
▁повинно	-7927
гір	-7928
мемо	-7929
▁practical	-7930
щого	-7931
ties	-7932
вало	-7933
▁ана	-7934
вуючи	-7935
▁park	-7936
▁Спро	-7937
ici	-7938
▁pros	-7939
▁подару	-7940
тної	-7941
▁vot	-7942
▁mechan	-7943
▁вперед	-7944
казувати	-7945
ID	-7946
▁tal	-7947
явлення	-7948
▁uses	-7949
▁пацієн	-7950
▁знайшли	-7951
earch	-7952
▁exerc	-7953
▁приклад	-7954
▁потребує	-7955
▁проектів	-7956
▁дозволити	-7957
off	-7958
▁бро	-7959
▁pull	-7960
▁дещо	-7961
йських	-7962
▁транс	-7963
ari	-7964
net	-7965
urer	-7966
▁сні	-7967
▁пройти	-7968
▁Whatever	-7969
▁дивитися	-7970
жений	-7971
▁response	-7972
▁визначення	-7973
uary	-7974
▁моду	-7975
▁нема	-7976
▁Сполу	-7977
▁столи	-7978
▁останній	-7979
▁розвивати	-7980
osen	-7981
▁series	-7982
▁виника	-7983
▁кожної	-7984
▁конкур	-7985
▁команда	-7986
▁assistance	-7987
Йор	-7988
▁2012	-7989
▁possib	-7990
▁сподоба	-7991
▁майбутні	-7992
.[	-7993
▁195	-7994
▁alcohol	-7995
▁функції	-7996
▁запитання	-7997
▁Кла	-7998
валися	-7999
▁розвиток	-8000
▁захистити	-8001
▁сез	-8002
▁Послу	-8003
▁колись	-8004
▁перевірити	-8005
ares	-8006
стями	-8007
▁архі	-8008
▁bi	-8009
▁shop	-8010
▁виробництва	-8011
мар	-8012
▁Name	-8013
▁Афри	-8014
▁серця	-8015
▁witness	-8016
шку	-8017
рави	-8018
▁rob	-8019
▁Чор	-8020
▁заяв	-8021
▁2019	-8022
читати	-8023
▁movie	-8024
▁друга	-8025
▁години	-8026
▁можешь	-8027
▁changing	-8028
▁Протягом	-8029
▁developing	-8030
ka	-8031
iev	-8032
▁Def	-8033
▁fulf	-8034
▁існують	-8035
сле	-8036
▁steps	-8037
▁компо	-8038
▁світло	-8039
▁прийшов	-8040
▁recognize	-8041
amb	-8042
вока	-8043
орів	-8044
▁prices	-8045
▁requires	-8046
▁маркетин	-8047
▁завершення	-8048
дете	-8049
телі	-8050
▁Наз	-8051
▁hide	-8052
▁wonderful	-8053
yond	-8054
▁bur	-8055
▁sil	-8056
деться	-8057
▁helped	-8058
кса	-8059
ментом	-8060
розумі	-8061
▁leading	-8062
▁сторінки	-8063
▁знаходяться	-8064
нику	-8065
ське	-8066
▁ang	-8067
▁поліп	-8068
тність	-8069
▁проведення	-8070
▁sources	-8071
▁Знаєте	-8072
uh	-8073
▁Богом	-8074
▁стандарт	-8075
▁індивіду	-8076
▁lic	-8077
▁пен	-8078
ounds	-8079
робле	-8080
▁розмір	-8081
▁express	-8082
3)	-8083
cr	-8084
мон	-8085
▁невда	-8086
▁Франції	-8087
▁супер	-8088
▁download	-8089
▁led	-8090
▁ste	-8091
▁Схо	-8092
▁періо	-8093
▁говоримо	-8094
▁розповіда	-8095
▁institutions	-8096
ened	-8097
▁поду	-8098
▁твер	-8099
ктогра	-8100
▁рахунок	-8101
зку	-8102
▁зая	-8103
▁стре	-8104
▁staff	-8105
▁належ	-8106
▁creative	-8107
▁французь	-8108
▁religious	-8109
EC	-8110
▁feed	-8111
▁такою	-8112
▁Хорошо	-8113
словення	-8114
▁виклада	-8115
▁electric	-8116
▁Ім	-8117
пець	-8118
▁Const	-8119
▁initi	-8120
▁параметрів	-8121
ken	-8122
ework	-8123
▁corpor	-8124
жим	-8125
▁Ob	-8126
uman	-8127
▁boys	-8128
▁європе	-8129
▁серйозно	-8130
▁revolution	-8131
.'	-8132
sp	-8133
rus	-8134
лія	-8135
▁ші	-8136
▁Вилу	-8137
iminal	-8138
▁інакше	-8139
▁чоловіки	-8140
▁Мій	-8141
▁вот	-8142
▁віді	-8143
▁трапи	-8144
▁версії	-8145
▁підкре	-8146
▁justice	-8147
▁Йо	-8148
▁seeing	-8149
▁погоджу	-8150
▁зустрічі	-8151
▁structure	-8152
даю	-8153
лег	-8154
лли	-8155
ache	-8156
▁Holy	-8157
▁volunt	-8158
▁Ан	-8159
▁Два	-8160
ously	-8161
▁іншої	-8162
вування	-8163
▁academ	-8164
▁earlier	-8165
тня	-8166
важливі	-8167
▁батьки	-8168
▁elections	-8169
▁establish	-8170
▁effects	-8171
вки	-8172
cuse	-8173
pite	-8174
upid	-8175
▁wear	-8176
▁вере	-8177
▁зібра	-8178
▁curren	-8179
term	-8180
▁вибу	-8181
▁купу	-8182
▁extremely	-8183
alu	-8184
Ukra	-8185
▁міц	-8186
There	-8187
▁Bank	-8188
▁player	-8189
▁теперь	-8190
ki	-8191
itors	-8192
▁Other	-8193
▁goods	-8194
▁offered	-8195
▁наслідки	-8196
ые	-8197
▁духо	-8198
▁кото	-8199
▁patients	-8200
зен	-8201
works	-8202
▁Start	-8203
▁графі	-8204
▁дізнаєтеся	-8205
▁супро	-8206
TS	-8207
▁fell	-8208
▁почему	-8209
▁strategic	-8210
їж	-8211
▁lines	-8212
дам	-8213
edding	-8214
▁features	-8215
lock	-8216
кової	-8217
ській	-8218
▁kept	-8219
▁вчите	-8220
▁випадках	-8221
▁суб	-8222
▁tend	-8223
▁тижнів	-8224
▁helping	-8225
uts	-8226
гіна	-8227
▁лока	-8228
▁тижня	-8229
▁expand	-8230
▁рішень	-8231
▁інтеле	-8232
▁знадобиться	-8233
ING	-8234
▁lif	-8235
▁achie	-8236
▁голос	-8237
▁univers	-8238
▁досвіду	-8239
пня	-8240
gment	-8241
▁членів	-8242
гні	-8243
дили	-8244
ronic	-8245
віться	-8246
ктивні	-8247
▁війну	-8248
▁compon	-8249
▁єднання	-8250
нені	-8251
▁висно	-8252
▁зусилля	-8253
▁confident	-8254
▁possibility	-8255
чня	-8256
aches	-8257
▁Never	-8258
▁adult	-8259
▁passed	-8260
мія	-8261
road	-8262
тним	-8263
▁Aut	-8264
▁huh	-8265
▁replace	-8266
ager	-8267
ючий	-8268
▁origin	-8269
▁іншу	-8270
▁Аллах	-8271
▁певні	-8272
▁зла	-8273
▁змогу	-8274
▁пару	-8275
▁Ладно	-8276
▁System	-8277
▁relevant	-8278
віа	-8279
▁forms	-8280
ental	-8281
▁мора	-8282
▁крові	-8283
▁насиль	-8284
ica	-8285
▁брита	-8286
▁верну	-8287
▁тенден	-8288
▁predict	-8289
▁Великоб	-8290
▁вирішення	-8291
▁результатів	-8292
▁sweet	-8293
▁candid	-8294
вшись	-8295
йські	-8296
▁Оста	-8297
▁соня	-8298
▁Enter	-8299
▁зареє	-8300
лізації	-8301
▁dreams	-8302
▁особисті	-8303
▁everybody	-8304
▁незалежно	-8305
▁Бер	-8306
▁платити	-8307
▁universe	-8308
▁характер	-8309
▁називається	-8310
кола	-8311
▁оку	-8312
▁insp	-8313
▁должны	-8314
▁виступа	-8315
▁зокрема	-8316
▁іні	-8317
▁bodies	-8318
▁biggest	-8319
▁highest	-8320
▁обговорю	-8321
▁Зеленський	-8322
лыша	-8323
▁вни	-8324
▁сил	-8325
▁Hello	-8326
▁відста	-8327
ino	-8328
нять	-8329
▁Oct	-8330
▁eth	-8331
▁деше	-8332
▁найви	-8333
▁регіона	-8334
▁христия	-8335
нер	-8336
йтесь	-8337
▁режим	-8338
▁produce	-8339
▁хороший	-8340
12	-8341
пута	-8342
▁Vis	-8343
▁вті	-8344
▁дире	-8345
▁looked	-8346
▁місяці	-8347
стях	-8348
▁землю	-8349
▁statement	-8350
▁контролювати	-8351
raw	-8352
▁Mess	-8353
▁qual	-8354
▁Кори	-8355
▁кінце	-8356
▁операції	-8357
▁повернення	-8358
+]	-8359
gra	-8360
ley	-8361
▁трен	-8362
слення	-8363
▁trend	-8364
страції	-8365
▁contains	-8366
▁circumstances	-8367
▁anti	-8368
▁Paris	-8369
▁empty	-8370
▁Цього	-8371
▁faster	-8372
St	-8373
ливий	-8374
▁візь	-8375
▁результаті	-8376
▁Вла	-8377
▁згідно	-8378
▁погоди	-8379
new	-8380
asks	-8381
вною	-8382
▁via	-8383
▁чудово	-8384
▁закінчи	-8385
▁favorite	-8386
▁Програма	-8387
▁рекоменду	-8388
MS	-8389
▁[+]	-8390
ander	-8391
▁Ісус	-8392
vision	-8393
▁назва	-8394
▁26	-8395
обще	-8396
▁wis	-8397
▁агент	-8398
▁много	-8399
▁професі	-8400
▁password	-8401
Що	-8402
ugin	-8403
▁малю	-8404
▁тури	-8405
▁India	-8406
▁democracy	-8407
▁existence	-8408
бора	-8409
▁limit	-8410
▁вийти	-8411
▁волос	-8412
▁Listen	-8413
▁такому	-8414
тим	-8415
ktop	-8416
▁ата	-8417
▁Until	-8418
▁meant	-8419
▁відкриття	-8420
back	-8421
▁дур	-8422
▁пыта	-8423
▁залишити	-8424
▁справжні	-8425
▁застосування	-8426
▁Її	-8427
atter	-8428
pping	-8429
▁твоє	-8430
▁Вибач	-8431
▁негайно	-8432
▁поверне	-8433
кує	-8434
вань	-8435
▁Her	-8436
▁ідея	-8437
▁March	-8438
▁запуску	-8439
▁культури	-8440
▁поговорити	-8441
▁зад	-8442
▁обслуго	-8443
▁минулому	-8444
▁Зо	-8445
▁пиша	-8446
▁hotel	-8447
ювати	-8448
▁весе	-8449
▁highly	-8450
▁majority	-8451
▁сертифіка	-8452
еха	-8453
мок	-8454
жено	-8455
жили	-8456
▁Змі	-8457
▁Coun	-8458
▁випа	-8459
▁почав	-8460
▁ancient	-8461
▁успішно	-8462
ньою	-8463
▁Або	-8464
▁moved	-8465
наприклад	-8466
rely	-8467
erved	-8468
▁forgot	-8469
▁players	-8470
ель	-8471
▁поси	-8472
▁Повер	-8473
▁благословення	-8474
▁ат	-8475
iday	-8476
▁Пока	-8477
▁одяг	-8478
▁жит	-8479
▁libr	-8480
▁Міні	-8481
▁батька	-8482
▁запобі	-8483
▁benefit	-8484
▁maximum	-8485
тур	-8486
тить	-8487
▁хоч	-8488
лярні	-8489
▁біля	-8490
рування	-8491
▁системі	-8492
egal	-8493
▁wid	-8494
▁обох	-8495
▁місць	-8496
▁перших	-8497
II	-8498
что	-8499
▁entry	-8500
▁Європе	-8501
▁Міжнарод	-8502
endar	-8503
▁стандар	-8504
▁intellig	-8505
▁Зазвичай	-8506
NA	-8507
кры	-8508
▁Ah	-8509
дите	-8510
роні	-8511
▁груп	-8512
▁Італі	-8513
▁обмеження	-8514
▁порушення	-8515
тну	-8516
чір	-8517
▁Dep	-8518
▁всій	-8519
▁піде	-8520
▁сторони	-8521
▁проблему	-8522
▁Фі	-8523
▁яс	-8524
▁ver	-8525
itect	-8526
▁ресто	-8527
hington	-8528
▁station	-8529
▁returned	-8530
IF	-8531
▁Pri	-8532
валося	-8533
▁calls	-8534
▁Дякую	-8535
▁наста	-8536
▁elements	-8537
rem	-8538
реч	-8539
list	-8540
▁Jack	-8541
▁дитину	-8542
▁заради	-8543
ії	-8544
▁2013	-8545
▁прикла	-8546
▁clothes	-8547
80	-8548
▁пле	-8549
ilies	-8550
▁scri	-8551
▁named	-8552
▁Немає	-8553
▁anyway	-8554
▁seriously	-8555
▁refer	-8556
▁акаде	-8557
▁шабло	-8558
▁жодного	-8559
▁ото	-8560
▁Sept	-8561
▁sympt	-8562
▁prepare	-8563
▁екологі	-8564
▁associated	-8565
▁ast	-8566
▁этим	-8567
▁Three	-8568
▁давай	-8569
▁master	-8570
▁successfully	-8571
▁Гей	-8572
▁believed	-8573
лага	-8574
▁Mor	-8575
▁throw	-8576
▁набли	-8577
▁почне	-8578
▁прийшли	-8579
▁internet	-8580
▁importance	-8581
ua	-8582
▁id	-8583
мотри	-8584
▁setting	-8585
▁vill	-8586
▁моделі	-8587
▁першим	-8588
▁colleag	-8589
▁operations	-8590
▁Сві	-8591
▁хімі	-8592
▁заста	-8593
▁excell	-8594
▁somebody	-8595
▁applications	-8596
ordin	-8597
▁позиції	-8598
▁керувати	-8599
мога	-8600
ригіна	-8601
▁ризик	-8602
actions	-8603
▁vote	-8604
▁пова	-8605
▁season	-8606
overed	-8607
▁mercy	-8608
▁кінці	-8609
▁стану	-8610
▁beyond	-8611
▁Всесвіт	-8612
▁becoming	-8613
тне	-8614
They	-8615
нула	-8616
▁shut	-8617
Ва	-8618
▁ут	-8619
ysis	-8620
▁показує	-8621
▁намагається	-8622
lim	-8623
▁Мак	-8624
▁Нор	-8625
мовно	-8626
▁Захід	-8627
▁prefer	-8628
▁script	-8629
вантаження	-8630
▁індивідуаль	-8631
\\	-8632
▁відді	-8633
▁closer	-8634
▁competition	-8635
AC	-8636
Во	-8637
▁45	-8638
▁Гі	-8639
▁бої	-8640
▁Один	-8641
▁комента	-8642
▁marriage	-8643
▁consequences	-8644
йня	-8645
крім	-8646
▁glad	-8647
respon	-8648
▁radio	-8649
▁читати	-8650
▁amazing	-8651
▁studies	-8652
▁мільйони	-8653
▁зображень	-8654
▁relax	-8655
▁думав	-8656
▁launch	-8657
▁машину	-8658
▁Washington	-8659
▁parliament	-8660
25	-8661
ico	-8662
▁Привет	-8663
▁погано	-8664
▁залишатися	-8665
▁пол	-8666
▁курс	-8667
▁голову	-8668
▁located	-8669
▁thoughts	-8670
▁щи	-8671
лями	-8672
▁Move	-8673
правити	-8674
▁Should	-8675
▁власти	-8676
▁Settings	-8677
lie	-8678
торів	-8679
▁Keep	-8680
▁calling	-8681
▁відносин	-8682
дю	-8683
▁бачу	-8684
ek	-8685
▁brand	-8686
▁двома	-8687
▁sounds	-8688
▁десять	-8689
▁Ос	-8690
іден	-8691
abled	-8692
phone	-8693
▁signed	-8694
кан	-8695
resh	-8696
▁Mac	-8697
▁Молоді	-8698
▁terrible	-8699
▁2009	-8700
▁віці	-8701
▁коль	-8702
▁імені	-8703
▁помилки	-8704
▁виглядає	-8705
▁увій	-8706
▁покри	-8707
▁термі	-8708
▁camera	-8709
▁stress	-8710
▁обличчя	-8711
▁internal	-8712
▁документ	-8713
▁піктогра	-8714
зя	-8715
їжджа	-8716
▁sites	-8717
▁played	-8718
▁unless	-8719
▁Nothing	-8720
▁reached	-8721
▁сегодня	-8722
▁0.	-8723
тики	-8724
▁Cour	-8725
▁June	-8726
▁надто	-8727
▁stopped	-8728
дові	-8729
цент	-8730
▁Фор	-8731
▁City	-8732
▁скажу	-8733
▁sports	-8734
▁regions	-8735
вня	-8736
діо	-8737
▁ir	-8738
▁Ор	-8739
▁Божо	-8740
кторів	-8741
▁власно	-8742
▁restrict	-8743
▁зник	-8744
▁machine	-8745
▁Давайте	-8746
▁ресурсів	-8747
▁ситуація	-8748
▁українців	-8749
▁191	-8750
▁ліде	-8751
▁подру	-8752
▁свободи	-8753
▁arm	-8754
▁щас	-8755
▁вимі	-8756
▁піді	-8757
▁Using	-8758
▁поря	-8759
vernment	-8760
anc	-8761
нній	-8762
ulate	-8763
▁прино	-8764
▁делать	-8765
▁commercial	-8766
▁Фа	-8767
дали	-8768
птом	-8769
▁sales	-8770
▁пропа	-8771
▁multip	-8772
▁particularly	-8773
gr	-8774
дві	-8775
▁уви	-8776
тивні	-8777
▁Home	-8778
▁Direct	-8779
▁deserve	-8780
▁відчуття	-8781
8,	-8782
▁жар	-8783
▁catch	-8784
▁Працю	-8785
▁підтримує	-8786
Ch	-8787
тичні	-8788
ченні	-8789
ending	-8790
▁costs	-8791
▁модель	-8792
No	-8793
нків	-8794
много	-8795
▁reduce	-8796
▁вигляді	-8797
льте	-8798
▁Sol	-8799
вують	-8800
телів	-8801
▁trad	-8802
▁дитя	-8803
▁optim	-8804
▁усіма	-8805
▁arrest	-8806
▁оз	-8807
▁асо	-8808
▁наф	-8809
▁straight	-8810
▁increased	-8811
▁бібліоте	-8812
▁Americans	-8813
you	-8814
ции	-8815
▁vir	-8816
▁починається	-8817
пово	-8818
anish	-8819
▁older	-8820
▁казав	-8821
▁руках	-8822
▁розкри	-8823
▁Америка	-8824
▁September	-8825
▁advantage	-8826
зы	-8827
▁politic	-8828
▁відпочи	-8829
▁solutions	-8830
▁президента	-8831
▁безпосередньо	-8832
▁Ac	-8833
ланд	-8834
▁Гра	-8835
▁суму	-8836
▁assess	-8837
▁захист	-8838
▁objects	-8839
мир	-8840
▁Гре	-8841
ittee	-8842
▁співпраці	-8843
.»	-8844
▁wake	-8845
▁кіно	-8846
▁relationships	-8847
▁km	-8848
▁Мен	-8849
ностей	-8850
agement	-8851
▁хлопці	-8852
▁researc	-8853
▁користу	-8854
▁розумієте	-8855
жде	-8856
мах	-8857
▁htt	-8858
▁уро	-8859
▁сюда	-8860
▁nearly	-8861
▁manager	-8862
▁framework	-8863
▁Gra	-8864
темати	-8865
▁банків	-8866
▁поважа	-8867
▁managed	-8868
▁зможемо	-8869
▁містить	-8870
▁hundreds	-8871
▁відвідува	-8872
▁ля	-8873
rial	-8874
sing	-8875
▁проки	-8876
▁лікаря	-8877
▁schools	-8878
▁Господа	-8879
▁повідомлень	-8880
ваю	-8881
вив	-8882
▁Киє	-8883
▁Світ	-8884
▁Check	-8885
▁January	-8886
▁натиска	-8887
▁hous	-8888
▁розі	-8889
▁David	-8890
▁надсила	-8891
▁alternative	-8892
▁аеро	-8893
▁експо	-8894
▁кожна	-8895
▁адвока	-8896
▁єдиний	-8897
▁configuration	-8898
▁запропонувати	-8899
een	-8900
aled	-8901
▁мала	-8902
▁вивчення	-8903
▁Ге	-8904
▁rock	-8905
▁годи	-8906
чність	-8907
▁попередні	-8908
пом	-8909
▁Бар	-8910
▁meas	-8911
▁робіт	-8912
▁форми	-8913
▁commit	-8914
▁користь	-8915
▁%2	-8916
▁fru	-8917
▁Біблі	-8918
▁худож	-8919
▁Привіт	-8920
▁адресу	-8921
▁depends	-8922
▁недоста	-8923
▁accident	-8924
сам	-8925
▁Дон	-8926
кладе	-8927
▁Ital	-8928
гування	-8929
▁street	-8930
▁боротися	-8931
▁найважливі	-8932
cel	-8933
вра	-8934
цею	-8935
▁sad	-8936
▁Скажи	-8937
▁берез	-8938
▁послід	-8939
▁особисти	-8940
▁обладнання	-8941
▁Туреч	-8942
▁назви	-8943
▁стіль	-8944
шування	-8945
▁правил	-8946
▁якийсь	-8947
▁benefits	-8948
▁families	-8949
▁основних	-8950
▁:	-8951
юзу	-8952
izes	-8953
ming	-8954
▁ain	-8955
▁муж	-8956
▁closed	-8957
▁Відповід	-8958
▁контроль	-8959
hab	-8960
iced	-8961
▁reb	-8962
▁begins	-8963
▁chosen	-8964
▁limited	-8965
▁узна	-8966
▁sister	-8967
▁друзями	-8968
▁останніх	-8969
lling	-8970
▁Коре	-8971
▁серві	-8972
▁Австра	-8973
▁ніяких	-8974
▁проводити	-8975
how	-8976
olf	-8977
дри	-8978
вість	-8979
▁прото	-8980
▁restaur	-8981
▁кнопкою	-8982
▁змінювати	-8983
▁кнопки	-8984
▁означа	-8985
▁Japanese	-8986
▁movement	-8987
▁2000	-8988
▁hang	-8989
▁noted	-8990
▁plant	-8991
▁Turkey	-8992
▁stories	-8993
▁йдеться	-8994
▁watching	-8995
then	-8996
▁Son	-8997
▁сы	-8998
▁віку	-8999
чування	-9000
▁Program	-9001
▁говорив	-9002
OM	-9003
alled	-9004
craft	-9005
encies	-9006
▁Youth	-9007
▁діяти	-9008
▁наголо	-9009
▁джерела	-9010
▁основні	-9011
▁challenges	-9012
▁advertising	-9013
він	-9014
джує	-9015
▁непри	-9016
▁успіх	-9017
▁October	-9018
▁дви	-9019
ційну	-9020
▁Fuck	-9021
▁jobs	-9022
▁воду	-9023
▁одній	-9024
▁stupid	-9025
▁4.	-9026
▁кви	-9027
▁contra	-9028
▁eating	-9029
▁temper	-9030
▁нормально	-9031
▁participants	-9032
IT	-9033
asc	-9034
ips	-9035
▁ново	-9036
▁Italy	-9037
▁зароб	-9038
▁talked	-9039
▁payment	-9040
▁різними	-9041
▁зберігати	-9042
]]	-9043
abor	-9044
▁2011	-9045
▁risks	-9046
ріорите	-9047
▁afford	-9048
▁Божого	-9049
▁телефону	-9050
su	-9051
зацію	-9052
▁starts	-9053
▁виявля	-9054
▁люблять	-9055
▁languages	-9056
▁Пла	-9057
▁сви	-9058
ливим	-9059
▁Чого	-9060
▁розслід	-9061
▁La	-9062
анта	-9063
мира	-9064
▁piece	-9065
▁battle	-9066
▁держав	-9067
▁стають	-9068
▁monitor	-9069
▁discover	-9070
ит	-9071
▁Val	-9072
▁таки	-9073
▁laugh	-9074
▁seconds	-9075
▁користуватися	-9076
▁Nor	-9077
▁Sim	-9078
▁ясно	-9079
▁mistake	-9080
▁functions	-9081
▁університет	-9082
▁construction	-9083
39	-9084
верен	-9085
▁Kyiv	-9086
▁квіт	-9087
cience	-9088
▁безкоштов	-9089
agn	-9090
▁Mod	-9091
ванні	-9092
▁wedding	-9093
▁навчитися	-9094
▁deliver	-9095
▁Russians	-9096
▁збереження	-9097
ттю	-9098
▁CD	-9099
▁ut	-9100
▁Mer	-9101
▁prayer	-9102
▁sexual	-9103
itute	-9104
▁моєї	-9105
▁careful	-9106
▁Max	-9107
▁reci	-9108
▁доводи	-9109
▁перешко	-9110
rel	-9111
vey	-9112
Так	-9113
рією	-9114
▁hom	-9115
▁Пам	-9116
▁http	-9117
▁export	-9118
▁стабіль	-9119
▁Tool	-9120
▁prec	-9121
▁tree	-9122
▁drugs	-9123
▁Когда	-9124
▁проведе	-9125
▁sanctions	-9126
BA	-9127
▁фер	-9128
▁solar	-9129
▁коруп	-9130
mes	-9131
пов	-9132
▁29	-9133
▁часи	-9134
▁поруч	-9135
▁border	-9136
▁somewhere	-9137
▁документи	-9138
ферен	-9139
▁спіл	-9140
iation	-9141
▁secure	-9142
▁release	-9143
▁programme	-9144
▁прийняття	-9145
▁~	-9146
нда	-9147
mosp	-9148
▁зне	-9149
сутні	-9150
▁calcul	-9151
▁частині	-9152
▁representatives	-9153
бур	-9154
▁sud	-9155
▁Куди	-9156
▁twice	-9157
нування	-9158
▁fundament	-9159
ius	-9160
▁suc	-9161
▁income	-9162
▁central	-9163
▁promised	-9164
▁суспільство	-9165
gen	-9166
▁fat	-9167
вався	-9168
сіння	-9169
▁Over	-9170
▁розча	-9171
▁murder	-9172
▁змогли	-9173
▁channel	-9174
▁напрямку	-9175
нет	-9176
▁glass	-9177
▁label	-9178
▁taught	-9179
▁заслуго	-9180
▁continues	-9181
ael	-9182
сси	-9183
▁map	-9184
▁впа	-9185
▁ній	-9186
▁оке	-9187
▁міст	-9188
▁вийде	-9189
▁тижні	-9190
▁якість	-9191
▁confirm	-9192
▁symptoms	-9193
мож	-9194
▁150	-9195
▁Неза	-9196
▁хотел	-9197
▁Polish	-9198
▁balance	-9199
▁succeed	-9200
▁відсотків	-9201
▁Iran	-9202
▁liber	-9203
▁плани	-9204
▁missing	-9205
▁надання	-9206
▁database	-9207
▁відмовля	-9208
▁студенти	-9209
▁AL	-9210
▁жен	-9211
▁Love	-9212
▁disp	-9213
▁брен	-9214
▁телеві	-9215
▁команду	-9216
▁apartment	-9217
▁опо	-9218
▁Back	-9219
▁втру	-9220
▁certific	-9221
▁appreciate	-9222
▁situations	-9223
Who	-9224
вжди	-9225
▁Prof	-9226
▁Схід	-9227
▁quant	-9228
▁signs	-9229
▁nobody	-9230
▁політику	-9231
▁партнерів	-9232
ємось	-9233
▁Пари	-9234
▁візи	-9235
▁emerg	-9236
▁teacher	-9237
8.	-9238
рова	-9239
▁Шта	-9240
rated	-9241
▁Ваши	-9242
▁дому	-9243
▁pages	-9244
▁подій	-9245
▁exists	-9246
▁critical	-9247
▁customer	-9248
vent	-9249
▁joy	-9250
▁ніч	-9251
▁Master	-9252
▁carried	-9253
▁Америки	-9254
▁оригіна	-9255
▁проекти	-9256
imb	-9257
▁36	-9258
тика	-9259
▁July	-9260
▁моїх	-9261
▁Commun	-9262
▁власну	-9263
▁всегда	-9264
▁Company	-9265
▁кампані	-9266
▁collection	-9267
rian	-9268
▁WEB	-9269
▁fing	-9270
▁спла	-9271
▁sudden	-9272
▁втрача	-9273
гати	-9274
▁blog	-9275
▁resol	-9276
TP	-9277
фу	-9278
▁”	-9279
вка	-9280
жати	-9281
▁sche	-9282
▁worst	-9283
aration	-9284
▁Through	-9285
▁вивчати	-9286
▁ресурси	-9287
▁politics	-9288
▁конфіден	-9289
EN	-9290
▁ам	-9291
ційна	-9292
▁миру	-9293
▁жизнь	-9294
▁темпера	-9295
▁купувати	-9296
▁procedure	-9297
▁відповідати	-9298
нечно	-9299
ressive	-9300
▁відтворення	-9301
▁фір	-9302
istan	-9303
▁claim	-9304
▁crime	-9305
▁bought	-9306
▁вірити	-9307
▁violence	-9308
роя	-9309
сува	-9310
arden	-9311
ктами	-9312
▁ціни	-9313
▁democratic	-9314
▁електронної	-9315
mas	-9316
▁Кі	-9317
▁Syria	-9318
▁adapt	-9319
▁зазначив	-9320
▁published	-9321
SL	-9322
enn	-9323
сного	-9324
▁album	-9325
▁должна	-9326
▁survive	-9327
ids	-9328
oga	-9329
янс	-9330
▁Pal	-9331
▁твою	-9332
▁атмос	-9333
▁дозволить	-9334
iant	-9335
▁найкраще	-9336
▁пропонуємо	-9337
▁Осо	-9338
▁уві	-9339
▁волі	-9340
▁мети	-9341
▁поль	-9342
▁beauty	-9343
▁enemies	-9344
▁experiment	-9345
▁Ше	-9346
їхали	-9347
▁(201	-9348
вності	-9349
▁пошко	-9350
▁варіант	-9351
▁Minister	-9352
▁soldiers	-9353
▁том	-9354
▁нови	-9355
ордина	-9356
▁прийде	-9357
▁трудно	-9358
▁десятилі	-9359
▁конферен	-9360
▁described	-9361
iny	-9362
ula	-9363
place	-9364
▁valu	-9365
▁засу	-9366
▁чітко	-9367
▁математи	-9368
▁Australia	-9369
▁frequ	-9370
▁почува	-9371
▁answers	-9372
▁можливі	-9373
▁completed	-9374
ags	-9375
▁feet	-9376
▁latest	-9377
▁identify	-9378
▁працюємо	-9379
▁guarantee	-9380
▁Інтернеті	-9381
ald	-9382
▁»,	-9383
▁labor	-9384
▁Council	-9385
lam	-9386
мум	-9387
мами	-9388
▁workers	-9389
inux	-9390
бера	-9391
▁паль	-9392
▁змозі	-9393
▁посту	-9394
▁colors	-9395
-4	-9396
alse	-9397
▁зупинити	-9398
▁mentioned	-9399
▁посилання	-9400
▁університету	-9401
!».	-9402
irty	-9403
▁sky	-9404
▁моти	-9405
▁mouse	-9406
▁oblig	-9407
▁units	-9408
▁чекає	-9409
▁наступний	-9410
тям	-9411
тній	-9412
язки	-9413
▁їжу	-9414
▁руку	-9415
▁спад	-9416
меться	-9417
чності	-9418
▁solid	-9419
▁статисти	-9420
▁вважається	-9421
uild	-9422
▁Korea	-9423
▁tasks	-9424
▁ліцен	-9425
▁пошти	-9426
▁прочитати	-9427
19	-9428
EL	-9429
тили	-9430
cribe	-9431
▁atmosp	-9432
▁models	-9433
▁Прости	-9434
▁життям	-9435
▁значить	-9436
▁Хіба	-9437
▁речо	-9438
ertain	-9439
▁Think	-9440
▁зброї	-9441
iciency	-9442
▁опублі	-9443
▁Book	-9444
▁книгу	-9445
▁здатні	-9446
▁здійсню	-9447
лакти	-9448
ранці	-9449
ounced	-9450
▁кінець	-9451
uty	-9452
▁firm	-9453
▁Китай	-9454
▁класу	-9455
vention	-9456
▁архіте	-9457
▁evening	-9458
▁пріорите	-9459
▁чотирьох	-9460
▁investors	-9461
▁познайоми	-9462
▁вид	-9463
▁lock	-9464
муться	-9465
▁виник	-9466
▁пішов	-9467
▁росія	-9468
▁dinner	-9469
▁Компані	-9470
▁currency	-9471
▁безкошто	-9472
EO	-9473
▁ада	-9474
▁HTML	-9475
▁Miss	-9476
▁owner	-9477
▁висло	-9478
▁супере	-9479
▁переслід	-9480
If	-9481
діти	-9482
▁профі	-9483
▁старі	-9484
▁фільм	-9485
нію	-9486
діння	-9487
▁вести	-9488
▁charge	-9489
▁designed	-9490
▁independence	-9491
дую	-9492
што	-9493
▁Cong	-9494
▁дело	-9495
▁расс	-9496
▁honor	-9497
▁формі	-9498
▁photos	-9499
▁doctors	-9500
▁reforms	-9501
▁документів	-9502
▁DV	-9503
▁mad	-9504
▁Watch	-9505
▁розумію	-9506
▁released	-9507
▁допомога	-9508
▁otherwise	-9509
▁Гу	-9510
▁здиво	-9511
▁молод	-9512
▁підсу	-9513
▁Хочете	-9514
▁генера	-9515
▁fulfill	-9516
▁психологі	-9517
яка	-9518
▁Their	-9519
▁showed	-9520
▁entered	-9521
▁європейських	-9522
эй	-9523
▁Fe	-9524
▁Mom	-9525
▁drug	-9526
▁стої	-9527
▁judge	-9528
▁fields	-9529
▁переви	-9530
щені	-9531
люють	-9532
▁бази	-9533
▁логі	-9534
▁радіо	-9535
▁самим	-9536
▁island	-9537
▁пережи	-9538
▁читання	-9539
iot	-9540
▁Men	-9541
▁ауди	-9542
▁торгівлі	-9543
▁громадяни	-9544
▁збільшення	-9545
різь	-9546
▁2007	-9547
▁уявити	-9548
»?	-9549
▁Чер	-9550
сунути	-9551
▁equal	-9552
▁tired	-9553
▁leadership	-9554
▁manufacturer	-9555
zz	-9556
бор	-9557
▁вме	-9558
▁Буде	-9559
▁agreed	-9560
▁волосся	-9561
лею	-9562
▁дев	-9563
▁Лондо	-9564
▁вирішив	-9565
mon	-9566
цев	-9567
▁3,	-9568
▁Ке	-9569
▁prove	-9570
▁запов	-9571
▁finished	-9572
▁31	-9573
▁ниж	-9574
▁Mich	-9575
ртуаль	-9576
▁диску	-9577
джувати	-9578
▁reported	-9579
▁незважаючи	-9580
▁вікні	-9581
▁complic	-9582
▁фактично	-9583
▁призначення	-9584
▁спілкування	-9585
дне	-9586
вает	-9587
▁сем	-9588
▁shape	-9589
▁всего	-9590
▁ризику	-9591
▁написав	-9592
тина	-9593
▁forced	-9594
▁regime	-9595
▁інтерфе	-9596
▁займатися	-9597
вку	-9598
▁Mrs	-9599
▁Tog	-9600
▁Write	-9601
▁другий	-9602
▁контакт	-9603
▁діалогове	-9604
▁організацій	-9605
▁Вс	-9606
▁моей	-9607
▁місцях	-9608
▁surprise	-9609
▁компонен	-9610
▁розуміємо	-9611
гляду	-9612
▁rapid	-9613
▁режимі	-9614
▁separate	-9615
rate	-9616
▁Cop	-9617
▁cancer	-9618
▁Prot	-9619
▁About	-9620
▁табли	-9621
▁основному	-9622
▁міжнародного	-9623
▁Зу	-9624
їхав	-9625
▁Port	-9626
▁підні	-9627
▁Crimea	-9628
▁column	-9629
▁цу	-9630
▁яскра	-9631
▁filter	-9632
▁записа	-9633
▁прочита	-9634
▁фотографії	-9635
чила	-9636
▁mut	-9637
▁заво	-9638
▁відчуваєте	-9639
▁Wi	-9640
▁none	-9641
▁шість	-9642
▁цікаво	-9643
▁explore	-9644
▁Bre	-9645
▁blue	-9646
▁ванта	-9647
▁suffer	-9648
▁criminal	-9649
▁$1	-9650
тьми	-9651
▁Гру	-9652
▁cash	-9653
▁Англі	-9654
▁спрямо	-9655
зда	-9656
▁fool	-9657
▁subs	-9658
▁reject	-9659
шру	-9660
зумів	-9661
шують	-9662
▁Make	-9663
porary	-9664
rusader	-9665
▁виглядати	-9666
довж	-9667
шено	-9668
▁400	-9669
▁amb	-9670
▁Уні	-9671
▁зво	-9672
▁fish	-9673
▁continu	-9674
▁strange	-9675
▁networks	-9676
▁efficient	-9677
▁Из	-9678
▁Pat	-9679
▁деле	-9680
▁Bible	-9681
▁Ніхто	-9682
▁museum	-9683
▁служби	-9684
клу	-9685
▁Alex	-9686
▁обер	-9687
▁вечір	-9688
▁листо	-9689
▁vision	-9690
▁отримуєте	-9691
▁everywhere	-9692
часо	-9693
▁глу	-9694
ешься	-9695
▁Roman	-9696
▁plane	-9697
▁round	-9698
▁Більше	-9699
▁Вашинг	-9700
US	-9701
гах	-9702
▁thus	-9703
▁коре	-9704
▁пані	-9705
▁підпи	-9706
▁сприя	-9707
▁owners	-9708
▁звинува	-9709
▁негатив	-9710
▁stronger	-9711
▁параметр	-9712
▁connected	-9713
▁Str	-9714
▁мікро	-9715
▁безпеці	-9716
▁Lat	-9717
баром	-9718
▁cells	-9719
▁рецеп	-9720
▁звідси	-9721
▁провід	-9722
▁reflect	-9723
▁кандида	-9724
▁actively	-9725
▁reliable	-9726
гар	-9727
▁починає	-9728
▁architect	-9729
pic	-9730
▁Поми	-9731
▁graph	-9732
▁raise	-9733
▁позба	-9734
▁мусуль	-9735
▁courses	-9736
▁journey	-9737
▁кількох	-9738
▁external	-9739
▁happiness	-9740
▁лет	-9741
менті	-9742
стого	-9743
▁Зага	-9744
▁диво	-9745
▁чего	-9746
жка	-9747
ском	-9748
ellow	-9749
▁пити	-9750
player	-9751
▁четвер	-9752
сен	-9753
roid	-9754
▁busy	-9755
▁беру	-9756
▁тему	-9757
▁Китаю	-9758
▁придбати	-9759
▁spiritual	-9760
▁Тим	-9761
ляції	-9762
▁сина	-9763
▁supply	-9764
▁дороги	-9765
▁молодих	-9766
▁researchers	-9767
дре	-9768
ную	-9769
rees	-9770
Phone	-9771
▁аспе	-9772
yal	-9773
філь	-9774
▁arr	-9775
▁Hold	-9776
▁кален	-9777
▁Second	-9778
▁nations	-9779
▁analysis	-9780
▁purposes	-9781
▁concerned	-9782
▁продовжує	-9783
дрі	-9784
лог	-9785
▁lucky	-9786
▁впливу	-9787
▁термін	-9788
▁позицію	-9789
▁наступних	-9790
▁відновлення	-9791
эн	-9792
чте	-9793
▁діло	-9794
▁збір	-9795
▁quiet	-9796
▁опини	-9797
▁scared	-9798
▁перемі	-9799
▁надісла	-9800
▁configure	-9801
мова	-9802
тові	-9803
ether	-9804
▁Європейсь	-9805
▁Джу	-9806
чилось	-9807
▁кажучи	-9808
▁хотіла	-9809
▁сторінці	-9810
▁намагаються	-9811
PE	-9812
olic	-9813
▁Nove	-9814
▁аген	-9815
▁dance	-9816
ography	-9817
▁запере	-9818
▁aspects	-9819
▁вартість	-9820
▁здатність	-9821
▁справедливо	-9822
опа	-9823
сем	-9824
▁Ro	-9825
▁corruption	-9826
чах	-9827
▁Um	-9828
чами	-9829
▁ded	-9830
▁2006	-9831
▁element	-9832
▁моменту	-9833
▁multiple	-9834
▁Commission	-9835
▁політичних	-9836
ban	-9837
▁жив	-9838
▁beat	-9839
▁Існує	-9840
▁profile	-9841
Мо	-9842
▁IM	-9843
сажи	-9844
▁fem	-9845
▁стри	-9846
▁впрова	-9847
▁причина	-9848
▁кольорів	-9849
▁disappoint	-9850
ava	-9851
▁член	-9852
▁chemical	-9853
▁переваги	-9854
▁підоз	-9855
▁Показати	-9856
▁діля	-9857
▁теки	-9858
▁заголо	-9859
▁Націона	-9860
▁colleagues	-9861
▁confidence	-9862
▁strengthen	-9863
rag	-9864
тифі	-9865
▁Data	-9866
▁віднов	-9867
▁менедж	-9868
▁важливим	-9869
▁worldwide	-9870
плу	-9871
▁кое	-9872
enger	-9873
▁funny	-9874
▁Нехай	-9875
▁стиму	-9876
▁жодних	-9877
▁повний	-9878
▁планети	-9879
▁academic	-9880
▁pictures	-9881
▁excellent	-9882
▁постачаль	-9883
▁Everything	-9884
єри	-9885
▁Techn	-9886
▁автор	-9887
єднання	-9888
▁потрапи	-9889
▁найбільше	-9890
uri	-9891
▁Dem	-9892
▁Sky	-9893
▁Last	-9894
▁Swed	-9895
▁disci	-9896
▁Article	-9897
▁держава	-9898
▁includes	-9899
ЕР	-9900
лить	-9901
▁tro	-9902
eters	-9903
▁школі	-9904
▁писати	-9905
▁Service	-9906
▁speaking	-9907
▁натисніть	-9908
валі	-9909
iliar	-9910
▁убий	-9911
▁despite	-9912
▁великою	-9913
▁Ma	-9914
7-01	-9915
▁рази	-9916
▁явля	-9917
▁пошук	-9918
▁Наступ	-9919
▁простір	-9920
pril	-9921
правж	-9922
▁diet	-9923
▁Джор	-9924
▁Якби	-9925
▁секто	-9926
▁checked	-9927
▁відкрито	-9928
▁переконатися	-9929
пт	-9930
ashion	-9931
isters	-9932
▁сцена	-9933
▁честь	-9934
▁тримати	-9935
▁Оскільки	-9936
aves	-9937
▁lad	-9938
enses	-9939
▁сила	-9940
кладні	-9941
▁закону	-9942
▁лабора	-9943
▁concent	-9944
▁доступні	-9945
▁Dan	-9946
▁тон	-9947
▁інф	-9948
▁пише	-9949
▁мережа	-9950
▁способом	-9951
berg	-9952
▁Пор	-9953
▁межах	-9954
ляється	-9955
▁promot	-9956
▁Правда	-9957
▁елементів	-9958
▁розповісти	-9959
▁інструмент	-9960
тують	-9961
ваються	-9962
▁людині	-9963
▁correspon	-9964
▁konqueror	-9965
▁„	-9966
жува	-9967
▁дове	-9968
cember	-9969
▁врахо	-9970
▁знань	-9971
▁animal	-9972
▁вибира	-9973
▁operating	-9974
щує	-9975
henko	-9976
▁Rome	-9977
▁icon	-9978
▁любити	-9979
▁capable	-9980
▁compared	-9981
чала	-9982
▁небе	-9983
▁totally	-9984
▁зробить	-9985
▁елементи	-9986
▁implementation	-9987
влять	-9988
▁авіа	-9989
▁порт	-9990
pected	-9991
▁driver	-9992
▁спокій	-9993
▁захоплю	-9994
▁отримують	-9995
▁Sa	-9996
центра	-9997
▁армії	-9998
▁Церкви	-9999
▁зупини	-10000
▁характери	-10001
▁жо	-10002
року	-10003
▁япо	-10004
споко	-10005
чують	-10006
/2014)	-10007
▁facts	-10008
▁поспі	-10009
anda	-10010
pper	-10011
▁Bet	-10012
▁jump	-10013
▁дина	-10014
▁кіло	-10015
▁subst	-10016
▁знала	-10017
▁прогно	-10018
▁controll	-10019
▁mistakes	-10020
▁perspect	-10021
▁Інтернет	-10022
▁historical	-10023
icy	-10024
▁wat	-10025
ained	-10026
ender	-10027
▁ігри	-10028
лишком	-10029
▁brows	-10030
▁повторю	-10031
▁pregnant	-10032
▁suffering	-10033
▁страхування	-10034
OT	-10035
▁wine	-10036
▁Файл	-10037
iction	-10038
жає	-10039
жет	-10040
нню	-10041
▁Кому	-10042
▁вики	-10043
▁grant	-10044
▁роман	-10045
▁цілому	-10046
▁найбільших	-10047
▁cru	-10048
працю	-10049
▁Life	-10050
▁День	-10051
▁valid	-10052
▁Parliament	-10053
▁використовуючи	-10054
rep	-10055
дію	-10056
шел	-10057
▁масо	-10058
▁distance	-10059
▁selection	-10060
▁фра	-10061
▁Кіль	-10062
▁заува	-10063
▁стика	-10064
▁говорите	-10065
бен	-10066
ект	-10067
phas	-10068
▁calm	-10069
▁несе	-10070
▁старо	-10071
▁фунда	-10072
▁perman	-10073
▁included	-10074
▁українського	-10075
▁ult	-10076
▁Next	-10077
▁інструменти	-10078
▁Сай	-10079
▁ведь	-10080
▁освіт	-10081
▁Спасибо	-10082
▁створили	-10083
▁найкращий	-10084
po	-10085
рив	-10086
ynam	-10087
пада	-10088
▁mid	-10089
▁платфор	-10090
▁християн	-10091
▁Sure	-10092
▁Party	-10093
▁вбити	-10094
▁сотні	-10095
▁buying	-10096
▁подорож	-10097
▁реформи	-10098
▁Ша	-10099
▁tea	-10100
шньої	-10101
▁smell	-10102
▁youth	-10103
▁дивно	-10104
▁satisf	-10105
▁Central	-10106
▁відповів	-10107
▁розробки	-10108
▁професіона	-10109
▁Великобританії	-10110
▁ґ	-10111
utor	-10112
▁east	-10113
▁обся	-10114
▁центр	-10115
▁їхніх	-10116
▁розпові	-10117
▁resource	-10118
▁principle	-10119
▁]	-10120
▁ID	-10121
▁Que	-10122
dis	-10123
тію	-10124
▁Ver	-10125
▁схи	-10126
▁радя	-10127
▁Вашого	-10128
▁центрі	-10129
▁Вилучити	-10130
▁назавжди	-10131
▁врятувати	-10132
цін	-10133
stood	-10134
▁дякую	-10135
▁valuable	-10136
▁translation	-10137
▁Фо	-10138
ноді	-10139
▁High	-10140
▁bull	-10141
▁Божий	-10142
▁Назва	-10143
▁заоща	-10144
▁новим	-10145
▁Росією	-10146
▁автобу	-10147
▁забува	-10148
▁Використа	-10149
щено	-10150
▁злочин	-10151
▁knowing	-10152
▁спожива	-10153
▁November	-10154
▁потенціал	-10155
▁atmosphere	-10156
Якщо	-10157
▁stick	-10158
▁незна	-10159
▁праці	-10160
чується	-10161
▁wealth	-10162
▁emotions	-10163
dam	-10164
▁motiv	-10165
▁tells	-10166
▁маршру	-10167
▁ru	-10168
лять	-10169
▁Big	-10170
umber	-10171
▁Asia	-10172
▁April	-10173
▁Security	-10174
▁dress	-10175
▁funds	-10176
▁appears	-10177
▁Швид	-10178
▁поли	-10179
▁joint	-10180
▁обидва	-10181
▁Remember	-10182
▁спостере	-10183
▁innovative	-10184
vest	-10185
andon	-10186
entle	-10187
▁Frank	-10188
▁Потому	-10189
▁Христо	-10190
▁партії	-10191
▁election	-10192
90	-10193
нар	-10194
▁32	-10195
▁Где	-10196
ective	-10197
▁резер	-10198
▁handle	-10199
▁великим	-10200
▁завдань	-10201
▁цінності	-10202
▁continued	-10203
▁conversation	-10204
▁необхідності	-10205
гру	-10206
кови	-10207
▁spl	-10208
▁keys	-10209
▁laun	-10210
▁угоди	-10211
вар	-10212
▁нер	-10213
▁December	-10214
▁Sometimes	-10215
▁installed	-10216
▁specified	-10217
▁побудувати	-10218
enge	-10219
▁Різ	-10220
▁bird	-10221
▁Court	-10222
▁дасть	-10223
▁нехай	-10224
▁finish	-10225
▁Jews	-10226
▁boss	-10227
▁Віль	-10228
▁Трамп	-10229
▁заслу	-10230
▁моєму	-10231
▁destroyed	-10232
▁presented	-10233
▁requirements	-10234
ET	-10235
сов	-10236
віта	-10237
нках	-10238
▁dro	-10239
▁пої	-10240
▁Free	-10241
▁concl	-10242
▁loves	-10243
▁factors	-10244
▁pleasure	-10245
▁teaching	-10246
ham	-10247
▁влада	-10248
▁мозок	-10249
▁сделал	-10250
▁зосеред	-10251
▁випадків	-10252
vo	-10253
дцять	-10254
▁Light	-10255
▁broken	-10256
▁Європу	-10257
▁Christmas	-10258
▁Ins	-10259
▁дер	-10260
icial	-10261
▁шриф	-10262
▁banks	-10263
▁mouth	-10264
▁виборів	-10265
▁позначено	-10266
дує	-10267
oking	-10268
▁хвилю	-10269
▁Italian	-10270
▁Kingdom	-10271
▁decades	-10272
▁стратегії	-10273
▁відповісти	-10274
мато	-10275
нень	-10276
▁rise	-10277
▁десь	-10278
▁межі	-10279
▁micro	-10280
▁Додати	-10281
▁робили	-10282
▁defense	-10283
бель	-10284
лене	-10285
▁Found	-10286
▁losing	-10287
▁advance	-10288
▁neither	-10289
▁розуміють	-10290
эр	-10291
▁[[	-10292
▁нрави	-10293
▁bright	-10294
▁IT	-10295
▁Rich	-10296
▁керу	-10297
▁росли	-10298
вується	-10299
▁компанію	-10300
%,	-10301
сної	-10302
▁Fil	-10303
▁Нічого	-10304
▁літера	-10305
▁Met	-10306
▁lady	-10307
▁дока	-10308
▁Unlike	-10309
▁Usually	-10310
▁sitting	-10311
▁recognized	-10312
'.	-10313
жне	-10314
▁Mary	-10315
▁Paul	-10316
▁нині	-10317
▁counter	-10318
▁reports	-10319
▁складно	-10320
▁relative	-10321
▁пояснити	-10322
▁participate	-10323
urg	-10324
▁Ци	-10325
cont	-10326
▁taste	-10327
▁weren	-10328
▁emphas	-10329
▁зробила	-10330
AD	-10331
...]	-10332
▁зби	-10333
▁apart	-10334
▁треть	-10335
▁щоден	-10336
itarian	-10337
▁advanced	-10338
▁параметра	-10339
▁базу	-10340
▁evalu	-10341
▁England	-10342
▁victims	-10343
▁безпеку	-10344
▁розрахо	-10345
▁transform	-10346
He	-10347
дать	-10348
cknow	-10349
▁Arab	-10350
▁Such	-10351
▁bound	-10352
▁півні	-10353
▁думаєш	-10354
▁Новий	-10355
▁хлопець	-10356
родні	-10357
▁effectively	-10358
▁legislation	-10359
от	-10360
▁inj	-10361
▁Нез	-10362
порту	-10363
▁академі	-10364
▁communicate	-10365
виться	-10366
▁секунд	-10367
▁opening	-10368
▁variety	-10369
-5	-10370
пле	-10371
▁Ал	-10372
cean	-10373
вище	-10374
▁Won	-10375
тором	-10376
▁Edit	-10377
▁Want	-10378
▁iPhone	-10379
▁кращих	-10380
▁вважати	-10381
▁articles	-10382
ок	-10383
▁зброю	-10384
▁межами	-10385
▁48	-10386
▁Воло	-10387
▁achieved	-10388
Ні	-10389
min	-10390
єння	-10391
▁Раз	-10392
▁1000	-10393
▁magic	-10394
▁копію	-10395
▁закони	-10396
▁regarding	-10397
▁kit	-10398
▁дім	-10399
ворів	-10400
▁feature	-10401
▁створив	-10402
▁звернутися	-10403
бай	-10404
▁зи	-10405
вила	-10406
▁Sir	-10407
▁thr	-10408
▁Kiev	-10409
▁теми	-10410
ськими	-10411
▁scale	-10412
стувати	-10413
▁надавати	-10414
▁подумати	-10415
▁discovered	-10416
▁YOU	-10417
▁fit	-10418
▁Йому	-10419
▁Твоя	-10420
▁такой	-10421
▁Президент	-10422
▁станеться	-10423
ньте	-10424
шься	-10425
▁Once	-10426
▁farm	-10427
▁тера	-10428
▁exhib	-10429
▁confir	-10430
▁struggle	-10431
va	-10432
РО	-10433
▁л	-10434
▁Сон	-10435
aging	-10436
▁caused	-10437
▁дітьми	-10438
▁певних	-10439
▁experienced	-10440
▁інформацією	-10441
бору	-10442
▁Хар	-10443
нську	-10444
▁душі	-10445
▁жорст	-10446
▁помил	-10447
▁package	-10448
▁зустріч	-10449
▁fundamental	-10450
вними	-10451
▁заня	-10452
▁піду	-10453
▁Господи	-10454
рід	-10455
▁75	-10456
ston	-10457
жена	-10458
▁Help	-10459
▁вниз	-10460
▁усім	-10461
▁науки	-10462
▁acknow	-10463
▁punish	-10464
▁випуск	-10465
can	-10466
iel	-10467
ayer	-10468
волі	-10469
кцій	-10470
▁fed	-10471
▁хре	-10472
ковим	-10473
▁сервера	-10474
▁brothers	-10475
▁інтереси	-10476
▁yesterday	-10477
рку	-10478
▁(200	-10479
▁дали	-10480
▁зітк	-10481
▁directory	-10482
▁characters	-10483
▁performance	-10484
До	-10485
сторо	-10486
▁рано	-10487
плення	-10488
ставки	-10489
▁remote	-10490
▁стосунки	-10491
▁ав	-10492
▁Ass	-10493
▁Mal	-10494
▁ава	-10495
force	-10496
▁моря	-10497
джують	-10498
порати	-10499
щувати	-10500
▁всієї	-10501
▁George	-10502
▁Федера	-10503
▁comment	-10504
▁matters	-10505
▁volunte	-10506
чали	-10507
▁Got	-10508
▁Том	-10509
▁нее	-10510
▁доки	-10511
▁видів	-10512
▁conscious	-10513
▁disappear	-10514
▁background	-10515
asy	-10516
▁Mars	-10517
▁еволю	-10518
▁фахів	-10519
▁зусиль	-10520
gypt	-10521
▁till	-10522
▁photo	-10523
▁дітям	-10524
ibility	-10525
▁проголо	-10526
▁policies	-10527
▁важливий	-10528
▁встановлення	-10529
bon	-10530
пев	-10531
inct	-10532
▁буд	-10533
acity	-10534
▁Peter	-10535
йському	-10536
▁ввести	-10537
▁identity	-10538
▁сторінку	-10539
▁конфіденцій	-10540
зою	-10541
▁mix	-10542
ication	-10543
▁живемо	-10544
▁окремо	-10545
▁measure	-10546
▁planned	-10547
▁охорони	-10548
▁функціо	-10549
▁боротьби	-10550
▁accordance	-10551
bsp	-10552
▁Ber	-10553
ктори	-10554
▁cheap	-10555
▁numer	-10556
▁theme	-10557
▁безумовно	-10558
lor	-10559
ему	-10560
▁Mad	-10561
▁Sub	-10562
▁турбу	-10563
▁Center	-10564
▁перетвори	-10565
▁permission	-10566
▁потребують	-10567
▁description	-10568
AM	-10569
pire	-10570
ходит	-10571
▁приводу	-10572
▁displayed	-10573
ЕН	-10574
жних	-10575
▁Sun	-10576
▁виду	-10577
▁конц	-10578
▁ночі	-10579
▁банку	-10580
▁містя	-10581
▁помочь	-10582
▁відновити	-10583
CO	-10584
▁Бажа	-10585
▁double	-10586
▁hidden	-10587
▁тимчасо	-10588
▁становить	-10589
▁встановлено	-10590
no	-10591
rief	-10592
жний	-10593
▁Cons	-10594
▁prem	-10595
▁аргу	-10596
▁зате	-10597
▁этой	-10598
▁спорти	-10599
▁отримує	-10600
▁неймовір	-10601
▁складається	-10602
▁board	-10603
▁false	-10604
▁владу	-10605
▁emotional	-10606
70	-10607
hy	-10608
▁hey	-10609
сться	-10610
▁Turk	-10611
▁educational	-10612
Fi	-10613
дол	-10614
▁".	-10615
▁vac	-10616
▁2005	-10617
▁залеж	-10618
▁комбі	-10619
▁thinks	-10620
єру	-10621
▁sins	-10622
▁всех	-10623
▁прийти	-10624
▁category	-10625
▁providing	-10626
▁рекоменда	-10627
▁previously	-10628
IL	-10629
▁Mex	-10630
▁Amaz	-10631
▁Слід	-10632
▁traff	-10633
▁робиш	-10634
▁Mother	-10635
▁lawyer	-10636
▁library	-10637
▁якомога	-10638
▁впевнений	-10639
▁співробітників	-10640
▁um	-10641
▁Rel	-10642
▁зос	-10643
▁clin	-10644
▁excl	-10645
▁lies	-10646
▁Creat	-10647
▁Кожен	-10648
▁Японії	-10649
▁капіта	-10650
▁додаткові	-10651
кая	-10652
▁Doc	-10653
▁Jer	-10654
▁Say	-10655
▁drag	-10656
▁твой	-10657
▁лінії	-10658
▁caught	-10659
▁indeed	-10660
standing	-10661
▁classes	-10662
▁дружина	-10663
▁Federation	-10664
▁Іс	-10665
▁[...]	-10666
▁sight	-10667
▁найпо	-10668
▁відзна	-10669
▁процесі	-10670
▁Показувати	-10671
PN	-10672
▁)	-10673
енні	-10674
▁floor	-10675
увалися	-10676
▁driving	-10677
▁authority	-10678
▁Більшість	-10679
▁Government	-10680
▁середовища	-10681
BAR	-10682
nel	-10683
гал	-10684
йську	-10685
▁фанта	-10686
▁божеві	-10687
▁усьому	-10688
▁Project	-10689
▁Welcome	-10690
▁returns	-10691
▁positions	-10692
▁захворювання	-10693
RS	-10694
мат	-10695
▁aid	-10696
▁Form	-10697
▁wood	-10698
▁перша	-10699
▁прошу	-10700
▁shared	-10701
▁вранці	-10702
▁Michael	-10703
▁committed	-10704
▁налаштувати	-10705
equ	-10706
▁editor	-10707
▁William	-10708
▁consist	-10709
▁вчитися	-10710
▁суспільстві	-10711
цы	-10712
▁Jo	-10713
▁пізна	-10714
бачення	-10715
▁anybody	-10716
▁surface	-10717
▁допоможуть	-10718
слю	-10719
▁critic	-10720
▁місяця	-10721
▁familiar	-10722
▁medicine	-10723
▁individuals	-10724
ength	-10725
поряд	-10726
▁Нати	-10727
▁лідер	-10728
▁примі	-10729
▁контекст	-10730
▁координа	-10731
▁залишитися	-10732
IP	-10733
uan	-10734
▁край	-10735
▁hearts	-10736
▁speech	-10737
▁покара	-10738
вой	-10739
дет	-10740
нгу	-10741
пут	-10742
▁Del	-10743
торії	-10744
▁дзві	-10745
▁паку	-10746
▁Linux	-10747
▁shock	-10748
▁случа	-10749
▁італі	-10750
▁хороші	-10751
▁заверши	-10752
▁accepted	-10753
▁teachers	-10754
▁universities	-10755
21	-10756
ola	-10757
▁Inc	-10758
▁ban	-10759
▁2004	-10760
▁стов	-10761
▁самих	-10762
▁session	-10763
▁interview	-10764
▁Ґ	-10765
ends	-10766
▁вкра	-10767
▁суду	-10768
▁рядок	-10769
жем	-10770
кації	-10771
▁dear	-10772
▁cards	-10773
▁уника	-10774
▁шкоди	-10775
▁заходи	-10776
▁навіщо	-10777
▁victory	-10778
▁віртуаль	-10779
▁зрозумів	-10780
▁працювали	-10781
DP	-10782
мера	-10783
▁Mil	-10784
▁cup	-10785
▁Мої	-10786
▁газ	-10787
▁blind	-10788
▁вважаю	-10789
▁очевидно	-10790
▁conference	-10791
ция	-10792
part	-10793
нила	-10794
▁ice	-10795
шенко	-10796
▁испо	-10797
▁нако	-10798
ateful	-10799
▁Human	-10800
▁fresh	-10801
▁delete	-10802
▁вулиці	-10803
▁даними	-10804
▁поширю	-10805
▁humanity	-10806
▁використано	-10807
erves	-10808
▁poss	-10809
▁Китаї	-10810
▁непро	-10811
▁causes	-10812
▁думала	-10813
▁Скільки	-10814
▁немного	-10815
▁наступні	-10816
нера	-10817
▁зміц	-10818
ваного	-10819
▁добра	-10820
erences	-10821
щодавно	-10822
▁подиви	-10823
▁електри	-10824
▁фінансування	-10825
My	-10826
▁аж	-10827
ounce	-10828
дання	-10829
▁Бать	-10830
▁потом	-10831
▁стари	-10832
▁paying	-10833
▁attacks	-10834
▁знайшов	-10835
▁очікувати	-10836
▁experiences	-10837
▁переглянути	-10838
крі	-10839
няє	-10840
▁вто	-10841
agram	-10842
uries	-10843
▁буква	-10844
▁потер	-10845
▁машини	-10846
alax	-10847
▁Mart	-10848
▁spoke	-10849
▁намір	-10850
▁Associ	-10851
▁Office	-10852
▁college	-10853
▁власних	-10854
▁регулярно	-10855
▁electronic	-10856
▁вирішувати	-10857
▁партнерами	-10858
▁книга	-10859
▁спати	-10860
▁світла	-10861
▁processing	-10862
za	-10863
пит	-10864
▁Ho	-10865
▁Той	-10866
▁гля	-10867
воруч	-10868
▁Writ	-10869
▁heavy	-10870
▁instru	-10871
▁Develop	-10872
▁людства	-10873
▁exercise	-10874
▁використовуєте	-10875
рети	-10876
▁syn	-10877
точно	-10878
▁root	-10879
зій	-10880
▁Ben	-10881
▁Cur	-10882
▁unt	-10883
▁Іра	-10884
iring	-10885
▁Post	-10886
▁kiss	-10887
▁wild	-10888
▁вира	-10889
▁Іноді	-10890
▁перше	-10891
▁версія	-10892
▁лібера	-10893
▁letters	-10894
▁незакон	-10895
▁відмовитися	-10896
▁Бли	-10897
▁ску	-10898
▁Знаєш	-10899
▁Америці	-10900
▁включає	-10901
але	-10902
тини	-10903
▁вос	-10904
overy	-10905
ятайте	-10906
▁Global	-10907
▁оптимі	-10908
▁holding	-10909
▁відчути	-10910
▁втратили	-10911
▁pregnancy	-10912
вач	-10913
▁вжи	-10914
▁Разом	-10915
▁кожну	-10916
▁терори	-10917
▁killing	-10918
▁Конститу	-10919
▁перевіря	-10920
тет	-10921
лосо	-10922
▁ключ	-10923
▁Spirit	-10924
Сьогодні	-10925
▁finding	-10926
▁варіанти	-10927
ugg	-10928
дит	-10929
▁font	-10930
▁belief	-10931
▁Робота	-10932
▁доктор	-10933
▁applied	-10934
▁назвати	-10935
▁використовуємо	-10936
нім	-10937
валь	-10938
▁кам	-10939
ument	-10940
▁компози	-10941
▁пристрій	-10942
RE	-10943
ris	-10944
чері	-10945
▁Cho	-10946
▁Всё	-10947
▁fault	-10948
▁feels	-10949
▁посмі	-10950
▁проро	-10951
▁decent	-10952
▁березня	-10953
▁констру	-10954
▁складні	-10955
▁believes	-10956
▁professionals	-10957
зей	-10958
▁сеан	-10959
▁Egypt	-10960
▁Серед	-10961
▁ладно	-10962
▁роках	-10963
▁против	-10964
▁accompl	-10965
▁specify	-10966
▁choosing	-10967
▁виходить	-10968
▁належать	-10969
▁Loc	-10970
▁гаря	-10971
▁reput	-10972
abilities	-10973
▁religion	-10974
▁операцій	-10975
Те	-10976
рпла	-10977
▁школу	-10978
▁кожній	-10979
▁Spanish	-10980
▁visited	-10981
▁Республі	-10982
▁отримала	-10983
▁української	-10984
rey	-10985
шня	-10986
▁//	-10987
iber	-10988
ilos	-10989
▁waste	-10990
▁Позна	-10991
▁запит	-10992
▁convin	-10993
▁погляд	-10994
▁замовлення	-10995
▁повернувся	-10996
▁Wow	-10997
совно	-10998
▁bear	-10999
▁cast	-11000
▁Econom	-11001
▁одразу	-11002
▁Eastern	-11003
▁unknown	-11004
▁розділі	-11005
▁конфлікту	-11006
▁Використання	-11007
нс	-11008
hent	-11009
kind	-11010
asant	-11011
тними	-11012
▁інша	-11013
▁Господ	-11014
▁мініма	-11015
▁пароль	-11016
▁forgive	-11017
▁доросли	-11018
ae	-11019
раб	-11020
▁хи	-11021
▁rat	-11022
▁ано	-11023
Украї	-11024
▁input	-11025
▁tests	-11026
▁мешка	-11027
▁перей	-11028
▁вместе	-11029
▁актуаль	-11030
жок	-11031
▁чин	-11032
▁accounts	-11033
▁properly	-11034
▁скорочення	-11035
всяк	-11036
роди	-11037
▁Усі	-11038
дення	-11039
ріння	-11040
шується	-11041
▁атмосф	-11042
▁minimum	-11043
▁Помилка	-11044
bel	-11045
oto	-11046
нто	-11047
шок	-11048
Чому	-11049
білі	-11050
соль	-11051
estic	-11052
скона	-11053
▁hung	-11054
▁балан	-11055
▁забра	-11056
▁actual	-11057
▁політика	-11058
using	-11059
▁Божа	-11060
ційним	-11061
▁робив	-11062
▁вибори	-11063
▁просимо	-11064
▁football	-11065
▁announced	-11066
?».	-11067
▁прив	-11068
▁angry	-11069
▁медіа	-11070
▁Social	-11071
▁забира	-11072
▁worried	-11073
▁Christians	-11074
▁розташування	-11075
яті	-11076
этому	-11077
▁Call	-11078
▁ліки	-11079
▁інду	-11080
▁Сирії	-11081
▁кліні	-11082
▁adopted	-11083
джуватися	-11084
▁visitors	-11085
▁розробле	-11086
дки	-11087
izer	-11088
біть	-11089
▁aim	-11090
▁Нав	-11091
▁рух	-11092
▁намі	-11093
▁твого	-11094
▁damage	-11095
▁Charlie	-11096
nergy	-11097
менно	-11098
▁руху	-11099
▁семь	-11100
▁власне	-11101
▁готова	-11102
▁підклю	-11103
▁вересня	-11104
▁здивовані	-11105
▁partnership	-11106
ml	-11107
▁магі	-11108
▁react	-11109
▁renew	-11110
▁можем	-11111
▁думають	-11112
omi	-11113
▁Cre	-11114
▁Чим	-11115
▁sacr	-11116
▁Click	-11117
▁метод	-11118
▁катастро	-11119
руд	-11120
ulia	-11121
пати	-11122
▁збу	-11123
▁ігно	-11124
▁знать	-11125
▁formed	-11126
▁значит	-11127
▁самому	-11128
▁enterpr	-11129
▁illegal	-11130
▁organis	-11131
▁захищати	-11132
fast	-11133
▁тієї	-11134
▁humans	-11135
▁відомий	-11136
▁regional	-11137
▁проживання	-11138
хня	-11139
▁Ву	-11140
well	-11141
▁Sea	-11142
▁Wik	-11143
▁Мой	-11144
reement	-11145
▁birthday	-11146
▁businesses	-11147
хе	-11148
▁сму	-11149
демон	-11150
▁Союзу	-11151
▁повсяк	-11152
▁removed	-11153
▁studying	-11154
▁generally	-11155
кур	-11156
▁Час	-11157
▁moral	-11158
▁полег	-11159
▁вигляд	-11160
▁appeared	-11161
▁поведінку	-11162
ус	-11163
uge	-11164
gent	-11165
рієн	-11166
якій	-11167
▁бом	-11168
▁поо	-11169
▁эту	-11170
▁Fore	-11171
▁банк	-11172
▁ideal	-11173
▁enable	-11174
▁вислов	-11175
zen	-11176
Today	-11177
▁Down	-11178
▁Park	-11179
▁broke	-11180
▁видел	-11181
▁interp	-11182
▁хлопчи	-11183
▁Perhaps	-11184
▁virtual	-11185
▁давайте	-11186
▁джерело	-11187
▁корпорати	-11188
▁innovation	-11189
▁підвищення	-11190
host	-11191
лати	-11192
сними	-11193
▁обчи	-11194
estival	-11195
▁заходів	-11196
▁который	-11197
▁довгостро	-11198
▁допомагають	-11199
BC	-11200
gt	-11201
нопо	-11202
ктором	-11203
▁січня	-11204
▁plugin	-11205
▁Теперь	-11206
▁червня	-11207
▁arrived	-11208
▁слишком	-11209
▁Yesterday	-11210
цо	-11211
чою	-11212
▁Ste	-11213
▁Спи	-11214
годно	-11215
▁прем	-11216
▁спорт	-11217
itutional	-11218
▁Університе	-11219
▁показувати	-11220
],	-11221
hens	-11222
ingu	-11223
Вони	-11224
▁вчора	-11225
▁поняття	-11226
▁пропозиції	-11227
дай	-11228
▁Aug	-11229
▁Det	-11230
ening	-11231
▁Save	-11232
▁accur	-11233
▁invite	-11234
▁defined	-11235
▁regularly	-11236
▁компанією	-11237
▁Information	-11238
дем	-11239
рит	-11240
▁unp	-11241
нувся	-11242
▁User	-11243
▁quot	-11244
▁Лише	-11245
▁рядка	-11246
▁схоже	-11247
▁почути	-11248
▁обробки	-11249
▁розподі	-11250
▁архітекту	-11251
bed	-11252
▁дей	-11253
▁conven	-11254
▁енергію	-11255
▁варіантів	-11256
vered	-11257
▁unit	-11258
▁Ради	-11259
ландії	-11260
рештою	-11261
▁param	-11262
▁toward	-11263
▁Необхід	-11264
▁рестора	-11265
▁політичні	-11266
2)	-11267
uel	-11268
▁Mo	-11269
▁вода	-11270
▁тиск	-11271
▁angel	-11272
▁Ісуса	-11273
▁видно	-11274
▁transm	-11275
▁клавіа	-11276
▁лідерів	-11277
▁перевагу	-11278
▁Configure	-11279
▁Насправді	-11280
▁працівників	-11281
▁investigation	-11282
▁TH	-11283
etic	-11284
▁Ага	-11285
▁ride	-11286
▁Пане	-11287
▁моїм	-11288
▁кошти	-11289
▁говорю	-11290
▁музика	-11291
▁симпто	-11292
▁хочеться	-11293
▁sufficient	-11294
▁understood	-11295
▁administration	-11296
rets	-11297
▁дію	-11298
▁код	-11299
▁damn	-11300
▁fort	-11301
▁вино	-11302
▁Inter	-11303
▁гірше	-11304
▁resist	-11305
▁winter	-11306
▁відносно	-11307
rant	-11308
icated	-11309
▁йдуть	-11310
▁звідки	-11311
▁освіту	-11312
▁лікарні	-11313
▁audience	-11314
▁websites	-11315
▁поставити	-11316
суд	-11317
▁4,	-11318
сайт	-11319
▁оте	-11320
▁milk	-11321
▁Вами	-11322
▁Путі	-11323
▁Space	-11324
▁новин	-11325
▁output	-11326
▁записи	-11327
▁режиму	-11328
▁чогось	-11329
▁produced	-11330
▁television	-11331
▁journalists	-11332
And	-11333
кор	-11334
▁cas	-11335
asion	-11336
▁propos	-11337
▁віримо	-11338
▁перейти	-11339
▁drinking	-11340
▁задоволь	-11341
▁запитати	-11342
▁ended	-11343
▁teeth	-11344
▁прихи	-11345
▁garden	-11346
▁введення	-11347
▁власного	-11348
▁рухатися	-11349
0.	-11350
▁Sal	-11351
▁яза	-11352
▁lots	-11353
▁Color	-11354
▁цілий	-11355
▁Jewish	-11356
▁враження	-11357
▁втратити	-11358
▁функціона	-11359
▁дя	-11360
▁теа	-11361
▁схід	-11362
▁alarm	-11363
▁Прошу	-11364
▁могло	-11365
▁якісь	-11366
▁Health	-11367
▁любите	-11368
▁мереже	-11369
▁standing	-11370
▁перетворю	-11371
▁припинити	-11372
▁DVD	-11373
ustain	-11374
▁usual	-11375
▁психі	-11376
oshenko	-11377
▁Amazon	-11378
▁світової	-11379
▁incredible	-11380
▁(«	-11381
толи	-11382
▁pra	-11383
apers	-11384
▁візу	-11385
▁слыша	-11386
▁cooper	-11387
▁зарпла	-11388
▁починають	-11389
▁aggression	-11390
▁determined	-11391
▁російських	-11392
▁вог	-11393
▁дорого	-11394
▁участі	-11395
▁reaction	-11396
▁організація	-11397
Чи	-11398
cons	-11399
деть	-11400
agraph	-11401
▁Stand	-11402
ensions	-11403
▁думали	-11404
▁обміну	-11405
▁walking	-11406
▁Німеччині	-11407
▁temperature	-11408
рую	-11409
▁Yuri	-11410
▁holy	-11411
увався	-11412
▁withd	-11413
▁Коман	-11414
▁вісім	-11415
▁снова	-11416
▁Спробу	-11417
▁protected	-11418
▁автомобілів	-11419
ias	-11420
spe	-11421
▁ігра	-11422
▁leads	-11423
▁bigger	-11424
▁compre	-11425
▁наведе	-11426
▁новини	-11427
▁suddenly	-11428
▁surround	-11429
▁проблемою	-11430
▁учасників	-11431
rary	-11432
шений	-11433
▁Conn	-11434
▁rent	-11435
▁Стра	-11436
▁астро	-11437
▁взяли	-11438
▁bottom	-11439
▁brings	-11440
▁Знаешь	-11441
▁пасажи	-11442
▁статус	-11443
▁створює	-11444
ссе	-11445
▁Bo	-11446
cket	-11447
брав	-11448
▁Mag	-11449
▁єдна	-11450
lement	-11451
зовані	-11452
ulations	-11453
▁coordin	-11454
▁завгодно	-11455
▁продемон	-11456
▁essential	-11457
24	-11458
ien	-11459
▁Тай	-11460
▁Note	-11461
▁grace	-11462
жнародні	-11463
▁Services	-11464
▁politicians	-11465
йд	-11466
lav	-11467
..."	-11468
▁band	-11469
▁Мило	-11470
▁відки	-11471
▁smaller	-11472
▁Star	-11473
▁visa	-11474
▁sovere	-11475
▁Можете	-11476
▁calendar	-11477
ЕС	-11478
йна	-11479
▁kapp	-11480
▁мрії	-11481
▁marry	-11482
▁підня	-11483
▁стані	-11484
▁чарів	-11485
▁assign	-11486
▁plants	-11487
▁persons	-11488
▁розповів	-11489
iver	-11490
▁honey	-11491
▁interf	-11492
▁церкви	-11493
▁аналізу	-11494
▁високий	-11495
▁Management	-11496
thod	-11497
▁Dam	-11498
▁rom	-11499
inistry	-11500
надцять	-11501
▁appoint	-11502
▁помилка	-11503
▁сучасних	-11504
▁competitive	-11505
мс	-11506
ёл	-11507
▁бій	-11508
▁larger	-11509
▁Слушай	-11510
▁країною	-11511
▁порядок	-11512
▁стануть	-11513
▁частіше	-11514
▁discussed	-11515
тю	-11516
▁́	-11517
▁пан	-11518
▁Turn	-11519
▁тощо	-11520
можливо	-11521
▁attrib	-11522
▁weapon	-11523
▁динамі	-11524
▁ймовір	-11525
▁privacy	-11526
▁зроблено	-11527
▁encourage	-11528
АН	-11529
дим	-11530
мію	-11531
anny	-11532
кове	-11533
різа	-11534
▁імпер	-11535
▁guests	-11536
▁утриму	-11537
▁початок	-11538
▁instruct	-11539
▁realized	-11540
▁консульта	-11541
▁Lib	-11542
▁sale	-11543
▁стій	-11544
▁ефект	-11545
▁помилок	-11546
▁витрачати	-11547
▁Sch	-11548
▁Хло	-11549
▁дея	-11550
▁обе	-11551
▁2003	-11552
▁kick	-11553
▁zone	-11554
▁shoes	-11555
▁неспо	-11556
▁Слухай	-11557
▁дивови	-11558
▁kingdom	-11559
▁вивчити	-11560
▁контексті	-11561
▁повсякден	-11562
ум	-11563
тір	-11564
cles	-11565
рені	-11566
▁Кор	-11567
iling	-11568
▁armed	-11569
▁champ	-11570
▁брата	-11571
▁Только	-11572
▁родини	-11573
▁великої	-11574
▁krusader	-11575
▁будувати	-11576
▁використанням	-11577
бив	-11578
▁інж	-11579
▁James	-11580
▁парень	-11581
▁побудо	-11582
▁повтор	-11583
▁abandon	-11584
▁милосер	-11585
▁найкращі	-11586
ij	-11587
▁fle	-11588
▁музе	-11589
▁ролі	-11590
▁Тогда	-11591
▁Хочеш	-11592
▁кращі	-11593
▁приду	-11594
▁специ	-11595
жується	-11596
▁довелося	-11597
▁поговорить	-11598
▁розширення	-11599
ED	-11600
клі	-11601
cher	-11602
тять	-11603
▁Att	-11604
▁фар	-11605
ковані	-11606
▁Greek	-11607
▁guard	-11608
▁Донба	-11609
▁напру	-11610
▁worship	-11611
▁Ministry	-11612
▁Виберіть	-11613
▁administr	-11614
▁матеріали	-11615
IX	-11616
даря	-11617
▁steal	-11618
▁views	-11619
▁окрім	-11620
▁settle	-11621
▁правди	-11622
▁kitchen	-11623
▁відвіда	-11624
▁explained	-11625
▁officials	-11626
▁нагадування	-11627
▁Rec	-11628
▁Plan	-11629
▁Spain	-11630
▁одини	-11631
▁stated	-11632
▁більшу	-11633
▁помилку	-11634
▁followed	-11635
▁Компанія	-11636
▁країнами	-11637
▁поточного	-11638
▁Mat	-11639
▁Donb	-11640
▁arms	-11641
▁други	-11642
▁чемпі	-11643
▁artist	-11644
▁вимоги	-11645
▁змусити	-11646
SS	-11647
ds	-11648
ваємо	-11649
▁рейти	-11650
▁постра	-11651
▁invited	-11652
▁возможно	-11653
▁організм	-11654
▁Committee	-11655
aker	-11656
usive	-11657
▁Cath	-11658
struct	-11659
▁числа	-11660
▁федера	-11661
▁corporate	-11662
▁автомобілі	-11663
▁environmental	-11664
жий	-11665
▁космі	-11666
▁Перегляд	-11667
▁подорожі	-11668
▁fant	-11669
▁мрія	-11670
нській	-11671
▁turns	-11672
▁Божої	-11673
▁abroad	-11674
▁initial	-11675
▁способи	-11676
▁пропонують	-11677
▁(3	-11678
▁вру	-11679
▁газу	-11680
▁keeping	-11681
▁виключно	-11682
▁місцевих	-11683
▁працював	-11684
▁дозволяють	-11685
’.	-11686
цях	-11687
шіть	-11688
atell	-11689
plate	-11690
нений	-11691
▁signal	-11692
▁туристи	-11693
▁construct	-11694
▁significantly	-11695
▁тю	-11696
▁розлу	-11697
▁іншій	-11698
▁машина	-11699
▁restore	-11700
▁grateful	-11701
▁ordinary	-11702
▁certificate	-11703
▁неправильно	-11704
IA	-11705
ych	-11706
дея	-11707
▁уб	-11708
змом	-11709
▁Зві	-11710
▁Мор	-11711
▁Цен	-11712
▁альбо	-11713
▁готов	-11714
▁можно	-11715
▁прожи	-11716
▁пізно	-11717
▁escape	-11718
▁Іспані	-11719
▁випадок	-11720
▁елемент	-11721
▁spending	-11722
▁працюєте	-11723
▁підкресли	-11724
ya	-11725
кие	-11726
▁вте	-11727
▁пішли	-11728
▁compare	-11729
▁експорт	-11730
▁carefully	-11731
▁військових	-11732
▁переговори	-11733
ніс	-11734
рін	-11735
▁Ira	-11736
▁сфе	-11737
arter	-11738
▁ring	-11739
▁конти	-11740
▁енерго	-11741
▁Найбіль	-11742
▁launched	-11743
▁знайдено	-11744
▁photograph	-11745
▁виробництво	-11746
▁максимально	-11747
▁кли	-11748
▁женщи	-11749
▁часів	-11750
▁підста	-11751
тримання	-11752
▁evolution	-11753
▁категорії	-11754
▁перебуває	-11755
▁залишиться	-11756
▁використати	-11757
rad	-11758
▁щойно	-11759
▁therap	-11760
▁визначає	-11761
▁відбудеться	-11762
мим	-11763
▁ec	-11764
onym	-11765
нюють	-11766
▁race	-11767
▁Типо	-11768
▁фору	-11769
▁буває	-11770
▁липня	-11771
▁switch	-11772
▁Розумі	-11773
▁ходити	-11774
▁measures	-11775
▁IN	-11776
бути	-11777
▁дату	-11778
▁неко	-11779
▁полю	-11780
▁Georg	-11781
▁likes	-11782
▁topic	-11783
▁мозку	-11784
▁жовтня	-11785
▁showing	-11786
CC	-11787
кци	-11788
▁Cy	-11789
ours	-11790
▁найти	-11791
▁troops	-11792
▁Завжди	-11793
ervation	-11794
▁capacity	-11795
▁constant	-11796
▁практику	-11797
щими	-11798
▁rul	-11799
леного	-11800
▁гармо	-11801
▁скажи	-11802
▁талан	-11803
▁airport	-11804
▁covered	-11805
▁підприємства	-11806
.:	-11807
вый	-11808
ront	-11809
ipped	-11810
▁lands	-11811
▁approx	-11812
▁repeat	-11813
▁Перший	-11814
▁підхід	-11815
▁forgiveness	-11816
▁недостатньо	-11817
amin	-11818
▁ran	-11819
▁опа	-11820
▁хіба	-11821
▁dynam	-11822
▁sport	-11823
rection	-11824
вляться	-11825
▁diseases	-11826
▁Створити	-11827
▁розгляда	-11828
▁introduced	-11829
▁differences	-11830
▁залишаються	-11831
Ро	-11832
▁nine	-11833
▁Джек	-11834
▁звіт	-11835
▁сенс	-11836
▁ідентифіка	-11837
▁intelligence	-11838
▁обслуговування	-11839
▁Yan	-11840
▁газе	-11841
▁вільний	-11842
▁інвестицій	-11843
▁Цар	-11844
▁Import	-11845
▁unable	-11846
струвати	-11847
▁студент	-11848
▁Україною	-11849
xy	-11850
КО	-11851
нтер	-11852
▁unf	-11853
inter	-11854
▁домой	-11855
▁повну	-11856
▁Італії	-11857
▁Церква	-11858
▁важлива	-11859
▁харчування	-11860
MA	-11861
▁ух	-11862
ктах	-11863
ючим	-11864
▁Бан	-11865
arity	-11866
▁дріб	-11867
ковими	-11868
▁место	-11869
▁Excuse	-11870
▁Христа	-11871
▁виконав	-11872
▁entirely	-11873
▁винятком	-11874
▁organized	-11875
▁Користува	-11876
▁кількістю	-11877
▁перевірки	-11878
▁підтримка	-11879
▁Незважаючи	-11880
рбо	-11881
▁нб	-11882
ливе	-11883
стрії	-11884
▁ноги	-11885
▁Grand	-11886
▁gentle	-11887
▁призво	-11888
▁оновлення	-11889
▁recommended	-11890
▁beg	-11891
▁whe	-11892
▁Запи	-11893
▁депре	-11894
▁супут	-11895
▁органи	-11896
▁філосо	-11897
▁operate	-11898
▁заповід	-11899
▁підходить	-11900
leg	-11901
eria	-11902
▁stre	-11903
▁наяв	-11904
▁сіль	-11905
▁lying	-11906
▁вопро	-11907
тримати	-11908
▁slight	-11909
▁village	-11910
▁channels	-11911
▁challenge	-11912
vis	-11913
with	-11914
зують	-11915
шуємо	-11916
▁Stay	-11917
▁тими	-11918
▁тогда	-11919
▁думаешь	-11920
▁зайняти	-11921
▁письмен	-11922
▁confirmed	-11923
▁приходить	-11924
▁efficiency	-11925
ova	-11926
єра	-11927
сілля	-11928
▁Азії	-11929
▁танцю	-11930
▁desktop	-11931
▁криміна	-11932
▁obviously	-11933
▁соціальні	-11934
▁відбуваються	-11935
сса	-11936
bits	-11937
▁Slo	-11938
▁нала	-11939
▁уявля	-11940
▁витрача	-11941
▁впливає	-11942
▁remained	-11943
▁repeated	-11944
ios	-11945
ить	-11946
май	-11947
▁каж	-11948
▁Bill	-11949
▁heat	-11950
▁pref	-11951
▁innoc	-11952
▁Індії	-11953
▁neighbor	-11954
▁intellect	-11955
▁eventually	-11956
▁демократії	-11957
uke	-11958
ague	-11959
віда	-11960
пінь	-11961
▁Pay	-11962
▁сов	-11963
давні	-11964
▁edit	-11965
▁loan	-11966
▁Наша	-11967
▁чисто	-11968
▁медици	-11969
▁присвя	-11970
▁можливе	-11971
▁Німеччини	-11972
▁industrial	-11973
▁фінансових	-11974
▁Ей	-11975
▁Ши	-11976
таки	-11977
house	-11978
thodox	-11979
▁Organ	-11980
▁horse	-11981
▁scene	-11982
▁команд	-11983
▁музику	-11984
▁приємно	-11985
▁продажу	-11986
▁слухати	-11987
▁Австралії	-11988
▁керівництво	-11989
under	-11990
▁друж	-11991
▁прок	-11992
▁кризи	-11993
▁unlike	-11994
semb	-11995
zech	-11996
▁Bud	-11997
▁Вже	-11998
▁Под	-11999
▁Know	-12000
▁знак	-12001
▁adults	-12002
▁movies	-12003
▁реформ	-12004
▁довести	-12005
▁вилучити	-12006
▁спільного	-12007
▁Сполучених	-12008
▁допомагати	-12009
▁закінчення	-12010
▁©	-12011
▁33	-12012
тною	-12013
▁murd	-12014
правед	-12015
▁Криму	-12016
▁двигу	-12017
▁philos	-12018
▁теорії	-12019
▁fashion	-12020
▁license	-12021
▁weather	-12022
▁справжній	-12023
▁адміністра	-12024
▁дотримуватися	-12025
▁їз	-12026
▁bath	-12027
▁euro	-12028
▁особа	-12029
уванням	-12030
▁Інстру	-12031
▁putting	-12032
▁blessings	-12033
▁вго	-12034
▁core	-12035
called	-12036
ildren	-12037
▁bitch	-12038
▁вчені	-12039
▁жодної	-12040
▁нікого	-12041
▁хороша	-12042
▁noticed	-12043
▁sending	-12044
▁поліції	-12045
▁priority	-12046
▁написати	-12047
▁простору	-12048
▁мистецтва	-12049
▁автомобіля	-12050
▁англійською	-12051
▁Європейського	-12052
omy	-12053
urt	-12054
Хто	-12055
▁Log	-12056
▁поя	-12057
▁кроки	-12058
▁панель	-12059
▁ніякого	-12060
▁aircraft	-12061
▁присутні	-12062
▁случилось	-12063
▁швидкість	-12064
▁registered	-12065
▁демократів	-12066
eff	-12067
▁Sl	-12068
▁bag	-12069
Press	-12070
▁Democ	-12071
▁Water	-12072
▁обмін	-12073
▁adjust	-12074
▁allies	-12075
▁interface	-12076
▁reputation	-12077
HO	-12078
▁бит	-12079
ходів	-12080
ціати	-12081
▁іспа	-12082
▁Islam	-12083
▁dying	-12084
▁Держа	-12085
▁orders	-12086
▁vehicle	-12087
▁visible	-12088
TE	-12089
пою	-12090
▁5.	-12091
▁PC	-12092
▁ис	-12093
ukov	-12094
▁зба	-12095
▁такое	-12096
▁choices	-12097
▁партнера	-12098
▁парламент	-12099
▁negotiations	-12100
esc	-12101
нал	-12102
ifts	-12103
▁Rob	-12104
▁збі	-12105
стики	-12106
▁unus	-12107
▁ближче	-12108
▁Everyone	-12109
▁іноземних	-12110
▁perspective	-12111
ASA	-12112
мор	-12113
rors	-12114
декс	-12115
organ	-12116
▁News	-12117
▁жили	-12118
vation	-12119
▁земля	-12120
▁легше	-12121
▁стиль	-12122
issions	-12123
▁великого	-12124
▁використовували	-12125
To	-12126
...?	-12127
менше	-12128
▁зара	-12129
▁подя	-12130
▁agent	-12131
▁assum	-12132
▁Чарлі	-12133
▁чесно	-12134
ception	-12135
▁першої	-12136
▁уявлення	-12137
▁процедури	-12138
▁українські	-12139
▁сьогоднішній	-12140
▁*.	-12141
▁Pet	-12142
дових	-12143
▁Line	-12144
▁debt	-12145
▁Реда	-12146
▁верх	-12147
▁weird	-12148
▁Звідки	-12149
▁Agreement	-12150
▁поведінки	-12151
▁очікування	-12152
Бу	-12153
▁Find	-12154
▁Green	-12155
▁багат	-12156
▁впора	-12157
▁regret	-12158
▁потреб	-12159
▁претен	-12160
▁супрово	-12161
▁українці	-12162
▁продукції	-12163
▁порівнянні	-12164
▁походження	-12165
yl	-12166
▁Роб	-12167
▁спу	-12168
▁summ	-12169
▁веде	-12170
▁нади	-12171
▁Count	-12172
▁raised	-12173
▁центру	-12174
▁Britain	-12175
▁Turkish	-12176
▁форматі	-12177
▁tourists	-12178
▁положення	-12179
▁пристроїв	-12180
500	-12181
▁Lo	-12182
біця	-12183
▁вве	-12184
▁шоу	-12185
світу	-12186
▁бойо	-12187
▁Росію	-12188
▁хочет	-12189
▁claims	-12190
▁string	-12191
▁джерел	-12192
▁selling	-12193
▁дівчина	-12194
ване	-12195
дьте	-12196
▁Bit	-12197
▁typ	-12198
▁кві	-12199
tical	-12200
▁Happ	-12201
▁Text	-12202
▁pure	-12203
▁офор	-12204
тичних	-12205
▁довше	-12206
▁стовп	-12207
▁Центра	-12208
▁pattern	-12209
▁possibly	-12210
▁Department	-12211
воє	-12212
стами	-12213
▁Комі	-12214
▁деву	-12215
▁Putin	-12216
▁Super	-12217
▁вміст	-12218
▁матиме	-12219
▁mankind	-12220
▁нравится	-12221
▁literally	-12222
▁зрозуміло	-12223
рк	-12224
ege	-12225
решт	-12226
хання	-12227
▁здіб	-12228
▁внесок	-12229
▁стоїть	-12230
▁неприєм	-12231
▁register	-12232
▁практики	-12233
▁стосовно	-12234
▁необхідність	-12235
лод	-12236
▁Hot	-12237
▁вияв	-12238
▁руйну	-12239
▁шести	-12240
▁хотела	-12241
▁kappname	-12242
▁peaceful	-12243
▁ке	-12244
icip	-12245
кала	-12246
▁Nice	-12247
▁forest	-12248
▁Сподіва	-12249
▁пристрою	-12250
▁exception	-12251
7)	-12252
бати	-12253
▁бла	-12254
▁assume	-12255
▁mathem	-12256
▁Європа	-12257
▁вашими	-12258
▁виявили	-12259
▁препара	-12260
▁listening	-12261
▁пожалуйста	-12262
Євро	-12263
шить	-12264
кладу	-12265
▁Осно	-12266
▁зміг	-12267
▁поне	-12268
▁Автор	-12269
▁заохо	-12270
▁Really	-12271
▁Though	-12272
▁compar	-12273
▁широко	-12274
▁подібні	-12275
▁офіційно	-12276
шили	-12277
▁swim	-12278
▁Юрій	-12279
▁секс	-12280
ulated	-12281
▁mental	-12282
▁кращий	-12283
▁певний	-12284
туватися	-12285
OL	-12286
йб	-12287
жко	-12288
▁ПО	-12289
паки	-12290
▁Bob	-12291
▁enh	-12292
reens	-12293
щений	-12294
▁Радя	-12295
▁океа	-12296
▁Збере	-12297
▁вивча	-12298
▁ранку	-12299
▁страж	-12300
▁powers	-12301
CP	-12302
хне	-12303
wood	-12304
вору	-12305
▁rely	-12306
▁зірки	-12307
▁stored	-12308
▁періоду	-12309
▁вдасться	-12310
▁збільшити	-12311
sole	-12312
лили	-12313
▁Ren	-12314
▁pet	-12315
▁Prop	-12316
▁Power	-12317
▁Android	-12318
▁оцінити	-12319
▁побачив	-12320
▁occurred	-12321
▁practices	-12322
▁Яну	-12323
▁blow	-12324
▁push	-12325
▁запам	-12326
▁Search	-12327
▁довіри	-12328
▁заявля	-12329
▁climate	-12330
▁Змінити	-12331
вантажити	-12332
▁clicking	-12333
▁overcome	-12334
▁міжнародні	-12335
чко	-12336
▁Цю	-12337
what	-12338
гать	-12339
▁Xia	-12340
▁геро	-12341
▁пала	-12342
уванні	-12343
▁дають	-12344
▁manner	-12345
▁компен	-12346
▁depending	-12347
▁матеріалів	-12348
▁останнього	-12349
▁безкоштовно	-12350
▁інтелектуаль	-12351
▁Використовувати	-12352
5)	-12353
зах	-12354
arus	-12355
зьми	-12356
▁Aud	-12357
▁Person	-12358
ходження	-12359
▁traffic	-12360
▁кольору	-12361
▁кімнаті	-12362
▁мислення	-12363
▁англійської	-12364
▁єд	-12365
мову	-12366
ваної	-12367
▁defe	-12368
▁Богу	-12369
▁небо	-12370
▁проц	-12371
▁Third	-12372
▁songs	-12373
▁вашою	-12374
▁немож	-12375
▁August	-12376
▁нікому	-12377
▁consent	-12378
▁precise	-12379
8)	-12380
hot	-12381
▁йо	-12382
▁ран	-12383
▁Iraq	-12384
▁Image	-12385
▁truck	-12386
▁компе	-12387
▁Congress	-12388
▁delivery	-12389
▁важливих	-12390
▁досвідом	-12391
▁дипломати	-12392
▁продовжити	-12393
23	-12394
see	-12395
ред	-12396
gery	-12397
стки	-12398
▁Run	-12399
▁сан	-12400
ность	-12401
▁Capt	-12402
▁Такі	-12403
▁proof	-12404
▁exceed	-12405
▁gather	-12406
▁аналіз	-12407
▁сформу	-12408
▁pleased	-12409
▁пацієнтів	-12410
▁components	-12411
▁відсутність	-12412
▁сподіваємося	-12413
▁participation	-12414
akh	-12415
but	-12416
cut	-12417
кід	-12418
нор	-12419
▁роду	-12420
▁умов	-12421
▁презен	-12422
▁вважаєте	-12423
PG	-12424
-19	-12425
нго	-12426
▁("	-12427
stan	-12428
гуля	-12429
▁Mot	-12430
▁Кей	-12431
▁бар	-12432
▁Best	-12433
▁сезо	-12434
дували	-12435
▁recon	-12436
▁думка	-12437
▁терпі	-12438
структу	-12439
▁depart	-12440
▁асоціа	-12441
▁галакти	-12442
▁процеси	-12443
▁щасливі	-12444
▁perfectly	-12445
▁Av	-12446
▁фп	-12447
ails	-12448
сною	-12449
▁ing	-12450
▁Сту	-12451
▁муль	-12452
▁наче	-12453
▁missed	-12454
▁Network	-12455
▁органів	-12456
▁фи	-12457
imal	-12458
мало	-12459
▁раке	-12460
понова	-12461
▁Change	-12462
▁complain	-12463
▁викликати	-12464
▁opposition	-12465
▁змінюється	-12466
otic	-12467
▁Jud	-12468
▁чіт	-12469
▁Copy	-12470
▁поже	-12471
▁трапля	-12472
entially	-12473
▁континен	-12474
▁планування	-12475
nes	-12476
лік	-12477
▁онов	-12478
▁trees	-12479
▁страш	-12480
▁тексто	-12481
▁господар	-12482
▁Something	-12483
Do	-12484
ato	-12485
aire	-12486
нкою	-12487
ново	-12488
▁egg	-12489
▁реш	-12490
▁2001	-12491
▁scen	-12492
active	-12493
язання	-12494
▁Czech	-12495
▁grown	-12496
▁відмі	-12497
▁засоби	-12498
▁старий	-12499
▁дизайну	-12500
▁незабаром	-12501
▁department	-12502
zil	-12503
▁Sk	-12504
edia	-12505
▁Old	-12506
жують	-12507
▁позбу	-12508
▁самий	-12509
▁refuge	-12510
▁refuse	-12511
▁focused	-12512
▁Вибачте	-12513
▁contacts	-12514
▁exciting	-12515
▁supports	-12516
▁праворуч	-12517
▁продукту	-12518
▁Institute	-12519
▁permanent	-12520
▁листопада	-12521
▁міжнародної	-12522
кті	-12523
дель	-12524
нена	-12525
▁Adam	-12526
▁болю	-12527
водити	-12528
метрів	-12529
ментами	-12530
▁windows	-12531
▁комплекс	-12532
▁appearance	-12533
гам	-12534
гле	-12535
жте	-12536
хра	-12537
щої	-12538
iled	-12539
ксом	-12540
based	-12541
▁Hung	-12542
▁sake	-12543
тували	-12544
▁Canad	-12545
▁Harry	-12546
▁divor	-12547
▁заліз	-12548
▁клаца	-12549
Ukraine	-12550
▁hungry	-12551
▁submit	-12552
▁годину	-12553
▁кожним	-12554
▁Together	-12555
▁Налаштувати	-12556
▁registration	-12557
BS	-12558
СТ	-12559
gor	-12560
рить	-12561
▁phr	-12562
▁прия	-12563
▁cycle	-12564
▁єдина	-12565
▁місцем	-12566
▁засобів	-12567
▁призведе	-12568
▁expression	-12569
▁поділитися	-12570
▁Association	-12571
чле	-12572
▁1:	-12573
▁Бен	-12574
▁мат	-12575
ляємо	-12576
циплі	-12577
▁rain	-12578
▁заго	-12579
▁Shift	-12580
▁безлі	-12581
▁друку	-12582
▁зігра	-12583
▁prohib	-12584
▁ticket	-12585
▁streets	-12586
▁collabor	-12587
▁Необхідно	-12588
▁foundation	-12589
olit	-12590
шенні	-12591
▁Допо	-12592
▁підлі	-12593
▁дерева	-12594
▁дорозі	-12595
▁область	-12596
▁прагнемо	-12597
▁procedures	-12598
Pl	-12599
▁Хай	-12600
night	-12601
лично	-12602
▁Поди	-12603
язаних	-12604
▁swear	-12605
▁placed	-12606
▁кращим	-12607
▁постав	-12608
▁proceed	-12609
▁продати	-12610
▁человек	-12611
▁прекрасно	-12612
▁редагування	-12613
▁відповідають	-12614
▁спілкуватися	-12615
щем	-12616
▁ww	-12617
▁НЕ	-12618
▁San	-12619
style	-12620
▁Дода	-12621
▁liked	-12622
▁Script	-12623
▁відсте	-12624
▁оцінки	-12625
▁підтримати	-12626
НК	-12627
слі	-12628
▁Gl	-12629
мені	-12630
▁120	-12631
▁всти	-12632
▁вибор	-12633
▁думал	-12634
▁Middle	-12635
▁деякий	-12636
ser	-12637
▁(%	-12638
iest	-12639
ooth	-12640
▁пісні	-12641
▁свідо	-12642
▁інтен	-12643
▁saving	-12644
▁victim	-12645
▁велике	-12646
▁attitude	-12647
▁detailed	-12648
▁розпізна	-12649
▁restaurant	-12650
▁намагатися	-12651
кус	-12652
ilot	-12653
ідер	-12654
▁Наш	-12655
▁упа	-12656
▁True	-12657
▁ends	-12658
▁spok	-12659
▁Prime	-12660
▁miles	-12661
▁walls	-12662
▁Дозво	-12663
▁вночі	-12664
▁жизни	-12665
▁перер	-12666
пускати	-12667
сколько	-12668
▁browser	-12669
▁describe	-12670
▁introduce	-12671
2]	-12672
PI	-12673
SA	-12674
чам	-12675
▁упо	-12676
▁Київ	-12677
▁навчи	-12678
▁грудня	-12679
▁courage	-12680
▁primary	-12681
▁offering	-12682
▁ставлення	-12683
▁президентом	-12684
col	-12685
▁Di	-12686
▁рад	-12687
▁Head	-12688
▁Швей	-12689
▁знает	-12690
▁квалі	-12691
▁святку	-12692
▁numerous	-12693
ein	-12694
jan	-12695
▁Wal	-12696
валася	-12697
мкнено	-12698
▁award	-12699
▁інтерес	-12700
▁буквально	-12701
▁намагалися	-12702
path	-12703
▁acts	-12704
▁Було	-12705
▁lists	-12706
▁опису	-12707
▁founded	-12708
▁знищити	-12709
▁експерти	-12710
▁paragraph	-12711
▁electricity	-12712
▁Налаштування	-12713
6)	-12714
вая	-12715
▁Da	-12716
down	-12717
нові	-12718
▁600	-12719
▁Тер	-12720
▁дар	-12721
друге	-12722
▁wise	-12723
▁необ	-12724
▁chose	-12725
▁glory	-12726
▁Брита	-12727
кладати	-12728
▁assets	-12729
▁Profess	-12730
▁приходи	-12731
▁протоко	-12732
▁commands	-12733
▁Здається	-12734
▁стандарти	-12735
▁відрізняється	-12736
▁розслідування	-12737
дним	-12738
▁Божі	-12739
▁млрд	-12740
▁обід	-12741
язниці	-12742
▁розпоча	-12743
▁вагітності	-12744
РА	-12745
bye	-12746
мці	-12747
▁hat	-12748
▁smile	-12749
▁смарт	-12750
▁promote	-12751
▁оборони	-12752
▁сприйма	-12753
▁товарів	-12754
▁повірити	-12755
▁системою	-12756
нию	-12757
тих	-12758
isco	-12759
real	-12760
▁guid	-12761
▁Times	-12762
▁рідко	-12763
▁reward	-12764
▁відомі	-12765
▁новому	-12766
▁African	-12767
▁комбіна	-12768
▁comments	-12769
▁WordPress	-12770
▁американських	-12771
▁ид	-12772
граф	-12773
▁Way	-12774
▁www	-12775
▁Each	-12776
▁moon	-12777
▁Міся	-12778
▁сумі	-12779
▁дитині	-12780
▁другом	-12781
▁цивілі	-12782
▁додаток	-12783
▁ініціати	-12784
▁conducted	-12785
▁потрапити	-12786
▁complicated	-12787
валю	-12788
▁50%	-12789
ливих	-12790
▁анге	-12791
▁виру	-12792
нським	-12793
▁Satan	-12794
▁приско	-12795
▁цікаві	-12796
▁розумієш	-12797
▁convinced	-12798
▁XML	-12799
▁kil	-12800
▁sch	-12801
▁Hist	-12802
▁Rober	-12803
▁reven	-12804
▁trick	-12805
▁execut	-12806
▁module	-12807
▁strict	-12808
▁correctly	-12809
dule	-12810
снути	-12811
esides	-12812
▁Energy	-12813
▁півден	-12814
▁пунктом	-12815
▁здійснювати	-12816
▁increasingly	-12817
RA	-12818
org	-12819
que	-12820
грі	-12821
▁ум	-12822
▁fol	-12823
▁Java	-12824
▁навер	-12825
▁бачать	-12826
▁kplayer	-12827
▁робочих	-12828
▁Orthodox	-12829
▁географі	-12830
▁принципи	-12831
▁properties	-12832
▁відповідні	-12833
▁застосовувати	-12834
шню	-12835
шую	-12836
▁Яку	-12837
press	-12838
▁sees	-12839
▁Цент	-12840
▁свои	-12841
▁bread	-12842
▁випла	-12843
▁Before	-12844
▁настро	-12845
▁радика	-12846
▁другого	-12847
▁продавати	-12848
15	-12849
fl	-12850
ксе	-12851
▁0,	-12852
▁Mm	-12853
част	-12854
▁Рай	-12855
дерні	-12856
▁snow	-12857
▁spot	-12858
▁draft	-12859
▁угоду	-12860
▁Greece	-12861
▁houses	-12862
▁length	-12863
▁Science	-12864
▁arrange	-12865
▁навколи	-12866
▁ступінь	-12867
▁sleeping	-12868
▁officially	-12869
▁альтернати	-12870
DI	-12871
Ма	-12872
ded	-12873
кає	-12874
разо	-12875
▁hasn	-12876
coming	-12877
парати	-12878
▁дитин	-12879
ultural	-12880
▁Doctor	-12881
▁filled	-12882
▁адреси	-12883
expected	-12884
▁citizen	-12885
При	-12886
вній	-12887
▁Єди	-12888
▁дід	-12889
itzer	-12890
▁score	-12891
▁tough	-12892
▁знайо	-12893
▁Xiaomi	-12894
▁жорсто	-12895
▁enabled	-12896
▁весілля	-12897
▁director	-12898
▁residents	-12899
▁вказівник	-12900
▁зрозуміли	-12901
▁неймовірно	-12902
hel	-12903
деся	-12904
чими	-12905
шена	-12906
▁coal	-12907
▁сері	-12908
▁перене	-12909
▁формат	-12910
volution	-12911
▁closely	-12912
▁failure	-12913
▁ся	-12914
rypt	-12915
▁Kon	-12916
▁мои	-12917
▁піс	-12918
anged	-12919
▁butt	-12920
▁вірно	-12921
▁нашою	-12922
▁солда	-12923
▁вдячні	-12924
▁unusual	-12925
▁власності	-12926
▁відомості	-12927
▁Foundation	-12928
▁categories	-12929
”?	-12930
рот	-12931
eper	-12932
▁flu	-12933
▁мед	-12934
▁NASA	-12935
▁hole	-12936
справж	-12937
▁kinds	-12938
▁extent	-12939
▁новими	-12940
▁різниця	-12941
▁regardless	-12942
деш	-12943
пір	-12944
стин	-12945
▁чай	-12946
oding	-12947
▁Вашу	-12948
Script	-12949
▁злочи	-12950
▁секун	-12951
▁satell	-12952
▁матери	-12953
▁членом	-12954
▁transition	-12955
rid	-12956
тої	-12957
osis	-12958
▁films	-12959
▁stone	-12960
▁Вашої	-12961
▁відпу	-12962
▁озбро	-12963
▁height	-12964
▁mostly	-12965
▁belongs	-12966
▁времени	-12967
▁наркоти	-12968
▁distribution	-12969
)?	-12970
Un	-12971
зю	-12972
бах	-12973
▁XX	-12974
▁тот	-12975
ading	-12976
▁тепло	-12977
▁Дослід	-12978
▁сумнів	-12979
▁гравців	-12980
▁розуміє	-12981
▁зареєстро	-12982
▁поступово	-12983
▁personally	-12984
▁збирається	-12985
pan	-12986
неш	-12987
▁Py	-12988
вища	-12989
▁Alt	-12990
▁Воз	-12991
ideos	-12992
тером	-12993
▁Norm	-12994
▁bill	-12995
▁душу	-12996
▁ships	-12997
▁приму	-12998
▁College	-12999
▁Richard	-13000
▁ліворуч	-13001
▁організ	-13002
▁зосереди	-13003
▁користувач	-13004
▁перетворення	-13005
GB	-13006
lude	-13007
швид	-13008
▁Істо	-13009
▁decre	-13010
▁authent	-13011
▁природи	-13012
▁minister	-13013
▁створено	-13014
▁програмою	-13015
▁реальність	-13016
anch	-13017
esty	-13018
▁епо	-13019
▁жіно	-13020
▁поща	-13021
▁приве	-13022
▁Academ	-13023
▁коштів	-13024
▁глибоко	-13025
▁говорил	-13026
▁республі	-13027
▁Створення	-13028
ліп	-13029
шнє	-13030
▁Kh	-13031
avig	-13032
rene	-13033
▁Need	-13034
▁Were	-13035
▁unity	-13036
▁Indian	-13037
▁discipl	-13038
▁зростає	-13039
▁клієнти	-13040
▁регіоні	-13041
▁хвороби	-13042
▁traditions	-13043
IV	-13044
Бо	-13045
вану	-13046
мена	-13047
теля	-13048
▁Sum	-13049
ливою	-13050
ненні	-13051
▁Vict	-13052
▁dogs	-13053
▁simpl	-13054
▁toler	-13055
▁herself	-13056
▁свідомо	-13057
▁сторону	-13058
▁replaced	-13059
▁інтерфей	-13060
▁військові	-13061
▁наступним	-13062
▁відчувають	-13063
▁законодавства	-13064
нав	-13065
чет	-13066
увак	-13067
▁Fre	-13068
▁Tem	-13069
▁1990	-13070
▁Queen	-13071
▁fruit	-13072
▁sugar	-13073
▁Систе	-13074
▁двічі	-13075
▁святи	-13076
▁дозволу	-13077
▁instance	-13078
SC	-13079
van	-13080
▁Уо	-13081
▁объ	-13082
кійно	-13083
▁moves	-13084
▁спект	-13085
orthern	-13086
▁borders	-13087
▁зробимо	-13088
▁которые	-13089
▁відкриті	-13090
▁спостереження	-13091
▁5-	-13092
▁ma	-13093
aked	-13094
товий	-13095
ченим	-13096
▁hunt	-13097
▁образ	-13098
▁сенсі	-13099
▁стоит	-13100
▁explan	-13101
▁направ	-13102
▁answered	-13103
▁конститу	-13104
aks	-13105
amm	-13106
ipe	-13107
urb	-13108
▁Priv	-13109
▁базо	-13110
▁орен	-13111
▁чути	-13112
▁покло	-13113
▁Number	-13114
▁Someone	-13115
▁практиці	-13116
▁розпочати	-13117
▁російської	-13118
боти	-13119
▁Roy	-13120
▁uns	-13121
▁Кер	-13122
▁Game	-13123
▁отримає	-13124
▁фундамента	-13125
OC	-13126
мб	-13127
iders	-13128
▁домі	-13129
engers	-13130
▁astron	-13131
▁trends	-13132
▁подати	-13133
▁записів	-13134
▁пристрої	-13135
▁discussion	-13136
зія	-13137
сією	-13138
▁rot	-13139
▁impl	-13140
▁море	-13141
▁неща	-13142
нулися	-13143
▁порож	-13144
▁появи	-13145
▁своей	-13146
▁female	-13147
▁fourth	-13148
▁seemed	-13149
▁деталі	-13150
▁спроби	-13151
▁майбутніх	-13152
▁resolution	-13153
App	-13154
ona	-13155
▁Hy	-13156
roat	-13157
мити	-13158
штов	-13159
▁Pan	-13160
▁Webs	-13161
▁клац	-13162
перати	-13163
▁Secret	-13164
▁testing	-13165
▁відпові	-13166
cal	-13167
osh	-13168
▁вуз	-13169
▁ски	-13170
uthor	-13171
▁dict	-13172
▁suit	-13173
▁воді	-13174
▁delet	-13175
▁stock	-13176
▁vehicles	-13177
▁зменшити	-13178
▁attractive	-13179
64	-13180
дел	-13181
мінь	-13182
разі	-13183
▁Cap	-13184
▁Opt	-13185
▁Ret	-13186
стить	-13187
шенню	-13188
▁Fire	-13189
▁curs	-13190
▁адап	-13191
▁куль	-13192
▁ігор	-13193
ченого	-13194
▁teams	-13195
▁космо	-13196
▁ignore	-13197
▁бачить	-13198
▁емоції	-13199
▁установ	-13200
▁вистачає	-13201
▁вимагають	-13202
НО	-13203
ин	-13204
ils	-13205
▁CU	-13206
ucker	-13207
▁update	-13208
▁реформа	-13209
▁побачили	-13210
▁candidates	-13211
▁щ	-13212
▁Zh	-13213
▁оу	-13214
нием	-13215
ціон	-13216
▁Dig	-13217
▁рей	-13218
ording	-13219
▁їхній	-13220
▁elimin	-13221
▁Міністер	-13222
▁ефективні	-13223
▁користувачі	-13224
▁намагаємося	-13225
▁Bul	-13226
▁vit	-13227
▁хво	-13228
парта	-13229
тному	-13230
▁рада	-13231
▁paint	-13232
▁trading	-13233
▁зібрати	-13234
▁кращого	-13235
▁поклада	-13236
▁причиною	-13237
▁performed	-13238
▁transaction	-13239
лле	-13240
мпі	-13241
itled	-13242
▁sides	-13243
▁шкода	-13244
▁crimes	-13245
▁stable	-13246
▁twenty	-13247
▁будешь	-13248
▁докази	-13249
▁запустити	-13250
rs	-13251
ota	-13252
аналі	-13253
▁evol	-13254
urally	-13255
▁advent	-13256
▁Англії	-13257
▁вистав	-13258
▁concert	-13259
▁першому	-13260
▁вдається	-13261
▁highlight	-13262
▁додаткових	-13263
▁розглядати	-13264
зон	-13265
дила	-13266
жина	-13267
▁tag	-13268
▁санк	-13269
▁відвер	-13270
▁придума	-13271
▁рахунку	-13272
▁потрапля	-13273
▁buildings	-13274
▁підтримують	-13275
щою	-13276
▁Hol	-13277
▁bomb	-13278
▁zero	-13279
▁воля	-13280
▁talks	-13281
▁охоро	-13282
▁їхати	-13283
oration	-13284
▁treated	-13285
▁domestic	-13286
▁faithful	-13287
▁computers	-13288
▁забезпечує	-13289
▁діалогового	-13290
ТЕ	-13291
чкою	-13292
▁попа	-13293
urches	-13294
▁зміна	-13295
вуються	-13296
▁Brazil	-13297
▁define	-13298
▁репута	-13299
▁культуру	-13300
▁цінність	-13301
bl	-13302
рет	-13303
aren	-13304
тона	-13305
▁'%1	-13306
жного	-13307
▁beer	-13308
▁blame	-13309
▁підда	-13310
▁стара	-13311
▁eternal	-13312
▁дитиною	-13313
▁forecast	-13314
▁намагався	-13315
▁маркетинго	-13316
▁наступному	-13317
▁український	-13318
▁intellectual	-13319
▁OF	-13320
odes	-13321
▁cos	-13322
iture	-13323
▁вірю	-13324
▁заба	-13325
▁наві	-13326
▁отве	-13327
▁приді	-13328
▁attend	-13329
▁деньги	-13330
▁консер	-13331
▁сторін	-13332
▁wearing	-13333
▁действи	-13334
▁досягли	-13335
▁підтрима	-13336
▁маленький	-13337
18	-13338
Хо	-13339
iat	-13340
▁Bu	-13341
дишь	-13342
тету	-13343
iques	-13344
вуйте	-13345
▁Yoga	-13346
▁agency	-13347
▁клієнт	-13348
▁статей	-13349
являється	-13350
▁усвідомлю	-13351
тував	-13352
▁Wars	-13353
▁meat	-13354
▁seat	-13355
▁заме	-13356
▁зане	-13357
▁опози	-13358
▁joined	-13359
▁квітня	-13360
▁провер	-13361
▁фільтр	-13362
ographic	-13363
▁Відкрити	-13364
▁відчуває	-13365
▁промисловості	-13366
мно	-13367
пли	-13368
▁бух	-13369
▁ске	-13370
▁заст	-13371
▁погли	-13372
▁Nobody	-13373
▁leaves	-13374
▁plenty	-13375
▁sustain	-13376
▁говорила	-13377
▁переклад	-13378
▁показують	-13379
▁приєднатися	-13380
МІ	-13381
▁пли	-13382
▁Gold	-13383
язаний	-13384
▁Error	-13385
▁Земля	-13386
▁групу	-13387
▁твори	-13388
▁сайтів	-13389
▁імпорт	-13390
▁власної	-13391
▁корпора	-13392
▁конфлікт	-13393
▁способів	-13394
▁стосуються	-13395
▁економічного	-13396
тую	-13397
▁дай	-13398
довго	-13399
тайте	-13400
ченням	-13401
▁diagn	-13402
▁magaz	-13403
▁проку	-13404
▁ризики	-13405
▁chances	-13406
▁втратив	-13407
IM	-13408
▁яй	-13409
free	-13410
icide	-13411
▁Sund	-13412
▁лист	-13413
▁знайом	-13414
▁функцій	-13415
▁довіряти	-13416
▁мільярдів	-13417
▁спостерігати	-13418
Sh	-13419
sk	-13420
глу	-13421
логи	-13422
пису	-13423
▁Hit	-13424
▁Сей	-13425
▁вбу	-13426
apter	-13427
▁sole	-13428
▁дівчи	-13429
▁кожні	-13430
▁flowers	-13431
▁методів	-13432
▁прогрес	-13433
▁головний	-13434
▁comprehens	-13435
9)	-13436
▁Po	-13437
ador	-13438
стой	-13439
сення	-13440
▁flow	-13441
▁Зали	-13442
▁Наші	-13443
▁лишь	-13444
▁route	-13445
▁вгору	-13446
▁приві	-13447
нювання	-13448
▁важливу	-13449
▁acquaint	-13450
▁областях	-13451
▁рассказа	-13452
▁Кількість	-13453
▁інвестиції	-13454
▁|	-13455
джі	-13456
▁pu	-13457
слав	-13458
▁190	-13459
▁Too	-13460
▁fig	-13461
▁sen	-13462
▁Also	-13463
▁вось	-13464
▁Києві	-13465
▁почала	-13466
▁раптом	-13467
▁withdraw	-13468
▁замінити	-13469
▁girlfriend	-13470
▁насолоджуватися	-13471
-10	-13472
▁Top	-13473
▁Wil	-13474
▁cow	-13475
▁Sing	-13476
▁dram	-13477
▁виходу	-13478
▁possess	-13479
▁Напевно	-13480
▁санкції	-13481
▁головним	-13482
▁організо	-13483
▁Ted	-13484
▁sam	-13485
▁Есть	-13486
▁Щось	-13487
ватиме	-13488
▁incom	-13489
▁remem	-13490
▁зразок	-13491
▁forgotten	-13492
PD	-13493
▁(4	-13494
▁Їм	-13495
лефо	-13496
їсти	-13497
▁Bab	-13498
▁неу	-13499
▁зірок	-13500
▁cookies	-13501
▁warning	-13502
▁younger	-13503
nam	-13504
льше	-13505
міся	-13506
пами	-13507
osite	-13508
ление	-13509
▁lift	-13510
▁бабу	-13511
▁знал	-13512
▁loyal	-13513
▁выгля	-13514
▁стави	-13515
▁dating	-13516
▁poison	-13517
▁розсла	-13518
▁кампанії	-13519
пы	-13520
ефе	-13521
шій	-13522
▁2:	-13523
▁вол	-13524
▁Wall	-13525
▁sand	-13526
чували	-13527
▁homes	-13528
▁версію	-13529
▁погоджуєтеся	-13530
▁Кэ	-13531
rome	-13532
шать	-13533
▁Усе	-13534
▁пое	-13535
рахун	-13536
▁Army	-13537
▁Step	-13538
▁Type	-13539
entions	-13540
▁заклад	-13541
▁письмо	-13542
▁compens	-13543
▁records	-13544
▁species	-13545
▁виникає	-13546
▁транспо	-13547
▁celebrate	-13548
▁Неможливо	-13549
▁Development	-13550
дво	-13551
▁3-	-13552
▁Діа	-13553
▁2002	-13554
▁обмі	-13555
ancing	-13556
нюється	-13557
▁Server	-13558
▁наймен	-13559
▁Account	-13560
▁refused	-13561
▁інженер	-13562
itzerland	-13563
▁concerns	-13564
▁принести	-13565
▁симптоми	-13566
▁найкращих	-13567
фб	-13568
лої	-13569
▁6.	-13570
comm	-13571
edly	-13572
▁Has	-13573
креди	-13574
чками	-13575
remlin	-13576
▁audio	-13577
▁veget	-13578
▁Маючи	-13579
▁счита	-13580
▁Member	-13581
▁витрат	-13582
▁Yanukov	-13583
▁майстер	-13584
▁заробити	-13585
▁переговорів	-13586
▁Би	-13587
-201	-13588
hered	-13589
▁шкід	-13590
▁delay	-13591
▁kmail	-13592
▁біжен	-13593
▁леген	-13594
люється	-13595
ляються	-13596
▁finance	-13597
▁hearing	-13598
▁surgery	-13599
▁викликає	-13600
▁інновацій	-13601
▁investments	-13602
▁approximately	-13603
▁documentation	-13604
▁5,	-13605
дних	-13606
▁Boy	-13607
▁purs	-13608
▁отец	-13609
luding	-13610
▁набір	-13611
▁схожі	-13612
▁batter	-13613
▁ознайоми	-13614
▁Constitution	-13615
Нам	-13616
дино	-13617
лену	-13618
ните	-13619
▁dim	-13620
▁Code	-13621
▁duty	-13622
▁mira	-13623
▁Зако	-13624
кували	-13625
▁lunch	-13626
▁pharm	-13627
▁якось	-13628
▁важливе	-13629
▁кольори	-13630
▁versions	-13631
▁надзвичай	-13632
▁маркетингу	-13633
▁хра	-13634
▁Пого	-13635
▁клас	-13636
▁uncle	-13637
▁Policy	-13638
▁divided	-13639
▁короткий	-13640
▁заплатити	-13641
▁спільноти	-13642
▁насильства	-13643
▁combination	-13644
▁technological	-13645
17	-13646
НА	-13647
▁37	-13648
ibly	-13649
ружи	-13650
▁тож	-13651
point	-13652
чекай	-13653
▁inhab	-13654
▁рацію	-13655
хнологі	-13656
▁Mexico	-13657
▁prosec	-13658
▁wisdom	-13659
▁соціалі	-13660
▁чекають	-13661
▁distingu	-13662
▁серйозні	-13663
▁партнером	-13664
▁розглянути	-13665
Ян	-13666
▁34	-13667
рили	-13668
▁vul	-13669
▁дом	-13670
чніше	-13671
▁Long	-13672
▁nbsp	-13673
▁rare	-13674
▁Тома	-13675
▁north	-13676
▁virus	-13677
▁діагно	-13678
▁музики	-13679
▁Whoever	-13680
▁officer	-13681
▁журналу	-13682
▁поїхати	-13683
ifications	-13684
справжньому	-13685
▁передбачено	-13686
▁99	-13687
▁чо	-13688
▁Dev	-13689
▁Дві	-13690
akers	-13691
ifies	-13692
надця	-13693
▁boat	-13694
▁Твій	-13695
▁соро	-13696
дяться	-13697
▁brief	-13698
▁guide	-13699
▁будем	-13700
▁прове	-13701
▁адреса	-13702
▁короле	-13703
▁staying	-13704
▁threats	-13705
▁повертає	-13706
▁десятиліття	-13707
28	-13708
duc	-13709
▁Den	-13710
▁fra	-13711
▁Рей	-13712
▁neut	-13713
▁дете	-13714
ливими	-13715
▁вираз	-13716
▁фести	-13717
▁уверен	-13718
▁єдиним	-13719
▁визнати	-13720
▁коротко	-13721
▁informed	-13722
▁innocent	-13723
▁повідомити	-13724
▁присутність	-13725
gue	-13726
▁pig	-13727
▁hall	-13728
▁книг	-13729
▁galax	-13730
▁Create	-13731
▁videos	-13732
▁одружи	-13733
▁пунктів	-13734
▁emergency	-13735
▁furn	-13736
▁poll	-13737
▁зможу	-13738
▁severe	-13739
динствен	-13740
▁реформу	-13741
rog	-13742
rive	-13743
▁MBA	-13744
▁fif	-13745
▁Мер	-13746
iforn	-13747
▁Thom	-13748
▁бата	-13749
▁проис	-13750
▁табле	-13751
пустили	-13752
▁factor	-13753
▁покаже	-13754
▁Captain	-13755
▁degrees	-13756
▁passport	-13757
▁protocol	-13758
▁territories	-13759
wr	-13760
eous	-13761
лору	-13762
ньше	-13763
▁дам	-13764
▁Pass	-13765
витись	-13766
▁admit	-13767
▁opens	-13768
▁Слово	-13769
▁справі	-13770
▁punishment	-13771
▁стандартів	-13772
▁попереднього	-13773
▁psychological	-13774
1)	-13775
rig	-13776
▁65	-13777
agen	-13778
▁Сам	-13779
acing	-13780
▁взяв	-13781
▁Близь	-13782
▁надії	-13783
anguage	-13784
▁retire	-13785
▁знайоми	-13786
▁judgment	-13787
▁promises	-13788
▁показали	-13789
▁convenient	-13790
льд	-13791
нец	-13792
болі	-13793
якщо	-13794
▁Inf	-13795
▁pal	-13796
▁Уго	-13797
стори	-13798
▁шлюб	-13799
▁ігро	-13800
▁beach	-13801
▁horiz	-13802
▁поклика	-13803
▁examples	-13804
▁вибирати	-13805
▁наукових	-13806
▁expressed	-13807
▁демонстру	-13808
▁запобігти	-13809
влю	-13810
чил	-13811
osit	-13812
▁heal	-13813
inated	-13814
▁behavi	-13815
▁мінімум	-13816
ал	-13817
тє	-13818
цию	-13819
▁{\	-13820
вину	-13821
роде	-13822
▁Fund	-13823
▁Mike	-13824
▁дзво	-13825
▁напи	-13826
▁саму	-13827
▁drunk	-13828
▁river	-13829
▁Додат	-13830
▁житло	-13831
штувати	-13832
▁розширю	-13833
▁чудовий	-13834
▁argument	-13835
▁mountain	-13836
▁чоловіком	-13837
▁перспективи	-13838
OP	-13839
eds	-13840
сил	-13841
▁Ok	-13842
▁Hor	-13843
▁Jim	-13844
▁phen	-13845
▁stim	-13846
▁Хочу	-13847
▁Верхо	-13848
▁поліце	-13849
▁турбува	-13850
▁accurate	-13851
▁suitable	-13852
▁незвичай	-13853
ос	-13854
▁42	-13855
▁Бы	-13856
сюда	-13857
туру	-13858
▁Нев	-13859
▁збо	-13860
розді	-13861
▁Захо	-13862
▁нака	-13863
▁legit	-13864
▁папер	-13865
▁corner	-13866
▁понимаю	-13867
▁Actually	-13868
▁відбулося	-13869
▁найближчі	-13870
▁попросити	-13871
isms	-13872
яким	-13873
▁onto	-13874
▁panel	-13875
▁силою	-13876
▁школа	-13877
▁appeal	-13878
▁recall	-13879
▁масштаб	-13880
▁служити	-13881
▁cultures	-13882
▁прогресу	-13883
▁сторінок	-13884
▁acknowledge	-13885
▁transactions	-13886
рних	-13887
чери	-13888
▁Ген	-13889
▁Воно	-13890
▁суті	-13891
▁другу	-13892
▁square	-13893
▁Органі	-13894
▁сигнал	-13895
▁revealed	-13896
▁statistics	-13897
IG	-13898
ghan	-13899
▁эта	-13900
леним	-13901
▁моди	-13902
▁їхню	-13903
▁Такий	-13904
▁мисли	-13905
▁served	-13906
▁Мабуть	-13907
▁Резуль	-13908
▁authors	-13909
▁replied	-13910
▁законів	-13911
▁мільйон	-13912
▁привести	-13913
▁conflicts	-13914
▁residence	-13915
ются	-13916
anned	-13917
▁gods	-13918
▁aspect	-13919
▁holiday	-13920
▁кохання	-13921
▁00	-13922
▁Lou	-13923
▁taxes	-13924
▁гумані	-13925
▁любимо	-13926
▁світом	-13927
▁Kremlin	-13928
▁markets	-13929
▁окремих	-13930
▁простий	-13931
▁найкращим	-13932
▁проходить	-13933
▁strategies	-13934
▁підготовки	-13935
Ка	-13936
rat	-13937
оці	-13938
▁kt	-13939
sels	-13940
стка	-13941
▁Hand	-13942
▁готу	-13943
▁заку	-13944
товари	-13945
▁ocean	-13946
▁твоей	-13947
▁apolog	-13948
▁deeply	-13949
▁Californ	-13950
▁символів	-13951
▁створені	-13952
▁здійснити	-13953
▁нещодавно	-13954
▁Его	-13955
▁grew	-13956
▁Віта	-13957
▁моїй	-13958
▁links	-13959
▁writer	-13960
▁займає	-13961
▁прагне	-13962
▁виявити	-13963
▁шукають	-13964
▁ключових	-13965
▁послідов	-13966
▁centuries	-13967
▁Convention	-13968
38	-13969
охо	-13970
andom	-13971
world	-13972
▁chat	-13973
▁Years	-13974
▁всіма	-13975
▁камер	-13976
▁ціною	-13977
▁slowly	-13978
▁найгір	-13979
▁тварини	-13980
▁everyday	-13981
▁normally	-13982
▁Rad	-13983
Cause	-13984
orial	-13985
гляда	-13986
нести	-13987
▁Інші	-13988
▁вело	-13989
▁костю	-13990
▁спога	-13991
▁mainly	-13992
▁накопи	-13993
▁blessing	-13994
▁friendly	-13995
▁кінцевому	-13996
▁починаючи	-13997
▁implemented	-13998
▁зацікавлені	-13999
▁ефективність	-14000
ВА	-14001
дка	-14002
▁wa	-14003
▁км	-14004
сора	-14005
▁Naz	-14006
▁har	-14007
▁Гро	-14008
▁гну	-14009
▁нат	-14010
luded	-14011
▁газо	-14012
єднати	-14013
▁Latin	-14014
▁incor	-14015
▁theore	-14016
▁creates	-14017
▁планеті	-14018
▁хвилини	-14019
▁meetings	-14020
▁визнання	-14021
▁preparing	-14022
▁Шу	-14023
мани	-14024
фера	-14025
чись	-14026
▁Dou	-14027
▁Син	-14028
нське	-14029
▁ціна	-14030
▁беруть	-14031
▁весело	-14032
▁desired	-14033
▁seeking	-14034
▁studied	-14035
▁покупки	-14036
▁mathemat	-14037
▁доводиться	-14038
▁політичної	-14039
▁економічних	-14040
14	-14041
їн	-14042
nic	-14043
Аль	-14044
жду	-14045
фер	-14046
▁hyp	-14047
▁sav	-14048
▁плю	-14049
огонь	-14050
▁(199	-14051
▁sons	-14052
▁Mount	-14053
▁pieces	-14054
▁відігра	-14055
▁Спочатку	-14056
▁елемента	-14057
▁кордоном	-14058
▁перегляд	-14059
▁перегляда	-14060
▁unexpected	-14061
▁Bro	-14062
▁двоє	-14063
▁тато	-14064
orters	-14065
▁Remove	-14066
▁planets	-14067
▁джерелом	-14068
дор	-14069
▁1)	-14070
▁Zo	-14071
▁Мэ	-14072
▁іс	-14073
anta	-14074
▁Или	-14075
▁льо	-14076
ailed	-14077
сайту	-14078
▁живо	-14079
▁рішу	-14080
неться	-14081
ченими	-14082
▁Volvo	-14083
▁storm	-14084
▁upset	-14085
▁стаття	-14086
▁Введіть	-14087
▁доскона	-14088
▁профіль	-14089
▁розміру	-14090
▁romantic	-14091
▁традиції	-14092
▁breakfast	-14093
▁capabilities	-14094
▁тр	-14095
look	-14096
utch	-14097
▁Sur	-14098
▁дух	-14099
ваним	-14100
▁sets	-14101
▁gifts	-14102
▁Генера	-14103
▁пласти	-14104
▁жителів	-14105
▁структури	-14106
зор	-14107
▁Blo	-14108
While	-14109
▁окру	-14110
▁створ	-14111
▁Delete	-14112
▁medium	-14113
▁робото	-14114
▁подарунок	-14115
▁натискання	-14116
▁національної	-14117
лай	-14118
▁38	-14119
сені	-14120
▁ISO	-14121
▁hun	-14122
▁Бол	-14123
▁ден	-14124
▁Shut	-14125
▁rank	-14126
▁ісла	-14127
▁visual	-14128
▁настав	-14129
▁weekend	-14130
▁apparent	-14131
▁Switzerland	-14132
DA	-14133
▁<	-14134
That	-14135
▁Adm	-14136
▁Крі	-14137
▁Яке	-14138
систе	-14139
ifying	-14140
ваться	-14141
▁Leave	-14142
▁knock	-14143
▁точку	-14144
▁Швейца	-14145
▁ніякої	-14146
▁стурбо	-14147
▁Пожалуйста	-14148
▁generations	-14149
ye	-14150
Го	-14151
рур	-14152
смі	-14153
робі	-14154
▁сот	-14155
▁Вене	-14156
▁Тимо	-14157
водить	-14158
▁курси	-14159
▁Choose	-14160
▁расска	-14161
▁будівлі	-14162
▁agencies	-14163
▁phenomen	-14164
rie	-14165
▁TR	-14166
блів	-14167
▁crow	-14168
▁випи	-14169
▁слов	-14170
▁часі	-14171
▁архів	-14172
▁шукає	-14173
▁Людина	-14174
▁приймає	-14175
▁interpret	-14176
▁communities	-14177
чці	-14178
▁Ком	-14179
▁вів	-14180
▁мрі	-14181
▁рук	-14182
▁цер	-14183
▁ліку	-14184
▁foods	-14185
▁бачиш	-14186
▁триво	-14187
▁переза	-14188
▁illness	-14189
▁надають	-14190
▁підозрю	-14191
▁obtained	-14192
▁Британії	-14193
▁правильний	-14194
▁реалізації	-14195
So	-14196
bre	-14197
меш	-14198
▁Ой	-14199
ilty	-14200
▁Ter	-14201
▁схе	-14202
▁факу	-14203
шньому	-14204
▁глиби	-14205
▁моего	-14206
▁Heaven	-14207
▁Нагада	-14208
▁назвав	-14209
▁статтю	-14210
▁comprom	-14211
▁entering	-14212
▁contribute	-14213
▁competitors	-14214
▁possibilities	-14215
ых	-14216
-20	-14217
губ	-14218
зав	-14219
лот	-14220
rain	-14221
щена	-14222
▁Джа	-14223
▁diss	-14224
▁roll	-14225
▁Варто	-14226
▁невід	-14227
▁прися	-14228
▁минуле	-14229
▁передати	-14230
▁relatives	-14231
▁searching	-14232
▁інвесторів	-14233
▁differently	-14234
▁економічної	-14235
єкт	-14236
дімо	-14237
ально	-14238
жение	-14239
▁отно	-14240
▁ідею	-14241
▁south	-14242
▁апара	-14243
▁роблю	-14244
▁occurs	-14245
▁artists	-14246
▁бачення	-14247
▁сподобається	-14248
▁→	-14249
But	-14250
▁Sen	-14251
ureau	-14252
▁diam	-14253
▁вхід	-14254
iments	-14255
▁hurry	-14256
▁матір	-14257
▁сезон	-14258
▁траге	-14259
▁hiding	-14260
▁Звісно	-14261
▁исполь	-14262
▁отсюда	-14263
▁подвій	-14264
▁secrets	-14265
▁потреба	-14266
▁visiting	-14267
▁завантажити	-14268
▁конференції	-14269
▁національних	-14270
бята	-14271
▁Ray	-14272
нених	-14273
▁flag	-14274
▁блок	-14275
▁неми	-14276
asting	-14277
▁clock	-14278
▁souls	-14279
ясувати	-14280
▁vulner	-14281
▁голова	-14282
▁останнім	-14283
▁philosoph	-14284
▁California	-14285
сы	-14286
мкою	-14287
чера	-14288
paper	-14289
горит	-14290
▁игра	-14291
▁estim	-14292
▁Краще	-14293
▁думає	-14294
▁нужна	-14295
▁arrive	-14296
▁bridge	-14297
▁провели	-14298
▁запропонова	-14299
▁підтвердження	-14300
bai	-14301
пол	-14302
▁Qt	-14303
▁ан	-14304
ятаю	-14305
▁Дей	-14306
▁бак	-14307
order	-14308
▁Arch	-14309
▁бога	-14310
▁гене	-14311
ulture	-14312
політи	-14313
▁Skype	-14314
▁chick	-14315
▁index	-14316
▁smoke	-14317
▁Перед	-14318
▁мережу	-14319
▁упевне	-14320
▁encoura	-14321
▁moments	-14322
▁продовж	-14323
▁affected	-14324
▁революції	-14325
▁міжнародному	-14326
ам	-14327
▁Зб	-14328
adow	-14329
лава	-14330
▁Dec	-14331
▁Nat	-14332
▁gar	-14333
хроні	-14334
▁bast	-14335
▁пріз	-14336
▁розва	-14337
▁чинов	-14338
iration	-14339
▁Winter	-14340
▁дорогу	-14341
▁незалежність	-14342
22	-14343
рим	-14344
служ	-14345
▁Key	-14346
▁волю	-14347
▁туда	-14348
▁Список	-14349
▁Prophet	-14350
▁адресою	-14351
▁столиці	-14352
▁сучасні	-14353
▁dedicated	-14354
▁розвивається	-14355
ini	-14356
реа	-14357
той	-14358
іде	-14359
that	-14360
нись	-14361
▁ДНК	-14362
дості	-14363
▁disk	-14364
▁щоби	-14365
▁відгу	-14366
▁какой	-14367
▁fought	-14368
▁вообще	-14369
▁священ	-14370
▁інтерв	-14371
▁забрати	-14372
▁attempts	-14373
▁відстані	-14374
▁питанням	-14375
▁зустрітися	-14376
aming	-14377
aving	-14378
going	-14379
▁Stat	-14380
▁вини	-14381
▁всем	-14382
▁інфе	-14383
▁centre	-14384
▁сестра	-14385
▁сидіти	-14386
▁Website	-14387
▁продуктив	-14388
▁techniques	-14389
▁подорожувати	-14390
Con	-14391
яке	-14392
▁GN	-14393
igare	-14394
illed	-14395
▁crew	-14396
▁forum	-14397
▁нужен	-14398
▁серці	-14399
▁finger	-14400
▁запитав	-14401
▁звучить	-14402
▁невдачі	-14403
▁increases	-14404
▁економічні	-14405
▁зберігання	-14406
▁реєстрації	-14407
▁representative	-14408
сей	-14409
жерт	-14410
сипе	-14411
сіда	-14412
▁dry	-14413
▁tim	-14414
зерка	-14415
▁Ford	-14416
▁fans	-14417
▁myst	-14418
▁rates	-14419
▁декла	-14420
▁ingred	-14421
▁traged	-14422
▁Пробле	-14423
▁ворогів	-14424
▁розроби	-14425
▁законопро	-14426
▁diplomatic	-14427
▁альтернатив	-14428
▁програмного	-14429
цар	-14430
▁800	-14431
▁alt	-14432
▁Анд	-14433
▁хлі	-14434
▁Talk	-14435
▁pride	-14436
▁жертв	-14437
▁орієн	-14438
пулярні	-14439
▁вільно	-14440
▁чимось	-14441
▁приїжджа	-14442
...»	-14443
▁Mem	-14444
▁тій	-14445
Where	-14446
▁введе	-14447
▁domain	-14448
▁radical	-14449
▁Catholic	-14450
▁процесів	-14451
▁впливають	-14452
зино	-14453
▁End	-14454
язана	-14455
▁зами	-14456
▁обма	-14457
▁закли	-14458
▁prompt	-14459
▁бачила	-14460
▁бюджет	-14461
▁lawyers	-14462
▁Зберегти	-14463
▁обставин	-14464
▁проблемами	-14465
▁destruction	-14466
▁персональні	-14467
PA	-14468
▁·	-14469
How	-14470
рові	-14471
▁душа	-14472
▁забы	-14473
▁cloud	-14474
▁notes	-14475
▁помощ	-14476
reprene	-14477
▁усклад	-14478
▁Special	-14479
▁королів	-14480
▁важливою	-14481
▁можливих	-14482
▁організму	-14483
▁соціальної	-14484
▁використанні	-14485
То	-14486
зки	-14487
ille	-14488
istry	-14489
anging	-14490
gorith	-14491
▁Treat	-14492
▁ought	-14493
▁wound	-14494
▁вечер	-14495
▁літак	-14496
▁stages	-14497
▁plastic	-14498
▁директор	-14499
▁wondering	-14500
▁територію	-14501
▁відношення	-14502
▁considering	-14503
▁transportation	-14504
ups	-14505
жей	-14506
▁св	-14507
денти	-14508
▁wars	-14509
▁доби	-14510
▁наук	-14511
▁теку	-14512
▁поміч	-14513
▁щонай	-14514
▁limits	-14515
▁surely	-14516
▁носити	-14517
▁чувству	-14518
▁dialogue	-14519
▁memories	-14520
▁відкритий	-14521
▁наслідків	-14522
▁величезний	-14523
▁difficulties	-14524
▁disappointed	-14525
oty	-14526
зами	-14527
▁ble	-14528
▁Тор	-14529
увало	-14530
baijan	-14531
ighter	-14532
страти	-14533
ходимо	-14534
▁імена	-14535
▁Museum	-14536
▁profit	-14537
▁widget	-14538
▁довгий	-14539
ologists	-14540
▁Зрозумі	-14541
▁хорошим	-14542
▁institution	-14543
ym	-14544
lym	-14545
точ	-14546
айте	-14547
▁10%	-14548
▁180	-14549
▁VPN	-14550
терів	-14551
▁очах	-14552
▁shift	-14553
▁третій	-14554
▁centers	-14555
▁Ізраїлю	-14556
▁bringing	-14557
▁написано	-14558
▁Натисніть	-14559
Russ	-14560
вина	-14561
▁"%1	-14562
▁Рів	-14563
▁аку	-14564
▁чут	-14565
менів	-14566
▁vacc	-14567
▁отру	-14568
▁рука	-14569
▁Yulia	-14570
▁faces	-14571
▁грошо	-14572
▁шанси	-14573
▁іншою	-14574
▁Rights	-14575
▁volume	-14576
▁Значит	-14577
▁Чолові	-14578
▁бухгал	-14579
inations	-14580
▁широкий	-14581
▁відчуваю	-14582
▁Інтернету	-14583
▁ги	-14584
▁Sar	-14585
▁Four	-14586
▁мірі	-14587
▁чере	-14588
▁ідей	-14589
▁minor	-14590
▁війні	-14591
▁знаете	-14592
▁навряд	-14593
▁Another	-14594
▁Nations	-14595
▁роботою	-14596
▁Canadian	-14597
▁ретельно	-14598
▁collected	-14599
▁recognition	-14600
Al	-14601
▁ен	-14602
ской	-14603
▁кем	-14604
▁mood	-14605
▁Крем	-14606
▁типи	-14607
▁Черво	-14608
▁вакци	-14609
▁сприй	-14610
▁Sunday	-14611
▁згодом	-14612
▁наполя	-14613
Ukrainian	-14614
▁reference	-14615
▁Yanukovych	-14616
▁обговорення	-14617
▁скористайтеся	-14618
ТЬ	-14619
шая	-14620
ords	-14621
жимо	-14622
стий	-14623
▁ілю	-14624
plays	-14625
річний	-14626
▁стилі	-14627
▁експлу	-14628
▁думаємо	-14629
▁загрозу	-14630
▁сприяти	-14631
▁recorded	-14632
▁Спробуйте	-14633
▁пояснення	-14634
▁accessible	-14635
▁продовжують	-14636
▁characteristics	-14637
ЛО	-14638
гло	-14639
шук	-14640
▁Ze	-14641
▁pus	-14642
▁tun	-14643
▁Дер	-14644
orage	-14645
ulous	-14646
кував	-14647
▁iron	-14648
▁Хлоп	-14649
▁боле	-14650
▁бюро	-14651
▁втор	-14652
▁plays	-14653
▁члени	-14654
outhern	-14655
▁Богові	-14656
▁History	-14657
▁observe	-14658
▁вибором	-14659
▁молитви	-14660
▁навчити	-14661
▁благосло	-14662
▁neighbors	-14663
▁призводить	-14664
▁demonstrate	-14665
!)	-14666
Де	-14667
емся	-14668
▁Ext	-14669
▁Pen	-14670
▁ника	-14671
▁Still	-14672
▁multi	-14673
▁дозві	-14674
▁допов	-14675
▁engage	-14676
▁Academy	-14677
▁Іспанії	-14678
▁недавно	-14679
▁розділу	-14680
▁сказано	-14681
▁friendship	-14682
RC	-14683
льйо	-14684
ский	-14685
стку	-14686
▁rub	-14687
дуємо	-14688
▁Leon	-14689
▁Page	-14690
▁Божу	-14691
▁keeps	-14692
▁курсу	-14693
▁Доктор	-14694
▁символ	-14695
▁кажется	-14696
▁налашто	-14697
▁розмови	-14698
▁arrested	-14699
▁schedule	-14700
▁depression	-14701
itate	-14702
▁свой	-14703
▁oppon	-14704
ologist	-14705
▁зможеш	-14706
▁лідери	-14707
▁відчуєте	-14708
▁клієнтам	-14709
▁engineering	-14710
вил	-14711
щів	-14712
▁Ha	-14713
▁Ай	-14714
aper	-14715
▁кло	-14716
▁ная	-14717
▁Phil	-14718
▁Пред	-14719
▁chair	-14720
▁Мекси	-14721
▁Design	-14722
▁phones	-14723
▁відома	-14724
▁надалі	-14725
▁спорту	-14726
▁rapidly	-14727
▁tickets	-14728
▁відвіду	-14729
▁пояснює	-14730
▁sensitive	-14731
▁instructions	-14732
Ме	-14733
вії	-14734
▁MP	-14735
ario	-14736
воль	-14737
▁фру	-14738
icing	-14739
ючого	-14740
▁Знаю	-14741
▁вагу	-14742
▁віра	-14743
▁stuck	-14744
▁споді	-14745
▁hoping	-14746
▁триває	-14747
▁Belarus	-14748
▁toolbar	-14749
▁навпаки	-14750
▁радість	-14751
▁machines	-14752
▁objective	-14753
▁середовище	-14754
nie	-14755
▁ув	-14756
illy	-14757
кори	-14758
міть	-14759
нуто	-14760
шнім	-14761
▁офи	-14762
ester	-14763
oslav	-14764
▁Нова	-14765
▁маль	-14766
▁anonym	-14767
▁convert	-14768
▁turning	-14769
▁пацієнта	-14770
▁terrorist	-14771
▁найбільший	-14772
▁міжнародний	-14773
стно	-14774
▁Шве	-14775
eting	-14776
альні	-14777
▁chief	-14778
▁forth	-14779
▁heads	-14780
▁інфра	-14781
ступити	-14782
▁acting	-14783
▁розділ	-14784
▁opposite	-14785
▁proposed	-14786
▁поточний	-14787
▁component	-14788
▁receiving	-14789
▁несколько	-14790
▁**	-14791
жешь	-14792
чимо	-14793
▁Kaz	-14794
ifice	-14795
льник	-14796
тацію	-14797
єктів	-14798
▁trig	-14799
ковому	-14800
▁split	-14801
▁вірять	-14802
▁должно	-14803
▁дорога	-14804
▁символі	-14805
▁велосипе	-14806
▁народився	-14807
▁закликаємо	-14808
▁попередження	-14809
Don	-14810
ita	-14811
жин	-14812
▁sty	-14813
icate	-14814
ковою	-14815
▁grab	-14816
lantic	-14817
стояти	-14818
▁машин	-14819
▁rarely	-14820
▁dealing	-14821
▁offices	-14822
▁sharing	-14823
▁магазин	-14824
▁declared	-14825
▁subjects	-14826
▁медичних	-14827
▁потрібний	-14828
▁действительно	-14829
rim	-14830
orter	-14831
▁очей	-14832
▁Trust	-14833
▁проща	-14834
▁безліч	-14835
▁комусь	-14836
▁першою	-14837
herlands	-14838
▁Universe	-14839
▁controls	-14840
▁вимагати	-14841
▁підсумку	-14842
▁Незалежно	-14843
▁випробування	-14844
▁comprehensive	-14845
лов	-14846
ома	-14847
▁Ох	-14848
мові	-14849
▁Міс	-14850
ницею	-14851
тивно	-14852
▁моне	-14853
sembly	-14854
▁manif	-14855
▁perce	-14856
▁suppl	-14857
▁діапа	-14858
▁вижити	-14859
▁работу	-14860
▁сферах	-14861
▁demands	-14862
▁reduced	-14863
▁способу	-14864
▁статися	-14865
▁occupied	-14866
▁боротьбі	-14867
▁простіше	-14868
▁несправед	-14869
▁приходять	-14870
▁structures	-14871
▁supporting	-14872
0,	-14873
MB	-14874
▁era	-14875
▁базі	-14876
▁паке	-14877
ervous	-14878
▁motor	-14879
▁розпа	-14880
▁Donbas	-14881
▁contem	-14882
▁зупиня	-14883
▁managers	-14884
▁civilization	-14885
%)	-14886
кое	-14887
coin	-14888
дала	-14889
▁DNA	-14890
шения	-14891
▁fasc	-14892
▁умер	-14893
▁солід	-14894
▁вказано	-14895
LE	-14896
ker	-14897
ніх	-14898
пуск	-14899
▁Кро	-14900
mbass	-14901
комен	-14902
▁Oper	-14903
▁forb	-14904
▁legs	-14905
▁Така	-14906
erning	-14907
▁Whats	-14908
▁noise	-14909
▁граду	-14910
▁групі	-14911
▁дизай	-14912
▁мірою	-14913
▁listed	-14914
▁shares	-14915
▁забути	-14916
▁helpful	-14917
▁massive	-14918
▁resolve	-14919
▁законом	-14920
▁модерні	-14921
▁уникати	-14922
▁copyright	-14923
▁втручання	-14924
yan	-14925
arest	-14926
▁Site	-14927
▁Test	-14928
▁auto	-14929
▁jail	-14930
▁фрон	-14931
▁phase	-14932
▁Travel	-14933
▁прибут	-14934
▁funding	-14935
▁ввечері	-14936
16	-14937
НИ	-14938
bru	-14939
pass	-14940
▁ген	-14941
▁ков	-14942
▁цар	-14943
izard	-14944
uties	-14945
▁mort	-14946
▁зану	-14947
▁Obama	-14948
▁infra	-14949
▁spect	-14950
▁Ваших	-14951
▁Часто	-14952
▁sphere	-14953
▁давати	-14954
▁Writing	-14955
▁lessons	-14956
▁трапилося	-14957
▁contribution	-14958
▁співпрацювати	-14959
3]	-14960
SD	-14961
АМ	-14962
нна	-14963
ными	-14964
сків	-14965
▁nut	-14966
▁удо	-14967
крати	-14968
▁Tour	-14969
відомі	-14970
чатися	-14971
▁Night	-14972
▁зворо	-14973
▁темря	-14974
зується	-14975
▁голови	-14976
▁произо	-14977
▁наближа	-14978
▁гарантувати	-14979
пні	-14980
тчи	-14981
▁8.	-14982
ford	-14983
▁Joe	-14984
▁Вік	-14985
стило	-14986
▁CUPS	-14987
▁pool	-14988
▁runs	-14989
▁красу	-14990
▁ланцю	-14991
▁guilty	-14992
▁temple	-14993
▁клавіш	-14994
▁розпов	-14995
▁бюджету	-14996
▁виробни	-14997
▁управлі	-14998
▁indicate	-14999
▁employment	-15000
▁relatively	-15001
▁сподіваюся	-15002
▁expectations	-15003
сб	-15004
def	-15005
pat	-15006
щини	-15007
жіння	-15008
▁Video	-15009
▁сонце	-15010
▁Manager	-15011
▁engaged	-15012
▁tourist	-15013
▁реально	-15014
▁реєстра	-15015
▁algorith	-15016
▁захочете	-15017
▁створена	-15018
▁християни	-15019
▁transferred	-15020
mar	-15021
рки	-15022
conf	-15023
ulty	-15024
▁20-	-15025
▁glo	-15026
▁Веб	-15027
нками	-15028
ційне	-15029
▁fate	-15030
▁долу	-15031
father	-15032
▁Peace	-15033
▁colon	-15034
▁вікон	-15035
▁betray	-15036
▁drinks	-15037
▁Христос	-15038
▁conclusion	-15039
▁literature	-15040
dd	-15041
xi	-15042
лый	-15043
пту	-15044
onds	-15045
▁20%	-15046
▁jur	-15047
▁mig	-15048
▁сну	-15049
▁Educ	-15050
▁teen	-15051
▁fellow	-15052
▁високі	-15053
▁десятки	-15054
▁столітті	-15055
▁achievements	-15056
99	-15057
берг	-15058
нове	-15059
▁Оле	-15060
field	-15061
гають	-15062
лятор	-15063
треть	-15064
▁зава	-15065
товані	-15066
▁місії	-15067
криміна	-15068
льників	-15069
▁existed	-15070
▁suppose	-15071
▁шукаєте	-15072
▁Personal	-15073
▁shopping	-15074
▁подібних	-15075
▁platforms	-15076
▁середньому	-15077
▁manufacturers	-15078
Ar	-15079
EF	-15080
зов	-15081
▁Ек	-15082
olen	-15083
вуєте	-15084
▁birds	-15085
▁засму	-15086
▁зброй	-15087
▁убить	-15088
фікації	-15089
▁Sweden	-15090
▁картки	-15091
▁неодно	-15092
▁партія	-15093
▁місцеві	-15094
▁навичок	-15095
▁gradually	-15096
▁призвести	-15097
DF	-15098
ляка	-15099
сові	-15100
▁зня	-15101
▁уве	-15102
▁Zero	-15103
▁male	-15104
▁Яким	-15105
▁кафе	-15106
▁Elect	-15107
▁Media	-15108
▁польо	-15109
▁oldest	-15110
▁здатний	-15111
▁позбутися	-15112
▁поліпшити	-15113
▁exhibition	-15114
▁запрошення	-15115
▁Netherlands	-15116
▁necessarily	-15117
▁відповідних	-15118
▁знадобитися	-15119
▁оп	-15120
нгре	-15121
▁cab	-15122
▁Над	-15123
▁Хан	-15124
oples	-15125
rance	-15126
▁Похо	-15127
▁куда	-15128
▁мамо	-15129
▁мету	-15130
леними	-15131
▁Print	-15132
▁Works	-15133
▁вмира	-15134
▁жінку	-15135
▁змага	-15136
▁Online	-15137
▁Street	-15138
▁вимірю	-15139
▁коштує	-15140
▁кредит	-15141
▁Поперед	-15142
▁відкриє	-15143
▁померти	-15144
▁стовпчи	-15145
▁дисциплі	-15146
▁експорту	-15147
▁поверхні	-15148
▁завершити	-15149
▁presentation	-15150
pi	-15151
des	-15152
рка	-15153
тос	-15154
хню	-15155
▁Ken	-15156
▁SEO	-15157
▁foll	-15158
▁hire	-15159
▁Твої	-15160
display	-15161
▁mutual	-15162
▁правою	-15163
▁їхнього	-15164
▁satisfied	-15165
▁Нагадаємо	-15166
26	-15167
OW	-15168
On	-15169
For	-15170
▁Єги	-15171
▁взу	-15172
бливі	-15173
фрика	-15174
язано	-15175
▁Wood	-15176
▁tear	-15177
▁біса	-15178
байджа	-15179
▁етапі	-15180
▁Afghan	-15181
▁Config	-15182
▁Muslim	-15183
▁formal	-15184
▁nervous	-15185
зербайджа	-15186
▁Research	-15187
▁confront	-15188
▁precious	-15189
▁whenever	-15190
▁відзнача	-15191
▁передачі	-15192
▁експертів	-15193
▁advantages	-15194
▁реальності	-15195
фй	-15196
люд	-15197
▁трі	-15198
▁Link	-15199
asters	-15200
usions	-15201
▁discl	-15202
▁hardly	-15203
▁permit	-15204
▁хлопця	-15205
▁секунду	-15206
▁специфі	-15207
▁strongly	-15208
▁матеріал	-15209
▁remaining	-15210
▁здійснення	-15211
MP	-15212
РИ	-15213
лір	-15214
▁Ху	-15215
ляли	-15216
▁30-	-15217
▁Vir	-15218
▁Пол	-15219
hetic	-15220
ystem	-15221
▁Whoa	-15222
▁joke	-15223
▁scan	-15224
▁одер	-15225
angers	-15226
ленням	-15227
ходите	-15228
▁novel	-15229
▁плате	-15230
▁Robert	-15231
▁adding	-15232
▁meters	-15233
▁inhabit	-15234
▁immediate	-15235
▁Тимошенко	-15236
▁passengers	-15237
fe	-15238
All	-15239
▁7.	-15240
▁250	-15241
▁Isn	-15242
▁Yah	-15243
▁Main	-15244
▁Мама	-15245
▁стоя	-15246
ництві	-15247
▁doors	-15248
▁parad	-15249
▁Брази	-15250
▁живий	-15251
▁забло	-15252
▁очима	-15253
▁Scient	-15254
▁payments	-15255
▁частково	-15256
▁concerning	-15257
▁перебування	-15258
КА	-15259
Він	-15260
хам	-15261
-200	-15262
gged	-15263
lims	-15264
rete	-15265
піль	-15266
тику	-15267
чуть	-15268
▁Cat	-15269
▁хай	-15270
▁1998	-15271
▁Term	-15272
▁apps	-15273
▁Итак	-15274
▁атри	-15275
▁Window	-15276
▁desert	-15277
▁undert	-15278
▁entries	-15279
▁servers	-15280
▁володіє	-15281
▁intended	-15282
▁обмежень	-15283
▁furniture	-15284
▁traveling	-15285
▁позитивні	-15286
▁створений	-15287
▁фінансові	-15288
kh	-15289
ems	-15290
міт	-15291
▁Ір	-15292
ommy	-15293
▁пох	-15294
▁Ціка	-15295
ятаєте	-15296
▁detect	-15297
▁пошире	-15298
▁фільму	-15299
▁falling	-15300
▁outcome	-15301
▁trusted	-15302
▁перехід	-15303
▁boyfriend	-15304
▁candidate	-15305
▁додавання	-15306
▁світового	-15307
▁percentage	-15308
▁yourselves	-15309
▁важливість	-15310
▁specifically	-15311
▁незалежності	-15312
жай	-15313
ллю	-15314
burg	-15315
мана	-15316
print	-15317
відно	-15318
права	-15319
▁їхня	-15320
▁Нідер	-15321
▁листа	-15322
▁разго	-15323
▁talent	-15324
▁довіру	-15325
▁забудь	-15326
▁announce	-15327
▁великими	-15328
▁покласти	-15329
▁існувати	-15330
▁необхідних	-15331
▁споживання	-15332
▁explanation	-15333
▁перетворити	-15334
Ве	-15335
ЛЬ	-15336
▁ь	-15337
▁Tot	-15338
▁Ман	-15339
▁слі	-15340
▁убе	-15341
деюсь	-15342
ковій	-15343
▁земе	-15344
ivered	-15345
▁місте	-15346
▁Подума	-15347
▁подзво	-15348
▁buttons	-15349
▁kidding	-15350
▁Лондоні	-15351
▁боятися	-15352
▁збільши	-15353
▁контент	-15354
▁регіону	-15355
▁district	-15356
▁explains	-15357
▁замовити	-15358
▁identified	-15359
▁конкретних	-15360
жаю	-15361
жним	-15362
єкти	-15363
жених	-15364
промі	-15365
chenko	-15366
ковано	-15367
▁хвори	-15368
ційними	-15369
▁Public	-15370
▁flying	-15371
▁Сейчас	-15372
▁involve	-15373
▁експлуа	-15374
▁Document	-15375
▁darkness	-15376
▁righteous	-15377
▁залежності	-15378
▁інвестувати	-15379
фп	-15380
бок	-15381
йці	-15382
▁Ang	-15383
▁Тро	-15384
діяти	-15385
▁резю	-15386
▁розв	-15387
▁грець	-15388
▁канад	-15389
▁якусь	-15390
▁Invest	-15391
▁bother	-15392
▁insert	-15393
▁tourism	-15394
▁багатьма	-15395
▁покарання	-15396
▁починаєте	-15397
▁завантаження	-15398
нил	-15399
quot	-15400
тенту	-15401
чуття	-15402
▁пікл	-15403
▁вугле	-15404
▁радий	-15405
▁самом	-15406
▁Извини	-15407
▁заважа	-15408
▁кроком	-15409
▁увійти	-15410
▁делаешь	-15411
▁містять	-15412
▁preserve	-15413
▁туристів	-15414
▁принципів	-15415
▁incredibly	-15416
▁restrictions	-15417
29	-15418
py	-15419
зн	-15420
▁4-	-15421
▁6,	-15422
▁уч	-15423
▁Оте	-15424
etary	-15425
▁Поро	-15426
доволь	-15427
▁Кореї	-15428
▁взаєм	-15429
▁друже	-15430
▁копії	-15431
▁музей	-15432
viously	-15433
▁cursor	-15434
▁harder	-15435
▁призве	-15436
▁совсем	-15437
▁ступен	-15438
▁federal	-15439
▁поїздки	-15440
▁фінансової	-15441
▁consciousness	-15442
God	-15443
дум	-15444
▁EC	-15445
▁Ask	-15446
▁fan	-15447
▁кля	-15448
ograp	-15449
▁synt	-15450
lishing	-15451
▁spring	-15452
▁widely	-15453
▁banking	-15454
▁залежно	-15455
▁перевер	-15456
▁людського	-15457
▁productive	-15458
▁середовищі	-15459
▁українська	-15460
▁щонайменше	-15461
born	-15462
даєш	-15463
жите	-15464
oster	-15465
стину	-15466
▁Право	-15467
▁засіб	-15468
▁кухні	-15469
▁типів	-15470
▁Unable	-15471
▁привер	-15472
optional	-15473
zerbaijan	-15474
▁факульте	-15475
▁головного	-15476
▁заробляти	-15477
▁переклада	-15478
▁швидкості	-15479
▁інтернету	-15480
▁найбільшим	-15481
▁preparation	-15482
")	-15483
ago	-15484
лон	-15485
▁700	-15486
▁Tor	-15487
▁tor	-15488
▁Клі	-15489
▁яки	-15490
клади	-15491
лагаю	-15492
тація	-15493
▁бого	-15494
▁Скоро	-15495
▁пробу	-15496
▁Thomas	-15497
▁Команда	-15498
▁сумніву	-15499
▁дорослих	-15500
▁почувати	-15501
▁російські	-15502
▁властивості	-15503
[...]
