<unk>	0
<s>	0
</s>	0
▁t	-0
in	-1
▁a	-2
he	-3
er	-4
on	-5
▁s	-6
re	-7
an	-8
▁w	-9
▁o	-10
▁the	-11
▁p	-12
at	-13
en	-14
ar	-15
st	-16
or	-17
▁c	-18
it	-19
ie	-20
▁f	-21
al	-22
▁b	-23
▁m	-24
▁d	-25
is	-26
le	-27
ro	-28
ed	-29
nd	-30
ing	-31
▁in	-32
ic	-33
▁of	-34
▁n	-35
ion	-36
ou	-37
es	-38
▁to	-39
ow	-40
▁and	-41
as	-42
▁h	-43
ac	-44
▁T	-45
▁S	-46
il	-47
om	-48
ent	-49
am	-50
▁e	-51
▁A	-52
ur	-53
▁l	-54
▁P	-55
▁g	-56
▁C	-57
ch	-58
el	-59
▁re	-60
▁th	-61
▁z	-62
ot	-63
▁I	-64
et	-65
▁k	-66
▁u	-67
ra	-68
ol	-69
▁M	-70
ir	-71
em	-72
▁1	-73
ia	-74
ation	-75
ec	-76
im	-77
ut	-78
od	-79
▁is	-80
ad	-81
▁y	-82
▁W	-83
ve	-84
ig	-85
▁st	-86
id	-87
▁B	-88
ak	-89
▁on	-90
zy	-91
um	-92
▁(	-93
▁for	-94
ver	-95
▁2	-96
os	-97
▁be	-98
▁D	-99
ly	-100
▁H	-101
ay	-102
▁F	-103
▁pro	-104
un	-105
▁i	-106
ce	-107
▁j	-108
▁E	-109
▁you	-110
ze	-111
▁R	-112
us	-113
ag	-114
▁The	-115
ith	-116
▁pr	-117
▁N	-118
ul	-119
▁v	-120
ct	-121
ni	-122
est	-123
▁G	-124
▁with	-125
ter	-126
▁L	-127
▁that	-128
▁O	-129
ist	-130
▁al	-131
and	-132
▁do	-133
ci	-134
▁r	-135
▁he	-136
ap	-137
▁as	-138
▁-	-139
op	-140
▁con	-141
ab	-142
▁J	-143
eg	-144
ます	-145
ers	-146
▁K	-147
▁na	-148
▁it	-149
▁an	-150
▁by	-151
ki	-152
して	-153
する	-154
00	-155
ort	-156
ów	-157
ies	-158
▁wh	-159
ię	-160
ka	-161
art	-162
ill	-163
pp	-164
▁or	-165
▁are	-166
se	-167
ok	-168
ld	-169
ri	-170
ych	-171
res	-172
her	-173
ity	-174
oc	-175
した	-176
ud	-177
▁com	-178
▁was	-179
▁ex	-180
ne	-181
▁sp	-182
rom	-183
li	-184
ess	-185
▁U	-186
▁In	-187
ry	-188
na	-189
01	-190
ate	-191
og	-192
ore	-193
ect	-194
ant	-195
▁su	-196
▁þ	-197
ain	-198
▁at	-199
ment	-200
ich	-201
▁ro	-202
ost	-203
qu	-204
igh	-205
▁not	-206
du	-207
if	-208
cz	-209
ym	-210
され	-211
aw	-212
▁from	-213
nt	-214
▁"	-215
ug	-216
こと	-217
iv	-218
▁sh	-219
▁we	-220
ach	-221
▁le	-222
ard	-223
ast	-224
てい	-225
▁ch	-226
▁ha	-227
▁de	-228
oś	-229
ob	-230
ine	-231
ile	-232
nie	-233
▁wy	-234
ust	-235
end	-236
ub	-237
ive	-238
th	-239
▁this	-240
▁19	-241
ał	-242
ew	-243
▁St	-244
ið	-245
ure	-246
all	-247
▁og	-248
▁me	-249
ran	-250
ego	-251
▁se	-252
▁pl	-253
▁að	-254
dz	-255
aj	-256
orm	-257
▁can	-258
▁V	-259
▁201	-260
pt	-261
▁us	-262
▁á	-263
ight	-264
ang	-265
ku	-266
▁3	-267
per	-268
ated	-269
la	-270
iz	-271
▁have	-272
our	-273
ik	-274
った	-275
ram	-276
owan	-277
▁ab	-278
▁en	-279
ear	-280
are	-281
ier	-282
▁will	-283
▁po	-284
so	-285
から	-286
ある	-287
sk	-288
ji	-289
▁się	-290
ind	-291
்க	-292
▁Z	-293
ice	-294
▁te	-295
ks	-296
ib	-297
▁comp	-298
act	-299
▁er	-300
ions	-301
▁nie	-302
form	-303
ial	-304
kt	-305
です	-306
ide	-307
▁all	-308
▁wor	-309
ary	-310
ru	-311
ell	-312
ire	-313
▁د	-314
age	-315
je	-316
▁your	-317
wo	-318
fer	-319
▁í	-320
ron	-321
▁Ch	-322
out	-323
▁ad	-324
ish	-325
ja	-326
sp	-327
lic	-328
cc	-329
able	-330
▁Y	-331
ens	-332
one	-333
ould	-334
って	-335
▁Th	-336
hen	-337
ame	-338
▁cont	-339
▁od	-340
ther	-341
ない	-342
ber	-343
ip	-344
▁im	-345
▁has	-346
ian	-347
że	-348
ical	-349
▁which	-350
ult	-351
ome	-352
▁sk	-353
ff	-354
ien	-355
..	-356
pe	-357
owe	-358
any	-359
ook	-360
▁jest	-361
ości	-362
ack	-363
port	-364
ous	-365
pl	-366
ations	-367
ual	-368
▁ob	-369
▁ver	-370
▁app	-371
ite	-372
▁4	-373
les	-374
▁prze	-375
wa	-376
ong	-377
▁so	-378
してい	-379
▁go	-380
ąc	-381
▁tak	-382
ace	-383
yst	-384
ny	-385
▁200	-386
und	-387
vel	-388
ime	-389
go	-390
ase	-391
▁5	-392
ft	-393
ail	-394
ge	-395
ży	-396
▁–	-397
anie	-398
▁It	-399
ている	-400
▁also	-401
▁but	-402
்த	-403
að	-404
▁int	-405
ord	-406
▁ne	-407
この	-408
ree	-409
よう	-410
でき	-411
ount	-412
...	-413
▁up	-414
▁ser	-415
イン	-416
ance	-417
ty	-418
ied	-419
ov	-420
ark	-421
その	-422
ater	-423
ere	-424
では	-425
あり	-426
▁inc	-427
nych	-428
▁produ	-429
▁sem	-430
ம்	-431
▁part	-432
ose	-433
iej	-434
inn	-435
ue	-436
ng	-437
uro	-438
▁ar	-439
ition	-440
には	-441
raw	-442
▁kt	-443
).	-444
ory	-445
▁op	-446
▁one	-447
ign	-448
▁przy	-449
ため	-450
ass	-451
▁per	-452
yr	-453
ep	-454
▁inter	-455
own	-456
ild	-457
ents	-458
▁af	-459
スト	-460
av	-461
▁któ	-462
▁his	-463
▁their	-464
ction	-465
rz	-466
ール	-467
sz	-468
▁pow	-469
ią	-470
ました	-471
up	-472
ress	-473
によ	-474
ll	-475
▁they	-476
▁.	-477
▁dis	-478
ート	-479
ale	-480
▁Pro	-481
▁file	-482
cie	-483
▁cz	-484
led	-485
▁pod	-486
▁pre	-487
▁other	-488
row	-489
ann	-490
tt	-491
▁jak	-492
▁til	-493
▁were	-494
ன்	-495
▁out	-496
▁who	-497
▁our	-498
ット	-499
▁We	-500
▁ra	-501
ファ	-502
ania	-503
int	-504
ystem	-505
cy	-506
ła	-507
ko	-508
ック	-509
▁year	-510
leg	-511
af	-512
ata	-513
▁more	-514
▁acc	-515
enie	-516
ond	-517
▁its	-518
szy	-519
uj	-520
ces	-521
ings	-522
ans	-523
enia	-524
ont	-525
▁res	-526
▁reg	-527
▁cl	-528
▁there	-529
▁6	-530
▁pe	-531
yt	-532
▁prz	-533
▁fir	-534
ors	-535
▁time	-536
▁He	-537
rze	-538
low	-539
▁This	-540
ates	-541
mer	-542
である	-543
ショ	-544
▁new	-545
イル	-546
▁ا	-547
いて	-548
ely	-549
▁co	-550
az	-551
ami	-552
▁mo	-553
ence	-554
▁ev	-555
ins	-556
▁about	-557
▁tra	-558
▁qu	-559
▁ک	-560
▁been	-561
reat	-562
ró	-563
ać	-564
られ	-565
ことが	-566
yw	-567
ys	-568
ake	-569
▁ag	-570
▁Com	-571
▁um	-572
それ	-573
▁sam	-574
gram	-575
lect	-576
line	-577
icz	-578
ane	-579
▁dz	-580
▁da	-581
▁Euro	-582
),	-583
ational	-584
apan	-585
▁við	-586
▁inst	-587
ugh	-588
iew	-589
here	-590
▁,	-591
▁am	-592
vers	-593
▁|	-594
リー	-595
acji	-596
we	-597
க்க	-598
ict	-599
します	-600
te	-601
▁پ	-602
ple	-603
ble	-604
ph	-605
erm	-606
▁7	-607
▁work	-608
▁ty	-609
▁bec	-610
▁system	-611
▁tran	-612
ows	-613
▁und	-614
された	-615
ல்	-616
ティ	-617
19	-618
▁inform	-619
▁des	-620
▁them	-621
▁Sh	-622
▁man	-623
▁ś	-624
uc	-625
com	-626
ons	-627
▁my	-628
▁roz	-629
▁że	-630
として	-631
▁when	-632
ość	-633
ター	-634
ii	-635
iss	-636
ert	-637
old	-638
iał	-639
これ	-640
ember	-641
▁8	-642
▁pos	-643
▁10	-644
ード	-645
ays	-646
▁only	-647
use	-648
olog	-649
ning	-650
▁pol	-651
sl	-652
oy	-653
▁ப	-654
▁no	-655
▁með	-656
▁use	-657
▁Japan	-658
▁அ	-659
lud	-660
▁act	-661
ities	-662
red	-663
ða	-664
ject	-665
また	-666
ek	-667
▁prov	-668
▁un	-669
▁za	-670
nym	-671
ント	-672
ション	-673
ople	-674
ound	-675
ும்	-676
▁get	-677
にな	-678
▁Al	-679
▁var	-680
raz	-681
now	-682
rzy	-683
▁had	-684
▁bl	-685
▁sc	-686
プロ	-687
とい	-688
nej	-689
ices	-690
▁As	-691
ink	-692
yn	-693
ular	-694
ファイル	-695
10	-696
▁first	-697
ement	-698
ally	-699
uch	-700
ars	-701
▁fyr	-702
hed	-703
▁க	-704
itt	-705
▁serv	-706
்ட	-707
▁into	-708
ced	-709
ング	-710
cze	-711
▁Re	-712
▁Sp	-713
▁may	-714
▁supp	-715
ina	-716
▁Ar	-717
▁Pol	-718
▁dla	-719
gh	-720
kie	-721
▁comm	-722
nia	-723
்ப	-724
otel	-725
ður	-726
もの	-727
▁over	-728
acz	-729
▁18	-730
ycz	-731
ike	-732
▁any	-733
dzie	-734
xt	-735
▁form	-736
ュー	-737
very	-738
▁przez	-739
nego	-740
▁than	-741
ラン	-742
▁0	-743
▁rel	-744
kow	-745
▁off	-746
gan	-747
▁sz	-748
▁م	-749
czy	-750
▁Europe	-751
▁people	-752
arm	-753
▁9	-754
ood	-755
▁if	-756
rough	-757
▁such	-758
▁rec	-759
த்த	-760
▁ம	-761
ating	-762
▁what	-763
ick	-764
▁spec	-765
▁fl	-766
▁now	-767
ję	-768
▁[	-769
▁Ad	-770
ious	-771
▁この	-772
▁met	-773
io	-774
▁add	-775
jó	-776
▁col	-777
など	-778
ków	-779
▁fe	-780
my	-781
▁bet	-782
▁mod	-783
▁includ	-784
▁cons	-785
▁ext	-786
▁aut	-787
velop	-788
tern	-789
wn	-790
ener	-791
している	-792
▁play	-793
▁would	-794
ade	-795
ai	-796
wie	-797
ள்	-798
wor	-799
的な	-800
uring	-801
▁fyrir	-802
ęp	-803
zą	-804
▁ph	-805
場合	-806
ath	-807
ible	-808
という	-809
しい	-810
▁program	-811
000	-812
ませ	-813
ło	-814
▁Se	-815
ிய	-816
ures	-817
▁under	-818
acy	-819
ład	-820
▁:	-821
lish	-822
aż	-823
▁On	-824
▁em	-825
ments	-826
ef	-827
ージ	-828
ren	-829
ta	-830
ません	-831
▁Pl	-832
ock	-833
ased	-834
▁jed	-835
ility	-836
amp	-837
▁online	-838
▁/	-839
▁two	-840
▁her	-841
ics	-842
▁cent	-843
ライ	-844
▁pers	-845
chn	-846
▁bu	-847
by	-848
rat	-849
20	-850
ise	-851
iu	-852
▁வ	-853
ています	-854
ana	-855
▁set	-856
▁some	-857
ej	-858
ough	-859
▁need	-860
▁dec	-861
▁should	-862
▁kom	-863
201	-864
ss	-865
iel	-866
日本	-867
▁like	-868
▁fin	-869
ited	-870
round	-871
▁To	-872
▁و	-873
▁dif	-874
ół	-875
▁min	-876
ności	-877
uk	-878
sc	-879
情報	-880
▁after	-881
▁these	-882
ash	-883
▁sa	-884
▁most	-885
▁naj	-886
される	-887
▁இ	-888
urn	-889
▁ل	-890
land	-891
▁br	-892
▁tr	-893
▁well	-894
につ	-895
irect	-896
erv	-897
▁ent	-898
▁•	-899
arg	-900
▁years	-901
ディ	-902
▁loc	-903
▁And	-904
ause	-905
fore	-906
▁sub	-907
als	-908
▁An	-909
ific	-910
▁Þ	-911
▁You	-912
▁zw	-913
▁pop	-914
あります	-915
zi	-916
ون	-917
▁ந	-918
ことができ	-919
eng	-920
▁If	-921
▁through	-922
ரு	-923
ski	-924
▁Un	-925
▁ok	-926
▁exp	-927
▁த	-928
▁sec	-929
▁att	-930
▁zost	-931
ań	-932
▁ind	-933
▁num	-934
der	-935
pr	-936
ーム	-937
ese	-938
▁information	-939
▁oraz	-940
air	-941
ப்ப	-942
niej	-943
ern	-944
owy	-945
▁where	-946
ident	-947
oth	-948
コン	-949
dy	-950
▁develop	-951
▁used	-952
▁Wh	-953
ollow	-954
▁For	-955
ange	-956
▁15	-957
ði	-958
ップ	-959
ily	-960
ர்	-961
ublic	-962
arch	-963
rum	-964
inu	-965
まで	-966
ames	-967
ful	-968
ony	-969
▁sm	-970
ah	-971
▁high	-972
▁product	-973
uje	-974
▁ت	-975
ward	-976
its	-977
▁Af	-978
▁eff	-979
▁ek	-980
▁stud	-981
▁199	-982
なた	-983
▁mon	-984
12	-985
▁count	-986
とな	-987
ól	-988
▁tem	-989
ution	-990
ną	-991
▁car	-992
▁data	-993
▁są	-994
あなた	-995
▁world	-996
sh	-997
▁lub	-998
rit	-999
rib	-1000
使用	-1001
ck	-1002
▁roku	-1003
ける	-1004
▁20	-1005
sze	-1006
▁New	-1007
▁Po	-1008
▁rem	-1009
let	-1010
▁'	-1011
já	-1012
ją	-1013
▁she	-1014
▁very	-1015
さい	-1016
▁imp	-1017
ために	-1018
▁end	-1019
▁many	-1020
▁him	-1021
hes	-1022
ース	-1023
▁then	-1024
▁ச	-1025
cji	-1026
▁12	-1027
▁ve	-1028
▁kon	-1029
ステ	-1030
ータ	-1031
について	-1032
可能	-1033
rá	-1034
▁open	-1035
ように	-1036
▁Q	-1037
ric	-1038
ral	-1039
たち	-1040
▁oper	-1041
cess	-1042
▁zd	-1043
▁pres	-1044
cial	-1045
▁requ	-1046
▁Te	-1047
ają	-1048
ان	-1049
にお	-1050
bur	-1051
必要	-1052
gg	-1053
ior	-1054
cia	-1055
▁س	-1056
▁just	-1057
▁gr	-1058
▁X	-1059
▁proble	-1060
サー	-1061
iąz	-1062
su	-1063
▁right	-1064
▁det	-1065
indows	-1066
ax	-1067
து	-1068
▁&	-1069
ural	-1070
▁see	-1071
ix	-1072
ara	-1073
▁want	-1074
za	-1075
owych	-1076
ool	-1077
ந்த	-1078
▁av	-1079
ار	-1080
でも	-1081
▁know	-1082
roup	-1083
▁follow	-1084
▁które	-1085
ince	-1086
▁make	-1087
iad	-1088
elf	-1089
▁every	-1090
▁support	-1091
ages	-1092
lu	-1093
ody	-1094
ife	-1095
wi	-1096
ły	-1097
mi	-1098
18	-1099
stęp	-1100
いた	-1101
ank	-1102
iness	-1103
co	-1104
▁gu	-1105
ことを	-1106
▁mark	-1107
lp	-1108
▁gra	-1109
nglish	-1110
ட்ட	-1111
ali	-1112
ween	-1113
lik	-1114
oun	-1115
ts	-1116
▁free	-1117
oad	-1118
▁person	-1119
▁nas	-1120
▁Comm	-1121
50	-1122
▁fil	-1123
ather	-1124
なく	-1125
owanie	-1126
▁differ	-1127
ection	-1128
30	-1129
▁problem	-1130
▁best	-1131
▁ac	-1132
ove	-1133
▁cre	-1134
part	-1135
erg	-1136
ware	-1137
owania	-1138
▁bo	-1139
ator	-1140
ism	-1141
▁Uni	-1142
▁again	-1143
▁ب	-1144
bo	-1145
▁ass	-1146
▁same	-1147
1.	-1148
ைய	-1149
ör	-1150
▁rep	-1151
ług	-1152
▁techn	-1153
con	-1154
ول	-1155
rol	-1156
acja	-1157
サイ	-1158
ーク	-1159
staw	-1160
of	-1161
skie	-1162
れる	-1163
ca	-1164
wó	-1165
ouse	-1166
bs	-1167
andi	-1168
▁between	-1169
▁bel	-1170
app	-1171
other	-1172
▁これ	-1173
cept	-1174
▁mat	-1175
▁mus	-1176
▁intern	-1177
▁applic	-1178
っている	-1179
▁made	-1180
owej	-1181
ści	-1182
imes	-1183
▁ke	-1184
szyst	-1185
▁list	-1186
ull	-1187
▁long	-1188
ension	-1189
▁moż	-1190
▁art	-1191
łow	-1192
▁how	-1193
oj	-1194
vern	-1195
▁sol	-1196
▁hand	-1197
▁os	-1198
▁przed	-1199
▁exper	-1200
▁There	-1201
ska	-1202
▁stron	-1203
▁eða	-1204
pos	-1205
▁Ind	-1206
ex	-1207
より	-1208
icy	-1209
ーション	-1210
ங்க	-1211
▁fun	-1212
しています	-1213
alled	-1214
▁even	-1215
ari	-1216
ில்	-1217
ald	-1218
ript	-1219
ady	-1220
▁upp	-1221
くだ	-1222
ven	-1223
▁Be	-1224
▁med	-1225
urre	-1226
によって	-1227
▁way	-1228
世界	-1229
▁Ex	-1230
リア	-1231
nik	-1232
els	-1233
▁ekki	-1234
▁start	-1235
ute	-1236
odz	-1237
▁私	-1238
ciation	-1239
alk	-1240
ví	-1241
ung	-1242
▁vis	-1243
ature	-1244
AT	-1245
arz	-1246
▁Air	-1247
▁fram	-1248
▁down	-1249
ines	-1250
ecz	-1251
inist	-1252
▁bus	-1253
的に	-1254
ality	-1255
▁good	-1256
fa	-1257
ives	-1258
▁here	-1259
▁ed	-1260
▁partic	-1261
▁został	-1262
day	-1263
▁che	-1264
ting	-1265
arn	-1266
フォ	-1267
▁16	-1268
ります	-1269
▁organ	-1270
to	-1271
▁Cl	-1272
ér	-1273
▁help	-1274
IN	-1275
▁Windows	-1276
▁back	-1277
▁must	-1278
rop	-1279
える	-1280
▁Pr	-1281
ER	-1282
▁US	-1283
aliz	-1284
れた	-1285
▁resp	-1286
ament	-1287
ような	-1288
▁zap	-1289
ンド	-1290
ole	-1291
▁bez	-1292
ission	-1293
研究	-1294
ative	-1295
11	-1296
▁own	-1297
ください	-1298
".	-1299
▁sur	-1300
▁pot	-1301
ets	-1302
ually	-1303
ON	-1304
▁design	-1305
ić	-1306
chool	-1307
ając	-1308
▁Le	-1309
ma	-1310
スタ	-1311
.0	-1312
▁17	-1313
▁De	-1314
▁tym	-1315
zw	-1316
▁because	-1317
▁その	-1318
▁main	-1319
に関	-1320
およ	-1321
▁gl	-1322
vent	-1323
ił	-1324
ustom	-1325
▁په	-1326
かった	-1327
▁could	-1328
iet	-1329
ling	-1330
▁fam	-1331
グラ	-1332
▁import	-1333
▁ア	-1334
への	-1335
AN	-1336
▁Ph	-1337
▁czy	-1338
200	-1339
ining	-1340
▁Intern	-1341
ょう	-1342
▁No	-1343
▁gener	-1344
フィ	-1345
▁lat	-1346
iedz	-1347
view	-1348
uss	-1349
ries	-1350
▁those	-1351
ailable	-1352
▁pom	-1353
emy	-1354
no	-1355
▁day	-1356
eli	-1357
ished	-1358
▁sim	-1359
ury	-1360
▁Cent	-1361
▁ú	-1362
omet	-1363
15	-1364
au	-1365
▁find	-1366
▁At	-1367
▁cor	-1368
▁process	-1369
nar	-1370
▁Con	-1371
era	-1372
▁look	-1373
されている	-1374
だけ	-1375
urrent	-1376
▁zn	-1377
▁during	-1378
▁Wor	-1379
▁Su	-1380
▁cap	-1381
▁inf	-1382
▁ret	-1383
▁Amer	-1384
way	-1385
▁trans	-1386
sta	-1387
▁þess	-1388
および	-1389
▁did	-1390
すべ	-1391
▁number	-1392
ved	-1393
yk	-1394
▁það	-1395
▁direct	-1396
すること	-1397
ięks	-1398
ர்க	-1399
▁எ	-1400
があります	-1401
por	-1402
pow	-1403
."	-1404
▁miej	-1405
▁take	-1406
lease	-1407
▁wszyst	-1408
AR	-1409
ology	-1410
▁different	-1411
ować	-1412
ðu	-1413
ery	-1414
ness	-1415
ital	-1416
▁val	-1417
▁bę	-1418
▁ن	-1419
▁each	-1420
ional	-1421
▁before	-1422
stru	-1423
▁14	-1424
▁conc	-1425
多く	-1426
de	-1427
▁En	-1428
スの	-1429
væ	-1430
ாக	-1431
▁「	-1432
▁wsp	-1433
ani	-1434
により	-1435
▁said	-1436
▁eru	-1437
▁def	-1438
2.	-1439
iesz	-1440
ize	-1441
angu	-1442
▁ele	-1443
に対	-1444
ので	-1445
▁provid	-1446
num	-1447
ants	-1448
▁او	-1449
▁“	-1450
owever	-1451
▁ży	-1452
less	-1453
adz	-1454
ウェ	-1455
▁Hotel	-1456
ered	-1457
▁stand	-1458
get	-1459
▁using	-1460
▁place	-1461
▁result	-1462
ていた	-1463
versity	-1464
▁ot	-1465
れば	-1466
▁pur	-1467
▁Od	-1468
▁rów	-1469
▁order	-1470
▁post	-1471
バー	-1472
▁poss	-1473
▁Or	-1474
▁par	-1475
The	-1476
ocz	-1477
ically	-1478
yl	-1479
▁shall	-1480
▁games	-1481
owa	-1482
▁Man	-1483
▁mak	-1484
▁Je	-1485
be	-1486
hip	-1487
▁found	-1488
oh	-1489
▁area	-1490
しょう	-1491
▁zak	-1492
▁char	-1493
ardz	-1494
がある	-1495
ote	-1496
▁bre	-1497
ona	-1498
anych	-1499
▁prof	-1500
▁does	-1501
▁prot	-1502
▁being	-1503
uter	-1504
らの	-1505
uf	-1506
▁est	-1507
▁child	-1508
ium	-1509
▁point	-1510
▁hotel	-1511
▁God	-1512
naj	-1513
▁który	-1514
ög	-1515
▁So	-1516
▁Car	-1517
しました	-1518
しか	-1519
ور	-1520
ision	-1521
データ	-1522
▁European	-1523
▁dist	-1524
▁perform	-1525
uż	-1526
emb	-1527
▁13	-1528
ected	-1529
vir	-1530
▁public	-1531
▁1.	-1532
ność	-1533
▁Go	-1534
dition	-1535
man	-1536
ave	-1537
▁swo	-1538
AS	-1539
▁198	-1540
▁dev	-1541
▁name	-1542
ract	-1543
▁Bl	-1544
▁30	-1545
プリ	-1546
OR	-1547
▁Fram	-1548
▁available	-1549
▁また	-1550
ின்	-1551
ield	-1552
▁life	-1553
rod	-1554
awa	-1555
による	-1556
ined	-1557
16	-1558
oz	-1559
osp	-1560
ving	-1561
▁incre	-1562
",	-1563
ogra	-1564
▁そ	-1565
ær	-1566
oł	-1567
にも	-1568
▁air	-1569
▁Par	-1570
▁three	-1571
▁それ	-1572
できる	-1573
ąd	-1574
kład	-1575
iem	-1576
ili	-1577
▁Wy	-1578
利用	-1579
fir	-1580
ke	-1581
ował	-1582
ired	-1583
rist	-1584
▁try	-1585
ES	-1586
▁water	-1587
esz	-1588
▁Pre	-1589
gl	-1590
▁hist	-1591
13	-1592
の中	-1593
▁zaw	-1594
▁gre	-1595
、「	-1596
ya	-1597
ての	-1598
▁ش	-1599
▁mar	-1600
▁dri	-1601
ób	-1602
▁great	-1603
ロー	-1604
igin	-1605
▁including	-1606
conom	-1607
itions	-1608
,000	-1609
時間	-1610
ując	-1611
▁Fl	-1612
取り	-1613
▁wz	-1614
▁prom	-1615
▁They	-1616
▁war	-1617
▁business	-1618
14	-1619
▁market	-1620
ists	-1621
ór	-1622
▁czas	-1623
vest	-1624
▁All	-1625
ration	-1626
▁don	-1627
▁show	-1628
erw	-1629
▁book	-1630
大学	-1631
▁effect	-1632
ama	-1633
IC	-1634
での	-1635
▁þe	-1636
anc	-1637
ason	-1638
クト	-1639
▁ter	-1640
提供	-1641
ica	-1642
kon	-1643
ierw	-1644
▁while	-1645
att	-1646
uz	-1647
lega	-1648
▁eas	-1649
▁services	-1650
fic	-1651
▁„	-1652
させ	-1653
▁kl	-1654
▁zm	-1655
orn	-1656
んだ	-1657
owane	-1658
▁power	-1659
▁film	-1660
▁dom	-1661
年に	-1662
チャ	-1663
nież	-1664
▁custom	-1665
▁mater	-1666
duct	-1667
▁Mar	-1668
おり	-1669
ience	-1670
ters	-1671
ræ	-1672
uð	-1673
を見	-1674
esp	-1675
を持	-1676
▁hum	-1677
▁Co	-1678
▁both	-1679
▁lead	-1680
ada	-1681
iod	-1682
▁pat	-1683
▁uni	-1684
▁equ	-1685
óż	-1686
17	-1687
orth	-1688
▁build	-1689
▁wie	-1690
play	-1691
▁uży	-1692
▁following	-1693
▁lot	-1694
システ	-1695
▁extension	-1696
liw	-1697
▁spe	-1698
ring	-1699
システム	-1700
pie	-1701
▁activ	-1702
▁group	-1703
▁jako	-1704
ains	-1705
▁fact	-1706
▁interest	-1707
▁project	-1708
▁aby	-1709
ジェ	-1710
問題	-1711
▁Fran	-1712
hing	-1713
▁nat	-1714
▁eng	-1715
▁still	-1716
ju	-1717
amy	-1718
fur	-1719
▁gł	-1720
▁Japanese	-1721
▁without	-1722
oto	-1723
▁چ	-1724
▁ze	-1725
を行	-1726
▁dr	-1727
▁þú	-1728
▁pon	-1729
あった	-1730
ten	-1731
▁view	-1732
▁exam	-1733
バイ	-1734
または	-1735
EC	-1736
1,	-1737
▁States	-1738
▁உ	-1739
▁ma	-1740
▁również	-1741
▁ef	-1742
▁100	-1743
▁ten	-1744
▁stre	-1745
サービ	-1746
▁level	-1747
று	-1748
burður	-1749
プレ	-1750
ient	-1751
load	-1752
isk	-1753
▁彼	-1754
▁service	-1755
▁products	-1756
hor	-1757
ことができます	-1758
▁When	-1759
▁Reg	-1760
outh	-1761
▁case	-1762
さん	-1763
▁Am	-1764
nown	-1765
▁rece	-1766
rag	-1767
▁inv	-1768
stwa	-1769
▁mov	-1770
スを	-1771
ユー	-1772
▁bud	-1773
との	-1774
ering	-1775
▁times	-1776
aty	-1777
ðar	-1778
▁tego	-1779
ized	-1780
▁around	-1781
ープ	-1782
▁land	-1783
▁Framburður	-1784
ற்	-1785
▁frá	-1786
ują	-1787
▁cour	-1788
kur	-1789
▁conn	-1790
▁important	-1791
cej	-1792
▁test	-1793
ared	-1794
ال	-1795
プログラ	-1796
-2	-1797
▁ur	-1798
▁report	-1799
ird	-1800
oss	-1801
んで	-1802
▁tyl	-1803
yd	-1804
▁の	-1805
war	-1806
▁provide	-1807
▁unt	-1808
▁la	-1809
me	-1810
▁company	-1811
とも	-1812
ilt	-1813
ftir	-1814
▁Comp	-1815
ンの	-1816
つの	-1817
ves	-1818
▁application	-1819
▁term	-1820
▁197	-1821
icle	-1822
lear	-1823
arge	-1824
/0	-1825
▁current	-1826
orzy	-1827
▁sit	-1828
▁inn	-1829
▁Pron	-1830
ための	-1831
riend	-1832
▁University	-1833
▁elect	-1834
usz	-1835
▁Part	-1836
▁być	-1837
iki	-1838
yf	-1839
▁langu	-1840
▁opt	-1841
4.	-1842
alth	-1843
サイト	-1844
▁think	-1845
▁But	-1846
▁Cont	-1847
▁pass	-1848
▁last	-1849
▁mill	-1850
▁much	-1851
▁mog	-1852
dzy	-1853
▁men	-1854
▁praw	-1855
▁sl	-1856
▁kra	-1857
▁dem	-1858
他の	-1859
▁tylko	-1860
▁adv	-1861
enska	-1862
▁commun	-1863
bsite	-1864
IT	-1865
▁ut	-1866
▁stat	-1867
▁World	-1868
▁present	-1869
5.	-1870
oot	-1871
リカ	-1872
▁spraw	-1873
▁month	-1874
ode	-1875
▁ale	-1876
▁2.	-1877
br	-1878
タイ	-1879
ases	-1880
tu	-1881
▁offer	-1882
▁Inst	-1883
viron	-1884
ately	-1885
▁ö	-1886
▁second	-1887
ík	-1888
ポート	-1889
▁mag	-1890
ulation	-1891
ott	-1892
プログラム	-1893
▁game	-1894
▁disc	-1895
▁Col	-1896
cent	-1897
▁jego	-1898
▁small	-1899
3.	-1900
▁room	-1901
▁United	-1902
ross	-1903
owany	-1904
ino	-1905
iędzy	-1906
ーの	-1907
▁Art	-1908
▁EU	-1909
nic	-1910
iety	-1911
▁My	-1912
▁Res	-1913
▁access	-1914
ret	-1915
ftware	-1916
のは	-1917
unciation	-1918
que	-1919
なら	-1920
▁sw	-1921
owego	-1922
▁ins	-1923
arth	-1924
▁city	-1925
▁fac	-1926
▁run	-1927
rzym	-1928
▁full	-1929
▁bro	-1930
▁transl	-1931
▁tele	-1932
▁energ	-1933
IS	-1934
▁leg	-1935
alc	-1936
▁special	-1937
▁within	-1938
ierz	-1939
▁say	-1940
▁Me	-1941
asz	-1942
▁ta	-1943
▁control	-1944
டு	-1945
人の	-1946
skiej	-1947
▁addition	-1948
ower	-1949
eb	-1950
▁miejsc	-1951
されます	-1952
しかし	-1953
クリ	-1954
pis	-1955
acje	-1956
▁Ab	-1957
開発	-1958
▁bas	-1959
▁typ	-1960
par	-1961
kaz	-1962
▁another	-1963
キャ	-1964
▁school	-1965
▁24	-1966
ファイルを	-1967
▁After	-1968
aut	-1969
▁tre	-1970
▁govern	-1971
多くの	-1972
▁Airport	-1973
▁Pronunciation	-1974
60	-1975
ín	-1976
▁czę	-1977
▁odpow	-1978
▁Mo	-1979
▁pra	-1980
なる	-1981
ety	-1982
▁ref	-1983
なかった	-1984
▁anal	-1985
▁net	-1986
tain	-1987
▁pli	-1988
acyj	-1989
▁því	-1990
English	-1991
▁jedn	-1992
▁vers	-1993
una	-1994
▁II	-1995
▁appro	-1996
▁wid	-1997
▁She	-1998
ącz	-1999
います	-2000
▁ه	-2001
ences	-2002
omen	-2003
▁Bo	-2004
られる	-2005
▁Play	-2006
▁come	-2007
اس	-2008
ised	-2009
ிர	-2010
une	-2011
íl	-2012
▁Germ	-2013
▁Sc	-2014
ccess	-2015
▁old	-2016
▁bardz	-2017
▁grow	-2018
▁chang	-2019
க்கு	-2020
śli	-2021
▁może	-2022
▁development	-2023
ண்ட	-2024
▁cert	-2025
▁econom	-2026
lished	-2027
▁since	-2028
not	-2029
rodu	-2030
ats	-2031
▁11	-2032
EN	-2033
▁Gu	-2034
のです	-2035
vironment	-2036
▁wyb	-2037
ument	-2038
ended	-2039
▁ide	-2040
新しい	-2041
▁With	-2042
ルの	-2043
拡張	-2044
であり	-2045
▁fore	-2046
ンス	-2047
stand	-2048
▁By	-2049
med	-2050
skiego	-2051
すると	-2052
40	-2053
に関する	-2054
▁manag	-2055
anu	-2056
2,	-2057
iving	-2058
▁nad	-2059
大き	-2060
▁install	-2061
▁maj	-2062
▁light	-2063
oint	-2064
▁called	-2065
ording	-2066
▁także	-2067
技術	-2068
▁...	-2069
enc	-2070
ான	-2071
▁occ	-2072
▁خ	-2073
ிற	-2074
æk	-2075
機能	-2076
omat	-2077
ination	-2078
▁2010	-2079
▁ஆ	-2080
inni	-2081
kiem	-2082
ienia	-2083
▁sign	-2084
▁indu	-2085
ユーザ	-2086
▁お	-2087
▁25	-2088
▁law	-2089
ęd	-2090
yo	-2091
▁cał	-2092
▁based	-2093
▁je	-2094
▁Christ	-2095
ideo	-2096
▁Na	-2097
ush	-2098
ID	-2099
chod	-2100
25	-2101
ency	-2102
▁pok	-2103
現在	-2104
▁rese	-2105
lep	-2106
iven	-2107
▁period	-2108
リン	-2109
ified	-2110
める	-2111
gu	-2112
▁Em	-2113
▁material	-2114
▁kil	-2115
方法	-2116
▁Do	-2117
▁Sk	-2118
▁wyd	-2119
ufact	-2120
▁będzie	-2121
ateg	-2122
とは	-2123
▁website	-2124
▁War	-2125
aka	-2126
▁fre	-2127
▁Gl	-2128
▁eftir	-2129
において	-2130
▁akt	-2131
iw	-2132
▁pierw	-2133
▁type	-2134
常に	-2135
kc	-2136
▁2018	-2137
▁Kom	-2138
▁wiel	-2139
られた	-2140
ymi	-2141
zn	-2142
▁against	-2143
▁Dec	-2144
arf	-2145
▁ich	-2146
aster	-2147
▁files	-2148
rac	-2149
▁el	-2150
▁był	-2151
▁2016	-2152
ton	-2153
▁meas	-2154
▁wię	-2155
zyć	-2156
▁However	-2157
▁let	-2158
▁countries	-2159
ived	-2160
ted	-2161
だった	-2162
ść	-2163
urity	-2164
waż	-2165
OS	-2166
▁związ	-2167
会社	-2168
シャ	-2169
▁adm	-2170
ense	-2171
ps	-2172
ards	-2173
cl	-2174
▁Im	-2175
ウン	-2176
受け	-2177
カー	-2178
ivid	-2179
▁saf	-2180
ین	-2181
▁What	-2182
▁days	-2183
sport	-2184
▁அவ	-2185
ours	-2186
▁family	-2187
▁estab	-2188
▁plan	-2189
ially	-2190
9.	-2191
zd	-2192
▁country	-2193
▁ya	-2194
ście	-2195
sing	-2196
the	-2197
▁consid	-2198
ita	-2199
自分	-2200
skich	-2201
▁children	-2202
▁km	-2203
.,	-2204
▁conf	-2205
▁somet	-2206
nika	-2207
ner	-2208
ploy	-2209
年の	-2210
▁Nie	-2211
▁2015	-2212
aga	-2213
▁ear	-2214
▁dzie	-2215
▁sever	-2216
rzed	-2217
▁Add	-2218
val	-2219
シー	-2220
czas	-2221
ジャ	-2222
▁care	-2223
▁proper	-2224
ways	-2225
▁happ	-2226
▁ł	-2227
どう	-2228
▁head	-2229
▁sing	-2230
▁example	-2231
ele	-2232
ál	-2233
reen	-2234
osz	-2235
iny	-2236
▁invest	-2237
eniu	-2238
▁しかし	-2239
ilities	-2240
▁Tra	-2241
▁possible	-2242
▁Aust	-2243
の一	-2244
atch	-2245
▁Is	-2246
▁2017	-2247
になる	-2248
org	-2249
にある	-2250
orzyst	-2251
▁mu	-2252
In	-2253
ætt	-2254
▁50	-2255
work	-2256
ற்ற	-2257
lex	-2258
レー	-2259
ிக	-2260
▁though	-2261
▁English	-2262
▁ر	-2263
ruct	-2264
▁indust	-2265
▁dot	-2266
▁ann	-2267
itor	-2268
iver	-2269
▁able	-2270
lut	-2271
öf	-2272
▁cho	-2273
LL	-2274
▁How	-2275
▁sat	-2276
▁held	-2277
▁nam	-2278
ura	-2279
AC	-2280
▁impro	-2281
すべての	-2282
▁map	-2283
▁kont	-2284
ork	-2285
lick	-2286
onych	-2287
ba	-2288
▁meet	-2289
▁wł	-2290
▁May	-2291
formation	-2292
▁got	-2293
▁Ju	-2294
▁computer	-2295
▁large	-2296
▁class	-2297
▁194	-2298
▁human	-2299
▁gry	-2300
RO	-2301
われ	-2302
ability	-2303
ケーション	-2304
bie	-2305
と思	-2306
を使用	-2307
▁organiz	-2308
▁Int	-2309
▁Rep	-2310
考え	-2311
▁asso	-2312
表示	-2313
▁team	-2314
▁2013	-2315
▁top	-2316
▁cr	-2317
▁Br	-2318
▁allow	-2319
abor	-2320
▁obs	-2321
ican	-2322
▁dostęp	-2323
ęzy	-2324
▁wys	-2325
▁upd	-2326
▁read	-2327
▁particular	-2328
シュ	-2329
osh	-2330
設定	-2331
▁Sz	-2332
▁site	-2333
▁opp	-2334
▁Rent	-2335
▁desc	-2336
しく	-2337
▁until	-2338
yle	-2339
utes	-2340
unar	-2341
ands	-2342
god	-2343
▁His	-2344
▁þeir	-2345
▁known	-2346
▁nec	-2347
ók	-2348
obal	-2349
▁quality	-2350
்ச	-2351
▁rz	-2352
▁account	-2353
▁select	-2354
ッド	-2355
irt	-2356
▁skal	-2357
łon	-2358
ニュー	-2359
▁Op	-2360
▁four	-2361
ently	-2362
▁International	-2363
▁next	-2364
▁dep	-2365
urs	-2366
▁zam	-2367
embers	-2368
ee	-2369
▁rest	-2370
▁można	-2371
ini	-2372
フェ	-2373
セン	-2374
▁Ag	-2375
ano	-2376
śl	-2377
uma	-2378
▁related	-2379
▁$	-2380
▁bar	-2381
iast	-2382
▁origin	-2383
▁Ne	-2384
アプリ	-2385
idd	-2386
拡張子	-2387
▁change	-2388
▁hard	-2389
国際	-2390
▁field	-2391
ounc	-2392
ネット	-2393
▁今	-2394
ems	-2395
▁Bar	-2396
eni	-2397
ending	-2398
ti	-2399
ails	-2400
hod	-2401
ger	-2402
▁Í	-2403
▁lud	-2404
スク	-2405
łum	-2406
▁body	-2407
▁x	-2408
pad	-2409
▁Pres	-2410
▁home	-2411
utions	-2412
▁Med	-2413
enn	-2414
kvæ	-2415
24	-2416
▁port	-2417
▁real	-2418
▁znaj	-2419
▁belie	-2420
▁author	-2421
AM	-2422
▁sent	-2423
▁City	-2424
iction	-2425
上の	-2426
ope	-2427
▁Free	-2428
ników	-2429
▁personal	-2430
▁Sw	-2431
▁sum	-2432
▁quest	-2433
▁software	-2434
ęt	-2435
kar	-2436
ில	-2437
▁expl	-2438
▁refer	-2439
国の	-2440
▁cond	-2441
ブル	-2442
anow	-2443
oll	-2444
stw	-2445
▁produkt	-2446
▁experience	-2447
どの	-2448
▁ko	-2449
icro	-2450
kich	-2451
▁ż	-2452
ffic	-2453
ありません	-2454
▁cult	-2455
▁redu	-2456
ランド	-2457
oom	-2458
jon	-2459
▁region	-2460
▁become	-2461
cel	-2462
urther	-2463
)。	-2464
っています	-2465
6.	-2466
ラー	-2467
▁Ty	-2468
▁stop	-2469
▁prac	-2470
▁environment	-2471
var	-2472
py	-2473
▁word	-2474
▁rodz	-2475
▁local	-2476
ror	-2477
あなたの	-2478
eration	-2479
アル	-2480
ster	-2481
▁cost	-2482
▁put	-2483
▁Ś	-2484
▁ask	-2485
AP	-2486
▁Can	-2487
▁App	-2488
80	-2489
▁line	-2490
fect	-2491
ことは	-2492
zego	-2493
▁sal	-2494
メリカ	-2495
できます	-2496
▁mil	-2497
▁later	-2498
US	-2499
▁Aut	-2500
▁Des	-2501
▁various	-2502
者の	-2503
▁et	-2504
▁plac	-2505
ention	-2506
テル	-2507
▁hann	-2508
▁review	-2509
▁TV	-2510
▁Book	-2511
się	-2512
ست	-2513
なが	-2514
ape	-2515
ora	-2516
個人	-2517
▁196	-2518
earch	-2519
さら	-2520
▁friend	-2521
▁research	-2522
czeg	-2523
▁contact	-2524
▁は	-2525
▁+	-2526
ات	-2527
フト	-2528
▁beg	-2529
▁near	-2530
環境	-2531
▁ca	-2532
ification	-2533
地域	-2534
しま	-2535
選択	-2536
における	-2537
9,	-2538
rog	-2539
▁Serv	-2540
▁sł	-2541
ask	-2542
śmy	-2543
▁út	-2544
▁international	-2545
▁*	-2546
▁2012	-2547
▁aff	-2548
▁language	-2549
jekt	-2550
ival	-2551
hib	-2552
▁China	-2553
AL	-2554
íð	-2555
ising	-2556
ytu	-2557
ues	-2558
ches	-2559
▁każ	-2560
ify	-2561
▁こ	-2562
:00	-2563
ała	-2564
▁works	-2565
▁ó	-2566
ively	-2567
▁played	-2568
▁Commission	-2569
クラ	-2570
▁charac	-2571
などの	-2572
ingu	-2573
ベル	-2574
インスト	-2575
▁event	-2576
tal	-2577
▁Minist	-2578
wiad	-2579
▁house	-2580
ittle	-2581
▁offic	-2582
IP	-2583
akt	-2584
活動	-2585
▁lim	-2586
ones	-2587
▁visit	-2588
▁ago	-2589
edn	-2590
▁tour	-2591
企業	-2592
7.	-2593
▁became	-2594
自動	-2595
きた	-2596
▁hefur	-2597
ograph	-2598
▁2008	-2599
▁price	-2600
▁few	-2601
▁Rec	-2602
▁Us	-2603
iy	-2604
vo	-2605
irc	-2606
▁dział	-2607
▁3.	-2608
▁These	-2609
ipp	-2610
▁necess	-2611
▁One	-2612
▁problems	-2613
▁too	-2614
▁natural	-2615
▁return	-2616
▁4.	-2617
▁mach	-2618
▁ru	-2619
▁fund	-2620
ags	-2621
▁call	-2622
めて	-2623
zie	-2624
▁Tran	-2625
wy	-2626
ories	-2627
▁rele	-2628
写真	-2629
bit	-2630
▁mult	-2631
▁2014	-2632
inal	-2633
▁government	-2634
wój	-2635
▁priv	-2636
owym	-2637
▁feel	-2638
▁sig	-2639
▁short	-2640
▁Sec	-2641
▁exist	-2642
▁log	-2643
▁rad	-2644
łumacz	-2645
▁کې	-2646
▁far	-2647
uture	-2648
▁continu	-2649
▁big	-2650
▁pł	-2651
▁working	-2652
vious	-2653
▁compet	-2654
でした	-2655
ena	-2656
グル	-2657
▁Qu	-2658
んな	-2659
▁języ	-2660
west	-2661
ala	-2662
▁róż	-2663
▁Ser	-2664
niki	-2665
SS	-2666
ances	-2667
後に	-2668
ED	-2669
pł	-2670
▁larg	-2671
▁2011	-2672
▁pub	-2673
▁オ	-2674
▁food	-2675
▁wa	-2676
▁give	-2677
▁mor	-2678
rict	-2679
▁)	-2680
いる	-2681
▁located	-2682
stat	-2683
anies	-2684
ene	-2685
▁Up	-2686
▁あ	-2687
▁means	-2688
iększ	-2689
ało	-2690
ョン	-2691
stwo	-2692
▁osob	-2693
▁success	-2694
▁pay	-2695
▁phot	-2696
resent	-2697
wier	-2698
thing	-2699
ای	-2700
ページ	-2701
▁ident	-2702
mar	-2703
ained	-2704
▁device	-2705
▁Nov	-2706
▁several	-2707
3,	-2708
ダー	-2709
fi	-2710
lection	-2711
▁nap	-2712
▁production	-2713
▁ens	-2714
していた	-2715
ml	-2716
▁members	-2717
▁turn	-2718
▁manufact	-2719
osed	-2720
そう	-2721
▁page	-2722
▁always	-2723
人々	-2724
-0	-2725
▁today	-2726
oney	-2727
set	-2728
net	-2729
▁மு	-2730
場合は	-2731
▁kind	-2732
かな	-2733
▁state	-2734
▁July	-2735
imate	-2736
alf	-2737
重要	-2738
ブラ	-2739
▁cel	-2740
▁Ed	-2741
▁Oct	-2742
▁whe	-2743
uka	-2744
▁going	-2745
えて	-2746
からの	-2747
▁»	-2748
▁por	-2749
同じ	-2750
OM	-2751
▁Che	-2752
▁Tok	-2753
▁treat	-2754
ள்ள	-2755
▁host	-2756
▁things	-2757
サービス	-2758
anna	-2759
egar	-2760
わせ	-2761
▁چې	-2762
ha	-2763
▁internet	-2764
oor	-2765
▁conditions	-2766
ET	-2767
irl	-2768
▁Dod	-2769
aki	-2770
▁low	-2771
prow	-2772
gether	-2773
ர்கள்	-2774
▁together	-2775
▁among	-2776
▁National	-2777
▁vol	-2778
▁słow	-2779
インストール	-2780
▁record	-2781
æg	-2782
▁situ	-2783
▁zb	-2784
▁temper	-2785
マー	-2786
▁ス	-2787
かの	-2788
▁Direct	-2789
uki	-2790
EL	-2791
▁music	-2792
comm	-2793
▁—	-2794
35	-2795
▁left	-2796
28	-2797
▁object	-2798
▁side	-2799
管理	-2800
▁really	-2801
▁一	-2802
ره	-2803
▁method	-2804
▁þar	-2805
▁particip	-2806
▁exc	-2807
▁mogą	-2808
▁Program	-2809
▁popular	-2810
vert	-2811
lin	-2812
jal	-2813
▁=	-2814
▁zas	-2815
▁ste	-2816
ących	-2817
ober	-2818
ij	-2819
ろう	-2820
りの	-2821
ights	-2822
▁given	-2823
▁appear	-2824
▁table	-2825
▁tru	-2826
▁tej	-2827
ały	-2828
するために	-2829
iec	-2830
ogle	-2831
▁complet	-2832
▁Pri	-2833
37	-2834
▁less	-2835
とき	-2836
ibility	-2837
1)	-2838
aper	-2839
▁sett	-2840
iti	-2841
▁beh	-2842
pa	-2843
アク	-2844
▁major	-2845
▁Fin	-2846
ley	-2847
amb	-2848
▁history	-2849
used	-2850
▁IN	-2851
でしょう	-2852
▁course	-2853
ookies	-2854
製品	-2855
▁ofer	-2856
▁version	-2857
▁本	-2858
▁bardzo	-2859
▁Mus	-2860
atures	-2861
ிக்க	-2862
ms	-2863
▁yfir	-2864
orts	-2865
worz	-2866
リスト	-2867
ready	-2868
che	-2869
▁これは	-2870
▁1,	-2871
▁wym	-2872
for	-2873
szych	-2874
もし	-2875
▁hig	-2876
chie	-2877
▁spos	-2878
▁dy	-2879
▁Joh	-2880
ujemy	-2881
▁tri	-2882
▁More	-2883
urch	-2884
▁mot	-2885
▁national	-2886
▁energy	-2887
ptember	-2888
put	-2889
▁głów	-2890
self	-2891
▁Ob	-2892
nis	-2893
wię	-2894
▁del	-2895
▁sym	-2896
社会	-2897
rateg	-2898
ancial	-2899
▁often	-2900
▁common	-2901
ource	-2902
த்து	-2903
▁hjá	-2904
▁check	-2905
▁due	-2906
nymi	-2907
▁lit	-2908
ックス	-2909
uck	-2910
▁Bud	-2911
▁health	-2912
▁bad	-2913
ナー	-2914
▁getur	-2915
ured	-2916
ilar	-2917
▁wyk	-2918
6,	-2919
▁building	-2920
▁accom	-2921
まれ	-2922
St	-2923
▁issu	-2924
▁Home	-2925
ðum	-2926
▁Our	-2927
ządz	-2928
jum	-2929
OT	-2930
▁opin	-2931
ouncil	-2932
参加	-2933
場所	-2934
▁bi	-2935
▁między	-2936
▁Cz	-2937
チェ	-2938
átt	-2939
▁third	-2940
▁Pod	-2941
over	-2942
skim	-2943
▁certain	-2944
pro	-2945
ロード	-2946
▁creat	-2947
ネル	-2948
ortun	-2949
▁40	-2950
▁took	-2951
▁function	-2952
▁tool	-2953
▁create	-2954
ront	-2955
olution	-2956
▁Your	-2957
ホテル	-2958
▁hafa	-2959
IM	-2960
▁Gra	-2961
یو	-2962
ians	-2963
▁content	-2964
▁Group	-2965
であった	-2966
▁future	-2967
▁comb	-2968
etta	-2969
wards	-2970
ored	-2971
アプリケーション	-2972
のか	-2973
▁came	-2974
パー	-2975
ements	-2976
ION	-2977
ST	-2978
side	-2979
メント	-2980
間の	-2981
▁live	-2982
▁świ	-2983
90	-2984
▁Mr	-2985
ிரு	-2986
▁zar	-2987
2)	-2988
▁pań	-2989
ential	-2990
▁Member	-2991
エン	-2992
最も	-2993
レン	-2994
▁Stud	-2995
stu	-2996
▁address	-2997
▁Aug	-2998
nir	-2999
raft	-3000
▁automat	-3001
▁October	-3002
▁already	-3003
▁Europej	-3004
lý	-3005
▁profess	-3006
▁away	-3007
▁przet	-3008
▁Acc	-3009
▁love	-3010
ualiz	-3011
27	-3012
前に	-3013
日に	-3014
lt	-3015
ht	-3016
▁Polish	-3017
▁American	-3018
cyj	-3019
room	-3020
▁mas	-3021
▁sér	-3022
を作	-3023
cer	-3024
▁gdy	-3025
▁euro	-3026
▁require	-3027
sce	-3028
▁Dri	-3029
da	-3030
▁young	-3031
▁transport	-3032
▁quick	-3033
▁என்	-3034
export	-3035
ira	-3036
▁doc	-3037
100	-3038
▁Ke	-3039
▁Apr	-3040
▁regist	-3041
▁user	-3042
存在	-3043
▁understand	-3044
▁!	-3045
ってい	-3046
▁night	-3047
cient	-3048
▁better	-3049
▁செ	-3050
aje	-3051
アー	-3052
ód	-3053
▁something	-3054
▁individ	-3055
コンピ	-3056
となる	-3057
▁little	-3058
▁South	-3059
▁associ	-3060
▁195	-3061
▁size	-3062
étt	-3063
▁lo	-3064
ga	-3065
arent	-3066
▁flow	-3067
可能性	-3068
キー	-3069
▁cop	-3070
▁Poland	-3071
▁companies	-3072
まり	-3073
しない	-3074
結果	-3075
▁clear	-3076
時に	-3077
ர்கள	-3078
▁town	-3079
rif	-3080
ダウン	-3081
ots	-3082
▁million	-3083
plement	-3084
▁2009	-3085
▁never	-3086
してください	-3087
▁Per	-3088
gi	-3089
することができます	-3090
▁drug	-3091
▁zab	-3092
kcji	-3093
ார	-3094
コンピュー	-3095
▁technology	-3096
▁Internet	-3097
ift	-3098
けて	-3099
シア	-3100
▁pract	-3101
)、	-3102
▁making	-3103
▁ein	-3104
▁non	-3105
▁might	-3106
joy	-3107
jö	-3108
▁dod	-3109
▁Apart	-3110
▁wr	-3111
起こ	-3112
▁along	-3113
プラ	-3114
▁Dis	-3115
さらに	-3116
らは	-3117
▁Gr	-3118
ests	-3119
そして	-3120
mm	-3121
我々	-3122
kun	-3123
mier	-3124
▁standard	-3125
▁マ	-3126
▁Ital	-3127
ców	-3128
サポート	-3129
▁months	-3130
▁March	-3131
ried	-3132
▁Tur	-3133
▁mun	-3134
chan	-3135
経済	-3136
ids	-3137
▁środ	-3138
▁social	-3139
▁President	-3140
▁Sam	-3141
関係	-3142
vö	-3143
のために	-3144
▁Cor	-3145
▁Not	-3146
ジェクト	-3147
▁fa	-3148
MS	-3149
▁keep	-3150
,"	-3151
ことができる	-3152
▁why	-3153
▁administ	-3154
ides	-3155
▁Kore	-3156
▁Her	-3157
ég	-3158
aniu	-3159
▁jej	-3160
▁press	-3161
▁úr	-3162
wiet	-3163
作品	-3164
を使	-3165
ーン	-3166
を受け	-3167
eter	-3168
▁System	-3169
▁Hol	-3170
ither	-3171
eed	-3172
▁employ	-3173
▁June	-3174
▁Jest	-3175
▁beaut	-3176
▁kole	-3177
وم	-3178
▁polit	-3179
itive	-3180
▁Gener	-3181
▁Pow	-3182
▁Prze	-3183
▁model	-3184
▁dob	-3185
事業	-3186
▁Russ	-3187
lim	-3188
▁apart	-3189
gn	-3190
私たち	-3191
▁built	-3192
▁cover	-3193
▁poz	-3194
▁necessary	-3195
アメリカ	-3196
ball	-3197
▁日本	-3198
▁Jes	-3199
arr	-3200
▁Information	-3201
テン	-3202
▁ap	-3203
ns	-3204
ources	-3205
eniem	-3206
▁September	-3207
23	-3208
▁ډ	-3209
oru	-3210
▁pob	-3211
▁constru	-3212
セス	-3213
▁څ	-3214
ienie	-3215
▁pun	-3216
iles	-3217
rot	-3218
ót	-3219
▁stað	-3220
▁offers	-3221
iled	-3222
▁single	-3223
anuary	-3224
▁April	-3225
▁28	-3226
デバイ	-3227
ima	-3228
▁arch	-3229
▁systems	-3230
▁vir	-3231
ユーザー	-3232
▁lok	-3233
▁Port	-3234
iała	-3235
lete	-3236
▁heart	-3237
▁einn	-3238
ients	-3239
グループ	-3240
▁travel	-3241
オン	-3242
▁dest	-3243
及び	-3244
▁pliku	-3245
itar	-3246
▁wind	-3247
▁Tokyo	-3248
▁above	-3249
▁Isl	-3250
▁value	-3251
jór	-3252
ume	-3253
▁engine	-3254
æt	-3255
wod	-3256
inning	-3257
非常に	-3258
▁bra	-3259
▁West	-3260
▁include	-3261
▁Pe	-3262
łącz	-3263
▁następ	-3264
▁character	-3265
▁mess	-3266
mod	-3267
▁Fir	-3268
▁active	-3269
合わせ	-3270
▁mean	-3271
atory	-3272
ウィ	-3273
oman	-3274
▁further	-3275
になった	-3276
以下	-3277
26	-3278
▁Eng	-3279
▁San	-3280
ッチ	-3281
▁jednak	-3282
東京	-3283
▁ég	-3284
▁hold	-3285
▁Two	-3286
かに	-3287
▁achie	-3288
▁series	-3289
されています	-3290
▁results	-3291
▁Union	-3292
iting	-3293
に入	-3294
wer	-3295
▁sil	-3296
▁performance	-3297
▁security	-3298
erz	-3299
▁August	-3300
ison	-3301
70	-3302
7,	-3303
ながら	-3304
▁King	-3305
▁#	-3306
▁ey	-3307
ல்ல	-3308
▁total	-3309
最初	-3310
dom	-3311
▁students	-3312
▁nale	-3313
▁represent	-3314
bum	-3315
▁please	-3316
▁activities	-3317
▁created	-3318
▁cannot	-3319
▁display	-3320
▁ben	-3321
ライン	-3322
私は	-3323
▁individual	-3324
ocy	-3325
▁January	-3326
ゲーム	-3327
▁ba	-3328
▁kuma	-3329
ーマ	-3330
igital	-3331
▁Ge	-3332
-3	-3333
eta	-3334
▁pain	-3335
めた	-3336
、19	-3337
▁Park	-3338
▁lí	-3339
▁text	-3340
aking	-3341
英語	-3342
yc	-3343
▁nar	-3344
▁dre	-3345
を通	-3346
▁From	-3347
aining	-3348
▁Mod	-3349
▁私は	-3350
▁gru	-3351
▁sound	-3352
▁management	-3353
▁early	-3354
▁past	-3355
though	-3356
▁star	-3357
lient	-3358
▁?	-3359
ければ	-3360
▁い	-3361
kvæm	-3362
▁当	-3363
--	-3364
ione	-3365
▁Net	-3366
face	-3367
▁histor	-3368
iga	-3369
وي	-3370
sel	-3371
▁kraj	-3372
▁Mon	-3373
imum	-3374
▁dam	-3375
cience	-3376
iedy	-3377
▁deli	-3378
影響	-3379
tkow	-3380
ても	-3381
nu	-3382
▁veg	-3383
▁ஒ	-3384
oczą	-3385
▁La	-3386
▁Bel	-3387
コミ	-3388
▁Bu	-3389
ged	-3390
ryw	-3391
ティング	-3392
▁aud	-3393
ங்கள	-3394
▁człon	-3395
▁video	-3396
▁mount	-3397
▁respons	-3398
▁December	-3399
▁went	-3400
mu	-3401
ワーク	-3402
高い	-3403
▁agre	-3404
▁komp	-3405
っと	-3406
▁installed	-3407
えた	-3408
▁space	-3409
▁22	-3410
jú	-3411
anda	-3412
▁Sm	-3413
▁கொ	-3414
ニア	-3415
ief	-3416
ropri	-3417
▁specific	-3418
▁Council	-3419
ின	-3420
▁sun	-3421
airs	-3422
▁provided	-3423
atform	-3424
▁contin	-3425
ites	-3426
▁そして	-3427
5,	-3428
▁2019	-3429
book	-3430
nific	-3431
ப்	-3432
ジュ	-3433
▁That	-3434
▁カ	-3435
ílale	-3436
▁circ	-3437
変更	-3438
▁ج	-3439
▁Dep	-3440
iam	-3441
ący	-3442
▁Now	-3443
▁która	-3444
▁ټ	-3445
ார்	-3446
iż	-3447
アップ	-3448
▁key	-3449
itted	-3450
ache	-3451
を実	-3452
zeń	-3453
▁death	-3454
PS	-3455
▁21	-3456
▁educ	-3457
りました	-3458
▁enc	-3459
AD	-3460
useum	-3461
時代	-3462
▁23	-3463
▁PC	-3464
க்	-3465
ام	-3466
えば	-3467
▁areas	-3468
ipment	-3469
zyw	-3470
▁regard	-3471
▁verið	-3472
▁Austral	-3473
▁struct	-3474
ication	-3475
後の	-3476
lah	-3477
▁tur	-3478
文化	-3479
確認	-3480
▁introdu	-3481
▁Bez	-3482
▁już	-3483
サン	-3484
▁technolog	-3485
21	-3486
▁każd	-3487
ops	-3488
ród	-3489
8.	-3490
ونه	-3491
ox	-3492
▁przykład	-3493
▁Jak	-3494
組み	-3495
▁wi	-3496
▁pan	-3497
rab	-3498
▁download	-3499
-5	-3500
▁reason	-3501
引き	-3502
ywat	-3503
ドライ	-3504
▁park	-3505
4,	-3506
▁rozp	-3507
▁alm	-3508
目的	-3509
▁color	-3510
▁projekt	-3511
客様	-3512
rar	-3513
▁women	-3514
付け	-3515
zej	-3516
▁ge	-3517
レス	-3518
▁Ap	-3519
▁mg	-3520
isz	-3521
▁super	-3522
▁taken	-3523
▁money	-3524
asing	-3525
▁range	-3526
▁pracy	-3527
ciu	-3528
va	-3529
▁required	-3530
▁tell	-3531
▁study	-3532
ociety	-3533
oud	-3534
▁innych	-3535
▁sure	-3536
rem	-3537
アン	-3538
amm	-3539
関連	-3540
▁enjoy	-3541
lýsing	-3542
を開	-3543
rad	-3544
ką	-3545
されて	-3546
▁znajdu	-3547
ową	-3548
▁Act	-3549
▁global	-3550
obile	-3551
kim	-3552
▁deb	-3553
▁implement	-3554
▁rozw	-3555
inter	-3556
メン	-3557
▁started	-3558
▁invol	-3559
上げ	-3560
ころ	-3561
owana	-3562
ðir	-3563
日の	-3564
▁High	-3565
シン	-3566
▁ف	-3567
kom	-3568
▁red	-3569
ening	-3570
キュ	-3571
▁Feb	-3572
▁general	-3573
オー	-3574
▁Count	-3575
یا	-3576
اره	-3577
anced	-3578
▁5.	-3579
▁November	-3580
ption	-3581
oon	-3582
▁integ	-3583
タン	-3584
ription	-3585
▁others	-3586
▁financial	-3587
アイ	-3588
ube	-3589
▁と	-3590
obie	-3591
▁School	-3592
aps	-3593
を提供	-3594
hern	-3595
▁woj	-3596
▁sy	-3597
▁State	-3598
▁week	-3599
oty	-3600
▁mm	-3601
▁hours	-3602
medi	-3603
dział	-3604
数の	-3605
ization	-3606
▁あなた	-3607
▁ist	-3608
追加	-3609
フラン	-3610
▁tych	-3611
▁Tak	-3612
インター	-3613
▁な	-3614
▁É	-3615
▁pa	-3616
ule	-3617
ospod	-3618
▁economic	-3619
を含	-3620
▁strateg	-3621
▁prices	-3622
idence	-3623
▁position	-3624
ude	-3625
lication	-3626
kań	-3627
させる	-3628
ジア	-3629
▁podstaw	-3630
▁details	-3631
szym	-3632
▁Tr	-3633
read	-3634
▁industry	-3635
コンピュータ	-3636
22	-3637
▁strong	-3638
rench	-3639
▁Google	-3640
バル	-3641
▁private	-3642
aring	-3643
▁Techn	-3644
▁neg	-3645
▁Sol	-3646
▁ski	-3647
▁któr	-3648
▁polity	-3649
atal	-3650
映画	-3651
▁appropri	-3652
nienia	-3653
ację	-3654
専門	-3655
DF	-3656
acks	-3657
▁Chin	-3658
nij	-3659
▁policy	-3660
▁camp	-3661
▁accept	-3662
▁pack	-3663
▁Prof	-3664
▁etc	-3665
▁collect	-3666
▁kol	-3667
mail	-3668
▁having	-3669
▁więcej	-3670
▁odpowied	-3671
ler	-3672
ened	-3673
nię	-3674
デザ	-3675
▁Online	-3676
UR	-3677
▁North	-3678
▁大	-3679
ference	-3680
▁Ant	-3681
kę	-3682
czeń	-3683
▁amount	-3684
inci	-3685
▁60	-3686
ugg	-3687
▁below	-3688
irit	-3689
▁send	-3690
ங்கள்	-3691
ika	-3692
▁increase	-3693
人が	-3694
▁anim	-3695
aff	-3696
▁mind	-3697
ched	-3698
リティ	-3699
ably	-3700
▁dni	-3701
タル	-3702
TM	-3703
▁otrzym	-3704
oid	-3705
▁walk	-3706
iful	-3707
▁sie	-3708
▁wszystkie	-3709
▁changes	-3710
▁vill	-3711
▁razy	-3712
html	-3713
▁を	-3714
▁translated	-3715
▁ang	-3716
ney	-3717
ects	-3718
▁son	-3719
ான்	-3720
▁Sum	-3721
oby	-3722
▁ful	-3723
ims	-3724
▁Center	-3725
▁Wi	-3726
▁Jesus	-3727
大きな	-3728
itute	-3729
ベント	-3730
oda	-3731
▁age	-3732
▁subject	-3733
▁plant	-3734
▁też	-3735
rob	-3736
▁przec	-3737
UN	-3738
▁Sat	-3739
inie	-3740
▁współ	-3741
ruary	-3742
▁sjá	-3743
▁express	-3744
ping	-3745
▁Dz	-3746
▁click	-3747
いの	-3748
と言	-3749
があり	-3750
力を	-3751
▁began	-3752
change	-3753
▁rights	-3754
▁najlep	-3755
▁ever	-3756
▁wysok	-3757
とする	-3758
Ch	-3759
lean	-3760
ிவ	-3761
▁once	-3762
▁0.	-3763
ficult	-3764
▁sposób	-3765
▁Afric	-3766
▁recomm	-3767
asa	-3768
▁hlut	-3769
ledge	-3770
▁rent	-3771
öð	-3772
sue	-3773
個人情報	-3774
owanych	-3775
▁five	-3776
▁dotycz	-3777
áð	-3778
رو	-3779
jaw	-3780
▁step	-3781
▁wszystkich	-3782
▁swoje	-3783
ective	-3784
wit	-3785
▁Earth	-3786
▁þá	-3787
ファイル拡張子	-3788
▁UE	-3789
▁Commun	-3790
▁Met	-3791
och	-3792
km	-3793
▁search	-3794
▁pict	-3795
ące	-3796
なければ	-3797
性の	-3798
▁const	-3799
itary	-3800
zych	-3801
▁East	-3802
▁Fil	-3803
▁Lib	-3804
fort	-3805
▁relations	-3806
▁link	-3807
接続	-3808
▁Á	-3809
▁hug	-3810
istics	-3811
iczne	-3812
プロジェクト	-3813
ises	-3814
▁talk	-3815
▁101	-3816
を持つ	-3817
ownload	-3818
▁zł	-3819
▁John	-3820
zym	-3821
っていた	-3822
楽し	-3823
イベント	-3824
▁difficult	-3825
ダイ	-3826
施設	-3827
▁cell	-3828
▁recog	-3829
▁job	-3830
▁Lond	-3831
ease	-3832
cią	-3833
jón	-3834
▁learn	-3835
▁szczeg	-3836
クロ	-3837
▁norm	-3838
▁dou	-3839
▁indic	-3840
▁Komis	-3841
▁Það	-3842
▁何	-3843
▁Ég	-3844
▁stos	-3845
icles	-3846
ダウンロード	-3847
ことに	-3848
に対する	-3849
▁February	-3850
nes	-3851
45	-3852
ではない	-3853
czenie	-3854
ysis	-3855
ken	-3856
staur	-3857
▁Pal	-3858
bol	-3859
▁least	-3860
ウェア	-3861
最大	-3862
rect	-3863
れて	-3864
ッシュ	-3865
liż	-3866
▁Live	-3867
▁związanych	-3868
aci	-3869
▁regul	-3870
▁whole	-3871
▁America	-3872
▁gram	-3873
chron	-3874
):	-3875
▁established	-3876
▁Manag	-3877
▁stanow	-3878
ditional	-3879
▁diction	-3880
説明	-3881
ソフト	-3882
▁prow	-3883
▁tro	-3884
▁El	-3885
▁PL	-3886
ój	-3887
▁format	-3888
jest	-3889
▁pie	-3890
▁パ	-3891
▁części	-3892
▁verð	-3893
▁restaur	-3894
▁foc	-3895
ospodar	-3896
Th	-3897
▁ز	-3898
自身	-3899
▁date	-3900
▁Are	-3901
ills	-3902
▁minutes	-3903
▁close	-3904
▁mom	-3905
▁Sal	-3906
یک	-3907
▁received	-3908
中国	-3909
▁similar	-3910
▁zach	-3911
▁eins	-3912
▁bur	-3913
▁du	-3914
▁cut	-3915
szerz	-3916
ந்து	-3917
▁according	-3918
▁hon	-3919
者は	-3920
▁fall	-3921
▁sect	-3922
▁appropriate	-3923
▁German	-3924
▁News	-3925
▁station	-3926
▁needs	-3927
▁firm	-3928
▁Naj	-3929
▁zag	-3930
ziom	-3931
▁hv	-3932
▁easy	-3933
▁album	-3934
▁network	-3935
▁26	-3936
▁included	-3937
4-	-3938
▁tw	-3939
▁mik	-3940
star	-3941
twó	-3942
nicz	-3943
rid	-3944
バージ	-3945
市場	-3946
▁developed	-3947
ると	-3948
▁solution	-3949
arant	-3950
ýr	-3951
selves	-3952
wać	-3953
jęcia	-3954
▁cur	-3955
▁Lord	-3956
▁wykon	-3957
▁entire	-3958
▁benef	-3959
▁miesz	-3960
HE	-3961
▁Bus	-3962
asino	-3963
▁Log	-3964
▁users	-3965
となった	-3966
リング	-3967
▁connect	-3968
ila	-3969
とした	-3970
政府	-3971
▁won	-3972
fl	-3973
イス	-3974
apt	-3975
▁Inter	-3976
▁jo	-3977
ニー	-3978
▁subst	-3979
inc	-3980
▁signific	-3981
▁quickly	-3982
▁2007	-3983
łoż	-3984
▁rob	-3985
▁updates	-3986
▁vera	-3987
▁Service	-3988
▁House	-3989
▁Spec	-3990
▁potrze	-3991
ming	-3992
▁center	-3993
Fi	-3994
▁consum	-3995
▁zapew	-3996
▁aktualiz	-3997
たい	-3998
கள	-3999
unum	-4000
agi	-4001
に対して	-4002
▁Loc	-4003
計画	-4004
▁Brit	-4005
ners	-4006
▁largest	-4007
▁abs	-4008
のみ	-4009
部分	-4010
▁இரு	-4011
▁Ac	-4012
▁contrib	-4013
ieka	-4014
kiego	-4015
gress	-4016
ونو	-4017
ided	-4018
gre	-4019
コー	-4020
▁however	-4021
安全	-4022
.)	-4023
地球	-4024
sa	-4025
él	-4026
▁mechan	-4027
▁Sn	-4028
▁Mac	-4029
▁mie	-4030
必要があります	-4031
bior	-4032
▁describ	-4033
▁share	-4034
▁opportun	-4035
ead	-4036
imy	-4037
atr	-4038
にと	-4039
ルト	-4040
▁discuss	-4041
▁features	-4042
uzz	-4043
▁ensure	-4044
▁official	-4045
▁sé	-4046
▁podczas	-4047
▁Val	-4048
ators	-4049
hem	-4050
▁Cam	-4051
▁193	-4052
▁training	-4053
▁done	-4054
▁27	-4055
ceed	-4056
zna	-4057
pre	-4058
▁Off	-4059
ிட	-4060
▁equipment	-4061
ookie	-4062
▁lin	-4063
▁member	-4064
estival	-4065
▁condition	-4066
cast	-4067
紹介	-4068
▁stay	-4069
▁conduct	-4070
▁naw	-4071
実際	-4072
▁celu	-4073
▁phys	-4074
▁tit	-4075
inum	-4076
次の	-4077
App	-4078
じて	-4079
▁customers	-4080
▁road	-4081
くつ	-4082
詳細	-4083
▁bring	-4084
48	-4085
保護	-4086
▁ger	-4087
▁áh	-4088
のための	-4089
ferð	-4090
センター	-4091
デル	-4092
▁Sl	-4093
▁programs	-4094
学校	-4095
ட்டு	-4096
▁ir	-4097
マン	-4098
▁Mark	-4099
oń	-4100
cu	-4101
▁lik	-4102
▁previous	-4103
ecially	-4104
▁element	-4105
ząd	-4106
▁szy	-4107
ech	-4108
▁hú	-4109
rael	-4110
ファイルの	-4111
eth	-4112
29	-4113
▁rate	-4114
▁makes	-4115
ips	-4116
▁エ	-4117
லை	-4118
▁mer	-4119
▁Stre	-4120
▁seen	-4121
bú	-4122
科学	-4123
▁Mal	-4124
▁events	-4125
epend	-4126
良い	-4127
▁Mach	-4128
▁Product	-4129
▁2000	-4130
もう	-4131
▁mass	-4132
▁Ta	-4133
に行	-4134
定の	-4135
OL	-4136
▁た	-4137
po	-4138
ウェブ	-4139
状態	-4140
oph	-4141
▁upon	-4142
padku	-4143
▁znacz	-4144
▁General	-4145
▁parts	-4146
▁þegar	-4147
Ph	-4148
▁Other	-4149
▁Przy	-4150
▁role	-4151
ros	-4152
▁Ev	-4153
▁będ	-4154
▁Dr	-4155
▁má	-4156
ாத	-4157
▁effic	-4158
チーム	-4159
▁sens	-4160
ログ	-4161
▁dow	-4162
▁geg	-4163
▁raz	-4164
▁Gre	-4165
dź	-4166
▁wykorzyst	-4167
come	-4168
▁niż	-4169
kup	-4170
▁było	-4171
adzi	-4172
▁streng	-4173
間に	-4174
▁season	-4175
解決	-4176
スペ	-4177
▁Germany	-4178
▁French	-4179
uel	-4180
EM	-4181
▁believe	-4182
▁original	-4183
verage	-4184
▁tí	-4185
▁rozszerz	-4186
وا	-4187
▁foot	-4188
▁bed	-4189
▁File	-4190
▁proced	-4191
▁peł	-4192
▁veh	-4193
▁targ	-4194
▁USA	-4195
▁Cal	-4196
wan	-4197
wers	-4198
arden	-4199
▁Pan	-4200
ota	-4201
istic	-4202
▁Hel	-4203
unk	-4204
▁propos	-4205
ux	-4206
TR	-4207
gł	-4208
▁Allah	-4209
▁Data	-4210
ولو	-4211
▁kan	-4212
▁During	-4213
▁century	-4214
yz	-4215
位置	-4216
意味	-4217
ケット	-4218
rated	-4219
生産	-4220
ria	-4221
▁bł	-4222
min	-4223
▁Please	-4224
▁kró	-4225
ري	-4226
▁cm	-4227
▁black	-4228
kra	-4229
▁separ	-4230
▁Ef	-4231
attle	-4232
▁heav	-4233
▁sí	-4234
▁allows	-4235
▁Out	-4236
▁living	-4237
ுக்கு	-4238
ポー	-4239
kl	-4240
ser	-4241
zent	-4242
operation	-4243
教育	-4244
▁Download	-4245
▁father	-4246
▁Article	-4247
▁via	-4248
▁front	-4249
asy	-4250
▁determ	-4251
stal	-4252
開催	-4253
▁France	-4254
▁thought	-4255
▁issues	-4256
▁należy	-4257
leið	-4258
▁prevent	-4259
AG	-4260
▁treatment	-4261
者が	-4262
yczne	-4263
▁request	-4264
itte	-4265
▁words	-4266
▁pię	-4267
▁growth	-4268
▁earth	-4269
▁கு	-4270
8,	-4271
▁machine	-4272
一般	-4273
になります	-4274
▁plik	-4275
▁Some	-4276
▁web	-4277
▁points	-4278
▁situation	-4279
▁Of	-4280
ことも	-4281
お客様	-4282
▁released	-4283
▁gdzie	-4284
▁Host	-4285
▁six	-4286
prowadz	-4287
ister	-4288
▁looking	-4289
発表	-4290
▁reserv	-4291
▁protection	-4292
ono	-4293
got	-4294
をも	-4295
▁(19	-4296
xhtml	-4297
▁provides	-4298
ray	-4299
▁coll	-4300
▁ته	-4301
▁wła	-4302
▁taking	-4303
▁occur	-4304
われる	-4305
▁przetłumacz	-4306
ச்ச	-4307
▁whether	-4308
デザイン	-4309
▁غ	-4310
amples	-4311
▁Mor	-4312
▁added	-4313
lit	-4314
られている	-4315
彼女	-4316
▁half	-4317
czenia	-4318
roid	-4319
uzu	-4320
様々	-4321
▁włas	-4322
▁2,	-4323
▁wiele	-4324
▁image	-4325
▁question	-4326
▁Red	-4327
機関	-4328
▁Av	-4329
▁speed	-4330
istan	-4331
anks	-4332
ند	-4333
▁risk	-4334
▁laun	-4335
▁Tem	-4336
▁repl	-4337
▁mies	-4338
▁AS	-4339
▁girl	-4340
chni	-4341
▁esp	-4342
▁Added	-4343
都市	-4344
eral	-4345
▁செய	-4346
ih	-4347
▁Ma	-4348
▁either	-4349
▁exhib	-4350
▁zast	-4351
▁第	-4352
▁customer	-4353
▁”	-4354
▁beautiful	-4355
支援	-4356
▁ostat	-4357
▁społ	-4358
cing	-4359
▁yet	-4360
まだ	-4361
▁fá	-4362
ees	-4363
ędz	-4364
以上	-4365
▁lic	-4366
uwa	-4367
コード	-4368
を行う	-4369
aste	-4370
▁cele	-4371
itten	-4372
▁continue	-4373
▁therefore	-4374
icznych	-4375
▁driver	-4376
▁temat	-4377
▁przedstaw	-4378
分野	-4379
▁Inc	-4380
eny	-4381
ground	-4382
▁Pa	-4383
ナル	-4384
▁osób	-4385
▁crit	-4386
▁سره	-4387
ほど	-4388
調査	-4389
▁którzy	-4390
ategory	-4391
▁concern	-4392
II	-4393
▁spot	-4394
UT	-4395
▁materials	-4396
▁świat	-4397
ding	-4398
cover	-4399
▁across	-4400
aya	-4401
▁ka	-4402
▁significant	-4403
alu	-4404
▁Mag	-4405
▁modern	-4406
▁uw	-4407
歴史	-4408
▁کړ	-4409
یر	-4410
▁Stript	-4411
ビジ	-4412
mit	-4413
ではなく	-4414
owi	-4415
istance	-4416
▁deg	-4417
性を	-4418
lat	-4419
IL	-4420
▁white	-4421
▁issue	-4422
CO	-4423
▁ground	-4424
▁Supp	-4425
メール	-4426
▁brow	-4427
▁buy	-4428
▁Ky	-4429
lf	-4430
gar	-4431
▁skil	-4432
rew	-4433
slu	-4434
rary	-4435
▁contract	-4436
▁Phot	-4437
▁relig	-4438
ிப்ப	-4439
ached	-4440
▁Minister	-4441
ils	-4442
▁Vol	-4443
3)	-4444
可能な	-4445
それは	-4446
▁grał	-4447
▁thing	-4448
▁Við	-4449
トラ	-4450
just	-4451
▁2006	-4452
IV	-4453
rzec	-4454
▁easily	-4455
ped	-4456
▁obec	-4457
▁actually	-4458
クリック	-4459
状況	-4460
▁designed	-4461
▁items	-4462
▁Since	-4463
ula	-4464
▁cause	-4465
hers	-4466
▁transfer	-4467
ługi	-4468
▁kiedy	-4469
▁platform	-4470
したい	-4471
twórz	-4472
▁central	-4473
▁rozwiąz	-4474
▁leng	-4475
ające	-4476
▁ram	-4477
▁przyj	-4478
▁clos	-4479
پاره	-4480
▁wol	-4481
▁safety	-4482
観光	-4483
aður	-4484
▁media	-4485
▁aktualizacji	-4486
▁fix	-4487
▁Micro	-4488
ビデ	-4489
▁operation	-4490
感じ	-4491
▁currently	-4492
ாவ	-4493
pose	-4494
▁gen	-4495
▁Priv	-4496
特に	-4497
świad	-4498
ingar	-4499
▁Ber	-4500
▁enter	-4501
iol	-4502
aczy	-4503
▁Wien	-4504
▁ak	-4505
▁einnig	-4506
じゃ	-4507
ett	-4508
▁ans	-4509
aving	-4510
iest	-4511
▁office	-4512
igur	-4513
wierdz	-4514
▁error	-4515
resie	-4516
ancing	-4517
▁最	-4518
32	-4519
▁arri	-4520
illa	-4521
▁lif	-4522
nun	-4523
ால்	-4524
▁80	-4525
ujące	-4526
▁political	-4527
uzzle	-4528
▁realiz	-4529
▁mi	-4530
ATION	-4531
▁cla	-4532
▁bit	-4533
けた	-4534
▁feature	-4535
▁adop	-4536
nam	-4537
95	-4538
きます	-4539
▁sex	-4540
liament	-4541
icie	-4542
▁fire	-4543
hold	-4544
zerw	-4545
▁draw	-4546
jar	-4547
aniem	-4548
▁hol	-4549
peł	-4550
ograf	-4551
▁promot	-4552
▁Company	-4553
▁operating	-4554
▁London	-4555
▁terms	-4556
▁numer	-4557
omes	-4558
▁لپاره	-4559
▁Min	-4560
▁Then	-4561
▁それは	-4562
vision	-4563
株式	-4564
▁rat	-4565
inary	-4566
▁immedi	-4567
PC	-4568
マイ	-4569
▁break	-4570
バージョン	-4571
olic	-4572
▁kolej	-4573
取得	-4574
▁pyt	-4575
、201	-4576
▁niez	-4577
発生	-4578
śnie	-4579
▁bath	-4580
については	-4581
内の	-4582
▁deal	-4583
ida	-4584
▁zawier	-4585
▁enable	-4586
▁wart	-4587
▁została	-4588
æð	-4589
なり	-4590
Sh	-4591
▁strony	-4592
znacz	-4593
▁Kon	-4594
処理	-4595
▁tax	-4596
bl	-4597
igation	-4598
▁Super	-4599
den	-4600
▁Room	-4601
▁insp	-4602
▁Intel	-4603
▁fav	-4604
▁Driver	-4605
▁Chinese	-4606
▁rzec	-4607
▁€	-4608
▁Pop	-4609
かり	-4610
簡単	-4611
▁itself	-4612
▁cases	-4613
▁India	-4614
学生	-4615
iro	-4616
▁card	-4617
ires	-4618
事を	-4619
atic	-4620
ęż	-4621
▁yi	-4622
júk	-4623
▁þeim	-4624
oż	-4625
shot	-4626
▁directly	-4627
▁hor	-4628
iasta	-4629
きました	-4630
▁Develop	-4631
▁reviews	-4632
rial	-4633
▁<	-4634
▁York	-4635
▁choose	-4636
ビュー	-4637
▁kw	-4638
と呼	-4639
▁especially	-4640
▁instit	-4641
▁writ	-4642
▁establish	-4643
ディア	-4644
udni	-4645
音楽	-4646
alcars	-4647
”.	-4648
uted	-4649
த்	-4650
▁dzieci	-4651
▁seg	-4652
ともに	-4653
▁purch	-4654
ological	-4655
▁About	-4656
fon	-4657
▁grami	-4658
▁þér	-4659
▁Sa	-4660
▁community	-4661
のある	-4662
ctions	-4663
اسو	-4664
カル	-4665
▁Bank	-4666
szego	-4667
EB	-4668
▁bir	-4669
▁shop	-4670
たちは	-4671
▁il	-4672
▁Kra	-4673
▁skład	-4674
ero	-4675
フリー	-4676
▁professional	-4677
ięki	-4678
▁Nor	-4679
▁நா	-4680
▁DLL	-4681
▁sold	-4682
人は	-4683
bers	-4684
わり	-4685
iego	-4686
lem	-4687
owo	-4688
▁Dodane	-4689
▁First	-4690
69	-4691
▁construction	-4692
▁types	-4693
▁gospodar	-4694
▁ګ	-4695
▁Odtwórz	-4696
▁Rentalcars	-4697
ban	-4698
eszcze	-4699
▁accommod	-4700
65	-4701
▁action	-4702
▁Elect	-4703
▁applications	-4704
żej	-4705
lement	-4706
▁Stron	-4707
▁published	-4708
▁Har	-4709
▁EN	-4710
bor	-4711
aries	-4712
alls	-4713
されてい	-4714
生活	-4715
▁Asia	-4716
▁miss	-4717
▁song	-4718
więks	-4719
▁Asso	-4720
▁gas	-4721
ste	-4722
変換	-4723
▁mis	-4724
▁mów	-4725
▁uses	-4726
ls	-4727
▁luzu	-4728
prac	-4729
▁1010	-4730
-1	-4731
ök	-4732
▁true	-4733
▁miejsca	-4734
▁lab	-4735
▁{	-4736
ビデオ	-4737
▁email	-4738
全体	-4739
▁mann	-4740
▁Here	-4741
▁cou	-4742
gląd	-4743
▁Top	-4744
▁punkt	-4745
▁Republic	-4746
よく	-4747
▁centrum	-4748
▁document	-4749
▁band	-4750
▁zob	-4751
月に	-4752
ores	-4753
▁posiad	-4754
設計	-4755
ールド	-4756
▁Sun	-4757
▁sea	-4758
▁zain	-4759
IF	-4760
time	-4761
▁measures	-4762
これらの	-4763
▁export	-4764
▁almost	-4765
ounter	-4766
スは	-4767
▁コ	-4768
TP	-4769
とん	-4770
▁max	-4771
back	-4772
75	-4773
்வ	-4774
だけで	-4775
ittee	-4776
販売	-4777
▁licz	-4778
▁attract	-4779
▁Just	-4780
▁considered	-4781
社の	-4782
▁simple	-4783
▁--	-4784
うち	-4785
▁デ	-4786
iąg	-4787
インド	-4788
aces	-4789
▁29	-4790
▁party	-4791
▁mem	-4792
jedn	-4793
IA	-4794
aby	-4795
▁dw	-4796
▁examples	-4797
new	-4798
▁complete	-4799
▁existing	-4800
abil	-4801
されました	-4802
iony	-4803
ヴィ	-4804
alne	-4805
ドル	-4806
▁Test	-4807
重要な	-4808
▁location	-4809
▁zmian	-4810
erson	-4811
中の	-4812
こで	-4813
kol	-4814
ベース	-4815
彼の	-4816
nað	-4817
zech	-4818
評価	-4819
▁compon	-4820
▁‘	-4821
lands	-4822
▁dia	-4823
▁IS	-4824
▁knowledge	-4825
▁ný	-4826
▁Post	-4827
▁Ste	-4828
▁Og	-4829
さま	-4830
▁AN	-4831
bon	-4832
▁90	-4833
narod	-4834
▁fast	-4835
eks	-4836
▁opened	-4837
ンは	-4838
▁Best	-4839
▁bezpie	-4840
▁była	-4841
▁kam	-4842
▁former	-4843
▁Sch	-4844
ですが	-4845
▁ع	-4846
elling	-4847
▁centre	-4848
することを	-4849
イツ	-4850
▁List	-4851
önd	-4852
▁face	-4853
▁Char	-4854
▁Ext	-4855
▁zad	-4856
▁poziom	-4857
▁section	-4858
▁rę	-4859
▁Australia	-4860
▁distrib	-4861
変化	-4862
yg	-4863
ギー	-4864
▁includes	-4865
▁command	-4866
æki	-4867
nal	-4868
▁których	-4869
▁ځ	-4870
ams	-4871
anir	-4872
pej	-4873
▁comes	-4874
▁box	-4875
▁cookies	-4876
isions	-4877
ことで	-4878
自分の	-4879
ąp	-4880
ples	-4881
▁bílale	-4882
参照	-4883
完全	-4884
▁dług	-4885
iddle	-4886
▁fish	-4887
▁poś	-4888
AK	-4889
▁doing	-4890
▁lay	-4891
nos	-4892
▁lib	-4893
▁rooms	-4894
erc	-4895
ほとん	-4896
旅行	-4897
▁unique	-4898
iður	-4899
いは	-4900
ivil	-4901
sto	-4902
▁respect	-4903
usa	-4904
▁tal	-4905
スター	-4906
ivity	-4907
▁வி	-4908
ギリ	-4909
▁Ł	-4910
▁education	-4911
மை	-4912
RE	-4913
▁weight	-4914
liwości	-4915
▁obtain	-4916
出来	-4917
▁oil	-4918
様々な	-4919
レイ	-4920
rów	-4921
omin	-4922
すべて	-4923
atives	-4924
▁higher	-4925
fully	-4926
▁svo	-4927
▁Arch	-4928
▁Institute	-4929
itch	-4930
を与	-4931
sequ	-4932
部の	-4933
ham	-4934
ón	-4935
▁facilities	-4936
action	-4937
キャン	-4938
われた	-4939
▁news	-4940
▁UN	-4941
mie	-4942
▁Cour	-4943
自然	-4944
ellite	-4945
▁speak	-4946
ori	-4947
▁czasie	-4948
▁2005	-4949
▁temperature	-4950
それを	-4951
itation	-4952
imi	-4953
وی	-4954
▁meeting	-4955
▁simp	-4956
▁nich	-4957
前の	-4958
▁outside	-4959
▁instrum	-4960
:0	-4961
oo	-4962
roll	-4963
rið	-4964
▁szyb	-4965
anish	-4966
tery	-4967
▁nag	-4968
óź	-4969
ey	-4970
raż	-4971
asm	-4972
▁ponad	-4973
▁skul	-4974
ysł	-4975
ties	-4976
▁Black	-4977
wide	-4978
▁Mu	-4979
▁tut	-4980
▁miejsce	-4981
▁Museum	-4982
usion	-4983
▁source	-4984
別の	-4985
met	-4986
szt	-4987
▁code	-4988
-4	-4989
指定	-4990
委員	-4991
▁Rob	-4992
レク	-4993
▁sý	-4994
jąc	-4995
czne	-4996
ios	-4997
aged	-4998
▁screen	-4999
▁bill	-5000
▁イ	-5001
▁needed	-5002
▁kier	-5003
▁wel	-5004
▁Snap	-5005
効果	-5006
ający	-5007
▁Central	-5008
erem	-5009
key	-5010
board	-5011
siębior	-5012
▁Stock	-5013
anta	-5014
▁ح	-5015
uses	-5016
▁Rad	-5017
ieważ	-5018
シェ	-5019
▁fer	-5020
▁mother	-5021
▁þeirra	-5022
▁foreign	-5023
▁kar	-5024
idge	-5025
▁projects	-5026
▁Jew	-5027
ato	-5028
zu	-5029
sza	-5030
CH	-5031
のが	-5032
をお	-5033
▁Business	-5034
uth	-5035
▁ill	-5036
▁Ak	-5037
を得	-5038
▁odpowiedz	-5039
▁soon	-5040
しており	-5041
▁>	-5042
ண்டு	-5043
▁enough	-5044
ental	-5045
▁Mad	-5046
▁chc	-5047
atu	-5048
▁guarant	-5049
▁pozost	-5050
▁final	-5051
empt	-5052
óð	-5053
に向	-5054
▁IP	-5055
目の	-5056
▁ant	-5057
にとって	-5058
▁temu	-5059
▁Jeśli	-5060
mark	-5061
▁lip	-5062
500	-5063
▁70	-5064
▁paper	-5065
▁mut	-5066
▁chem	-5067
はず	-5068
▁cam	-5069
こう	-5070
▁دا	-5071
டைய	-5072
ところ	-5073
▁sprzed	-5074
▁miał	-5075
知ら	-5076
ッセ	-5077
▁shown	-5078
ாய	-5079
aily	-5080
▁devices	-5081
▁chall	-5082
▁zal	-5083
▁receive	-5084
画像	-5085
▁pew	-5086
▁message	-5087
▁Contact	-5088
おります	-5089
いくつ	-5090
バック	-5091
トル	-5092
▁obie	-5093
▁ry	-5094
構成	-5095
▁patients	-5096
すぐ	-5097
AB	-5098
ump	-5099
▁shows	-5100
▁ハ	-5101
▁loss	-5102
unki	-5103
▁ƙ	-5104
kiej	-5105
内容	-5106
成長	-5107
▁eks	-5108
64	-5109
oku	-5110
▁powod	-5111
99	-5112
▁clean	-5113
owie	-5114
OD	-5115
▁additional	-5116
▁கூ	-5117
▁wielu	-5118
AV	-5119
▁longer	-5120
▁prior	-5121
▁Cop	-5122
▁everything	-5123
▁technical	-5124
oyal	-5125
▁له	-5126
cja	-5127
żeli	-5128
.1	-5129
いました	-5130
ビー	-5131
が必要	-5132
▁Open	-5133
▁improve	-5134
chen	-5135
▁sn	-5136
▁manufactur	-5137
プライ	-5138
▁experien	-5139
▁questions	-5140
▁pozw	-5141
ピー	-5142
▁nature	-5143
legt	-5144
▁jeszcze	-5145
女性	-5146
▁perfect	-5147
encji	-5148
▁friends	-5149
▁regular	-5150
اب	-5151
ille	-5152
のような	-5153
inna	-5154
▁Pok	-5155
▁mig	-5156
▁mają	-5157
لو	-5158
▁wal	-5159
afi	-5160
aru	-5161
▁okkur	-5162
ぞれ	-5163
ensive	-5164
モデル	-5165
理由	-5166
isation	-5167
róż	-5168
子供	-5169
▁requirements	-5170
▁ga	-5171
▁multip	-5172
かつ	-5173
▁style	-5174
▁Day	-5175
▁darm	-5176
▁mal	-5177
łości	-5178
▁lost	-5179
lier	-5180
▁effects	-5181
▁prywat	-5182
▁move	-5183
rator	-5184
gra	-5185
▁spirit	-5186
AX	-5187
soft	-5188
rel	-5189
▁nazw	-5190
▁creating	-5191
▁państw	-5192
▁frequ	-5193
▁ryn	-5194
road	-5195
▁blood	-5196
▁written	-5197
▁died	-5198
▁capac	-5199
▁upplýsing	-5200
▁moment	-5201
verse	-5202
INE	-5203
▁monitor	-5204
▁znajduje	-5205
予約	-5206
▁danych	-5207
▁Produ	-5208
itude	-5209
移動	-5210
▁najwięks	-5211
▁メ	-5212
理解	-5213
▁says	-5214
我々は	-5215
TS	-5216
▁prim	-5217
igure	-5218
▁influ	-5219
私の	-5220
▁basis	-5221
ネットワーク	-5222
▁2003	-5223
▁500	-5224
aint	-5225
対象	-5226
▁self	-5227
▁Er	-5228
▁_	-5229
▁%	-5230
▁godz	-5231
▁population	-5232
▁pró	-5233
▁prep	-5234
astic	-5235
posaż	-5236
▁Mat	-5237
IR	-5238
▁Fore	-5239
وړ	-5240
▁ná	-5241
aves	-5242
wia	-5243
▁vegna	-5244
▁Ang	-5245
▁potrzeb	-5246
▁culture	-5247
▁cross	-5248
▁Bre	-5249
▁Sub	-5250
▁świe	-5251
▁þetta	-5252
▁THE	-5253
▁rev	-5254
▁miasta	-5255
td	-5256
アクセス	-5257
praw	-5258
▁wide	-5259
மாக	-5260
rę	-5261
▁latach	-5262
▁Sim	-5263
▁British	-5264
▁leading	-5265
▁ud	-5266
▁Search	-5267
であ	-5268
と考え	-5269
▁członkow	-5270
▁Design	-5271
▁farm	-5272
最初の	-5273
▁observ	-5274
ற்க	-5275
物の	-5276
anns	-5277
skipt	-5278
ningu	-5279
▁elekt	-5280
代表	-5281
▁gradu	-5282
ashi	-5283
ジョ	-5284
▁automatically	-5285
arily	-5286
▁dos	-5287
▁تر	-5288
▁except	-5289
最高	-5290
▁அத	-5291
▁deep	-5292
jednocz	-5293
▁born	-5294
▁measure	-5295
▁Africa	-5296
▁Dav	-5297
nict	-5298
31	-5299
▁samo	-5300
▁bank	-5301
▁Camp	-5302
▁correct	-5303
無料	-5304
投資	-5305
uty	-5306
cis	-5307
efa	-5308
購入	-5309
▁society	-5310
の中で	-5311
▁ts	-5312
▁Form	-5313
わた	-5314
▁finans	-5315
▁Czy	-5316
適切	-5317
のに	-5318
▁led	-5319
▁Booking	-5320
▁پر	-5321
lied	-5322
▁Lot	-5323
oma	-5324
に基	-5325
することが	-5326
ヴァ	-5327
ジタル	-5328
ソフトウェア	-5329
キング	-5330
▁jeśli	-5331
▁począ	-5332
▁Station	-5333
ultural	-5334
▁CD	-5335
▁article	-5336
▁Ż	-5337
▁Cons	-5338
ドイツ	-5339
ekt	-5340
olf	-5341
aching	-5342
ウォ	-5343
▁apply	-5344
▁ess	-5345
ネス	-5346
band	-5347
▁informacji	-5348
press	-5349
▁endur	-5350
▁watch	-5351
▁wspól	-5352
経験	-5353
phone	-5354
term	-5355
▁Will	-5356
onse	-5357
▁pomoc	-5358
以上の	-5359
▁maintain	-5360
innar	-5361
ends	-5362
ュニ	-5363
struct	-5364
isko	-5365
imately	-5366
itiz	-5367
するため	-5368
ava	-5369
oga	-5370
いい	-5371
▁groups	-5372
▁Os	-5373
▁photos	-5374
太陽	-5375
▁princi	-5376
▁emer	-5377
jóð	-5378
トリ	-5379
▁property	-5380
VD	-5381
日本の	-5382
▁mynd	-5383
نه	-5384
▁mó	-5385
ですか	-5386
商品	-5387
▁Power	-5388
▁Tour	-5389
▁org	-5390
▁percent	-5391
▁military	-5392
▁Ok	-5393
▁themselves	-5394
▁europej	-5395
OK	-5396
▁cal	-5397
▁independ	-5398
をご	-5399
注意	-5400
emu	-5401
▁sv	-5402
通常	-5403
▁Enter	-5404
We	-5405
▁status	-5406
imed	-5407
もしれ	-5408
zek	-5409
▁Dem	-5410
house	-5411
dis	-5412
▁stra	-5413
▁View	-5414
▁places	-5415
かか	-5416
したり	-5417
編集	-5418
▁190	-5419
▁Street	-5420
いつ	-5421
▁tab	-5422
できない	-5423
▁były	-5424
burg	-5425
ING	-5426
▁relationship	-5427
▁supply	-5428
べき	-5429
▁activity	-5430
▁பெ	-5431
▁przedsiębior	-5432
米国	-5433
▁deliver	-5434
だろう	-5435
よりも	-5436
▁wyś	-5437
▁okre	-5438
▁imm	-5439
▁ör	-5440
36	-5441
▁EUR	-5442
構造	-5443
ウェブサイト	-5444
eria	-5445
▁Sing	-5446
ロッ	-5447
▁Public	-5448
jald	-5449
vis	-5450
▁gera	-5451
▁story	-5452
order	-5453
製造	-5454
リンク	-5455
▁eink	-5456
▁asked	-5457
elt	-5458
noc	-5459
▁inside	-5460
óka	-5461
ław	-5462
▁aplik	-5463
▁str	-5464
iers	-5465
ikin	-5466
ależ	-5467
▁Plan	-5468
▁Kan	-5469
▁named	-5470
▁Snapshot	-5471
poses	-5472
中に	-5473
▁award	-5474
▁bal	-5475
ternal	-5476
作成	-5477
の上	-5478
▁Ten	-5479
▁obsz	-5480
▁pokaz	-5481
ではありません	-5482
イド	-5483
▁tek	-5484
▁attack	-5485
ints	-5486
に基づ	-5487
▁Depart	-5488
rought	-5489
▁IT	-5490
株式会社	-5491
ynam	-5492
▁analysis	-5493
iś	-5494
▁Research	-5495
OW	-5496
▁przeciw	-5497
ustu	-5498
▁dictionary	-5499
▁najb	-5500
ętrz	-5501
▁Akt	-5502
jan	-5503
▁Music	-5504
szej	-5505
こに	-5506
ague	-5507
rang	-5508
orem	-5509
▁pen	-5510
IG	-5511
iation	-5512
▁Stat	-5513
▁plann	-5514
▁Web	-5515
▁increasing	-5516
▁capital	-5517
nio	-5518
▁announ	-5519
▁legal	-5520
▁Hist	-5521
▁contains	-5522
لي	-5523
▁matter	-5524
▁increased	-5525
▁peace	-5526
Phone	-5527
▁Ter	-5528
▁Current	-5529
▁summer	-5530
▁«	-5531
▁heim	-5532
▁wish	-5533
▁leið	-5534
omb	-5535
arzy	-5536
▁resources	-5537
▁há	-5538
usp	-5539
MP	-5540
▁Ass	-5541
▁late	-5542
ையும்	-5543
▁இந்த	-5544
▁lyf	-5545
ellow	-5546
CD	-5547
素材	-5548
▁ple	-5549
種類	-5550
▁Trans	-5551
▁levels	-5552
▁appe	-5553
EX	-5554
uan	-5555
bu	-5556
▁sty	-5557
▁sugg	-5558
▁Mich	-5559
小さ	-5560
▁proces	-5561
コミュニ	-5562
▁drive	-5563
▁Bra	-5564
▁Prov	-5565
4)	-5566
▁broad	-5567
orów	-5568
電子	-5569
▁idea	-5570
適用	-5571
ających	-5572
▁Ben	-5573
▁Roz	-5574
▁þig	-5575
▁tworz	-5576
▁told	-5577
▁structure	-5578
▁ID	-5579
情報を	-5580
hest	-5581
▁【	-5582
▁force	-5583
85	-5584
▁undir	-5585
▁County	-5586
▁brother	-5587
組織	-5588
▁hous	-5589
▁Mount	-5590
ゆる	-5591
▁fle	-5592
▁usually	-5593
▁Jeh	-5594
▁Strona	-5595
▁forward	-5596
▁fit	-5597
ords	-5598
zer	-5599
▁consider	-5600
ちゃ	-5601
▁そう	-5602
インターネット	-5603
▁okol	-5604
mið	-5605
My	-5606
▁store	-5607
▁produced	-5608
▁cast	-5609
▁Where	-5610
▁feed	-5611
iadom	-5612
▁Zjednocz	-5613
▁weather	-5614
OP	-5615
▁kry	-5616
▁effective	-5617
liance	-5618
unni	-5619
▁vel	-5620
▁languages	-5621
iła	-5622
▁hope	-5623
これは	-5624
lege	-5625
▁przem	-5626
▁dane	-5627
iable	-5628
▁stage	-5629
▁green	-5630
اد	-5631
▁saw	-5632
報告	-5633
▁が	-5634
エネル	-5635
kach	-5636
nast	-5637
▁approx	-5638
gin	-5639
▁だ	-5640
▁OF	-5641
▁copy	-5642
▁beginning	-5643
▁uzy	-5644
ونک	-5645
▁Kar	-5646
ejm	-5647
▁Nar	-5648
▁Parliament	-5649
men	-5650
▁waż	-5651
dll	-5652
▁prop	-5653
▁solutions	-5654
ghan	-5655
▁Casino	-5656
rate	-5657
▁takes	-5658
▁koń	-5659
▁prob	-5660
▁funkc	-5661
▁complex	-5662
ilet	-5663
adem	-5664
nić	-5665
water	-5666
選手	-5667
▁rules	-5668
▁hotels	-5669
▁selected	-5670
▁தொ	-5671
▁wood	-5672
▁base	-5673
▁którym	-5674
oved	-5675
▁trade	-5676
▁społecz	-5677
タイプ	-5678
大な	-5679
▁cred	-5680
度の	-5681
ship	-5682
▁cooperation	-5683
▁pozy	-5684
▁fight	-5685
▁będą	-5686
▁ster	-5687
ウス	-5688
oke	-5689
SD	-5690
▁Govern	-5691
▁coming	-5692
یس	-5693
新た	-5694
▁exec	-5695
▁round	-5696
▁Ros	-5697
▁Find	-5698
Application	-5699
▁average	-5700
ன்ன	-5701
mission	-5702
rzez	-5703
▁surface	-5704
ön	-5705
aku	-5706
▁போ	-5707
si	-5708
▁Wiki	-5709
vant	-5710
▁Mos	-5711
▁saman	-5712
▁gave	-5713
▁throughout	-5714
▁While	-5715
uments	-5716
決定	-5717
▁Niem	-5718
▁himself	-5719
ッション	-5720
ycznych	-5721
文字	-5722
خه	-5723
▁stri	-5724
パート	-5725
ronic	-5726
▁king	-5727
▁Most	-5728
かを	-5729
にて	-5730
nienie	-5731
amin	-5732
▁ロ	-5733
▁wzgl	-5734
までの	-5735
iri	-5736
▁szczegól	-5737
ranicz	-5738
を含む	-5739
iab	-5740
▁Rem	-5741
▁traditional	-5742
jórn	-5743
▁Tele	-5744
ته	-5745
arfs	-5746
ouch	-5747
▁bardziej	-5748
名前	-5749
▁progress	-5750
▁Therefore	-5751
ffer	-5752
▁mention	-5753
年代	-5754
規模	-5755
owiąz	-5756
宇宙	-5757
ræð	-5758
▁double	-5759
▁According	-5760
▁target	-5761
ティブ	-5762
▁immediately	-5763
▁Cast	-5764
▁sport	-5765
▁zgod	-5766
やす	-5767
óm	-5768
▁300	-5769
金融	-5770
▁div	-5771
▁depart	-5772
らず	-5773
例えば	-5774
tek	-5775
▁accord	-5776
▁leave	-5777
onom	-5778
tur	-5779
▁fully	-5780
時の	-5781
▁purposes	-5782
▁ráð	-5783
lif	-5784
rí	-5785
▁syn	-5786
▁ښ	-5787
▁nawet	-5788
car	-5789
▁31	-5790
cza	-5791
▁phone	-5792
łem	-5793
▁یو	-5794
▁Bec	-5795
▁pog	-5796
▁thus	-5797
alt	-5798
中心	-5799
▁これらの	-5800
▁użytkow	-5801
ことです	-5802
▁bran	-5803
分析	-5804
▁Year	-5805
▁AP	-5806
34	-5807
akty	-5808
▁rol	-5809
▁track	-5810
▁connection	-5811
▁images	-5812
ひと	-5813
▁zesp	-5814
▁purpose	-5815
に出	-5816
wiz	-5817
ges	-5818
たちの	-5819
食べ	-5820
ień	-5821
irtual	-5822
völl	-5823
銀行	-5824
istry	-5825
▁decided	-5826
▁duż	-5827
▁Show	-5828
ちら	-5829
▁rather	-5830
▁parent	-5831
達は	-5832
ession	-5833
▁bú	-5834
記録	-5835
vey	-5836
▁Vis	-5837
lið	-5838
▁Nag	-5839
▁Italy	-5840
ókaðu	-5841
cript	-5842
▁Star	-5843
を見つ	-5844
rogram	-5845
odzi	-5846
▁nú	-5847
aches	-5848
eś	-5849
▁jeden	-5850
産業	-5851
له	-5852
▁کار	-5853
▁مو	-5854
▁Android	-5855
▁Num	-5856
isl	-5857
obe	-5858
▁Pań	-5859
▁án	-5860
▁recent	-5861
itable	-5862
NA	-5863
uclear	-5864
▁variety	-5865
▁caused	-5866
nex	-5867
.5	-5868
アド	-5869
かもしれ	-5870
ategor	-5871
reg	-5872
see	-5873
リュー	-5874
hol	-5875
iska	-5876
light	-5877
▁2004	-5878
世紀	-5879
icip	-5880
far	-5881
▁acqu	-5882
▁processing	-5883
▁impact	-5884
▁di	-5885
▁miast	-5886
▁Read	-5887
aker	-5888
bre	-5889
▁carry	-5890
▁floor	-5891
▁ideal	-5892
ipped	-5893
BC	-5894
▁investment	-5895
▁dodat	-5896
▁Party	-5897
▁3,	-5898
worzyć	-5899
szą	-5900
æði	-5901
▁ي	-5902
wh	-5903
ooking	-5904
同様	-5905
▁changed	-5906
▁kos	-5907
▁klim	-5908
期間	-5909
▁collection	-5910
oe	-5911
fni	-5912
▁associated	-5913
wart	-5914
▁highly	-5915
jár	-5916
▁Korea	-5917
▁znale	-5918
▁powst	-5919
itect	-5920
▁Church	-5921
▁confir	-5922
▁spra	-5923
▁35	-5924
asons	-5925
取り扱	-5926
▁sale	-5927
リーズ	-5928
▁exchange	-5929
▁Pom	-5930
▁squ	-5931
を選択	-5932
....	-5933
▁Ukra	-5934
▁expected	-5935
isf	-5936
▁彼は	-5937
▁Gal	-5938
▁innov	-5939
らしい	-5940
▁wers	-5941
アジア	-5942
orage	-5943
▁czerw	-5944
ico	-5945
▁path	-5946
aging	-5947
▁dial	-5948
het	-5949
▁Paris	-5950
▁Project	-5951
nich	-5952
▁focus	-5953
フレ	-5954
▁klient	-5955
▁worked	-5956
ildarr	-5957
onym	-5958
owaniu	-5959
ieniu	-5960
gy	-5961
itting	-5962
▁リ	-5963
のお	-5964
▁przewod	-5965
endur	-5966
▁ochron	-5967
サービスを	-5968
SP	-5969
▁server	-5970
原因	-5971
ドライバ	-5972
▁sche	-5973
▁sytu	-5974
契約	-5975
ąt	-5976
▁Lat	-5977
、2	-5978
ider	-5979
றை	-5980
▁Edu	-5981
▁nothing	-5982
▁どう	-5983
▁partners	-5984
レベル	-5985
▁swe	-5986
ワイ	-5987
ideos	-5988
rest	-5989
head	-5990
hel	-5991
社は	-5992
登録	-5993
▁Flug	-5994
異なる	-5995
hver	-5996
▁Let	-5997
▁staff	-5998
それぞれ	-5999
セット	-6000
▁öll	-6001
▁Sport	-6002
▁Management	-6003
yj	-6004
▁lög	-6005
家族	-6006
▁village	-6007
▁poł	-6008
ーター	-6009
38	-6010
▁Israel	-6011
It	-6012
▁consist	-6013
CC	-6014
セキュ	-6015
ワー	-6016
ラム	-6017
▁ST	-6018
oul	-6019
نګ	-6020
プレイ	-6021
▁print	-6022
ならない	-6023
▁partner	-6024
▁famous	-6025
▁Don	-6026
▁taka	-6027
▁ஒரு	-6028
電話	-6029
▁Wiel	-6030
対応	-6031
が行	-6032
▁involved	-6033
▁bott	-6034
roy	-6035
レーション	-6036
▁ye	-6037
▁opening	-6038
ால	-6039
イント	-6040
▁player	-6041
れている	-6042
以下の	-6043
▁club	-6044
ardziej	-6045
▁agreement	-6046
lar	-6047
形式	-6048
unn	-6049
onst	-6050
völlur	-6051
ampions	-6052
dziel	-6053
▁defin	-6054
▁west	-6055
と呼ば	-6056
pływ	-6057
ctor	-6058
ソン	-6059
▁Da	-6060
ista	-6061
の大	-6062
ędzie	-6063
クル	-6064
▁sales	-6065
連絡	-6066
特別	-6067
akes	-6068
ストラ	-6069
▁Custom	-6070
▁brought	-6071
▁sentences	-6072
owano	-6073
▁economy	-6074
▁hot	-6075
▁comfort	-6076
▁harm	-6077
▁jud	-6078
▁installation	-6079
▁நீ	-6080
▁jakości	-6081
▁demand	-6082
▁ISS	-6083
ging	-6084
▁バ	-6085
▁moved	-6086
▁sobie	-6087
▁scient	-6088
述べ	-6089
保存	-6090
するための	-6091
定義	-6092
ニング	-6093
▁Technology	-6094
▁discover	-6095
プション	-6096
▁potential	-6097
-19	-6098
▁cią	-6099
unik	-6100
▁kr	-6101
Japan	-6102
▁costs	-6103
▁mamy	-6104
▁doświad	-6105
▁Light	-6106
ggja	-6107
▁nota	-6108
latego	-6109
▁lower	-6110
▁symbol	-6111
▁gran	-6112
▁micro	-6113
cle	-6114
▁atm	-6115
会議	-6116
óźniej	-6117
▁load	-6118
▁stronie	-6119
▁attempt	-6120
رک	-6121
▁protect	-6122
▁Office	-6123
cznie	-6124
gryw	-6125
annan	-6126
▁mist	-6127
▁Organ	-6128
▁wat	-6129
▁tam	-6130
resh	-6131
▁Pon	-6132
źdz	-6133
▁performed	-6134
込み	-6135
▁supported	-6136
▁Time	-6137
▁button	-6138
based	-6139
▁connected	-6140
基本	-6141
家の	-6142
illing	-6143
rong	-6144
▁Afghan	-6145
▁quite	-6146
▁lives	-6147
▁Czech	-6148
▁Although	-6149
ワード	-6150
条件	-6151
▁で	-6152
▁teng	-6153
ロック	-6154
▁Und	-6155
▁Cap	-6156
▁gegnum	-6157
▁sjúk	-6158
▁served	-6159
▁Development	-6160
いに	-6161
▁behind	-6162
▁es	-6163
▁اړ	-6164
fs	-6165
▁numbers	-6166
▁allt	-6167
kað	-6168
iding	-6169
▁Paul	-6170
▁mobile	-6171
▁citiz	-6172
▁accordance	-6173
質問	-6174
▁menu	-6175
▁zat	-6176
まった	-6177
▁produktów	-6178
▁accommodation	-6179
▁więc	-6180
rant	-6181
style	-6182
▁に	-6183
▁student	-6184
▁option	-6185
▁hy	-6186
alda	-6187
▁viol	-6188
39	-6189
bi	-6190
▁inni	-6191
▁Many	-6192
▁telefon	-6193
▁skut	-6194
▁players	-6195
ography	-6196
▁leik	-6197
▁Island	-6198
▁convers	-6199
▁described	-6200
▁Main	-6201
▁6.	-6202
▁Also	-6203
77	-6204
パン	-6205
エル	-6206
▁safe	-6207
▁medic	-6208
itchen	-6209
▁verður	-6210
▁Oper	-6211
協力	-6212
▁hen	-6213
imin	-6214
▁Phen	-6215
ری	-6216
bed	-6217
▁har	-6218
atab	-6219
▁sense	-6220
ujących	-6221
!!	-6222
▁udział	-6223
▁Digital	-6224
55	-6225
▁மற்ற	-6226
rown	-6227
▁ponieważ	-6228
▁mł	-6229
iąt	-6230
uke	-6231
płat	-6232
海外	-6233
▁Gold	-6234
▁życia	-6235
▁River	-6236
kcie	-6237
通信	-6238
▁Moż	-6239
▁wieku	-6240
▁tutaj	-6241
PL	-6242
テレ	-6243
▁Corpor	-6244
▁si	-6245
ought	-6246
ښت	-6247
mercial	-6248
aming	-6249
自由	-6250
ext	-6251
ジー	-6252
▁sky	-6253
▁capt	-6254
▁hyd	-6255
▁ludzi	-6256
価格	-6257
▁Profess	-6258
akter	-6259
▁Rel	-6260
▁opportunity	-6261
fecture	-6262
unt	-6263
▁concept	-6264
開始	-6265
kty	-6266
OC	-6267
▁Photos	-6268
▁specjal	-6269
▁allowed	-6270
▁Department	-6271
ロン	-6272
oice	-6273
▁airport	-6274
することで	-6275
▁lík	-6276
ツール	-6277
tr	-6278
たら	-6279
ヤー	-6280
▁displayed	-6281
▁Kingdom	-6282
ッグ	-6283
あら	-6284
lub	-6285
▁pal	-6286
chodz	-6287
▁anything	-6288
、1	-6289
▁Association	-6290
▁voru	-6291
اي	-6292
▁mai	-6293
ender	-6294
▁新	-6295
▁thous	-6296
▁towards	-6297
oka	-6298
実行	-6299
▁Nav	-6300
▁Glos	-6301
iznes	-6302
▁trying	-6303
▁electric	-6304
▁TR	-6305
▁sprawie	-6306
▁Map	-6307
iency	-6308
▁autom	-6309
▁response	-6310
▁Mont	-6311
たり	-6312
86	-6313
▁firmy	-6314
▁பிர	-6315
▁daily	-6316
ellent	-6317
ooth	-6318
▁attention	-6319
jör	-6320
▁eld	-6321
▁didn	-6322
デン	-6323
cin	-6324
▁ways	-6325
mp	-6326
▁See	-6327
▁Committee	-6328
▁zaj	-6329
erve	-6330
品質	-6331
▁Moon	-6332
▁przypadku	-6333
▁operations	-6334
▁wanted	-6335
acie	-6336
▁wond	-6337
▁recogni	-6338
▁capacity	-6339
▁hund	-6340
▁lá	-6341
▁Anal	-6342
▁நி	-6343
ブリ	-6344
▁samræ	-6345
ús	-6346
łów	-6347
ously	-6348
▁initi	-6349
作業	-6350
▁medical	-6351
▁expect	-6352
しよう	-6353
▁win	-6354
▁ák	-6355
ałe	-6356
▁Dress	-6357
▁enh	-6358
▁decision	-6359
▁jour	-6360
▁los	-6361
ulture	-6362
▁efforts	-6363
一の	-6364
発見	-6365
▁pray	-6366
iąc	-6367
▁Festival	-6368
▁வே	-6369
フォーム	-6370
)」	-6371
aboration	-6372
▁simply	-6373
▁greater	-6374
isc	-6375
ontakt	-6376
▁church	-6377
▁Russian	-6378
撮影	-6379
増加	-6380
▁Zab	-6381
któ	-6382
▁Indust	-6383
▁continued	-6384
▁Grand	-6385
▁wska	-6386
必要な	-6387
を作成	-6388
検索	-6389
▁board	-6390
▁さらに	-6391
▁daga	-6392
立ち	-6393
mon	-6394
▁Wars	-6395
pid	-6396
▁nor	-6397
▁serious	-6398
▁li	-6399
▁faith	-6400
ensions	-6401
セキュリティ	-6402
▁Kyoto	-6403
▁liter	-6404
▁Mil	-6405
▁現在	-6406
▁Tod	-6407
▁Að	-6408
▁Econom	-6409
niu	-6410
▁ml	-6411
▁Fed	-6412
▁Science	-6413
inar	-6414
▁Stan	-6415
▁sle	-6416
▁skin	-6417
▁Glosbe	-6418
▁title	-6419
ola	-6420
▁Bas	-6421
king	-6422
▁mæ	-6423
zyn	-6424
年間	-6425
▁woman	-6426
▁ps	-6427
▁kosz	-6428
▁containing	-6429
するには	-6430
コンテン	-6431
▁Cookies	-6432
/01	-6433
用の	-6434
acj	-6435
▁avoid	-6436
▁stanie	-6437
enty	-6438
▁poprzez	-6439
▁Mas	-6440
予定	-6441
▁towar	-6442
year	-6443
テク	-6444
ッセージ	-6445
▁pressure	-6446
umb	-6447
▁Del	-6448
の人	-6449
▁contain	-6450
▁everyone	-6451
/201	-6452
▁Found	-6453
▁weeks	-6454
▁completely	-6455
ポリ	-6456
ez	-6457
▁Jego	-6458
▁niem	-6459
特定の	-6460
あなたが	-6461
彼は	-6462
▁charge	-6463
モン	-6464
ægt	-6465
多い	-6466
kami	-6467
▁marketing	-6468
言語	-6469
igu	-6470
kan	-6471
▁hver	-6472
ulated	-6473
oper	-6474
ís	-6475
stra	-6476
imo	-6477
▁pap	-6478
▁Tom	-6479
stąp	-6480
▁pytanie	-6481
と思います	-6482
▁przysz	-6483
▁someone	-6484
▁adjust	-6485
▁match	-6486
エンジ	-6487
▁hans	-6488
▁hands	-6489
-6	-6490
等の	-6491
エネルギー	-6492
▁informacje	-6493
▁surround	-6494
▁Face	-6495
fficient	-6496
▁authorities	-6497
▁Directive	-6498
▁Special	-6499
▁expand	-6500
rors	-6501
98	-6502
▁tick	-6503
▁Inf	-6504
▁Hann	-6505
னை	-6506
fram	-6507
TC	-6508
▁highest	-6509
シリーズ	-6510
jego	-6511
▁fr	-6512
▁『	-6513
▁Ver	-6514
▁Set	-6515
ப்பட்ட	-6516
▁release	-6517
ன்ற	-6518
▁eat	-6519
▁Pat	-6520
▁Great	-6521
ハイ	-6522
▁pół	-6523
直接	-6524
▁belong	-6525
▁której	-6526
向け	-6527
▁ár	-6528
nicy	-6529
▁sites	-6530
ela	-6531
Wh	-6532
ską	-6533
十分	-6534
▁gold	-6535
▁ship	-6536
いただ	-6537
年から	-6538
▁limited	-6539
டி	-6540
▁fjö	-6541
年には	-6542
▁Cre	-6543
を用	-6544
長い	-6545
AQ	-6546
▁dead	-6547
uży	-6548
▁zostały	-6549
▁bezp	-6550
したが	-6551
▁physical	-6552
stak	-6553
▁wife	-6554
▁Prot	-6555
awy	-6556
▁maximum	-6557
▁Jer	-6558
rodz	-6559
iedział	-6560
以外	-6561
ździer	-6562
ソース	-6563
フラ	-6564
▁zdań	-6565
kowe	-6566
デバイス	-6567
▁żad	-6568
ytuc	-6569
▁god	-6570
▁ま	-6571
▁oc	-6572
惑星	-6573
▁systemu	-6574
▁Use	-6575
▁infra	-6576
ras	-6577
少し	-6578
になり	-6579
▁Engine	-6580
umn	-6581
▁Flugvöllur	-6582
レジ	-6583
▁Over	-6584
▁korzyst	-6585
いている	-6586
aną	-6587
と共	-6588
制御	-6589
生き	-6590
resp	-6591
▁instead	-6592
▁okkar	-6593
▁digital	-6594
▁seems	-6595
▁train	-6596
▁konk	-6597
▁suffer	-6598
▁wall	-6599
▁radio	-6600
▁Aud	-6601
▁Mc	-6602
▁ord	-6603
▁appoint	-6604
することは	-6605
lav	-6606
メラ	-6607
国内	-6608
வே	-6609
好き	-6610
▁Hall	-6611
cznych	-6612
月の	-6613
▁ability	-6614
arze	-6615
▁settings	-6616
acją	-6617
コンテンツ	-6618
ERS	-6619
aced	-6620
▁występ	-6621
imal	-6622
▁block	-6623
▁reported	-6624
46	-6625
▁dag	-6626
▁Apache	-6627
▁śred	-6628
As	-6629
▁east	-6630
▁ISSN	-6631
▁hit	-6632
削除	-6633
97	-6634
▁Sur	-6635
▁prepar	-6636
動画	-6637
のように	-6638
نې	-6639
成功	-6640
▁exact	-6641
▁Christian	-6642
amię	-6643
ewa	-6644
▁south	-6645
持ち	-6646
ðið	-6647
ashing	-6648
க்கும்	-6649
▁Men	-6650
oms	-6651
berg	-6652
▁dnia	-6653
▁więks	-6654
▁Ltd	-6655
カード	-6656
wozd	-6657
orthern	-6658
▁・	-6659
▁ト	-6660
skip	-6661
▁Russia	-6662
▁cli	-6663
▁hair	-6664
▁Zb	-6665
.0.	-6666
▁lines	-6667
▁mountain	-6668
porary	-6669
開く	-6670
▁Budd	-6671
▁publicz	-6672
▁suggest	-6673
▁skulu	-6674
▁latest	-6675
含まれ	-6676
んです	-6677
▁kons	-6678
▁teraz	-6679
▁completed	-6680
iona	-6681
sko	-6682
▁rétt	-6683
会の	-6684
バス	-6685
▁blue	-6686
ema	-6687
▁تاسو	-6688
▁Ci	-6689
料理	-6690
▁responsible	-6691
▁włos	-6692
▁Max	-6693
வு	-6694
▁Ofer	-6695
▁przes	-6696
owała	-6697
ughter	-6698
▁viðskipt	-6699
▁ones	-6700
▁ded	-6701
▁methods	-6702
上で	-6703
▁studies	-6704
▁Ts	-6705
▁Þú	-6706
▁north	-6707
▁も	-6708
▁carried	-6709
▁Term	-6710
標準	-6711
fik	-6712
▁island	-6713
▁wymag	-6714
kry	-6715
ades	-6716
vention	-6717
▁takich	-6718
▁fat	-6719
mitted	-6720
▁Rom	-6721
▁values	-6722
craft	-6723
▁サ	-6724
▁Fe	-6725
入力	-6726
wanie	-6727
கள்	-6728
ults	-6729
▁ただ	-6730
arka	-6731
▁Wsp	-6732
▁slow	-6733
▁muzy	-6734
向上	-6735
lament	-6736
annsók	-6737
、200	-6738
▁reach	-6739
▁Green	-6740
過去	-6741
サイズ	-6742
▁Each	-6743
czę	-6744
▁SP	-6745
小さな	-6746
ostęp	-6747
▁announced	-6748
設立	-6749
ாள	-6750
▁civil	-6751
▁sprawdz	-6752
▁Note	-6753
▁functions	-6754
▁به	-6755
irection	-6756
oju	-6757
▁działa	-6758
▁asp	-6759
発行	-6760
言葉	-6761
▁fail	-6762
タイム	-6763
▁approach	-6764
▁człow	-6765
▁zakresie	-6766
ryst	-6767
▁ce	-6768
▁napraw	-6769
▁Mot	-6770
aign	-6771
▁Board	-6772
ught	-6773
となり	-6774
-8	-6775
比較	-6776
óg	-6777
:30	-6778
▁referred	-6779
jög	-6780
▁usług	-6781
inner	-6782
▁Microsoft	-6783
தி	-6784
英語版	-6785
liwe	-6786
▁species	-6787
ポイント	-6788
▁III	-6789
▁vict	-6790
ocrat	-6791
▁zdjęcia	-6792
建設	-6793
rygg	-6794
hood	-6795
▁45	-6796
▁noc	-6797
▁limit	-6798
まま	-6799
▁மற்றும்	-6800
kvæmd	-6801
▁Games	-6802
いくつかの	-6803
▁czasu	-6804
ruit	-6805
▁różnych	-6806
しば	-6807
urance	-6808
▁rock	-6809
ierp	-6810
▁kn	-6811
▁supports	-6812
96	-6813
eting	-6814
出す	-6815
▁Back	-6816
▁1990	-6817
ப்பு	-6818
近く	-6819
フランス	-6820
ędu	-6821
▁multiple	-6822
の下	-6823
gang	-6824
▁regional	-6825
▁Date	-6826
لی	-6827
▁Nas	-6828
▁Community	-6829
▁providing	-6830
fast	-6831
▁particularly	-6832
政策	-6833
▁movement	-6834
▁showing	-6835
izing	-6836
▁Fund	-6837
グロー	-6838
▁kraju	-6839
▁birth	-6840
▁150	-6841
▁whose	-6842
▁najbardziej	-6843
以降	-6844
▁Ka	-6845
▁running	-6846
iant	-6847
▁część	-6848
koło	-6849
らが	-6850
▁bezpieczeń	-6851
を受	-6852
価値	-6853
mas	-6854
off	-6855
▁People	-6856
▁init	-6857
▁aware	-6858
ashion	-6859
▁osiąg	-6860
ரி	-6861
▁świecie	-6862
▁worth	-6863
pat	-6864
prise	-6865
▁placed	-6866
overy	-6867
▁basic	-6868
▁returned	-6869
▁mid	-6870
▁elements	-6871
▁Þetta	-6872
This	-6873
▁Centre	-6874
仕事	-6875
▁Dist	-6876
▁przest	-6877
とともに	-6878
通り	-6879
oli	-6880
▁fem	-6881
▁inne	-6882
▁brand	-6883
▁Social	-6884
kowych	-6885
▁பு	-6886
rezent	-6887
▁rail	-6888
▁id	-6889
▁Sen	-6890
▁同	-6891
▁Zd	-6892
iger	-6893
▁Wszyst	-6894
وه	-6895
▁Dom	-6896
▁sö	-6897
▁seem	-6898
▁Law	-6899
kið	-6900
▁هغ	-6901
▁Aktual	-6902
▁bat	-6903
▁practice	-6904
▁plików	-6905
hi	-6906
▁installations	-6907
▁samochod	-6908
▁niður	-6909
▁although	-6910
EG	-6911
どのように	-6912
rupt	-6913
▁Class	-6914
▁environmental	-6915
▁ing	-6916
内に	-6917
▁cyc	-6918
iter	-6919
▁drog	-6920
公開	-6921
orial	-6922
▁states	-6923
dzieć	-6924
方の	-6925
33	-6926
▁unit	-6927
iana	-6928
▁Machine	-6929
▁okolicy	-6930
lec	-6931
mary	-6932
▁surv	-6933
▁plants	-6934
▁Az	-6935
▁kilka	-6936
unku	-6937
file	-6938
vað	-6939
行動	-6940
▁billion	-6941
▁©	-6942
▁międzynarod	-6943
かけ	-6944
uchom	-6945
▁Review	-6946
▁samym	-6947
/2	-6948
人間	-6949
▁sust	-6950
▁White	-6951
▁breyt	-6952
▁rezerw	-6953
▁彼女	-6954
onego	-6955
ウント	-6956
tku	-6957
▁rodzaj	-6958
Pro	-6959
orge	-6960
idents	-6961
有効	-6962
▁inwest	-6963
をつ	-6964
▁określ	-6965
outhern	-6966
wid	-6967
▁Mary	-6968
▁paździer	-6969
yfik	-6970
▁length	-6971
▁components	-6972
わる	-6973
▁Services	-6974
▁Security	-6975
▁oznacz	-6976
ヨー	-6977
▁destroy	-6978
発展	-6979
▁Langu	-6980
一緒	-6981
▁AM	-6982
▁sometimes	-6983
プト	-6984
▁Lin	-6985
改善	-6986
▁fran	-6987
▁中	-6988
.”	-6989
▁las	-6990
UD	-6991
ston	-6992
▁Canada	-6993
▁அல்ல	-6994
▁opis	-6995
▁Real	-6996
▁wit	-6997
▁polic	-6998
▁framleið	-6999
▁bie	-7000
明ら	-7001
▁rank	-7002
▁世界	-7003
スタン	-7004
▁recommend	-7005
▁morning	-7006
▁standards	-7007
アフ	-7008
iday	-7009
▁steel	-7010
nacz	-7011
▁cikin	-7012
▁trze	-7013
iya	-7014
▁2002	-7015
期待	-7016
最新	-7017
らく	-7018
wania	-7019
▁uppf	-7020
▁Hire	-7021
▁presented	-7022
▁głos	-7023
▁save	-7024
EP	-7025
責任	-7026
AF	-7027
▁Why	-7028
▁normal	-7029
▁Jedn	-7030
▁dry	-7031
▁saying	-7032
▁Support	-7033
▁cultural	-7034
▁dziedz	-7035
▁10.	-7036
▁ła	-7037
▁oprogram	-7038
▁rozwo	-7039
ほとんど	-7040
わけ	-7041
はずです	-7042
▁pred	-7043
▁darmo	-7044
▁cart	-7045
▁arm	-7046
訪問	-7047
▁remain	-7048
warz	-7049
▁dark	-7050
▁wed	-7051
▁ミ	-7052
▁joint	-7053
▁jedy	-7054
▁tools	-7055
igi	-7056
▁cen	-7057
▁der	-7058
▁mix	-7059
box	-7060
本当	-7061
▁tu	-7062
anger	-7063
メッセージ	-7064
▁usage	-7065
▁assess	-7066
sią	-7067
戦争	-7068
体験	-7069
範囲	-7070
▁sector	-7071
らない	-7072
▁Ze	-7073
78	-7074
▁trend	-7075
▁bathroom	-7076
SR	-7077
roz	-7078
vement	-7079
▁parties	-7080
rast	-7081
回の	-7082
▁eyes	-7083
▁dwa	-7084
ビル	-7085
▁32	-7086
▁Italian	-7087
できません	-7088
ものです	-7089
▁react	-7090
▁wrong	-7091
▁leaders	-7092
▁pierwszy	-7093
▁Twit	-7094
▁UK	-7095
クス	-7096
▁ق	-7097
▁obiekt	-7098
テスト	-7099
▁dzięki	-7100
rypt	-7101
▁öð	-7102
▁その後	-7103
▁fields	-7104
▁labor	-7105
hens	-7106
▁communication	-7107
タリア	-7108
▁swój	-7109
▁Nap	-7110
ールの	-7111
▁demonst	-7112
動作	-7113
▁全	-7114
▁advant	-7115
ழு	-7116
▁Swed	-7117
▁window	-7118
▁ban	-7119
ampionship	-7120
▁Iz	-7121
urt	-7122
っても	-7123
rost	-7124
த்தில்	-7125
▁popraw	-7126
▁remember	-7127
▁scen	-7128
▁susp	-7129
izes	-7130
ビジネス	-7131
をクリック	-7132
▁booking	-7133
攻撃	-7134
▁ان	-7135
▁Leg	-7136
▁incor	-7137
▁garden	-7138
を示	-7139
▁Div	-7140
▁getting	-7141
くれ	-7142
aled	-7143
▁HD	-7144
▁else	-7145
▁koma	-7146
acing	-7147
raph	-7148
kk	-7149
▁stock	-7150
uality	-7151
▁mił	-7152
▁Arab	-7153
ザー	-7154
主義	-7155
▁レ	-7156
▁64-	-7157
chodzi	-7158
についての	-7159
▁Price	-7160
▁Its	-7161
AI	-7162
▁ramach	-7163
▁satel	-7164
▁później	-7165
:5	-7166
▁san	-7167
annel	-7168
▁4,	-7169
▁Sil	-7170
▁picture	-7171
▁albo	-7172
டை	-7173
法律	-7174
aba	-7175
lum	-7176
▁altern	-7177
せる	-7178
▁Site	-7179
▁vot	-7180
▁áhrif	-7181
▁8.	-7182
▁trzy	-7183
lying	-7184
だけでなく	-7185
▁Hum	-7186
しましょう	-7187
▁Ry	-7188
cean	-7189
▁あなたは	-7190
▁vac	-7191
来の	-7192
▁smart	-7193
▁naszych	-7194
śc	-7195
▁notice	-7196
AW	-7197
44	-7198
ningar	-7199
を使って	-7200
اک	-7201
yright	-7202
▁likely	-7203
▁jednym	-7204
政治	-7205
▁tłumacz	-7206
適切な	-7207
▁climate	-7208
nią	-7209
▁dziew	-7210
igs	-7211
まる	-7212
▁chw	-7213
すれば	-7214
▁pas	-7215
▁Centrum	-7216
ilies	-7217
”,	-7218
▁Because	-7219
セル	-7220
uh	-7221
を利用	-7222
▁Bay	-7223
▁síð	-7224
SC	-7225
▁output	-7226
▁citizens	-7227
czest	-7228
メート	-7229
oro	-7230
へと	-7231
▁playing	-7232
プレート	-7233
▁Today	-7234
運営	-7235
son	-7236
UM	-7237
▁żywo	-7238
▁heard	-7239
ユニ	-7240
▁Club	-7241
▁Det	-7242
Ad	-7243
▁ست	-7244
▁Mart	-7245
▁photo	-7246
特徴	-7247
▁oferuje	-7248
like	-7249
▁świad	-7250
▁Amery	-7251
bar	-7252
ウト	-7253
▁serw	-7254
▁Kam	-7255
▁extra	-7256
▁parking	-7257
ムの	-7258
▁przygot	-7259
▁hire	-7260
▁Def	-7261
▁Barcel	-7262
▁Court	-7263
▁மே	-7264
odzie	-7265
▁MP	-7266
▁Even	-7267
しても	-7268
▁Prefecture	-7269
▁ucz	-7270
▁や	-7271
▁reform	-7272
▁damage	-7273
▁،	-7274
ellig	-7275
▁nau	-7276
▁options	-7277
▁Every	-7278
▁ブ	-7279
sins	-7280
事務	-7281
▁prawa	-7282
▁introduced	-7283
یت	-7284
ざま	-7285
▁president	-7286
▁Upd	-7287
▁Inn	-7288
▁ク	-7289
▁rzecz	-7290
ówno	-7291
さんの	-7292
ティー	-7293
▁Berlin	-7294
▁główna	-7295
くる	-7296
ótt	-7297
▁ご	-7298
atyz	-7299
▁Vir	-7300
lí	-7301
itors	-7302
cm	-7303
osition	-7304
▁ஏ	-7305
ம்ப	-7306
▁bor	-7307
▁Wal	-7308
▁Type	-7309
終了	-7310
▁höf	-7311
メディア	-7312
icated	-7313
jonal	-7314
▁Global	-7315
あるいは	-7316
▁Jez	-7317
▁Follow	-7318
▁Stand	-7319
erning	-7320
▁yourself	-7321
担当	-7322
▁roli	-7323
者に	-7324
lines	-7325
▁errors	-7326
▁śmier	-7327
ましょう	-7328
یز	-7329
▁Au	-7330
மான	-7331
▁Til	-7332
▁pictures	-7333
▁corpor	-7334
▁item	-7335
▁distance	-7336
born	-7337
ulate	-7338
ætti	-7339
▁Ir	-7340
▁نه	-7341
worzy	-7342
▁encou	-7343
▁gives	-7344
▁Puzzle	-7345
▁Dub	-7346
▁Prom	-7347
▁excellent	-7348
▁Help	-7349
▁Close	-7350
rine	-7351
▁reduce	-7352
展開	-7353
▁offered	-7354
クション	-7355
▁glass	-7356
ietrz	-7357
-10	-7358
wyż	-7359
scape	-7360
アカ	-7361
▁architect	-7362
▁metal	-7363
拡大	-7364
iment	-7365
▁Mer	-7366
கிற	-7367
フォーマ	-7368
ocks	-7369
メンバー	-7370
▁evalu	-7371
入れ	-7372
▁solid	-7373
▁°	-7374
細胞	-7375
zon	-7376
:2	-7377
atyw	-7378
▁日	-7379
atalog	-7380
▁exerc	-7381
▁Spain	-7382
▁pages	-7383
▁około	-7384
▁Pet	-7385
ML	-7386
▁(1)	-7387
▁Fac	-7388
フル	-7389
▁rynku	-7390
atabase	-7391
▁urządz	-7392
▁Water	-7393
初めて	-7394
68	-7395
▁qual	-7396
▁Warsz	-7397
▁science	-7398
79	-7399
スマ	-7400
▁posz	-7401
があった	-7402
実施	-7403
iar	-7404
ega	-7405
iń	-7406
更新	-7407
▁Media	-7408
▁PLN	-7409
öng	-7410
wietl	-7411
gor	-7412
oming	-7413
▁Typ	-7414
▁szer	-7415
stwie	-7416
▁killed	-7417
▁Start	-7418
nością	-7419
▁komputer	-7420
パス	-7421
▁techni	-7422
cus	-7423
வத	-7424
のため	-7425
▁pomocy	-7426
▁کول	-7427
▁Ministry	-7428
チャン	-7429
estaw	-7430
▁Fre	-7431
▁dwó	-7432
▁skrá	-7433
▁{\	-7434
送信	-7435
テレビ	-7436
▁Get	-7437
▁Saf	-7438
róci	-7439
▁anti	-7440
-201	-7441
▁CO	-7442
ーブル	-7443
▁marg	-7444
地の	-7445
ின்ற	-7446
known	-7447
▁vehicle	-7448
celand	-7449
vör	-7450
▁truth	-7451
zyt	-7452
▁Tre	-7453
航空	-7454
にあ	-7455
look	-7456
▁reflect	-7457
んでいる	-7458
労働	-7459
enda	-7460
▁AND	-7461
▁7.	-7462
▁district	-7463
▁gat	-7464
▁prefer	-7465
டிய	-7466
▁favor	-7467
▁concent	-7468
表現	-7469
▁warm	-7470
▁dost	-7471
▁sprawozd	-7472
▁Page	-7473
▁forces	-7474
▁cells	-7475
▁institutions	-7476
▁exhibition	-7477
liwość	-7478
体の	-7479
▁cities	-7480
▁Yes	-7481
▁storage	-7482
に加	-7483
▁^	-7484
tar	-7485
vernig	-7486
DP	-7487
さまざま	-7488
esta	-7489
マル	-7490
▁mnie	-7491
▁strength	-7492
▁videos	-7493
▁Facebook	-7494
nið	-7495
▁heat	-7496
▁technologies	-7497
zp	-7498
▁category	-7499
▁extrem	-7500
ிட்ட	-7501
▁mið	-7502
oria	-7503
▁interesting	-7504
子の	-7505
▁Bi	-7506
ストリ	-7507
▁Ale	-7508
くな	-7509
از	-7510
IE	-7511
シャル	-7512
then	-7513
可能です	-7514
▁(1	-7515
じめ	-7516
icon	-7517
芸術	-7518
rap	-7519
ライト	-7520
ięcy	-7521
に応	-7522
EO	-7523
▁Word	-7524
range	-7525
新たな	-7526
安定	-7527
▁param	-7528
▁meaning	-7529
▁wyp	-7530
▁którego	-7531
テキ	-7532
▁ما	-7533
▁takie	-7534
▁David	-7535
わず	-7536
licz	-7537
プル	-7538
kcja	-7539
Sp	-7540
▁Księ	-7541
bær	-7542
▁என்று	-7543
▁Land	-7544
▁remains	-7545
としての	-7546
あらゆる	-7547
課題	-7548
グローバル	-7549
▁direction	-7550
▁spread	-7551
▁Polska	-7552
導入	-7553
試験	-7554
自動的に	-7555
▁Points	-7556
▁names	-7557
する場合	-7558
▁teac	-7559
▁accur	-7560
▁wyposaż	-7561
▁lecz	-7562
リース	-7563
えます	-7564
を探	-7565
取引	-7566
がない	-7567
▁mniej	-7568
▁Iceland	-7569
▁9.	-7570
cert	-7571
効率	-7572
▁Europejskiej	-7573
▁Game	-7574
を取り	-7575
に従	-7576
?"	-7577
▁życie	-7578
▁nuclear	-7579
▁Squ	-7580
emi	-7581
▁followed	-7582
▁Bur	-7583
ytt	-7584
▁advert	-7585
▁gild	-7586
ってる	-7587
▁Spanish	-7588
▁Yun	-7589
▁commercial	-7590
ecie	-7591
yczny	-7592
▁achieve	-7593
▁fair	-7594
▁dok	-7595
reme	-7596
▁100%	-7597
ables	-7598
▁rental	-7599
ael	-7600
more	-7601
▁każdej	-7602
▁transp	-7603
リスク	-7604
tyku	-7605
ossible	-7606
▁Hot	-7607
▁kap	-7608
▁większ	-7609
▁Bet	-7610
▁choice	-7611
▁Powiększ	-7612
シング	-7613
▁expert	-7614
CA	-7615
▁description	-7616
▁Sy	-7617
▁Striptease	-7618
▁doesn	-7619
த்தை	-7620
▁(201	-7621
ود	-7622
ラク	-7623
操作	-7624
lica	-7625
京都	-7626
▁Cy	-7627
▁Aby	-7628
czny	-7629
▁Zap	-7630
Com	-7631
sam	-7632
」(	-7633
ども	-7634
思い	-7635
▁seek	-7636
idden	-7637
▁reve	-7638
▁recommended	-7639
isa	-7640
▁comment	-7641
認識	-7642
خت	-7643
▁produce	-7644
▁高	-7645
wór	-7646
▁ready	-7647
▁Film	-7648
வும்	-7649
mynd	-7650
準備	-7651
▁rok	-7652
RL	-7653
▁regarding	-7654
▁satelitar	-7655
それが	-7656
問い	-7657
▁pojaw	-7658
コース	-7659
unch	-7660
ーカー	-7661
ośred	-7662
igned	-7663
aży	-7664
▁کی	-7665
gent	-7666
iono	-7667
okk	-7668
▁absol	-7669
▁grant	-7670
▁manner	-7671
łat	-7672
▁restaurant	-7673
パイ	-7674
▁mission	-7675
出し	-7676
rane	-7677
▁rannsók	-7678
▁zdrow	-7679
構築	-7680
▁plans	-7681
的には	-7682
ラス	-7683
▁guests	-7684
▁dwóch	-7685
aks	-7686
▁hour	-7687
領域	-7688
▁mainly	-7689
▁units	-7690
装置	-7691
▁zarządz	-7692
▁amer	-7693
▁hún	-7694
ev	-7695
▁Nat	-7696
番号	-7697
▁Suite	-7698
▁upplýsingar	-7699
▁fold	-7700
▁Jan	-7701
FO	-7702
▁association	-7703
▁spring	-7704
▁umoż	-7705
消費	-7706
utive	-7707
▁beach	-7708
▁(2	-7709
▁court	-7710
の方	-7711
▁charg	-7712
伝統	-7713
、"	-7714
▁swoim	-7715
▁concerning	-7716
▁Mult	-7717
公式	-7718
といった	-7719
▁Mov	-7720
支払	-7721
▁zawsze	-7722
▁hvað	-7723
rm	-7724
▁hundred	-7725
49	-7726
▁domin	-7727
▁வெ	-7728
▁ホ	-7729
▁dzies	-7730
▁growing	-7731
wiedz	-7732
さまざまな	-7733
▁finna	-7734
47	-7735
▁reports	-7736
estic	-7737
▁rates	-7738
▁zakoń	-7739
antly	-7740
▁advanced	-7741
Windows	-7742
▁easier	-7743
list	-7744
美術	-7745
設置	-7746
▁2001	-7747
▁Inform	-7748
▁challeng	-7749
▁seven	-7750
切り	-7751
▁developing	-7752
▁Ham	-7753
bud	-7754
要素	-7755
ボタン	-7756
▁خپ	-7757
続き	-7758
材料	-7759
▁tilskip	-7760
▁kas	-7761
▁Award	-7762
年度	-7763
▁gar	-7764
と同じ	-7765
▁materiał	-7766
台風	-7767
▁ustaw	-7768
▁Software	-7769
▁covered	-7770
BS	-7771
▁Educ	-7772
mis	-7773
維持	-7774
▁பொ	-7775
▁manually	-7776
▁Ret	-7777
▁goods	-7778
▁disease	-7779
▁powin	-7780
登場	-7781
▁trust	-7782
ロール	-7783
はい	-7784
▁books	-7785
śniej	-7786
共有	-7787
達の	-7788
anego	-7789
▁calc	-7790
ression	-7791
▁Print	-7792
▁persons	-7793
▁steps	-7794
▁ust	-7795
works	-7796
lymp	-7797
endor	-7798
ையில்	-7799
▁Server	-7800
▁satellite	-7801
▁Sea	-7802
ucle	-7803
データを	-7804
▁Ø	-7805
からは	-7806
▁Sex	-7807
▁industrial	-7808
名の	-7809
▁motor	-7810
▁lipca	-7811
▁Dla	-7812
42	-7813
▁drink	-7814
▁bay	-7815
agn	-7816
▁hef	-7817
▁Second	-7818
▁Policy	-7819
▁aðildarr	-7820
くり	-7821
▁shi	-7822
▁okaz	-7823
▁Private	-7824
主要	-7825
▁Ha	-7826
...]	-7827
eds	-7828
▁competition	-7829
▁neigh	-7830
▁ult	-7831
▁Bro	-7832
▁esc	-7833
▁workers	-7834
nies	-7835
unction	-7836
lun	-7837
▁positive	-7838
BA	-7839
▁pil	-7840
▁Ent	-7841
が見	-7842
▁generation	-7843
▁relevant	-7844
▁mjög	-7845
ques	-7846
▁Ro	-7847
強化	-7848
▁wszystkim	-7849
▁background	-7850
▁آ	-7851
▁happen	-7852
nisko	-7853
CL	-7854
afn	-7855
▁reached	-7856
▁audio	-7857
மு	-7858
▁sports	-7859
▁Fam	-7860
有名	-7861
又は	-7862
▁sjúkling	-7863
▁probably	-7864
itution	-7865
CT	-7866
▁dol	-7867
最適	-7868
▁bezpłat	-7869
▁satisf	-7870
peror	-7871
▁ow	-7872
ச்	-7873
uga	-7874
oshi	-7875
iekawe	-7876
enni	-7877
▁till	-7878
Al	-7879
▁haf	-7880
▁graph	-7881
6)	-7882
ework	-7883
▁narz	-7884
▁fal	-7885
▁podob	-7886
▁Polsce	-7887
▁Tai	-7888
▁properties	-7889
▁Video	-7890
67	-7891
▁Temple	-7892
திய	-7893
ris	-7894
▁rejest	-7895
▁memory	-7896
ander	-7897
wiat	-7898
▁wartości	-7899
▁typu	-7900
▁notkun	-7901
ーズ	-7902
▁employees	-7903
展示	-7904
▁prób	-7905
可能性があります	-7906
olor	-7907
0.	-7908
▁whom	-7909
ifor	-7910
PDF	-7911
▁die	-7912
bra	-7913
▁obl	-7914
▁applied	-7915
リューション	-7916
▁Mex	-7917
▁becomes	-7918
▁Pak	-7919
▁orgasm	-7920
organ	-7921
されていた	-7922
phoon	-7923
▁Line	-7924
cher	-7925
▁Royal	-7926
▁モ	-7927
urinn	-7928
inations	-7929
▁ciągu	-7930
▁angiel	-7931
リアル	-7932
▁swoich	-7933
分か	-7934
pped	-7935
▁wsz	-7936
になって	-7937
asion	-7938
目標	-7939
ications	-7940
▁campaign	-7941
▁Powiększanie	-7942
ycznej	-7943
▁blog	-7944
▁writing	-7945
uts	-7946
読み	-7947
▁podstawie	-7948
▁środow	-7949
▁aim	-7950
▁działal	-7951
掲載	-7952
ロッパ	-7953
目指	-7954
æri	-7955
▁Press	-7956
▁Band	-7957
▁fara	-7958
ッジ	-7959
▁fab	-7960
▁0,	-7961
▁note	-7962
▁Road	-7963
▁でも	-7964
jące	-7965
▁Warsaw	-7966
カメラ	-7967
haps	-7968
バン	-7969
▁OS	-7970
▁konie	-7971
▁samræmi	-7972
▁eight	-7973
▁successful	-7974
arter	-7975
▁adopted	-7976
▁turned	-7977
▁aktyw	-7978
とても	-7979
▁Fu	-7980
▁Przed	-7981
▁unto	-7982
▁sprz	-7983
▁threat	-7984
たく	-7985
▁fjár	-7986
まれた	-7987
▁middle	-7988
▁pros	-7989
▁parents	-7990
▁cloud	-7991
odes	-7992
▁zarówno	-7993
▁Health	-7994
▁mentioned	-7995
▁aft	-7996
▁telewiz	-7997
róp	-7998
▁recently	-7999
▁dynam	-8000
▁iPhone	-8001
nios	-8002
▁useful	-8003
یل	-8004
空港	-8005
▁compared	-8006
▁شي	-8007
ரா	-8008
▁Gen	-8009
ugu	-8010
▁organization	-8011
▁dialog	-8012
▁Ski	-8013
nek	-8014
にする	-8015
▁Offic	-8016
▁つ	-8017
▁Wię	-8018
彼らの	-8019
▁wszystko	-8020
jós	-8021
▁finally	-8022
ggjum	-8023
レクト	-8024
オプション	-8025
ளை	-8026
▁legisl	-8027
▁weak	-8028
etu	-8029
交流	-8030
をする	-8031
▁geta	-8032
までに	-8033
▁Next	-8034
ヨーロッパ	-8035
▁approximately	-8036
共同	-8037
平成	-8038
edy	-8039
word	-8040
▁lack	-8041
icznej	-8042
▁swojej	-8043
▁Tor	-8044
、3	-8045
oko	-8046
ún	-8047
素晴	-8048
▁Click	-8049
ソリューション	-8050
▁pool	-8051
atively	-8052
▁Adm	-8053
▁vö	-8054
Cookie	-8055
要求	-8056
顧客	-8057
jast	-8058
rót	-8059
▁counter	-8060
に対応	-8061
ujący	-8062
▁Apartments	-8063
人を	-8064
▁þjón	-8065
▁Unii	-8066
lies	-8067
られます	-8068
のを	-8069
Are	-8070
▁browser	-8071
▁私の	-8072
▁phr	-8073
onej	-8074
jęcie	-8075
kowy	-8076
racji	-8077
の一つ	-8078
▁buildings	-8079
▁działania	-8080
▁lep	-8081
roż	-8082
▁język	-8083
▁auð	-8084
▁Zam	-8085
pol	-8086
▁بر	-8087
ciąg	-8088
یم	-8089
とに	-8090
itan	-8091
計算	-8092
▁alone	-8093
▁400	-8094
▁sin	-8095
▁wysz	-8096
▁internal	-8097
▁Thus	-8098
HI	-8099
375	-8100
スコ	-8101
▁understanding	-8102
々の	-8103
▁wład	-8104
▁Check	-8105
▁framkvæmd	-8106
ヘル	-8107
igub	-8108
▁وړ	-8109
ண்	-8110
dent	-8111
śnia	-8112
▁jakie	-8113
▁charakter	-8114
韓国	-8115
▁USB	-8116
▁Corporation	-8117
▁Gru	-8118
▁auk	-8119
▁shoot	-8120
▁animals	-8121
ocol	-8122
▁دی	-8123
▁ci	-8124
efore	-8125
▁territ	-8126
rote	-8127
▁ath	-8128
allery	-8129
▁świata	-8130
▁iya	-8131
aniec	-8132
respond	-8133
▁Pierw	-8134
tenance	-8135
róf	-8136
-12	-8137
▁Camel	-8138
▁niep	-8139
▁instytuc	-8140
FC	-8141
▁families	-8142
▁pattern	-8143
43	-8144
▁instruct	-8145
一緒に	-8146
▁nied	-8147
▁wprowadz	-8148
pper	-8149
▁używ	-8150
▁appeared	-8151
gypt	-8152
ktor	-8153
▁wyt	-8154
stron	-8155
ரச	-8156
▁プロ	-8157
を通じて	-8158
▁answer	-8159
複数の	-8160
ダン	-8161
▁دي	-8162
▁Þess	-8163
▁conver	-8164
経営	-8165
▁kwest	-8166
▁tys	-8167
▁forms	-8168
ffee	-8169
国立	-8170
▁2020	-8171
いう	-8172
▁gef	-8173
▁bac	-8174
▁signal	-8175
だと	-8176
▁street	-8177
▁reasons	-8178
ビア	-8179
▁musi	-8180
▁Report	-8181
▁serve	-8182
▁career	-8183
ものを	-8184
▁budget	-8185
▁hosp	-8186
enge	-8187
ガー	-8188
jazd	-8189
▁respond	-8190
▁Cro	-8191
フォル	-8192
▁Java	-8193
▁Good	-8194
▁vit	-8195
▁cars	-8196
igg	-8197
▁połącz	-8198
▁powietrz	-8199
イギリ	-8200
▁örugg	-8201
▁cie	-8202
道路	-8203
▁nim	-8204
issions	-8205
▁formed	-8206
▁cię	-8207
cription	-8208
▁kob	-8209
▁Um	-8210
スケ	-8211
▁przepis	-8212
▁lear	-8213
wiazd	-8214
▁Alex	-8215
ポール	-8216
▁aplikacji	-8217
yond	-8218
▁manufacturer	-8219
▁camera	-8220
structure	-8221
▁mał	-8222
rip	-8223
その他の	-8224
テーマ	-8225
ago	-8226
▁passed	-8227
▁cold	-8228
▁lið	-8229
▁上	-8230
miot	-8231
▁util	-8232
▁Manufact	-8233
▁joined	-8234
▁ź	-8235
▁Pap	-8236
▁cand	-8237
フィル	-8238
osphere	-8239
▁położ	-8240
▁uczest	-8241
▁Prog	-8242
▁goal	-8243
▁wpływ	-8244
▁meters	-8245
ua	-8246
jaz	-8247
டுத்த	-8248
eo	-8249
rance	-8250
▁Currently	-8251
ORD	-8252
ergy	-8253
▁kost	-8254
信頼	-8255
活用	-8256
onna	-8257
▁Life	-8258
▁naszego	-8259
ieni	-8260
ிற்க	-8261
▁komunik	-8262
ட்ச	-8263
▁chor	-8264
▁bókaðu	-8265
▁Role	-8266
inf	-8267
▁zawod	-8268
▁starting	-8269
大きく	-8270
▁sustain	-8271
記事	-8272
いで	-8273
iczny	-8274
▁models	-8275
▁equipped	-8276
▁அவர்கள	-8277
▁Lab	-8278
▁Olymp	-8279
▁independent	-8280
を参照	-8281
▁Cup	-8282
▁prowadz	-8283
▁sob	-8284
▁ド	-8285
人気	-8286
னர்	-8287
やって	-8288
iera	-8289
▁Western	-8290
▁vehicles	-8291
łos	-8292
▁Food	-8293
▁dog	-8294
▁mode	-8295
▁wrze	-8296
なん	-8297
▁Mess	-8298
▁turyst	-8299
▁Only	-8300
採用	-8301
perial	-8302
部門	-8303
▁tom	-8304
ietnam	-8305
▁Komisja	-8306
▁Jeżeli	-8307
وند	-8308
に戻	-8309
▁Government	-8310
▁doz	-8311
▁presence	-8312
انو	-8313
▁apartment	-8314
▁AR	-8315
▁naszej	-8316
際に	-8317
efault	-8318
▁setting	-8319
▁consult	-8320
▁Znaj	-8321
▁þau	-8322
▁regions	-8323
利益	-8324
▁rek	-8325
機器	-8326
iber	-8327
▁36	-8328
▁winter	-8329
▁Wind	-8330
貢献	-8331
▁assist	-8332
igubíl	-8333
▁purchase	-8334
▁external	-8335
▁separate	-8336
▁Pair	-8337
▁script	-8338
nosi	-8339
▁repe	-8340
zywist	-8341
▁łat	-8342
者を	-8343
数は	-8344
オンライン	-8345
▁director	-8346
▁trip	-8347
▁ber	-8348
ancy	-8349
▁cris	-8350
▁Mater	-8351
▁efficiency	-8352
▁Egypt	-8353
oration	-8354
▁تو	-8355
▁programu	-8356
oring	-8357
ęb	-8358
anii	-8359
▁państwa	-8360
▁Flow	-8361
▁AD	-8362
▁happy	-8363
▁forest	-8364
▁race	-8365
ette	-8366
▁このような	-8367
dam	-8368
外国	-8369
に見	-8370
権利	-8371
ownie	-8372
iji	-8373
たちが	-8374
▁prepared	-8375
▁closed	-8376
▁hear	-8377
▁shared	-8378
▁rapid	-8379
▁heil	-8380
▁ど	-8381
▁visitors	-8382
▁ゆ	-8383
▁Phil	-8384
▁schools	-8385
▁coast	-8386
▁river	-8387
▁Blue	-8388
▁agric	-8389
▁Hotels	-8390
urb	-8391
▁behav	-8392
▁Indian	-8393
łu	-8394
▁Kong	-8395
▁fresh	-8396
▁football	-8397
▁ここ	-8398
▁Kh	-8399
▁dop	-8400
▁secret	-8401
▁processes	-8402
私たちの	-8403
▁wonder	-8404
▁Well	-8405
▁doctor	-8406
rage	-8407
vik	-8408
▁auka	-8409
iczna	-8410
▁dotyczące	-8411
▁defa	-8412
ようになった	-8413
adzie	-8414
▁wod	-8415
TER	-8416
atar	-8417
を使用して	-8418
osen	-8419
Hz	-8420
▁dostaw	-8421
▁bílaleigubíl	-8422
wood	-8423
▁stycz	-8424
▁markets	-8425
▁5,	-8426
▁thanks	-8427
لا	-8428
arta	-8429
▁cheap	-8430
に参加	-8431
じゃない	-8432
▁rich	-8433
▁Ek	-8434
▁Typhoon	-8435
▁update	-8436
▁kolor	-8437
▁Child	-8438
▁adres	-8439
ウム	-8440
げる	-8441
rób	-8442
asse	-8443
ンを	-8444
▁Naz	-8445
▁powerful	-8446
rian	-8447
▁powie	-8448
afa	-8449
inst	-8450
88	-8451
鉄道	-8452
▁Lu	-8453
alle	-8454
iaj	-8455
▁Bry	-8456
測定	-8457
▁Sund	-8458
になっている	-8459
ína	-8460
▁thank	-8461
物を	-8462
wiek	-8463
期の	-8464
▁sav	-8465
arki	-8466
▁bezpośred	-8467
eins	-8468
▁Any	-8469
チュ	-8470
▁recogn	-8471
TA	-8472
▁implementation	-8473
iko	-8474
▁sag	-8475
▁bow	-8476
問題を	-8477
sky	-8478
機会	-8479
▁Last	-8480
▁Model	-8481
▁Twój	-8482
▁doskon	-8483
annels	-8484
▁COM	-8485
▁creation	-8486
教授	-8487
▁psych	-8488
▁kategor	-8489
くら	-8490
じる	-8491
5%	-8492
を見て	-8493
owali	-8494
▁mechanism	-8495
▁Director	-8496
lant	-8497
azm	-8498
▁annual	-8499
▁Tool	-8500
hald	-8501
CP	-8502
機械	-8503
clus	-8504
▁pien	-8505
▁我々は	-8506
する必要があります	-8507
カン	-8508
ときに	-8509
最終	-8510
▁warunki	-8511
);	-8512
▁Hy	-8513
研究所	-8514
▁extremely	-8515
ækni	-8516
cious	-8517
abin	-8518
▁Afghanistan	-8519
rim	-8520
lug	-8521
メージ	-8522
▁wewn	-8523
repre	-8524
ykań	-8525
▁sell	-8526
▁cru	-8527
▁College	-8528
違い	-8529
ilding	-8530
役割	-8531
ui	-8532
ża	-8533
upa	-8534
arów	-8535
▁minn	-8536
行為	-8537
verk	-8538
▁Korean	-8539
治療	-8540
oje	-8541
▁tim	-8542
▁rozwoju	-8543
▁Ba	-8544
飛行	-8545
起動	-8546
レット	-8547
問い合わせ	-8548
▁Yam	-8549
▁welcome	-8550
MA	-8551
アウト	-8552
▁authority	-8553
▁あなたの	-8554
あなたは	-8555
szcz	-8556
ちろ	-8557
▁police	-8558
▁swoją	-8559
▁schedu	-8560
の一部	-8561
/10	-8562
▁sama	-8563
▁palc	-8564
▁kult	-8565
▁possibility	-8566
ゼータ	-8567
実験	-8568
▁obraz	-8569
▁credit	-8570
▁powierz	-8571
reprene	-8572
▁zg	-8573
▁widz	-8574
」「	-8575
▁Ciekawe	-8576
▁Polski	-8577
udnia	-8578
stö	-8579
agę	-8580
▁Network	-8581
▁hom	-8582
body	-8583
」。	-8584
委員会	-8585
▁1:	-8586
wise	-8587
encies	-8588
lis	-8589
立て	-8590
▁roll	-8591
▁ku	-8592
▁00	-8593
ocze	-8594
اتو	-8595
▁மா	-8596
▁[...]	-8597
▁Full	-8598
チェック	-8599
▁efficient	-8600
▁aircraft	-8601
▁ven	-8602
監督	-8603
uri	-8604
カスタ	-8605
niku	-8606
display	-8607
bour	-8608
No	-8609
▁chemical	-8610
▁hér	-8611
▁produkcji	-8612
ares	-8613
▁Further	-8614
▁pick	-8615
▁cewa	-8616
▁zestaw	-8617
▁essential	-8618
▁appears	-8619
zien	-8620
データの	-8621
建築	-8622
元の	-8623
ream	-8624
▁dru	-8625
医療	-8626
ジュール	-8627
abit	-8628
▁promote	-8629
SI	-8630
▁toward	-8631
▁delivery	-8632
よい	-8633
▁supporting	-8634
asure	-8635
▁اف	-8636
知らせ	-8637
▁amend	-8638
リーン	-8639
もある	-8640
▁Que	-8641
する必要	-8642
rać	-8643
door	-8644
▁czyn	-8645
siąż	-8646
▁następnie	-8647
ailability	-8648
▁ஜ	-8649
部屋	-8650
運動	-8651
87	-8652
-7	-8653
ナイ	-8654
nect	-8655
żyw	-8656
▁Army	-8657
▁Belg	-8658
Ar	-8659
▁zastos	-8660
▁volume	-8661
続け	-8662
lor	-8663
▁efekt	-8664
uting	-8665
▁俺	-8666
ibrator	-8667
となります	-8668
の間	-8669
▁właści	-8670
łuż	-8671
point	-8672
▁Cong	-8673
▁Zak	-8674
▁benefits	-8675
▁payment	-8676
▁Under	-8677
▁occup	-8678
▁signed	-8679
▁trzec	-8680
▁ball	-8681
コント	-8682
iry	-8683
▁oś	-8684
工場	-8685
化学	-8686
中で	-8687
▁Step	-8688
▁zrob	-8689
▁hægt	-8690
▁Name	-8691
▁learning	-8692
▁default	-8693
▁founded	-8694
▁DVD	-8695
92	-8696
スタイル	-8697
放送	-8698
owości	-8699
ジョン	-8700
▁początku	-8701
▁Barcelona	-8702
▁cool	-8703
なし	-8704
▁doll	-8705
▁Ut	-8706
▁Try	-8707
▁Wszystkie	-8708
▁celebr	-8709
▁write	-8710
▁door	-8711
▁strengthen	-8712
mium	-8713
▁evidence	-8714
acyjnych	-8715
▁szko	-8716
していく	-8717
▁properly	-8718
iot	-8719
▁difference	-8720
bass	-8721
▁PR	-8722
iat	-8723
としては	-8724
▁actions	-8725
run	-8726
調整	-8727
iling	-8728
▁odd	-8729
▁Foundation	-8730
ற்ப	-8731
rency	-8732
nikiem	-8733
▁goes	-8734
▁東京	-8735
apter	-8736
cześniej	-8737
ித்த	-8738
▁Twitter	-8739
▁sand	-8740
▁odpowiedź	-8741
▁pomiędzy	-8742
▁manufacturing	-8743
ピン	-8744
一度	-8745
▁Weather	-8746
時計	-8747
▁Los	-8748
liżenia	-8749
▁Fire	-8750
を見る	-8751
だが	-8752
▁Obs	-8753
▁numerous	-8754
edom	-8755
inger	-8756
制作	-8757
aði	-8758
▁drag	-8759
jo	-8760
displaystyle	-8761
▁fine	-8762
ちろん	-8763
▁vat	-8764
▁Aff	-8765
Xó	-8766
Xóõ	-8767
ார்கள்	-8768
▁fear	-8769
uðs	-8770
のも	-8771
オープ	-8772
▁hre	-8773
▁interested	-8774
scy	-8775
▁Who	-8776
▁przej	-8777
ressed	-8778
ニュース	-8779
▁Jose	-8780
acyjne	-8781
フォー	-8782
ademy	-8783
ovah	-8784
▁Dancing	-8785
ポーツ	-8786
ENT	-8787
しまう	-8788
▁ani	-8789
▁ogranicz	-8790
5)	-8791
統領	-8792
▁zostanie	-8793
▁listop	-8794
自動車	-8795
oking	-8796
▁CN	-8797
▁1999	-8798
▁flu	-8799
IX	-8800
▁PRO	-8801
▁Sky	-8802
ifornia	-8803
▁artists	-8804
▁シ	-8805
iveness	-8806
▁trud	-8807
が生	-8808
luding	-8809
▁Striptiz	-8810
nim	-8811
▁SD	-8812
300	-8813
▁łącz	-8814
すぐに	-8815
能力	-8816
razil	-8817
61	-8818
azine	-8819
ロシア	-8820
▁recorded	-8821
-20	-8822
で行	-8823
点を	-8824
ford	-8825
▁Library	-8826
強い	-8827
に関して	-8828
少なく	-8829
▁netinu	-8830
▁fyl	-8831
とう	-8832
▁HT	-8833
ずれ	-8834
▁Lake	-8835
▁obejm	-8836
となっている	-8837
ado	-8838
ライブ	-8839
人に	-8840
▁shape	-8841
▁applicable	-8842
eld	-8843
▁dokon	-8844
▁zakład	-8845
▁starfs	-8846
▁Komisji	-8847
▁poor	-8848
▁lata	-8849
はその	-8850
▁dram	-8851
praca	-8852
cip	-8853
健康	-8854
▁Town	-8855
現代	-8856
▁touch	-8857
▁Oil	-8858
10.	-8859
▁tar	-8860
▁skills	-8861
表示されます	-8862
inux	-8863
▁ON	-8864
動き	-8865
▁tree	-8866
▁EL	-8867
دې	-8868
多様	-8869
andom	-8870
▁Treat	-8871
▁Work	-8872
nąć	-8873
▁もし	-8874
▁Parlament	-8875
las	-8876
素晴らしい	-8877
▁Saint	-8878
達が	-8879
▁அவர்கள்	-8880
▁Society	-8881
▁magnet	-8882
上が	-8883
▁importance	-8884
▁mur	-8885
▁moving	-8886
▁soft	-8887
▁Shop	-8888
▁Jehovah	-8889
வன	-8890
AY	-8891
求め	-8892
▁quant	-8893
▁begin	-8894
▁documents	-8895
▁fort	-8896
▁versions	-8897
anga	-8898
▁nation	-8899
▁ran	-8900
全ての	-8901
現在の	-8902
▁contents	-8903
▁lotnic	-8904
▁univers	-8905
▁User	-8906
などを	-8907
kyn	-8908
▁Zbliżenia	-8909
▁conducted	-8910
▁giving	-8911
▁Spe	-8912
▁diagn	-8913
reek	-8914
▁earn	-8915
推進	-8916
irus	-8917
வர	-8918
▁snow	-8919
▁Gry	-8920
ville	-8921
▁weap	-8922
▁ビ	-8923
合衆	-8924
ciel	-8925
しております	-8926
arcie	-8927
▁phen	-8928
電気	-8929
▁views	-8930
nętrz	-8931
▁instrument	-8932
リリース	-8933
生物	-8934
▁48	-8935
kvæmt	-8936
naður	-8937
▁defined	-8938
▁ボ	-8939
▁Sign	-8940
▁William	-8941
anum	-8942
▁Before	-8943
unków	-8944
▁odby	-8945
▁nowe	-8946
▁traffic	-8947
▁gó	-8948
られて	-8949
You	-8950
翻訳	-8951
nn	-8952
கு	-8953
公園	-8954
czes	-8955
Tube	-8956
fin	-8957
▁Maj	-8958
形成	-8959
▁fi	-8960
▁sources	-8961
ஸ்	-8962
▁Den	-8963
▁resolution	-8964
▁exactly	-8965
広告	-8966
希望	-8967
▁podz	-8968
▁miejscu	-8969
▁cerem	-8970
ものである	-8971
▁Long	-8972
▁entered	-8973
▁możesz	-8974
▁zało	-8975
されていない	-8976
▁Son	-8977
vin	-8978
▁huge	-8979
")	-8980
▁தே	-8981
美しい	-8982
▁pięk	-8983
が出	-8984
なりません	-8985
▁rzeczywist	-8986
ysz	-8987
▁Bath	-8988
ucleus	-8989
▁Roman	-8990
standing	-8991
▁aftur	-8992
になりました	-8993
▁prote	-8994
letter	-8995
▁Zoom	-8996
▁battle	-8997
▁możliwości	-8998
▁Old	-8999
aland	-9000
▁appre	-9001
▁fot	-9002
▁okres	-9003
▁produktu	-9004
▁grupy	-9005
ularz	-9006
▁krót	-9007
によると	-9008
▁stated	-9009
統合	-9010
▁nowych	-9011
制限	-9012
コミュニティ	-9013
anej	-9014
osure	-9015
▁Kontakt	-9016
ディング	-9017
ベン	-9018
▁entry	-9019
win	-9020
に対し	-9021
継続	-9022
▁reference	-9023
▁suitable	-9024
▁Travel	-9025
まれる	-9026
acific	-9027
▁drop	-9028
ாஹ	-9029
grywanie	-9030
▁sch	-9031
▁Access	-9032
▁Za	-9033
▁bezpieczeństwa	-9034
なければならない	-9035
▁secure	-9036
▁bók	-9037
▁イン	-9038
▁wait	-9039
▁wraz	-9040
schod	-9041
▁distribution	-9042
egund	-9043
始め	-9044
▁څخه	-9045
▁obowiąz	-9046
SL	-9047
wal	-9048
▁Org	-9049
owod	-9050
utt	-9051
þyk	-9052
▁Hand	-9053
kowa	-9054
距離	-9055
▁ancient	-9056
▁looks	-9057
▁houses	-9058
æti	-9059
ハン	-9060
▁Education	-9061
▁disp	-9062
▁ros	-9063
▁divid	-9064
▁þann	-9065
▁strategy	-9066
▁Annex	-9067
enz	-9068
▁przewodnicz	-9069
stof	-9070
cię	-9071
▁مع	-9072
▁temperat	-9073
achi	-9074
lan	-9075
▁nice	-9076
▁CMS	-9077
▁Hostel	-9078
KB	-9079
▁combination	-9080
▁degree	-9081
▁ラ	-9082
uta	-9083
▁otworzyć	-9084
▁Bad	-9085
▁LED	-9086
▁」	-9087
に関連	-9088
بر	-9089
▁ona	-9090
fu	-9091
▁ton	-9092
lucz	-9093
▁Odgrywanie	-9094
uszcz	-9095
▁Apartament	-9096
▁crisis	-9097
▁Spraw	-9098
リオ	-9099
▁Iran	-9100
▁uważ	-9101
▁sieci	-9102
ężczy	-9103
▁conven	-9104
upp	-9105
▁هم	-9106
▁selection	-9107
を見つける	-9108
ileg	-9109
▁decre	-9110
unek	-9111
▁Bible	-9112
▁factory	-9113
▁słownik	-9114
▁கா	-9115
▁Hor	-9116
▁eigin	-9117
▁ert	-9118
▁guide	-9119
▁leader	-9120
していない	-9121
źć	-9122
▁frag	-9123
事件	-9124
してみ	-9125
戦略	-9126
sm	-9127
▁Sym	-9128
▁Quality	-9129
▁administration	-9130
▁łazien	-9131
▁zapewnia	-9132
▁sztu	-9133
▁ディ	-9134
ライア	-9135
▁translation	-9136
▁meðferð	-9137
ito	-9138
▁pary	-9139
FS	-9140
と呼ばれる	-9141
▁League	-9142
arin	-9143
▁Summary	-9144
▁wskaz	-9145
▁Iron	-9146
▁osoby	-9147
öl	-9148
ブランド	-9149
ピック	-9150
▁nasze	-9151
▁gal	-9152
▁私たちは	-9153
▁Blog	-9154
▁stars	-9155
ホーム	-9156
ெர	-9157
▁Taniec	-9158
▁Ko	-9159
▁linked	-9160
41	-9161
▁influence	-9162
hent	-9163
▁Beach	-9164
▁laws	-9165
▁valid	-9166
ッケ	-9167
▁mál	-9168
▁ول	-9169
▁彼らは	-9170
▁paid	-9171
elp	-9172
▁Jednak	-9173
業界	-9174
▁Hong	-9175
▁minut	-9176
▁Zabawa	-9177
▁sufficient	-9178
▁sor	-9179
▁Francis	-9180
Go	-9181
▁("	-9182
ジオ	-9183
▁heavy	-9184
▁flex	-9185
▁university	-9186
FOR	-9187
kcyj	-9188
▁Text	-9189
ido	-9190
▁Robert	-9191
▁kart	-9192
▁conference	-9193
yczaj	-9194
▁Europie	-9195
arium	-9196
▁chance	-9197
▁aid	-9198
▁Washing	-9199
aling	-9200
▁package	-9201
fe	-9202
言う	-9203
ionych	-9204
▁takim	-9205
▁fær	-9206
▁zacz	-9207
ットの	-9208
▁人	-9209
▁drivers	-9210
▁lý	-9211
▁stof	-9212
▁varð	-9213
▁synt	-9214
umin	-9215
▁ją	-9216
▁generally	-9217
enger	-9218
スポ	-9219
▁NAS	-9220
▁daughter	-9221
ipping	-9222
▁ræ	-9223
▁przesz	-9224
▁próf	-9225
興味	-9226
▁felt	-9227
ktyw	-9228
ales	-9229
LE	-9230
メートル	-9231
▁characteristics	-9232
▁domu	-9233
▁stores	-9234
▁commit	-9235
ستان	-9236
▁construct	-9237
▁służ	-9238
のでしょう	-9239
▁reality	-9240
必ず	-9241
ingering	-9242
sku	-9243
▁amerykań	-9244
▁participants	-9245
cont	-9246
▁input	-9247
prowadzi	-9248
obacz	-9249
▁dokument	-9250
owyw	-9251
▁stone	-9252
▁1980	-9253
シーズ	-9254
3/	-9255
▁Pot	-9256
▁thinking	-9257
▁Invest	-9258
ył	-9259
heng	-9260
▁000	-9261
alnych	-9262
gest	-9263
▁certainly	-9264
▁desp	-9265
Ex	-9266
▁なお	-9267
▁pomocą	-9268
غان	-9269
ształ	-9270
▁interests	-9271
▁ums	-9272
の場合	-9273
▁Select	-9274
私たちは	-9275
▁Bílale	-9276
▁individuals	-9277
▁klik	-9278
▁rule	-9279
embly	-9280
auka	-9281
▁hætt	-9282
iemi	-9283
▁Fact	-9284
▁inj	-9285
lax	-9286
▁naz	-9287
資金	-9288
ipe	-9289
cznej	-9290
▁Est	-9291
ded	-9292
awia	-9293
業務	-9294
彼らは	-9295
▁Popular	-9296
rative	-9297
▁Dev	-9298
正確	-9299
▁uzyska	-9300
▁rozpocz	-9301
.'	-9302
▁offering	-9303
プログラムの	-9304
▁Więcej	-9305
を生	-9306
ズム	-9307
ید	-9308
▁pak	-9309
ていない	-9310
▁koment	-9311
を超	-9312
▁palcami	-9313
▁England	-9314
かれ	-9315
▁requires	-9316
▁Prime	-9317
▁czyt	-9318
ヴェ	-9319
▁PDF	-9320
188	-9321
▁もう	-9322
eig	-9323
▁Font	-9324
▁hall	-9325
オペ	-9326
ソー	-9327
odies	-9328
APAN	-9329
uff	-9330
▁\	-9331
▁rzeczy	-9332
収集	-9333
キシ	-9334
▁wrote	-9335
スカ	-9336
提案	-9337
▁cancer	-9338
ミュー	-9339
▁Lear	-9340
▁tíma	-9341
実際に	-9342
▁minimum	-9343
テキスト	-9344
▁często	-9345
▁ox	-9346
デバイスの	-9347
▁Mem	-9348
▁daw	-9349
▁Championship	-9350
IK	-9351
しません	-9352
Re	-9353
ガイド	-9354
▁sjálf	-9355
▁Att	-9356
▁electronic	-9357
▁correspond	-9358
▁Their	-9359
プラット	-9360
▁objects	-9361
▁History	-9362
▁pracow	-9363
▁Oferujemy	-9364
われている	-9365
field	-9366
anym	-9367
osa	-9368
▁visited	-9369
▁ISO	-9370
▁Brazil	-9371
ッツ	-9372
▁photograph	-9373
▁kontakt	-9374
の子	-9375
▁duch	-9376
▁finished	-9377
▁estim	-9378
▁Exper	-9379
onia	-9380
▁ام	-9381
▁maintenance	-9382
uba	-9383
▁~	-9384
▁kyn	-9385
66	-9386
▁kwiet	-9387
概要	-9388
▁piece	-9389
を開始	-9390
獲得	-9391
▁odpowiedzial	-9392
▁happened	-9393
空間	-9394
▁Women	-9395
▁master	-9396
▁Card	-9397
▁fell	-9398
▁rozszerzenia	-9399
▁artyku	-9400
owanej	-9401
▁launched	-9402
▁sleep	-9403
▁clearly	-9404
▁registered	-9405
▁(2)	-9406
CS	-9407
kości	-9408
イエ	-9409
fil	-9410
ichi	-9411
実現	-9412
▁panel	-9413
▁policies	-9414
alny	-9415
▁height	-9416
▁mast	-9417
heim	-9418
▁Kości	-9419
ヨーク	-9420
マネ	-9421
▁Bul	-9422
書き	-9423
▁oczy	-9424
icious	-9425
▁Cena	-9426
aczyć	-9427
▁ideas	-9428
▁consumption	-9429
...。	-9430
▁intended	-9431
▁Language	-9432
▁beyond	-9433
▁skamm	-9434
▁Jo	-9435
cję	-9436
▁loft	-9437
free	-9438
▁Forum	-9439
▁Jud	-9440
▁Bang	-9441
pret	-9442
スティ	-9443
▁procedure	-9444
▁Expl	-9445
▁Rich	-9446
修正	-9447
コンピュータに	-9448
▁sprawdzić	-9449
oba	-9450
chang	-9451
▁ogól	-9452
wersyt	-9453
▁concerned	-9454
アフリカ	-9455
▁nr	-9456
▁Series	-9457
▁umożliw	-9458
許可	-9459
▁agree	-9460
▁Europy	-9461
ここ	-9462
▁Fort	-9463
▁clin	-9464
▁solve	-9465
▁dur	-9466
▁Hen	-9467
odów	-9468
▁என	-9469
rapy	-9470
▁negot	-9471
家に	-9472
しくは	-9473
amic	-9474
▁Ven	-9475
▁உள்ள	-9476
簡単に	-9477
idel	-9478
と思う	-9479
rogen	-9480
▁obywat	-9481
▁listed	-9482
▁feeling	-9483
わらず	-9484
▁pairs	-9485
▁recovery	-9486
aca	-9487
▁lived	-9488
▁Pay	-9489
▁opportunities	-9490
▁machines	-9491
▁earlier	-9492
▁ஆக	-9493
ちゃん	-9494
▁Kat	-9495
ár	-9496
▁phrase	-9497
▁hel	-9498
とその	-9499
▁6,	-9500
rier	-9501
完全に	-9502
▁fuel	-9503
▁films	-9504
▁Love	-9505
▁Opt	-9506
チャー	-9507
▁swim	-9508
▁7,	-9509
▁Ist	-9510
▁television	-9511
▁Satur	-9512
▁besta	-9513
72	-9514
▁rot	-9515
写真素材	-9516
当社	-9517
回復	-9518
oczes	-9519
▁Big	-9520
することができる	-9521
▁sympt	-9522
▁ludz	-9523
▁majority	-9524
記載	-9525
プロセス	-9526
▁cat	-9527
供給	-9528
する方法	-9529
▁Regulation	-9530
▁associate	-9531
交換	-9532
▁arg	-9533
▁actual	-9534
▁hl	-9535
方向	-9536
オブ	-9537
▁ruch	-9538
らを	-9539
▁Rock	-9540
▁;	-9541
bierz	-9542
வை	-9543
独立	-9544
▁aw	-9545
uls	-9546
▁spok	-9547
▁flight	-9548
▁postęp	-9549
DA	-9550
டன்	-9551
▁Fyr	-9552
▁Head	-9553
▁meira	-9554
▁nies	-9555
▁Once	-9556
▁dzis	-9557
ドラ	-9558
odaw	-9559
▁stru	-9560
▁responsibility	-9561
▁dedicated	-9562
▁Las	-9563
▁Boga	-9564
tra	-9565
▁posiada	-9566
ART	-9567
▁prison	-9568
▁Mun	-9569
ęg	-9570
▁神	-9571
alm	-9572
ąca	-9573
▁oh	-9574
்த்த	-9575
▁voice	-9576
発電	-9577
フリー写真素材	-9578
wiście	-9579
▁prost	-9580
停止	-9581
知識	-9582
▁Ísl	-9583
93	-9584
▁Bílaleiga	-9585
▁przyczy	-9586
▁tried	-9587
▁Academy	-9588
otele	-9589
▁lag	-9590
願い	-9591
▁33	-9592
▁phase	-9593
▁launch	-9594
▁szczegół	-9595
▁museum	-9596
down	-9597
▁wiadom	-9598
再生	-9599
cesz	-9600
▁Cho	-9601
▁tea	-9602
▁larger	-9603
lo	-9604
▁worldwide	-9605
arc	-9606
▁dobrze	-9607
さを	-9608
bel	-9609
最近	-9610
agraph	-9611
を通して	-9612
付き	-9613
bez	-9614
▁compat	-9615
▁kg	-9616
▁moc	-9617
CE	-9618
▁jobs	-9619
▁Description	-9620
hou	-9621
▁Ur	-9622
▁decyz	-9623
画面	-9624
▁cer	-9625
▁アメリカ	-9626
▁zmien	-9627
rott	-9628
▁Buddh	-9629
ategories	-9630
方が	-9631
மைய	-9632
▁viðskiptav	-9633
வர்கள	-9634
▁specified	-9635
▁festival	-9636
▁California	-9637
ものと	-9638
▁188	-9639
▁mér	-9640
▁planning	-9641
▁ال	-9642
と共に	-9643
rehens	-9644
▁transform	-9645
▁yen	-9646
owski	-9647
その後	-9648
▁widok	-9649
▁army	-9650
▁benefit	-9651
▁kitchen	-9652
▁awarded	-9653
▁automatic	-9654
ublik	-9655
PR	-9656
▁reduction	-9657
結婚	-9658
▁atmosphere	-9659
▁ゆん	-9660
▁appointed	-9661
▁milli	-9662
▁anyone	-9663
▁prec	-9664
設備	-9665
世界の	-9666
フリー写真素材集	-9667
最大の	-9668
▁powodu	-9669
▁ゆんフリー写真素材集	-9670
DI	-9671
時点	-9672
▁slight	-9673
性能	-9674
active	-9675
▁Ostat	-9676
▁scale	-9677
ishing	-9678
▁pis	-9679
▁Instant	-9680
▁2:	-9681
▁den	-9682
トラン	-9683
TV	-9684
ウンド	-9685
いたします	-9686
▁compar	-9687
▁flowers	-9688
▁rub	-9689
▁trakcie	-9690
▁dor	-9691
▁120	-9692
▁colors	-9693
を実現	-9694
▁Sov	-9695
▁eye	-9696
入り	-9697
etic	-9698
オフ	-9699
の中に	-9700
▁flug	-9701
ía	-9702
▁Category	-9703
▁Taiwan	-9704
▁appearance	-9705
▁Market	-9706
が可能	-9707
▁38	-9708
▁opinion	-9709
▁Lotnisko	-9710
かけて	-9711
▁Another	-9712
▁balance	-9713
▁prawdz	-9714
記念	-9715
▁termin	-9716
niego	-9717
▁ekran	-9718
障害	-9719
▁planet	-9720
uit	-9721
▁mgr	-9722
owanego	-9723
▁reservation	-9724
Default	-9725
ないと	-9726
zeum	-9727
▁Human	-9728
ildo	-9729
▁dniu	-9730
lay	-9731
広い	-9732
▁Apple	-9733
▁całkow	-9734
国家	-9735
▁recogniz	-9736
▁Asian	-9737
▁fest	-9738
▁conversion	-9739
iguration	-9740
▁Box	-9741
▁Lim	-9742
▁Dou	-9743
ショップ	-9744
ker	-9745
▁obecnie	-9746
▁Area	-9747
▁tap	-9748
▁Orgazm	-9749
出力	-9750
91	-9751
▁(200	-9752
▁(3	-9753
にした	-9754
udden	-9755
▁dyre	-9756
▁fundament	-9757
▁James	-9758
ガン	-9759
▁budyn	-9760
▁例えば	-9761
▁danger	-9762
úr	-9763
ジャー	-9764
▁zostało	-9765
▁Þegar	-9766
▁Chryst	-9767
każ	-9768
▁小	-9769
ector	-9770
▁circum	-9771
nieje	-9772
▁Products	-9773
▁cards	-9774
cks	-9775
ece	-9776
▁Ele	-9777
▁scientific	-9778
ギャ	-9779
▁względu	-9780
draw	-9781
▁remained	-9782
▁Master	-9783
▁bab	-9784
▁profile	-9785
▁tygod	-9786
▁moder	-9787
▁effort	-9788
▁kill	-9789
▁grand	-9790
ailed	-9791
を実行	-9792
保証	-9793
▁جوړ	-9794
▁flo	-9795
▁Administ	-9796
▁افغان	-9797
すぎ	-9798
▁theme	-9799
ulations	-9800
こちら	-9801
▁acid	-9802
情報は	-9803
レスト	-9804
yczna	-9805
▁دې	-9806
plug	-9807
94	-9808
▁beauty	-9809
▁Studio	-9810
▁lut	-9811
同時に	-9812
koń	-9813
uł	-9814
rical	-9815
▁zainstal	-9816
パラ	-9817
▁Shin	-9818
▁nav	-9819
▁USD	-9820
▁Privacy	-9821
裁判	-9822
発売	-9823
uren	-9824
do	-9825
▁01	-9826
mniej	-9827
▁zasad	-9828
▁sierp	-9829
▁ingred	-9830
かれた	-9831
色の	-9832
▁را	-9833
▁odleg	-9834
▁ژ	-9835
▁affect	-9836
OV	-9837
Nucleus	-9838
iring	-9839
▁doub	-9840
▁öðrum	-9841
ester	-9842
▁advantage	-9843
▁prysz	-9844
▁recover	-9845
州の	-9846
果た	-9847
事実	-9848
7)	-9849
問題が	-9850
▁وک	-9851
▁overall	-9852
▁End	-9853
ものの	-9854
▁historical	-9855
legum	-9856
所有	-9857
ティスト	-9858
▁flat	-9859
▁bright	-9860
・・	-9861
pet	-9862
コスト	-9863
▁monitoring	-9864
古い	-9865
▁wine	-9866
▁Girl	-9867
▁nadal	-9868
▁kor	-9869
▁Mel	-9870
▁niew	-9871
▁bag	-9872
▁trees	-9873
予測	-9874
yng	-9875
イタリア	-9876
サーバ	-9877
▁female	-9878
▁タ	-9879
▁verk	-9880
▁trady	-9881
eters	-9882
EST	-9883
ートの	-9884
▁reading	-9885
pracy	-9886
astęp	-9887
▁couple	-9888
▁aðeins	-9889
▁rare	-9890
▁áður	-9891
தை	-9892
▁Slov	-9893
EW	-9894
▁Michael	-9895
ador	-9896
▁hus	-9897
▁szybko	-9898
▁Agency	-9899
▁þessum	-9900
CR	-9901
▁þessa	-9902
が含まれ	-9903
選挙	-9904
▁Jun	-9905
▁links	-9906
記の	-9907
▁mob	-9908
ieszcz	-9909
imb	-9910
▁św	-9911
独自	-9912
▁Person	-9913
▁jar	-9914
▁feet	-9915
▁nak	-9916
▁join	-9917
▁języków	-9918
▁zawart	-9919
上に	-9920
▁læk	-9921
教会	-9922
再び	-9923
▁mys	-9924
▁Emperor	-9925
▁kept	-9926
76	-9927
▁pamię	-9928
中央	-9929
ற்று	-9930
▁ده	-9931
▁wannan	-9932
▁girls	-9933
▁yana	-9934
▁கொண்ட	-9935
▁primary	-9936
▁مح	-9937
ying	-9938
大統領	-9939
▁kem	-9940
▁plug	-9941
▁அரச	-9942
▁Księży	-9943
▁pełni	-9944
▁reprezent	-9945
▁imag	-9946
For	-9947
キリスト	-9948
nivers	-9949
ogen	-9950
▁こう	-9951
SA	-9952
oni	-9953
▁ost	-9954
▁ور	-9955
▁priest	-9956
▁Fingering	-9957
ałem	-9958
osis	-9959
▁Vietnam	-9960
▁Radio	-9961
達成	-9962
デジタル	-9963
▁Rev	-9964
全て	-9965
▁Fer	-9966
▁conflic	-9967
自身の	-9968
▁spent	-9969
▁Both	-9970
▁temple	-9971
śród	-9972
▁klas	-9973
総合	-9974
▁intellig	-9975
はこの	-9976
かい	-9977
uchen	-9978
▁programme	-9979
ござ	-9980
▁użycia	-9981
anin	-9982
▁Transport	-9983
▁nic	-9984
▁biał	-9985
▁theory	-9986
▁przypad	-9987
▁skoj	-9988
▁mieszkań	-9989
▁kop	-9990
▁Peter	-9991
▁wysp	-9992
するか	-9993
▁breytt	-9994
平均	-9995
▁furn	-9996
ラル	-9997
▁Province	-9998
▁örugglega	-9999
othes	-10000
▁10,	-10001
▁września	-10002
endar	-10003
ibli	-10004
性が	-10005
▁client	-10006
umi	-10007
Vendor	-10008
▁Available	-10009
▁veget	-10010
▁znaleźć	-10011
同意	-10012
▁grup	-10013
▁Singap	-10014
▁figure	-10015
▁aka	-10016
▁wob	-10017
place	-10018
大会	-10019
っており	-10020
▁corporate	-10021
以来	-10022
▁wypadku	-10023
▁becoming	-10024
▁eg	-10025
▁Ann	-10026
アルバ	-10027
kg	-10028
▁Szczeg	-10029
日は	-10030
▁factors	-10031
▁ProgID	-10032
▁wire	-10033
▁Him	-10034
▁Environment	-10035
MyApplication	-10036
共和	-10037
ものが	-10038
▁ProgramVendor	-10039
kowo	-10040
▁spac	-10041
▁removed	-10042
▁characters	-10043
▁pp	-10044
▁Vill	-10045
主に	-10046
▁kilku	-10047
▁wcześniej	-10048
▁Hung	-10049
rd	-10050
▁apartament	-10051
/12	-10052
ني	-10053
同様に	-10054
指導	-10055
▁Lou	-10056
▁Code	-10057
地域の	-10058
▁Veg	-10059
▁zare	-10060
▁kaf	-10061
owymi	-10062
▁dose	-10063
ky	-10064
tedy	-10065
信号	-10066
▁新しい	-10067
▁issued	-10068
けど	-10069
▁Með	-10070
▁詳細	-10071
▁Prz	-10072
ocratic	-10073
下さい	-10074
▁remove	-10075
▁core	-10076
▁fyrirt	-10077
▁prowadzi	-10078
▁repair	-10079
▁Ins	-10080
czna	-10081
▁nadz	-10082
▁liqu	-10083
▁Pass	-10084
ugal	-10085
▁eleg	-10086
:19	-10087
▁George	-10088
▁szk	-10089
ブラウ	-10090
▁mel	-10091
aza	-10092
▁vinn	-10093
58	-10094
▁usun	-10095
▁klimatyz	-10096
▁Zw	-10097
されており	-10098
'.	-10099
▁funds	-10100
▁gun	-10101
▁Planet	-10102
▁என்ற	-10103
▁ただし	-10104
▁reduced	-10105
▁election	-10106
▁puzzle	-10107
プラットフォーム	-10108
odob	-10109
▁rise	-10110
▁Store	-10111
▁1000	-10112
▁wej	-10113
szech	-10114
▁Ire	-10115
オープン	-10116
ounds	-10117
ファン	-10118
▁switch	-10119
▁organized	-10120
電力	-10121
▁Tag	-10122
▁Ref	-10123
▁8,	-10124
ニューヨーク	-10125
▁sen	-10126
▁ended	-10127
▁czerwca	-10128
▁procedures	-10129
▁HTTP	-10130
▁1970	-10131
▁CH	-10132
ules	-10133
▁guaranteed	-10134
▁stanowi	-10135
ミング	-10136
▁wpis	-10137
▁37	-10138
楽しみ	-10139
▁resistance	-10140
Script	-10141
▁toal	-10142
anki	-10143
ほか	-10144
▁provisions	-10145
▁square	-10146
▁北	-10147
ordin	-10148
▁koszt	-10149
▁Space	-10150
oes	-10151
▁180	-10152
エスト	-10153
▁Registry	-10154
時には	-10155
▁helps	-10156
▁miasto	-10157
▁(18	-10158
▁Pog	-10159
▁Control	-10160
▁Author	-10161
考える	-10162
hop	-10163
▁taste	-10164
▁SH	-10165
▁Electric	-10166
することも	-10167
▁gór	-10168
▁dance	-10169
ちょ	-10170
られています	-10171
ツアー	-10172
▁mountains	-10173
Cl	-10174
وب	-10175
▁Foreign	-10176
▁Vers	-10177
▁yes	-10178
▁Indones	-10179
czyć	-10180
▁Lo	-10181
▁skutecz	-10182
▁medium	-10183
▁uruchom	-10184
▁achieved	-10185
物質	-10186
ټر	-10187
▁intel	-10188
▁君	-10189
UL	-10190
▁poj	-10191
▁depos	-10192
gency	-10193
にして	-10194
▁aż	-10195
▁otwart	-10196
▁zew	-10197
▁Garden	-10198
▁możemy	-10199
▁デジタル	-10200
▁diam	-10201
które	-10202
▁dysk	-10203
eśmy	-10204
▁Express	-10205
▁accepted	-10206
ervation	-10207
itage	-10208
▁hop	-10209
▁Bog	-10210
iano	-10211
としている	-10212
ること	-10213
じた	-10214
▁siebie	-10215
▁tytu	-10216
▁Dan	-10217
した場合	-10218
ミュ	-10219
▁accomp	-10220
▁tę	-10221
itu	-10222
▁す	-10223
取り扱う	-10224
▁dź	-10225
▁calls	-10226
owaniem	-10227
mál	-10228
▁module	-10229
▁chosen	-10230
▁مخ	-10231
▁artist	-10232
▁ratings	-10233
/11	-10234
グレ	-10235
▁context	-10236
▁proposed	-10237
▁leaves	-10238
▁bul	-10239
でに	-10240
▁amb	-10241
▁honum	-10242
▁eth	-10243
▁セ	-10244
▁wani	-10245
▁Rail	-10246
▁Turkey	-10247
▁zespoł	-10248
▁utrzym	-10249
ycznego	-10250
íu	-10251
▁testing	-10252
クラブ	-10253
システムの	-10254
▁samþyk	-10255
データベース	-10256
スポーツ	-10257
▁あら	-10258
▁married	-10259
▁Arts	-10260
を引き	-10261
arzenia	-10262
▁Change	-10263
icznego	-10264
▁spotk	-10265
▁initial	-10266
hy	-10267
▁replaced	-10268
▁resol	-10269
▁sölu	-10270
▁Dy	-10271
に取り	-10272
▁undert	-10273
struction	-10274
をサポート	-10275
▁border	-10276
▁மீ	-10277
▁energii	-10278
▁அல்லாஹ	-10279
▁trad	-10280
すべき	-10281
rations	-10282
▁forum	-10283
phas	-10284
▁translations	-10285
erman	-10286
▁1998	-10287
ndu	-10288
Nie	-10289
▁decla	-10290
emporary	-10291
▁skip	-10292
ICS	-10293
▁waste	-10294
▁Christmas	-10295
ケース	-10296
具体	-10297
▁fashion	-10298
カリ	-10299
▁fruit	-10300
しながら	-10301
軍の	-10302
▁comments	-10303
▁protected	-10304
▁notað	-10305
brig	-10306
ப்பட	-10307
56	-10308
▁Ana	-10309
▁mieć	-10310
zyj	-10311
ova	-10312
▁tor	-10313
▁Apartment	-10314
▁maja	-10315
▁ベ	-10316
▁Zad	-10317
▁Mill	-10318
lip	-10319
周辺	-10320
▁diss	-10321
TF	-10322
▁elektry	-10323
▁Order	-10324
▁誰	-10325
wał	-10326
dę	-10327
▁restrict	-10328
地震	-10329
czył	-10330
▁Tow	-10331
▁producent	-10332
ファー	-10333
cje	-10334
▁fif	-10335
FORM	-10336
icate	-10337
▁follows	-10338
▁Adv	-10339
▁dozens	-10340
▁jednego	-10341
lað	-10342
And	-10343
時間を	-10344
▁organizations	-10345
▁Pack	-10346
▁relax	-10347
PG	-10348
▁Jed	-10349
▁multi	-10350
▁Saturday	-10351
▁Secret	-10352
▁Zeta	-10353
▁hotelu	-10354
við	-10355
探偵	-10356
▁வர	-10357
トーク	-10358
▁Bos	-10359
完成	-10360
▁infrastructure	-10361
ிகள	-10362
▁ris	-10363
2018	-10364
り返	-10365
はじめ	-10366
▁Buy	-10367
BM	-10368
legur	-10369
▁października	-10370
▁stycznia	-10371
▁sac	-10372
▁domestic	-10373
ysty	-10374
-11	-10375
▁Yosh	-10376
▁öllum	-10377
tage	-10378
▁podróż	-10379
▁JAPAN	-10380
AND	-10381
▁subsequ	-10382
▁Gar	-10383
lej	-10384
liz	-10385
▁pret	-10386
▁experienced	-10387
▁spect	-10388
ansion	-10389
ショナル	-10390
▁Economic	-10391
ாக்க	-10392
わか	-10393
▁session	-10394
ademic	-10395
▁assistance	-10396
▁ochrony	-10397
▁jedynie	-10398
▁11.	-10399
alize	-10400
イメージ	-10401
資料	-10402
▁wzm	-10403
venue	-10404
oi	-10405
ミー	-10406
▁changing	-10407
▁bottom	-10408
▁prysznic	-10409
投稿	-10410
luded	-10411
atre	-10412
▁Cloud	-10413
▁sezon	-10414
▁சு	-10415
▁Tim	-10416
▁subs	-10417
▁affected	-10418
を中心	-10419
▁consists	-10420
▁tend	-10421
▁Rome	-10422
▁novel	-10423
ifications	-10424
ガス	-10425
認め	-10426
rich	-10427
▁bon	-10428
高速	-10429
▁ub	-10430
óp	-10431
▁Energy	-10432
主張	-10433
ðun	-10434
やすい	-10435
ده	-10436
owanym	-10437
深い	-10438
▁Blu	-10439
落ち	-10440
▁matters	-10441
▁elimin	-10442
To	-10443
助け	-10444
エリア	-10445
▁letter	-10446
▁Holy	-10447
段階	-10448
▁determined	-10449
ifying	-10450
nament	-10451
▁otwier	-10452
▁obtained	-10453
複雑	-10454
▁gain	-10455
部品	-10456
▁produkty	-10457
▁sklep	-10458
▁fjöl	-10459
friend	-10460
▁þjónustu	-10461
目を	-10462
▁chron	-10463
▁Tam	-10464
意見	-10465
▁dictionaries	-10466
▁þur	-10467
わった	-10468
▁Ot	-10469
using	-10470
ycznie	-10471
▁task	-10472
enced	-10473
方で	-10474
race	-10475
▁zgodnie	-10476
▁Far	-10477
க்கிற	-10478
ozy	-10479
▁razem	-10480
▁நட	-10481
▁Kos	-10482
はありません	-10483
ルー	-10484
GI	-10485
▁kup	-10486
▁wybran	-10487
▁investig	-10488
▁zajm	-10489
▁250	-10490
othing	-10491
▁Conference	-10492
▁newly	-10493
icj	-10494
nać	-10495
そらく	-10496
▁Conf	-10497
▁shopping	-10498
▁அற	-10499
ificate	-10500
▁Mobile	-10501
iture	-10502
▁religious	-10503
限り	-10504
▁odb	-10505
azing	-10506
サービスの	-10507
atsu	-10508
▁Wall	-10509
▁depending	-10510
▁człowieka	-10511
▁dokład	-10512
▁Kal	-10513
ella	-10514
▁gwar	-10515
can	-10516
当て	-10517
jdź	-10518
▁jafn	-10519
▁Table	-10520
▁ice	-10521
▁optim	-10522
ピング	-10523
ywhere	-10524
więt	-10525
ッカー	-10526
▁Bir	-10527
400	-10528
zył	-10529
▁porów	-10530
!"	-10531
▁IV	-10532
▁þró	-10533
▁fly	-10534
kin	-10535
意識	-10536
分の	-10537
▁Cur	-10538
lok	-10539
▁dim	-10540
▁sze	-10541
▁animal	-10542
▁tłumaczenia	-10543
▁Quest	-10544
えない	-10545
▁guest	-10546
フロ	-10547
まし	-10548
▁discovered	-10549
▁comfortable	-10550
の後	-10551
▁þær	-10552
▁overse	-10553
GB	-10554
エラー	-10555
▁układ	-10556
▁amf	-10557
▁Sant	-10558
iced	-10559
izer	-10560
▁okay	-10561
マーク	-10562
▁exceed	-10563
▁Poł	-10564
▁هغه	-10565
本当に	-10566
運転	-10567
申し	-10568
▁gonna	-10569
トップ	-10570
▁delet	-10571
モード	-10572
iania	-10573
立つ	-10574
▁obsług	-10575
▁Georg	-10576
▁Make	-10577
▁bird	-10578
▁Słow	-10579
▁کور	-10580
▁Father	-10581
▁suka	-10582
riage	-10583
▁dig	-10584
▁ی	-10585
skil	-10586
▁bound	-10587
▁emb	-10588
▁renew	-10589
▁各	-10590
▁75	-10591
ółpraca	-10592
▁Pacific	-10593
オリ	-10594
iba	-10595
equ	-10596
abilities	-10597
▁hal	-10598
▁forecast	-10599
்ய	-10600
63	-10601
料金	-10602
私が	-10603
▁teams	-10604
▁Castle	-10605
証明	-10606
▁vör	-10607
▁Exchange	-10608
▁kuchen	-10609
▁nur	-10610
▁Sem	-10611
▁integrated	-10612
encja	-10613
▁efni	-10614
▁Ga	-10615
アカウント	-10616
▁oferujemy	-10617
▁kości	-10618
add	-10619
▁phil	-10620
▁ジャ	-10621
utch	-10622
Pom	-10623
ுடைய	-10624
ும்ப	-10625
▁myself	-10626
アナ	-10627
検出	-10628
▁1960	-10629
▁pet	-10630
abol	-10631
▁செய்த	-10632
▁despite	-10633
メニュー	-10634
▁Rady	-10635
---	-10636
▁Zal	-10637
▁miesięcy	-10638
▁raised	-10639
▁prezy	-10640
▁Pra	-10641
基準	-10642
▁boy	-10643
ścia	-10644
▁stał	-10645
வர்	-10646
▁yeah	-10647
naðar	-10648
▁sort	-10649
▁articles	-10650
▁Wood	-10651
▁Arm	-10652
▁Toilet	-10653
anka	-10654
If	-10655
asu	-10656
▁registry	-10657
oster	-10658
▁tourist	-10659
▁Extension	-10660
alla	-10661
▁Evróp	-10662
▁perman	-10663
ratt	-10664
ன்று	-10665
▁Zar	-10666
iability	-10667
▁grudnia	-10668
▁Santa	-10669
▁possib	-10670
ilipp	-10671
▁zwiększ	-10672
omatic	-10673
▁concert	-10674
▁som	-10675
▁rozpoczę	-10676
▁współpracy	-10677
▁Prag	-10678
▁zostać	-10679
▁scene	-10680
osing	-10681
ハード	-10682
There	-10683
with	-10684
▁African	-10685
ós	-10686
▁Family	-10687
▁nowego	-10688
▁tests	-10689
▁wszel	-10690
▁Croat	-10691
stur	-10692
ファイルを開く	-10693
▁Copyright	-10694
議論	-10695
▁troub	-10696
zt	-10697
ファイ	-10698
legar	-10699
▁income	-10700
▁Cath	-10701
▁wants	-10702
▁exercise	-10703
▁Cert	-10704
どこ	-10705
を追加	-10706
▁operator	-10707
hu	-10708
ナダ	-10709
▁candid	-10710
ストラリア	-10711
▁dostar	-10712
ński	-10713
▁stabil	-10714
▁establishment	-10715
量の	-10716
▁Kaz	-10717
▁TO	-10718
▁raun	-10719
であると	-10720
▁Plus	-10721
▁opinii	-10722
TT	-10723
▁facility	-10724
▁innan	-10725
farandi	-10726
▁Bill	-10727
ishi	-10728
▁Win	-10729
vements	-10730
opol	-10731
▁terror	-10732
▁problemów	-10733
あまり	-10734
▁wyż	-10735
▁bygg	-10736
▁comprehens	-10737
▁defe	-10738
▁południ	-10739
9)	-10740
▁rodzin	-10741
▁insurance	-10742
cznego	-10743
▁wyłącz	-10744
正しく	-10745
▁każdego	-10746
▁proceed	-10747
▁lect	-10748
FR	-10749
▁previously	-10750
62	-10751
▁plate	-10752
-15	-10753
dze	-10754
▁prawo	-10755
rome	-10756
▁Color	-10757
▁Austria	-10758
▁ponownie	-10759
内で	-10760
としても	-10761
UP	-10762
oła	-10763
▁bara	-10764
razy	-10765
▁claim	-10766
プロセ	-10767
▁aðildarrík	-10768
ością	-10769
▁frábær	-10770
▁Washington	-10771
▁※	-10772
▁agreed	-10773
arp	-10774
▁gard	-10775
数が	-10776
▁sudden	-10777
▁isn	-10778
%.	-10779
த்தின்	-10780
▁Cr	-10781
ボード	-10782
▁iż	-10783
▁Photo	-10784
▁Transl	-10785
▁fylg	-10786
こそ	-10787
▁District	-10788
▁Zjednoczonych	-10789
▁Flash	-10790
検討	-10791
明らかに	-10792
きたい	-10793
▁mieście	-10794
-18	-10795
▁advance	-10796
アーティスト	-10797
▁requests	-10798
▁fixed	-10799
マンド	-10800
▁600	-10801
▁records	-10802
CI	-10803
映像	-10804
▁eventually	-10805
パートナー	-10806
▁listen	-10807
SE	-10808
▁AL	-10809
▁bestu	-10810
エイ	-10811
▁knew	-10812
▁Team	-10813
ykle	-10814
▁Such	-10815
▁nearly	-10816
sen	-10817
▁pursu	-10818
▁trakt	-10819
出身	-10820
rzeg	-10821
出した	-10822
iff	-10823
▁feng	-10824
▁intens	-10825
スキ	-10826
確保	-10827
▁older	-10828
▁mín	-10829
のですか	-10830
▁extended	-10831
Press	-10832
▁exclus	-10833
▁assum	-10834
▁chciał	-10835
▁oprac	-10836
rok	-10837
▁zakup	-10838
bian	-10839
配置	-10840
łych	-10841
▁kinds	-10842
▁@	-10843
▁maga	-10844
観測	-10845
成果	-10846
▁pul	-10847
植物	-10848
▁Standard	-10849
▁dziesiąt	-10850
▁kat	-10851
▁experiences	-10852
ius	-10853
することができ	-10854
マーケ	-10855
ユーザーの	-10856
ecutive	-10857
▁Ekki	-10858
▁arrang	-10859
▁Official	-10860
▁interface	-10861
▁jednost	-10862
73	-10863
ruction	-10864
ハー	-10865
TML	-10866
▁ren	-10867
▁FAQ	-10868
edł	-10869
cą	-10870
iary	-10871
eler	-10872
▁Fun	-10873
nictwa	-10874
.00	-10875
▁tworzeniu	-10876
▁movie	-10877
omas	-10878
▁inh	-10879
czych	-10880
▁Bóg	-10881
ிலும்	-10882
▁thousand	-10883
▁Ira	-10884
▁Dlatego	-10885
されない	-10886
アの	-10887
▁istot	-10888
▁indicated	-10889
rie	-10890
ものは	-10891
▁Soviet	-10892
ダム	-10893
▁پو	-10894
▁bog	-10895
▁emphas	-10896
なった	-10897
andora	-10898
▁Tro	-10899
組み合わせ	-10900
を目指	-10901
▁Mur	-10902
▁yellow	-10903
▁IM	-10904
連携	-10905
取る	-10906
sch	-10907
▁Wie	-10908
精神	-10909
▁ald	-10910
right	-10911
▁husband	-10912
bezpie	-10913
▁detailed	-10914
チュー	-10915
▁blóð	-10916
bert	-10917
4/	-10918
heast	-10919
▁negoti	-10920
話を	-10921
▁thick	-10922
▁cze	-10923
▁Whe	-10924
▁ټول	-10925
alem	-10926
▁managed	-10927
▁dress	-10928
▁bless	-10929
▁info	-10930
▁meteo	-10931
▁samkvæmt	-10932
▁Customer	-10933
ses	-10934
▁płyt	-10935
▁Roleplay	-10936
niversary	-10937
▁yan	-10938
▁języku	-10939
▁serwis	-10940
▁bæ	-10941
ګه	-10942
ほぼ	-10943
▁najlepszego	-10944
▁ENG	-10945
yngd	-10946
nę	-10947
▁僕	-10948
▁Hit	-10949
▁aug	-10950
フィールド	-10951
fið	-10952
▁Number	-10953
▁Hu	-10954
▁związku	-10955
▁gets	-10956
とか	-10957
を受けた	-10958
▁trib	-10959
協会	-10960
log	-10961
வி	-10962
を与える	-10963
▁route	-10964
▁zaz	-10965
の中心	-10966
مو	-10967
▁arrived	-10968
▁nan	-10969
▁interpret	-10970
市民	-10971
osoph	-10972
zes	-10973
▁framework	-10974
▁laid	-10975
場合があります	-10976
vation	-10977
71	-10978
▁hey	-10979
▁Nob	-10980
▁businesses	-10981
▁LORD	-10982
地区	-10983
▁miles	-10984
orð	-10985
▁przyję	-10986
地方	-10987
▁PM	-10988
優れた	-10989
ړي	-10990
▁vil	-10991
▁odpowiedzi	-10992
ögu	-10993
Help	-10994
▁zai	-10995
▁occurred	-10996
完了	-10997
▁challenges	-10998
メイン	-10999
▁dobre	-11000
平和	-11001
-01	-11002
ulty	-11003
表示される	-11004
oną	-11005
rain	-11006
▁messages	-11007
oryt	-11008
▁Terms	-11009
▁Somet	-11010
DE	-11011
トン	-11012
8/	-11013
teres	-11014
fall	-11015
▁Dodaj	-11016
▁kształ	-11017
▁spowod	-11018
▁klucz	-11019
▁Kró	-11020
▁wild	-11021
反応	-11022
fræð	-11023
▁stworz	-11024
▁driving	-11025
▁freedom	-11026
niejszych	-11027
▁database	-11028
▁seat	-11029
▁uppfær	-11030
▁Division	-11031
▁zakwater	-11032
▁siedz	-11033
▁decide	-11034
えている	-11035
ハウス	-11036
rý	-11037
世代	-11038
kuj	-11039
▁przegląd	-11040
ګر	-11041
▁Szw	-11042
くれる	-11043
▁سر	-11044
▁Mass	-11045
▁Equ	-11046
▁見	-11047
▁pił	-11048
を知	-11049
▁polski	-11050
dop	-11051
▁kilomet	-11052
▁pieces	-11053
資源	-11054
uðsyn	-11055
▁updated	-11056
▁Mexico	-11057
plugins	-11058
解析	-11059
▁fol	-11060
イギリス	-11061
に移	-11062
彼女の	-11063
するように	-11064
aków	-11065
工学	-11066
かどう	-11067
▁Tru	-11068
▁Sunday	-11069
▁bridge	-11070
どのような	-11071
▁straight	-11072
▁zdanie	-11073
atem	-11074
トロ	-11075
▁rain	-11076
▁Ireland	-11077
危険	-11078
呼び	-11079
▁tækni	-11080
▁originally	-11081
▁ماش	-11082
▁edit	-11083
かもしれません	-11084
かが	-11085
りを	-11086
▁あなたが	-11087
▁polityki	-11088
スー	-11089
cho	-11090
▁hjálp	-11091
▁Share	-11092
▁soc	-11093
▁talking	-11094
度を	-11095
fy	-11096
▁clients	-11097
▁wyją	-11098
arian	-11099
ين	-11100
▁według	-11101
▁wis	-11102
▁dostępne	-11103
▁Następ	-11104
物理	-11105
▁INFORM	-11106
▁Location	-11107
களை	-11108
▁accident	-11109
第三	-11110
▁1/	-11111
▁klub	-11112
▁zdoby	-11113
▁innymi	-11114
UB	-11115
▁wojny	-11116
ubli	-11117
istant	-11118
交通	-11119
▁Spirit	-11120
▁przykłady	-11121
▁dal	-11122
ikið	-11123
▁Friend	-11124
▁szkol	-11125
論文	-11126
▁Oh	-11127
▁byli	-11128
▁dźwię	-11129
inct	-11130
▁rodzaju	-11131
▁możliwość	-11132
▁SE	-11133
▁Frid	-11134
وال	-11135
81	-11136
つつ	-11137
▁fant	-11138
uda	-11139
aren	-11140
▁Edition	-11141
事務所	-11142
来た	-11143
olid	-11144
ポジ	-11145
ilit	-11146
ít	-11147
▁nier	-11148
asting	-11149
▁mail	-11150
長期	-11151
▁podró	-11152
estaur	-11153
DS	-11154
ocia	-11155
▁czym	-11156
▁withdraw	-11157
▁bak	-11158
▁Zach	-11159
時期	-11160
▁ofic	-11161
▁]	-11162
搭載	-11163
事が	-11164
▁cable	-11165
▁biznes	-11166
▁miesiąc	-11167
eigandi	-11168
▁disci	-11169
▁zawierający	-11170
▁sight	-11171
▁instance	-11172
▁uz	-11173
żeń	-11174
▁powietrza	-11175
▁guarantee	-11176
▁extensions	-11177
予想	-11178
▁impossible	-11179
▁Pół	-11180
▁من	-11181
▁właśnie	-11182
スイ	-11183
CM	-11184
▁Frank	-11185
Talk	-11186
▁Li	-11187
ドライブ	-11188
▁patient	-11189
▁stöð	-11190
geles	-11191
▁najwyż	-11192
▁dale	-11193
▁evening	-11194
nings	-11195
▁konty	-11196
▁iron	-11197
▁wystaw	-11198
▁ep	-11199
▁Through	-11200
▁さ	-11201
を持っている	-11202
促進	-11203
するよう	-11204
▁wear	-11205
▁uwagę	-11206
到着	-11207
▁fól	-11208
▁valu	-11209
▁nauðsyn	-11210
後は	-11211
▁Zjednoczone	-11212
対策	-11213
▁francus	-11214
のでしょうか	-11215
ウル	-11216
▁átt	-11217
▁największego	-11218
生の	-11219
▁mówi	-11220
▁manufacturers	-11221
▁نور	-11222
▁Call	-11223
▁MS	-11224
▁holiday	-11225
▁naszym	-11226
Wsp	-11227
▁کولو	-11228
▁przykładów	-11229
On	-11230
▁dzień	-11231
▁depend	-11232
▁profes	-11233
▁interview	-11234
▁Battle	-11235
▁manage	-11236
ニック	-11237
▁oj	-11238
stæ	-11239
▁’	-11240
kość	-11241
を有	-11242
▁Const	-11243
han	-11244
roc	-11245
Pol	-11246
▁grze	-11247
▁songs	-11248
▁þátt	-11249
▁3-	-11250
▁prezent	-11251
oya	-11252
▁upper	-11253
pon	-11254
▁1997	-11255
ありが	-11256
.2	-11257
▁Introdu	-11258
inder	-11259
▁Aktualnie	-11260
▁Sand	-11261
▁ja	-11262
ホール	-11263
▁Dildo	-11264
▁solar	-11265
▁Nak	-11266
▁Vict	-11267
▁participate	-11268
▁rozm	-11269
▁believed	-11270
ráð	-11271
行く	-11272
erð	-11273
いを	-11274
át	-11275
▁napis	-11276
▁markað	-11277
itzer	-11278
enses	-11279
マーケティング	-11280
III	-11281
▁kwietnia	-11282
▁regulations	-11283
TRON	-11284
rees	-11285
第一	-11286
▁Sak	-11287
▁unf	-11288
▁Miss	-11289
▁inject	-11290
▁wier	-11291
▁55	-11292
▁słowniki	-11293
rania	-11294
▁circumst	-11295
▁susz	-11296
iah	-11297
ception	-11298
(19	-11299
かもしれない	-11300
▁viðauka	-11301
▁myśl	-11302
▁telewizor	-11303
ிற்கு	-11304
▁sou	-11305
▁34	-11306
これを	-11307
czej	-11308
ற்கு	-11309
▁stored	-11310
▁tel	-11311
szyscy	-11312
▁zmiany	-11313
の研究	-11314
▁attend	-11315
の開発	-11316
みな	-11317
▁kaw	-11318
▁Wed	-11319
▁gaz	-11320
▁sinn	-11321
▁nearby	-11322
▁experts	-11323
▁proc	-11324
▁wydaj	-11325
Mar	-11326
認証	-11327
日本語	-11328
▁مر	-11329
▁statement	-11330
お客様の	-11331
▁medicine	-11332
▁którą	-11333
破壊	-11334
▁allowing	-11335
監視	-11336
▁przetłumaczone	-11337
りに	-11338
▁conditioning	-11339
▁observed	-11340
▁owners	-11341
▁wody	-11342
▁male	-11343
システムが	-11344
▁Sar	-11345
▁contribute	-11346
ye	-11347
▁Singapore	-11348
inform	-11349
▁smaller	-11350
スペース	-11351
打ち	-11352
▁ign	-11353
来る	-11354
最後の	-11355
工業	-11356
▁Tags	-11357
▁Angeles	-11358
HO	-11359
▁przeznacz	-11360
議会	-11361
He	-11362
▁spend	-11363
▁kuch	-11364
▁vote	-11365
営業	-11366
▁rząd	-11367
mes	-11368
:09	-11369
▁determine	-11370
ailand	-11371
▁negative	-11372
▁Pen	-11373
▁Mars	-11374
ref	-11375
zyka	-11376
▁zobaczyć	-11377
▁vision	-11378
FL	-11379
▁لري	-11380
▁Watch	-11381
▁egg	-11382
duate	-11383
▁アル	-11384
皆様	-11385
であろう	-11386
テクノ	-11387
▁mir	-11388
▁Nether	-11389
でしょうか	-11390
▁Doc	-11391
▁sustainable	-11392
流れ	-11393
ąż	-11394
▁mouth	-11395
▁enn	-11396
▁mię	-11397
ことの	-11398
内部	-11399
▁entreprene	-11400
支配	-11401
▁COMM	-11402
▁コン	-11403
2017	-11404
レストラン	-11405
acyjny	-11406
anning	-11407
وت	-11408
が発生	-11409
▁planned	-11410
▁INFORMATION	-11411
aped	-11412
ciąż	-11413
żyć	-11414
▁podej	-11415
ląd	-11416
▁approved	-11417
初の	-11418
▁خپل	-11419
▁każdy	-11420
▁zamów	-11421
ho	-11422
Coll	-11423
▁fotograf	-11424
hai	-11425
▁Disc	-11426
▁Zobacz	-11427
のだ	-11428
ோம்	-11429
▁availability	-11430
▁filter	-11431
▁np	-11432
▁proposal	-11433
▁Manufactur	-11434
▁Cookie	-11435
物語	-11436
使い	-11437
▁gift	-11438
ciences	-11439
▁Professional	-11440
▁sets	-11441
▁editor	-11442
▁Europa	-11443
▁era	-11444
▁Hon	-11445
▁continues	-11446
▁studio	-11447
▁Dest	-11448
▁helped	-11449
▁Osaka	-11450
ilation	-11451
パフォーマ	-11452
prawid	-11453
▁Player	-11454
▁rang	-11455
▁SA	-11456
வில்	-11457
▁forced	-11458
▁autor	-11459
▁Przejdź	-11460
▁overseas	-11461
ルーム	-11462
▁spół	-11463
▁hafi	-11464
▁marca	-11465
▁adopt	-11466
▁consequ	-11467
▁connecting	-11468
▁relatively	-11469
▁Website	-11470
の高	-11471
▁działań	-11472
azz	-11473
まず	-11474
▁dziesiątki	-11475
▁Jewish	-11476
をと	-11477
ாம்	-11478
ங்களை	-11479
▁dro	-11480
▁fig	-11481
▁Engineering	-11482
▁tím	-11483
▁owner	-11484
DR	-11485
▁shot	-11486
▁Rot	-11487
tyj	-11488
but	-11489
▁கூற	-11490
▁kategorii	-11491
force	-11492
博物	-11493
大学院	-11494
▁Hill	-11495
▁Ca	-11496
▁improved	-11497
cion	-11498
nica	-11499
▁bil	-11500
オフィ	-11501
アニ	-11502
一覧	-11503
▁کو	-11504
QL	-11505
▁młod	-11506
▁niego	-11507
▁instal	-11508
▁dlatego	-11509
oves	-11510
インタ	-11511
度は	-11512
▁predict	-11513
ボール	-11514
related	-11515
1/	-11516
▁broadcast	-11517
▁Budap	-11518
▁advertising	-11519
宿泊	-11520
ரிய	-11521
▁van	-11522
▁fourth	-11523
▁vess	-11524
ako	-11525
▁treated	-11526
▁historii	-11527
▁rice	-11528
▁Południ	-11529
▁Ponad	-11530
ecyd	-11531
▁Have	-11532
iżej	-11533
ateur	-11534
▁Afry	-11535
▁expressed	-11536
広く	-11537
laus	-11538
▁ec	-11539
ونکي	-11540
held	-11541
▁Bal	-11542
▁Restaur	-11543
▁Middle	-11544
やり	-11545
▁Those	-11546
それらの	-11547
させた	-11548
▁entirely	-11549
▁incorpor	-11550
yan	-11551
▁Podczas	-11552
urnar	-11553
▁quiet	-11554
通知	-11555
スピ	-11556
▁kids	-11557
▁Mai	-11558
▁Pogoda	-11559
▁Var	-11560
rody	-11561
▁failure	-11562
▁niej	-11563
セント	-11564
des	-11565
▁185	-11566
▁convert	-11567
▁bodies	-11568
fal	-11569
lock	-11570
ことから	-11571
アート	-11572
▁Three	-11573
▁visible	-11574
▁Ó	-11575
▁auðvel	-11576
marks	-11577
icks	-11578
▁premier	-11579
venture	-11580
最高の	-11581
▁mieszk	-11582
さに	-11583
を行い	-11584
▁Adam	-11585
▁territory	-11586
▁ści	-11587
▁در	-11588
▁Sports	-11589
▁Netherlands	-11590
kre	-11591
▁architecture	-11592
げた	-11593
rise	-11594
▁Key	-11595
▁nami	-11596
企業の	-11597
▁Linux	-11598
▁9,	-11599
▁Ù	-11600
▁stær	-11601
動物	-11602
ísk	-11603
▁வழ	-11604
8)	-11605
sum	-11606
▁seconds	-11607
otion	-11608
▁komple	-11609
rete	-11610
▁Affairs	-11611
▁przeprowadz	-11612
▁Imperial	-11613
ati	-11614
年は	-11615
保持	-11616
▁wyszuki	-11617
欧州	-11618
▁narod	-11619
▁Professor	-11620
ひとつ	-11621
▁brain	-11622
▁tekst	-11623
削減	-11624
▁delete	-11625
ortunately	-11626
▁powiedział	-11627
lur	-11628
▁Dzie	-11629
▁Outlook	-11630
▁MyApplication	-11631
▁Thank	-11632
明治	-11633
▁drew	-11634
に位置	-11635
とし	-11636
▁tourism	-11637
ycji	-11638
コピー	-11639
近い	-11640
▁widely	-11641
▁tickets	-11642
Se	-11643
acle	-11644
▁pozwala	-11645
EY	-11646
ッケージ	-11647
liżu	-11648
そこ	-11649
',	-11650
Web	-11651
早く	-11652
▁Bab	-11653
▁Mi	-11654
▁stable	-11655
▁Satellite	-11656
▁powder	-11657
▁sequ	-11658
▁pobliżu	-11659
▁Ö	-11660
▁Creat	-11661
hlut	-11662
arts	-11663
inian	-11664
事故	-11665
kja	-11666
▁htt	-11667
▁Dzięki	-11668
満た	-11669
▁southern	-11670
▁Narod	-11671
▁Pokaż	-11672
▁svæ	-11673
▁Jul	-11674
▁combined	-11675
▁decor	-11676
▁sides	-11677
▁showed	-11678
▁damaged	-11679
▁pokazując	-11680
enci	-11681
niejsze	-11682
▁successfully	-11683
OG	-11684
arar	-11685
▁wewnętrz	-11686
▁satelitarne	-11687
▁learned	-11688
▁leaving	-11689
▁skipt	-11690
▁umożliwia	-11691
▁baby	-11692
aski	-11693
生まれ	-11694
法人	-11695
▁library	-11696
▁listopada	-11697
▁recon	-11698
の手	-11699
ím	-11700
uczy	-11701
rotnie	-11702
▁zainteres	-11703
ICATION	-11704
600	-11705
otal	-11706
▁użytkowników	-11707
▁dwie	-11708
▁Hair	-11709
▁encourag	-11710
wem	-11711
▁viðb	-11712
▁pręd	-11713
▁þessari	-11714
}}	-11715
▁fee	-11716
▁Connect	-11717
▁suc	-11718
screen	-11719
ித்து	-11720
唯一の	-11721
種類の	-11722
▁Ú	-11723
▁fed	-11724
▁situated	-11725
、『	-11726
込む	-11727
▁mac	-11728
▁consent	-11729
▁cutting	-11730
▁tot	-11731
▁soil	-11732
len	-11733
▁tas	-11734
▁کوي	-11735
店舗	-11736
▁healthy	-11737
▁Dor	-11738
fest	-11739
▁przemysł	-11740
▁Material	-11741
▁sierpnia	-11742
▁fishing	-11743
ていく	-11744
▁divided	-11745
▁quarter	-11746
▁apparent	-11747
▁Cross	-11748
時刻	-11749
▁GB	-11750
▁engineering	-11751
連邦	-11752
angel	-11753
▁Manager	-11754
▁Thanks	-11755
▁instruments	-11756
iące	-11757
ajem	-11758
受賞	-11759
atów	-11760
arters	-11761
actions	-11762
iany	-11763
▁minister	-11764
数を	-11765
▁projektu	-11766
を実施	-11767
▁abroad	-11768
山の	-11769
▁cięż	-11770
▁Children	-11771
ちょっと	-11772
alna	-11773
▁remaining	-11774
▁Rap	-11775
ナン	-11776
usch	-11777
lac	-11778
▁Szczegół	-11779
トラック	-11780
▁Panie	-11781
▁1996	-11782
▁dostępnego	-11783
▁Guide	-11784
▁sprzedaży	-11785
▁だから	-11786
違う	-11787
▁INST	-11788
▁suk	-11789
IST	-11790
bec	-11791
機構	-11792
▁bear	-11793
▁jaki	-11794
▁dziś	-11795
▁linii	-11796
▁Palace	-11797
ிருந்த	-11798
▁śmierci	-11799
が一	-11800
▁ceremony	-11801
FA	-11802
355	-11803
なさい	-11804
gov	-11805
理論	-11806
miar	-11807
74	-11808
▁infl	-11809
▁Ken	-11810
人々は	-11811
に乗	-11812
igdy	-11813
をインストール	-11814
▁confirm	-11815
▁Gdy	-11816
博物館	-11817
▁மூ	-11818
▁Summer	-11819
fis	-11820
▁plays	-11821
▁tilskipun	-11822
▁coffee	-11823
PA	-11824
▁Event	-11825
▁Ho	-11826
▁usługi	-11827
▁włosów	-11828
▁principle	-11829
団体	-11830
ாம	-11831
▁Pla	-11832
▁ingredients	-11833
jandi	-11834
▁frequently	-11835
▁concerns	-11836
表面	-11837
遺伝	-11838
itz	-11839
▁ய	-11840
abi	-11841
▁tradition	-11842
▁cas	-11843
ktop	-11844
▁amfani	-11845
▁epis	-11846
▁holding	-11847
UTE	-11848
▁północ	-11849
Con	-11850
▁یا	-11851
aktyw	-11852
okka	-11853
▁paint	-11854
をダウンロード	-11855
acin	-11856
をもたら	-11857
▁burn	-11858
▁Wyd	-11859
ME	-11860
を務	-11861
▁missing	-11862
▁brief	-11863
DC	-11864
レート	-11865
▁Zealand	-11866
▁sinni	-11867
NG	-11868
▁causes	-11869
information	-11870
型の	-11871
▁persp	-11872
▁dzien	-11873
メモ	-11874
背景	-11875
▁Tri	-11876
▁challenge	-11877
lus	-11878
▁sytuacji	-11879
agon	-11880
▁northern	-11881
▁frequency	-11882
▁rozwi	-11883
▁stress	-11884
いか	-11885
創造	-11886
▁三	-11887
▁extract	-11888
rześci	-11889
▁okresie	-11890
▁なぜ	-11891
上昇	-11892
▁Following	-11893
▁kobiet	-11894
▁słownika	-11895
▁controlled	-11896
▁rac	-11897
いずれ	-11898
▁baz	-11899
▁Tw	-11900
ステップ	-11901
tk	-11902
adow	-11903
▁Mond	-11904
▁paragraph	-11905
afe	-11906
▁meðal	-11907
▁árið	-11908
▁mikil	-11909
▁employment	-11910
付ける	-11911
تیا	-11912
▁absor	-11913
時は	-11914
▁label	-11915
▁Biznes	-11916
スタッ	-11917
▁þessu	-11918
男性	-11919
▁பா	-11920
▁1995	-11921
▁verða	-11922
▁operate	-11923
ushi	-11924
なければなりません	-11925
inding	-11926
weg	-11927
▁absolut	-11928
▁Jack	-11929
owani	-11930
▁otherwise	-11931
▁رو	-11932
ブロック	-11933
▁ker	-11934
▁Bon	-11935
ただ	-11936
レンジ	-11937
▁heaven	-11938
博士	-11939
持続	-11940
▁fas	-11941
▁Charles	-11942
▁root	-11943
▁flower	-11944
▁classes	-11945
種の	-11946
Współpraca	-11947
▁dotyczących	-11948
▁wtedy	-11949
racja	-11950
Collaboration	-11951
▁dziec	-11952
を行った	-11953
▁western	-11954
▁Size	-11955
eir	-11956
▁dziel	-11957
▁3:	-11958
يا	-11959
を持ち	-11960
キロ	-11961
体制	-11962
▁Pers	-11963
▁Jour	-11964
PT	-11965
現実	-11966
▁audience	-11967
▁lang	-11968
▁zbud	-11969
▁kab	-11970
▁hvort	-11971
▁Take	-11972
▁Greek	-11973
▁środków	-11974
▁krajów	-11975
▁papier	-11976
過ご	-11977
▁restaurants	-11978
を得る	-11979
検査	-11980
1-	-11981
▁ウィ	-11982
▁شوي	-11983
▁Mits	-11984
▁chcesz	-11985
osy	-11986
sla	-11987
ボー	-11988
▁thousands	-11989
▁destroyed	-11990
▁configuration	-11991
▁lose	-11992
kuje	-11993
orter	-11994
文書	-11995
ませんでした	-11996
原子	-11997
▁comprehensive	-11998
▁masu	-11999
▁Jezus	-12000
▁hafði	-12001
مه	-12002
adium	-12003
▁Kor	-12004
▁swojego	-12005
試合	-12006
▁godzin	-12007
▁æ	-12008
かなり	-12009
方は	-12010
eł	-12011
atto	-12012
bsites	-12013
▁Znajdź	-12014
▁waiting	-12015
Pomóż	-12016
flow	-12017
シップ	-12018
▁bron	-12019
さえ	-12020
▁Był	-12021
▁oznacza	-12022
▁detail	-12023
▁trzech	-12024
連合	-12025
▁WiFi	-12026
▁odległości	-12027
ித	-12028
▁ELEC	-12029
UK	-12030
▁circumstances	-12031
▁department	-12032
以外の	-12033
▁Wat	-12034
▁studied	-12035
▁XX	-12036
▁detective	-12037
WspółpracaPomóż	-12038
▁sorry	-12039
▁carbon	-12040
atever	-12041
▁borg	-12042
▁crow	-12043
時代の	-12044
rite	-12045
▁Safety	-12046
国民	-12047
▁collected	-12048
▁członkowskich	-12049
▁Mini	-12050
▁eit	-12051
しまった	-12052
▁compatible	-12053
▁Friday	-12054
▁techniques	-12055
▁equal	-12056
られない	-12057
▁committed	-12058
してきた	-12059
▁smooth	-12060
▁Darm	-12061
ifically	-12062
liśmy	-12063
orders	-12064
▁youth	-12065
▁Pob	-12066
▁Drott	-12067
▁edition	-12068
▁Create	-12069
▁sab	-12070
▁delivered	-12071
ögn	-12072
▁usz	-12073
otic	-12074
プログラムを	-12075
▁Þessi	-12076
án	-12077
rek	-12078
łasz	-12079
反対	-12080
▁biggest	-12081
–19	-12082
もので	-12083
▁einstak	-12084
▁les	-12085
▁institution	-12086
وره	-12087
▁fót	-12088
卒業	-12089
▁evil	-12090
owały	-12091
▁Platform	-12092
初め	-12093
ږي	-12094
fræ	-12095
▁hratt	-12096
▁plus	-12097
▁Philipp	-12098
▁należ	-12099
SO	-12100
▁Nations	-12101
vi	-12102
運用	-12103
▁zdję	-12104
▁Origin	-12105
که	-12106
▁forth	-12107
▁jedną	-12108
▁książ	-12109
▁þek	-12110
▁expression	-12111
▁Obec	-12112
▁Was	-12113
比べ	-12114
pal	-12115
▁oblig	-12116
▁therm	-12117
▁courses	-12118
▁وی	-12119
▁korzy	-12120
82	-12121
▁szczególnie	-12122
何か	-12123
▁Updated	-12124
ipl	-12125
カップ	-12126
onds	-12127
▁Care	-12128
است	-12129
▁horiz	-12130
urę	-12131
合衆国	-12132
▁źród	-12133
▁wnios	-12134
スタート	-12135
SF	-12136
▁czyli	-12137
▁narzędz	-12138
▁honor	-12139
▁virus	-12140
を果た	-12141
zyna	-12142
▁succeed	-12143
%)	-12144
▁Islands	-12145
▁pole	-12146
leik	-12147
▁Kir	-12148
▁pocz	-12149
▁وي	-12150
▁12,	-12151
▁þarf	-12152
があ	-12153
inity	-12154
▁poprzed	-12155
困難	-12156
▁Portugal	-12157
kcje	-12158
ocześnie	-12159
▁deleg	-12160
▁Bit	-12161
▁Chic	-12162
izm	-12163
▁う	-12164
nier	-12165
トナ	-12166
番組	-12167
▁weapons	-12168
▁occasion	-12169
バンド	-12170
人々が	-12171
▁Twoje	-12172
uxury	-12173
▁Furthermore	-12174
▁Files	-12175
▁Lub	-12176
▁ljós	-12177
itzerland	-12178
▁一般	-12179
▁dream	-12180
سته	-12181
kowego	-12182
▁czter	-12183
/05	-12184
▁component	-12185
▁wspom	-12186
▁Display	-12187
演奏	-12188
テクノロ	-12189
89	-12190
▁komis	-12191
▁Pakistan	-12192
▁humans	-12193
▁Woj	-12194
▁kosm	-12195
▁slightly	-12196
▁æt	-12197
veg	-12198
▁地	-12199
▁65	-12200
▁minute	-12201
▁interes	-12202
▁plastic	-12203
▁pokoju	-12204
▁Sweden	-12205
▁Cond	-12206
▁assessment	-12207
アルバム	-12208
▁fuck	-12209
woł	-12210
▁rze	-12211
unnar	-12212
▁budż	-12213
閲覧	-12214
ae	-12215
uszy	-12216
▁ships	-12217
rój	-12218
engers	-12219
lag	-12220
▁magn	-12221
▁(5	-12222
▁து	-12223
▁critical	-12224
rzeć	-12225
▁license	-12226
低下	-12227
naði	-12228
▁Wyst	-12229
テーブル	-12230
▁row	-12231
判断	-12232
▁agent	-12233
ronics	-12234
▁nin	-12235
▁Break	-12236
▁signs	-12237
▁Switzerland	-12238
2015	-12239
jöf	-12240
はない	-12241
▁dziewczy	-12242
▁ludzie	-12243
▁factor	-12244
amber	-12245
▁runs	-12246
▁AV	-12247
inks	-12248
▁Works	-12249
▁オー	-12250
pass	-12251
▁poświę	-12252
▁kontro	-12253
▁Climate	-12254
abled	-12255
▁Każ	-12256
▁AC	-12257
endum	-12258
▁ceny	-12259
そのような	-12260
▁całym	-12261
▁mikið	-12262
を表	-12263
▁Track	-12264
▁channel	-12265
▁Om	-12266
▁Les	-12267
valid	-12268
魅力	-12269
▁Ukraine	-12270
ukan	-12271
▁42	-12272
fn	-12273
்ப்ப	-12274
▁significantly	-12275
▁niemiec	-12276
▁entrance	-12277
学習	-12278
・・・	-12279
▁miejscowości	-12280
▁prakt	-12281
▁font	-12282
▁controll	-12283
sterdam	-12284
▁atra	-12285
van	-12286
昭和	-12287
▁Thailand	-12288
ącym	-12289
▁blow	-12290
ありがとう	-12291
▁lutego	-12292
▁wśród	-12293
ouses	-12294
▁Jews	-12295
uni	-12296
製品の	-12297
▁diet	-12298
▁handle	-12299
▁hospital	-12300
▁ky	-12301
▁upraw	-12302
っぱ	-12303
▁Prince	-12304
▁cry	-12305
▁spo	-12306
▁aspects	-12307
▁dziedzinie	-12308
リーダー	-12309
人々の	-12310
TO	-12311
▁ENGINE	-12312
▁fan	-12313
uru	-12314
dd	-12315
レコード	-12316
▁API	-12317
▁powinien	-12318
▁prepare	-12319
▁sá	-12320
▁sposob	-12321
ogi	-12322
▁stability	-12323
ワン	-12324
▁entert	-12325
▁łazienka	-12326
▁password	-12327
▁innovative	-12328
▁manager	-12329
▁hvernig	-12330
▁Moreover	-12331
▁Graph	-12332
▁facilit	-12333
pping	-12334
▁پل	-12335
▁そんな	-12336
すでに	-12337
▁problemy	-12338
防止	-12339
▁meat	-12340
693	-12341
▁noted	-12342
▁painting	-12343
cell	-12344
isher	-12345
▁flights	-12346
製作	-12347
々と	-12348
hemat	-12349
▁granted	-12350
いろ	-12351
▁Way	-12352
▁wd	-12353
▁poważ	-12354
witz	-12355
▁sagði	-12356
▁apartments	-12357
யமாக	-12358
強く	-12359
氏は	-12360
▁இத	-12361
inery	-12362
▁bomb	-12363
ニュ	-12364
▁om	-12365
▁Pict	-12366
▁gegn	-12367
▁stories	-12368
ywania	-12369
▁Steel	-12370
New	-12371
スタッフ	-12372
▁Lud	-12373
stein	-12374
▁cash	-12375
idual	-12376
おそらく	-12377
▁اس	-12378
▁他の	-12379
▁teaching	-12380
▁liquid	-12381
においては	-12382
▁ju	-12383
▁COMMUN	-12384
始めた	-12385
bym	-12386
▁Lead	-12387
itely	-12388
rozum	-12389
800	-12390
ニーズ	-12391
▁Północ	-12392
▁soul	-12393
広が	-12394
▁reliable	-12395
▁pierwszym	-12396
▁ew	-12397
▁Wel	-12398
lew	-12399
した後	-12400
▁tegund	-12401
▁mini	-12402
▁failed	-12403
▁Ult	-12404
yśl	-12405
▁płat	-12406
▁goals	-12407
▁practical	-12408
▁ZetaTalk	-12409
coming	-12410
少なくとも	-12411
▁discussion	-12412
▁sister	-12413
▁Agre	-12414
lets	-12415
sti	-12416
シフト	-12417
ノー	-12418
quake	-12419
▁spiritual	-12420
▁dates	-12421
▁ELECTRON	-12422
gr	-12423
▁chief	-12424
建物	-12425
▁MAX	-12426
völd	-12427
▁zawiera	-12428
▁możliwe	-12429
▁reject	-12430
ッピング	-12431
▁INSTIT	-12432
OB	-12433
▁gent	-12434
▁residents	-12435
取り組み	-12436
▁tare	-12437
▁Między	-12438
地に	-12439
を進	-12440
ynd	-12441
▁najp	-12442
減少	-12443
▁filled	-12444
みの	-12445
stronom	-12446
▁względ	-12447
▁11,	-12448
vinn	-12449
▁vís	-12450
▁Warszaw	-12451
Cont	-12452
▁orders	-12453
▁私が	-12454
▁Shower	-12455
▁2012,	-12456
▁looked	-12457
▁mostly	-12458
▁konstru	-12459
を使う	-12460
相手	-12461
▁næ	-12462
▁gone	-12463
nel	-12464
▁800	-12465
▁explain	-12466
▁多くの	-12467
▁Systems	-12468
▁nob	-12469
今後	-12470
▁Congress	-12471
▁konto	-12472
2016	-12473
▁Miej	-12474
▁デジタル台風	-12475
▁collaboration	-12476
続ける	-12477
▁czar	-12478
HP	-12479
ローマ	-12480
ங்கு	-12481
▁INSTITUTE	-12482
▁Premier	-12483
住民	-12484
▁kontrol	-12485
▁communities	-12486
ラリー	-12487
▁flag	-12488
▁cycle	-12489
ほとんどの	-12490
▁Kim	-12491
▁primarily	-12492
iscal	-12493
▁zatr	-12494
▁behavior	-12495
.:	-12496
▁வா	-12497
▁rodziny	-12498
有名な	-12499
▁nowoczes	-12500
▁Kiedy	-12501
▁rozwiązania	-12502
チン	-12503
舞台	-12504
▁Force	-12505
bil	-12506
leika	-12507
omiast	-12508
▁wspier	-12509
▁recognized	-12510
せず	-12511
▁aer	-12512
bies	-12513
▁friendly	-12514
efni	-12515
▁stations	-12516
▁księ	-12517
ínu	-12518
▁casino	-12519
▁Hiszp	-12520
▁trial	-12521
▁Events	-12522
▁detect	-12523
▁pokoje	-12524
ainless	-12525
地球の	-12526
▁Muzeum	-12527
▁Rada	-12528
▁structures	-12529
fnd	-12530
側の	-12531
だから	-12532
▁Chem	-12533
▁duże	-12534
▁Próf	-12535
ントン	-12536
▁sounds	-12537
▁Ear	-12538
▁zależ	-12539
▁boat	-12540
生命	-12541
▁define	-12542
図書	-12543
isters	-12544
▁iP	-12545
uries	-12546
▁COMMUNICATION	-12547
▁Gallery	-12548
▁(0	-12549
▁þinni	-12550
▁forget	-12551
lot	-12552
▁stjórn	-12553
▁Four	-12554
going	-12555
▁attrib	-12556
▁współprac	-12557
▁veita	-12558
▁marked	-12559
▁belongs	-12560
ału	-12561
答え	-12562
▁ziemi	-12563
▁தொட	-12564
のうち	-12565
▁rom	-12566
▁potwierdz	-12567
EU	-12568
拠点	-12569
▁lies	-12570
▁minor	-12571
▁fra	-12572
▁Using	-12573
▁Stany	-12574
▁stronę	-12575
▁unless	-12576
▁örygg	-12577
▁நில	-12578
▁zaś	-12579
<<	-12580
▁Treaty	-12581
▁金	-12582
▁resulting	-12583
▁severe	-12584
レポート	-12585
▁Uniwersyt	-12586
▁virtual	-12587
んでいます	-12588
テム	-12589
▁stan	-12590
ச்சயமாக	-12591
lesale	-12592
▁gam	-12593
▁Mountain	-12594
▁pierwsze	-12595
▁前	-12596
ிகள்	-12597
▁existence	-12598
▁nowy	-12599
▁Zost	-12600
に応じて	-12601
▁ELECTRONICS	-12602
▁URL	-12603
13-5	-12604
▁journey	-12605
▁Syn	-12606
▁edge	-12607
▁jas	-12608
▁私たちの	-12609
▁ofert	-12610
先生	-12611
クラス	-12612
▁zmniej	-12613
▁odwiedz	-12614
▁Process	-12615
uw	-12616
iler	-12617
bal	-12618
esh	-12619
اف	-12620
▁reglug	-12621
▁sukces	-12622
わりに	-12623
▁tun	-12624
arcia	-12625
▁Bol	-12626
▁confirmed	-12627
tyw	-12628
▁innovation	-12629
raź	-12630
警察	-12631
▁advice	-12632
▁Auto	-12633
▁Trade	-12634
チャット	-12635
▁gather	-12636
bin	-12637
ワイン	-12638
▁Zaw	-12639
無効	-12640
yna	-12641
▁przen	-12642
▁instructions	-12643
自己	-12644
ployment	-12645
レジストリ	-12646
定期	-12647
▁somew	-12648
ったり	-12649
idential	-12650
レーティング	-12651
kut	-12652
▁Spring	-12653
▁Sales	-12654
▁tv	-12655
▁என்ப	-12656
ライアント	-12657
程度	-12658
▁adapt	-12659
▁あらまし	-12660
▁prostu	-12661
alizacji	-12662
after	-12663
-2355	-12664
▁ستاسو	-12665
▁ENGINEERS	-12666
ターの	-12667
:2188	-12668
▁insert	-12669
▁wydaw	-12670
13-5693	-12671
:0913-5693	-12672
:2188-2355	-12673
いただけ	-12674
▁Amsterdam	-12675
▁hennar	-12676
宗教	-12677
▁1950	-12678
83	-12679
▁pharm	-12680
▁Pub	-12681
ktury	-12682
メーカー	-12683
天皇	-12684
▁hell	-12685
▁knows	-12686
ペン	-12687
▁symptoms	-12688
▁toilet	-12689
▁、	-12690
▁pure	-12691
▁varðar	-12692
ulator	-12693
pty	-12694
uchi	-12695
▁44	-12696
uschwitz	-12697
▁ring	-12698
プライバ	-12699
▁journal	-12700
一般的な	-12701
MB	-12702
ír	-12703
▁implemented	-12704
▁illust	-12705
注文	-12706
▁Sometimes	-12707
ienna	-12708
日から	-12709
▁podł	-12710
▁Rooms	-12711
oluc	-12712
▁Mir	-12713
▁mężczy	-12714
dopodob	-12715
規制	-12716
▁hearing	-12717
いが	-12718
▁06	-12719
診断	-12720
▁truly	-12721
hibition	-12722
▁clock	-12723
▁Mah	-12724
▁Heav	-12725
を取得	-12726
▁Univers	-12727
病院	-12728
▁framkvæmdast	-12729
RA	-12730
▁pi	-12731
▁hátt	-12732
グリ	-12733
nuð	-12734
owl	-12735
▁hidden	-12736
arza	-12737
HD	-12738
レクション	-12739
▁Serw	-12740
▁Eastern	-12741
どんな	-12742
▁ص	-12743
owaną	-12744
ighter	-12745
oven	-12746
フィリ	-12747
oren	-12748
aro	-12749
▁Gran	-12750
▁maybe	-12751
▁urban	-12752
Int	-12753
会場	-12754
▁அமை	-12755
▁locations	-12756
▁ahead	-12757
▁principles	-12758
jących	-12759
クエスト	-12760
▁breat	-12761
▁Toy	-12762
もあります	-12763
liers	-12764
▁contained	-12765
▁Urz	-12766
▁Link	-12767
▁desire	-12768
alnie	-12769
▁東	-12770
▁konf	-12771
▁harmon	-12772
▁Non	-12773
▁rez	-12774
▁watches	-12775
▁Ban	-12776
▁eftirfarandi	-12777
▁Chat	-12778
▁AT	-12779
▁ratio	-12780
▁każdym	-12781
▁Id	-12782
▁2-	-12783
▁happens	-12784
を出	-12785
:---	-12786
▁teacher	-12787
の世界	-12788
ッキー	-12789
uję	-12790
agen	-12791
▁walking	-12792
イスラ	-12793
▁bry	-12794
会員	-12795
tych	-12796
▁پرو	-12797
▁visual	-12798
のですが	-12799
▁unknown	-12800
▁Iraq	-12801
adda	-12802
▁koniec	-12803
▁einhver	-12804
tered	-12805
このような	-12806
▁பய	-12807
体は	-12808
気が	-12809
トレ	-12810
▁15,	-12811
ager	-12812
▁surpr	-12813
積極	-12814
、18	-12815
▁から	-12816
▁Kur	-12817
nione	-12818
著作	-12819
▁chain	-12820
▁właściw	-12821
▁annar	-12822
▁Tan	-12823
▁Keep	-12824
▁Hold	-12825
にあた	-12826
▁Square	-12827
onu	-12828
kw	-12829
▁osiągnię	-12830
▁Email	-12831
▁Medical	-12832
▁いい	-12833
▁Catholic	-12834
▁shift	-12835
▁destination	-12836
▁meg	-12837
▁Wil	-12838
▁presentation	-12839
stöð	-12840
ello	-12841
jach	-12842
最初に	-12843
▁networks	-12844
EA	-12845
イズ	-12846
▁witness	-12847
▁ɗ	-12848
▁score	-12849
▁wobec	-12850
ゴル	-12851
▁特に	-12852
What	-12853
それぞれの	-12854
▁2010,	-12855
▁JavaScript	-12856
▁1992	-12857
▁perhaps	-12858
▁Henry	-12859
▁ページ	-12860
ycznym	-12861
▁starts	-12862
▁criteria	-12863
órych	-12864
▁பே	-12865
▁Han	-12866
)<<	-12867
▁profession	-12868
▁railway	-12869
▁نو	-12870
most	-12871
テナ	-12872
、4	-12873
rétt	-12874
▁அவர்	-12875
▁fundamental	-12876
▁(4	-12877
▁alternative	-12878
party	-12879
▁arrest	-12880
存在する	-12881
車の	-12882
▁Czas	-12883
öt	-12884
▁gefa	-12885
▁horse	-12886
▁enables	-12887
▁survey	-12888
つか	-12889
▁ポ	-12890
▁muszą	-12891
▁AG	-12892
▁¥	-12893
▁mam	-12894
ozum	-12895
▁wynosi	-12896
▁Czę	-12897
▁Chile	-12898
Google	-12899
MI	-12900
▁mand	-12901
▁Þeir	-12902
▁07	-12903
用い	-12904
▁முத	-12905
▁Eftir	-12906
▁キ	-12907
unte	-12908
▁bought	-12909
▁Motor	-12910
▁Perform	-12911
▁tail	-12912
▁pracowników	-12913
▁Harr	-12914
力の	-12915
▁Cat	-12916
わない	-12917
nice	-12918
kni	-12919
வ்வ	-12920
ディー	-12921
▁Northern	-12922
த்திய	-12923
で使用	-12924
▁appreci	-12925
zenie	-12926
▁wonderful	-12927
▁podat	-12928
であることを	-12929
、(	-12930
▁strict	-12931
▁discl	-12932
▁FL	-12933
▁zapro	-12934
▁recording	-12935
bun	-12936
主な	-12937
大学の	-12938
▁posted	-12939
zo	-12940
wiel	-12941
ociaż	-12942
▁moje	-12943
jp	-12944
▁umhver	-12945
▁Argent	-12946
chy	-12947
▁flood	-12948
romadz	-12949
ingo	-12950
▁operated	-12951
初期	-12952
uters	-12953
▁ゼータ	-12954
▁całej	-12955
czego	-12956
under	-12957
டுத்து	-12958
▁estimated	-12959
▁corner	-12960
▁இந்திய	-12961
▁cott	-12962
▁2015.	-12963
▁tilkyn	-12964
▁Place	-12965
gjald	-12966
▁badania	-12967
▁solo	-12968
▁Rights	-12969
▁participated	-12970
▁agricultural	-12971
かかわらず	-12972
irty	-12973
短い	-12974
▁powierzchni	-12975
▁Indonesia	-12976
.).	-12977
których	-12978
▁39	-12979
▁Hiro	-12980
学の	-12981
▁pretty	-12982
▁sla	-12983
rox	-12984
En	-12985
▁konkret	-12986
▁Hard	-12987
ækja	-12988
▁analyt	-12989
rone	-12990
52	-12991
▁手	-12992
rates	-12993
▁Auschwitz	-12994
用意	-12995
▁teach	-12996
▁metres	-12997
▁Hvað	-12998
▁meant	-12999
間で	-13000
▁ある	-13001
▁saved	-13002
▁sample	-13003
リの	-13004
ブラウザ	-13005
asta	-13006
▁battery	-13007
▁彼女は	-13008
▁wysokiej	-13009
önt	-13010
▁phenomen	-13011
apers	-13012
せて	-13013
▁Desp	-13014
▁sjúklingum	-13015
▁Bryt	-13016
etry	-13017
azon	-13018
▁attended	-13019
下の	-13020
jur	-13021
▁IC	-13022
▁日本の	-13023
滞在	-13024
▁nut	-13025
ミニ	-13026
▁wersji	-13027
▁£	-13028
urze	-13029
相互	-13030
▁porn	-13031
▁chair	-13032
ゼン	-13033
▁agency	-13034
▁次	-13035
▁disapp	-13036
▁legislation	-13037
高く	-13038
実に	-13039
nnur	-13040
▁நீங்கள்	-13041
▁sharing	-13042
-16	-13043
▁இது	-13044
mann	-13045
▁Training	-13046
▁acts	-13047
▁Foot	-13048
▁extent	-13049
ąć	-13050
▁identified	-13051
hand	-13052
▁household	-13053
▁decisions	-13054
れない	-13055
▁Chor	-13056
▁registration	-13057
ならば	-13058
▁żeby	-13059
容易	-13060
サブ	-13061
▁accessible	-13062
IZ	-13063
erved	-13064
▁すべての	-13065
imm	-13066
▁Country	-13067
▁அம	-13068
主要な	-13069
▁walls	-13070
▁increases	-13071
輸送	-13072
▁vent	-13073
▁Mik	-13074
エンジン	-13075
▁tryggja	-13076
▁Poker	-13077
▁assets	-13078
NS	-13079
eczeń	-13080
/09	-13081
大きい	-13082
▁arrival	-13083
▁Inne	-13084
▁lamp	-13085
▁mln	-13086
ESS	-13087
シーズン	-13088
▁Premium	-13089
つも	-13090
▁Factory	-13091
▁lek	-13092
vit	-13093
ルス	-13094
▁sweet	-13095
▁explained	-13096
iane	-13097
▁jednej	-13098
▁directory	-13099
zgl	-13100
oding	-13101
▁Regional	-13102
びに	-13103
▁homes	-13104
ician	-13105
niad	-13106
▁troops	-13107
otive	-13108
▁expansion	-13109
ieties	-13110
天文	-13111
ディオ	-13112
の両	-13113
يک	-13114
▁Labor	-13115
▁byr	-13116
支持	-13117
▁konkuren	-13118
大臣	-13119
▁XV	-13120
▁treści	-13121
lications	-13122
信じ	-13123
▁przedsiębiorcy	-13124
▁Wit	-13125
▁viðskiptavina	-13126
PO	-13127
▁electricity	-13128
▁szerok	-13129
84	-13130
若い	-13131
▁Jac	-13132
▁Nan	-13133
stað	-13134
▁Paw	-13135
▁oferty	-13136
▁noise	-13137
▁strugg	-13138
▁ウ	-13139
▁surrounding	-13140
▁transmission	-13141
学者	-13142
傾向	-13143
▁templ	-13144
asp	-13145
▁artyst	-13146
▁occurs	-13147
ATA	-13148
▁ル	-13149
携帯	-13150
独自の	-13151
▁stjór	-13152
▁Ponadto	-13153
san	-13154
indi	-13155
▁Thomas	-13156
▁przekaz	-13157
▁receiving	-13158
▁niektórych	-13159
▁identif	-13160
訓練	-13161
▁znalez	-13162
に分	-13163
வர்கள்	-13164
53	-13165
▁cena	-13166
ups	-13167
毎年	-13168
情報の	-13169
▁błąd	-13170
▁carefully	-13171
lia	-13172
▁ډول	-13173
▁Like	-13174
▁Ocean	-13175
加工	-13176
▁Cost	-13177
▁Zag	-13178
ologia	-13179
▁水	-13180
▁Norweg	-13181
外部	-13182
▁equival	-13183
▁stwierdz	-13184
▁Quick	-13185
rzel	-13186
▁jestem	-13187
▁działalności	-13188
unnir	-13189
▁thou	-13190
▁மக்க	-13191
toe	-13192
▁przedmiot	-13193
以前	-13194
▁Strateg	-13195
▁Run	-13196
▁speł	-13197
kszt	-13198
arma	-13199
▁افغانستان	-13200
▁fakt	-13201
▁Tube	-13202
パッケージ	-13203
将来	-13204
urg	-13205
連続	-13206
▁conv	-13207
皆さん	-13208
▁partnership	-13209
▁consumer	-13210
str	-13211
戦闘	-13212
▁breakfast	-13213
▁zapis	-13214
▁authent	-13215
RI	-13216
▁EX	-13217
リンピック	-13218
アラ	-13219
朝鮮	-13220
▁craft	-13221
▁marriage	-13222
▁出	-13223
▁feedback	-13224
▁ziem	-13225
▁większości	-13226
EV	-13227
に使用	-13228
usza	-13229
▁revealed	-13230
▁Ren	-13231
ダイヤ	-13232
プライバシー	-13233
▁neighbor	-13234
▁klientów	-13235
▁வெள	-13236
お問い合わせ	-13237
raf	-13238
家庭	-13239
SM	-13240
▁soldiers	-13241
▁彼の	-13242
問題は	-13243
24.	-13244
▁Agreement	-13245
▁chwili	-13246
一致	-13247
▁áfram	-13248
ரை	-13249
önnun	-13250
▁wzrost	-13251
方を	-13252
に行く	-13253
▁improvement	-13254
Af	-13255
▁そのため	-13256
▁Shang	-13257
▁prywatna	-13258
▁Industry	-13259
人と	-13260
zględ	-13261
子を	-13262
▁Sony	-13263
▁milk	-13264
を作る	-13265
▁மேல	-13266
aken	-13267
サーバー	-13268
▁kto	-13269
てる	-13270
alization	-13271
▁diver	-13272
事は	-13273
普通	-13274
ograp	-13275
▁cały	-13276
美術館	-13277
FF	-13278
pert	-13279
fol	-13280
▁accounts	-13281
に沿	-13282
▁Atlant	-13283
▁terenie	-13284
▁obvious	-13285
class	-13286
サル	-13287
▁von	-13288
▁Young	-13289
▁przyp	-13290
▁Il	-13291
ாட்ட	-13292
adian	-13293
etary	-13294
ヶ月	-13295
▁onto	-13296
▁faster	-13297
▁crew	-13298
▁2008,	-13299
ocal	-13300
▁voltage	-13301
▁swimming	-13302
rzeż	-13303
kształ	-13304
カイ	-13305
▁interior	-13306
▁Można	-13307
▁2009,	-13308
▁ważne	-13309
59	-13310
organiz	-13311
▁Du	-13312
▁sections	-13313
▁preparation	-13314
▁clan	-13315
▁przeciwko	-13316
を受ける	-13317
▁remov	-13318
犯罪	-13319
プラン	-13320
スペイン	-13321
社長	-13322
▁speech	-13323
▁repres	-13324
▁identify	-13325
▁amazing	-13326
▁Building	-13327
コミュニケーション	-13328
▁generated	-13329
laczego	-13330
-17	-13331
既存	-13332
台湾	-13333
スマート	-13334
▁lock	-13335
▁measurement	-13336
▁பின்	-13337
は大	-13338
aban	-13339
ads	-13340
▁mism	-13341
▁fans	-13342
▁zwy	-13343
▁nine	-13344
モジュール	-13345
▁banks	-13346
▁compliance	-13347
-200	-13348
▁legit	-13349
shi	-13350
島の	-13351
osophy	-13352
▁offices	-13353
▁indeed	-13354
ブラック	-13355
▁þessi	-13356
条約	-13357
▁poziomie	-13358
▁::	-13359
▁Requ	-13360
komandi	-13361
人口	-13362
求める	-13363
▁głównie	-13364
▁clinical	-13365
▁zone	-13366
ATE	-13367
iów	-13368
łowie	-13369
7/	-13370
▁国際	-13371
▁zakres	-13372
▁konfer	-13373
▁Esp	-13374
▁twice	-13375
▁assume	-13376
▁owned	-13377
▁uzyskać	-13378
lam	-13379
なので	-13380
ージャ	-13381
▁poza	-13382
host	-13383
łość	-13384
▁Australian	-13385
▁roof	-13386
ządu	-13387
▁›	-13388
つけ	-13389
▁behalf	-13390
sym	-13391
▁Jap	-13392
54	-13393
▁heild	-13394
ていました	-13395
▁uczy	-13396
▁reserved	-13397
▁Finndu	-13398
▁nations	-13399
▁wanna	-13400
▁کړئ	-13401
▁krajach	-13402
▁gate	-13403
▁kid	-13404
レベ	-13405
örf	-13406
一つの	-13407
▁ダ	-13408
▁unik	-13409
▁kemur	-13410
uge	-13411
ウェー	-13412
▁adults	-13413
与え	-13414
▁emissions	-13415
ですね	-13416
grade	-13417
osite	-13418
▁aktual	-13419
▁fill	-13420
▁2012.	-13421
▁ocean	-13422
のない	-13423
▁Maria	-13424
▁silver	-13425
々に	-13426
pedia	-13427
被害	-13428
▁currency	-13429
▁uzna	-13430
学部	-13431
特別な	-13432
▁announc	-13433
を選	-13434
▁hluta	-13435
▁Oliw	-13436
▁Night	-13437
▁kryzy	-13438
▁register	-13439
▁OK	-13440
▁commission	-13441
▁differences	-13442
が表示されます	-13443
を除	-13444
core	-13445
に伴	-13446
▁elected	-13447
▁różne	-13448
基礎	-13449
▁representatives	-13450
▁favorite	-13451
ówczas	-13452
.(	-13453
்கள	-13454
cha	-13455
押し	-13456
▁murder	-13457
未来	-13458
▁では	-13459
▁chł	-13460
みたい	-13461
▁tank	-13462
iały	-13463
▁fizy	-13464
சிய	-13465
▁administrative	-13466
▁effectively	-13467
▁capable	-13468
▁categories	-13469
1:	-13470
簡単な	-13471
aliśmy	-13472
失敗	-13473
ancer	-13474
level	-13475
▁Wyposaż	-13476
isty	-13477
っていない	-13478
所の	-13479
▁Walk	-13480
▁þyngd	-13481
▁EC	-13482
▁شو	-13483
▁standing	-13484
▁retail	-13485
▁wealth	-13486
▁meetings	-13487
ご利用	-13488
anim	-13489
▁Culture	-13490
▁attacks	-13491
▁zdecyd	-13492
▁myst	-13493
▁participation	-13494
▁Smart	-13495
▁rozszerzenie	-13496
▁orient	-13497
omi	-13498
▁Know	-13499
回転	-13500
▁designs	-13501
▁Audio	-13502
▁practices	-13503
▁deleted	-13504
迅速	-13505
作用	-13506
vas	-13507
▁displ	-13508
」、「	-13509
▁enhance	-13510
▁zuwa	-13511
ciem	-13512
快適	-13513
▁pras	-13514
▁viðeigandi	-13515
íki	-13516
▁klienta	-13517
▁risks	-13518
▁Send	-13519
▁niezależ	-13520
▁possess	-13521
▁native	-13522
▁Finally	-13523
pd	-13524
▁sko	-13525
使いの	-13526
▁Financial	-13527
を訪	-13528
活躍	-13529
▁Informacje	-13530
▁2015,	-13531
æra	-13532
を再	-13533
▁integration	-13534
▁uppfært	-13535
MT	-13536
▁1994	-13537
▁Tested	-13538
ented	-13539
デート	-13540
ige	-13541
▁sons	-13542
▁exchang	-13543
apes	-13544
aria	-13545
▁pair	-13546
と述べ	-13547
ジック	-13548
▁objectives	-13549
感謝	-13550
仕様	-13551
▁pienią	-13552
▁cos	-13553
▁Cameltoe	-13554
śni	-13555
▁czego	-13556
▁cooper	-13557
▁kur	-13558
▁Drag	-13559
▁staw	-13560
大切	-13561
温度	-13562
earing	-13563
民主	-13564
リーの	-13565
▁nigdy	-13566
▁Pu	-13567
▁begins	-13568
▁suszarka	-13569
hered	-13570
▁opie	-13571
▁Tog	-13572
▁Despite	-13573
orrow	-13574
▁magazine	-13575
▁wzro	-13576
esty	-13577
土地	-13578
▁dý	-13579
obby	-13580
racy	-13581
▁yin	-13582
できた	-13583
▁Fair	-13584
▁pochodz	-13585
統計	-13586
)(	-13587
▁założ	-13588
▁dise	-13589
▁Account	-13590
▁drugiej	-13591
▁tasks	-13592
▁Protection	-13593
▁doty	-13594
▁websites	-13595
▁nokk	-13596
▁Są	-13597
PN	-13598
▁raw	-13599
バックアップ	-13600
▁Stone	-13601
pozy	-13602
▁இருந்த	-13603
▁delay	-13604
▁rozpoczą	-13605
▁oficjal	-13606
▁ham	-13607
RC	-13608
▁ogrom	-13609
できるよう	-13610
▁Analysis	-13611
bro	-13612
▁shops	-13613
でお	-13614
▁töf	-13615
てください	-13616
entially	-13617
食品	-13618
oczyn	-13619
▁நிச்சயமாக	-13620
▁wyświetl	-13621
▁zbyt	-13622
▁trading	-13623
riger	-13624
制度	-13625
▁permanent	-13626
BI	-13627
少ない	-13628
▁mecz	-13629
iang	-13630
odu	-13631
▁Among	-13632
▁disaster	-13633
oft	-13634
archers	-13635
プレー	-13636
▁supplement	-13637
つき	-13638
ドキュ	-13639
▁subsid	-13640
ropol	-13641
▁debate	-13642
彼らが	-13643
▁ticket	-13644
będ	-13645
明確	-13646
▁Previous	-13647
ASS	-13648
とえば	-13649
adies	-13650
▁stim	-13651
機能を	-13652
▁Nik	-13653
sty	-13654
▁compl	-13655
pres	-13656
法の	-13657
▁DC	-13658
バイル	-13659
▁newsp	-13660
pire	-13661
Ham	-13662
yu	-13663
▁najważ	-13664
▁þó	-13665
▁elektron	-13666
スが	-13667
▁2011,	-13668
を追	-13669
▁Chang	-13670
acza	-13671
itled	-13672
▁educational	-13673
▁08	-13674
するとき	-13675
▁Version	-13676
▁正	-13677
lesc	-13678
merce	-13679
▁Oliwka	-13680
▁powiedzieć	-13681
にわた	-13682
▁cultiv	-13683
▁sake	-13684
▁favour	-13685
に基づいて	-13686
▁oni	-13687
スポット	-13688
テゴ	-13689
▁refers	-13690
オーストラリア	-13691
▁halda	-13692
繰り返	-13693
▁hana	-13694
▁seeing	-13695
ears	-13696
コントロール	-13697
などが	-13698
▁frame	-13699
承認	-13700
▁encounter	-13701
cow	-13702
▁substances	-13703
iku	-13704
からない	-13705
▁そこで	-13706
mat	-13707
ிருந்து	-13708
暗号	-13709
▁prayer	-13710
▁lands	-13711
eller	-13712
ிக்	-13713
▁transferred	-13714
▁windows	-13715
legal	-13716
▁pozycji	-13717
وک	-13718
白い	-13719
▁castle	-13720
▁domain	-13721
▁ورک	-13722
▁directive	-13723
▁Mic	-13724
esides	-13725
▁protein	-13726
▁następujące	-13727
当社の	-13728
rans	-13729
ildi	-13730
kowej	-13731
▁zewnętrz	-13732
▁Ali	-13733
▁representative	-13734
▁suna	-13735
▁Region	-13736
▁chodzi	-13737
▁1993	-13738
▁Chicago	-13739
▁Ja	-13740
zwol	-13741
łowe	-13742
▁pull	-13743
まい	-13744
-14	-13745
ystry	-13746
▁conflict	-13747
国連	-13748
▁corrupt	-13749
othe	-13750
▁Dutch	-13751
به	-13752
▁estate	-13753
▁ocze	-13754
▁Content	-13755
農業	-13756
需要	-13757
acement	-13758
onic	-13759
þjóð	-13760
ண்ண	-13761
▁Rejest	-13762
調べ	-13763
▁2011.	-13764
禁止	-13765
▁数	-13766
を楽し	-13767
▁Phone	-13768
とおり	-13769
▁Języ	-13770
互換	-13771
▁colour	-13772
ண்டும்	-13773
care	-13774
▁hotele	-13775
iyar	-13776
▁Natural	-13777
▁folder	-13778
▁cy	-13779
することにより	-13780
TE	-13781
uster	-13782
▁それが	-13783
▁segir	-13784
öku	-13785
inners	-13786
▁Virgin	-13787
金を	-13788
▁hart	-13789
łaszcza	-13790
▁metrów	-13791
▁Later	-13792
ジャン	-13793
▁Praw	-13794
▁pregn	-13795
▁increasingly	-13796
企画	-13797
▁innow	-13798
▁zrozum	-13799
くれた	-13800
hetic	-13801
▁CP	-13802
▁Times	-13803
Invalid	-13804
▁contemporary	-13805
▁focused	-13806
▁Francisco	-13807
よね	-13808
▁istniej	-13809
▁researchers	-13810
ことがあります	-13811
▁Projekt	-13812
注目	-13813
行き	-13814
▁bjó	-13815
ależy	-13816
体を	-13817
▁thy	-13818
▁موږ	-13819
6/	-13820
incess	-13821
▁ogrze	-13822
▁magnetic	-13823
▁Queen	-13824
▁mistrz	-13825
▁Europejska	-13826
▁znajdują	-13827
▁seed	-13828
▁foundation	-13829
▁Image	-13830
かく	-13831
yrk	-13832
▁Opis	-13833
▁subsc	-13834
▁Meeting	-13835
▁uzn	-13836
ர்க்க	-13837
▁Roll	-13838
ファイルを取り扱う	-13839
を表示	-13840
▁annað	-13841
部隊	-13842
osław	-13843
車両	-13844
▁competent	-13845
記述	-13846
▁podpis	-13847
沖縄	-13848
試み	-13849
▁TS	-13850
nin	-13851
ということ	-13852
ファイルを開	-13853
ちょう	-13854
▁college	-13855
læg	-13856
▁Serwis	-13857
▁introduction	-13858
▁introduce	-13859
▁مش	-13860
boð	-13861
ywidual	-13862
過ぎ	-13863
▁Ram	-13864
▁photographs	-13865
▁powiąz	-13866
衛星	-13867
全体の	-13868
▁industries	-13869
tical	-13870
▁urodz	-13871
をご覧	-13872
▁positions	-13873
▁dysp	-13874
▁wak	-13875
▁wooden	-13876
ーチ	-13877
▁sending	-13878
▁internetowej	-13879
▁ヒ	-13880
▁ý	-13881
▁bezpłatny	-13882
▁Integ	-13883
▁przech	-13884
▁2010.	-13885
▁invent	-13886
一つ	-13887
太平	-13888
▁2013,	-13889
わたし	-13890
で見	-13891
▁eduk	-13892
▁doj	-13893
われます	-13894
▁programów	-13895
で最も	-13896
誕生	-13897
یټ	-13898
▁recognition	-13899
▁invited	-13900
▁hluti	-13901
っき	-13902
トレー	-13903
名は	-13904
の使用	-13905
▁nasz	-13906
まと	-13907
▁rú	-13908
inese	-13909
▁ゲーム	-13910
lusion	-13911
子ども	-13912
▁Reviews	-13913
▁outdoor	-13914
acjach	-13915
▁−	-13916
▁Civil	-13917
▁Chc	-13918
▁diseases	-13919
▁Krakow	-13920
▁ourselves	-13921
らし	-13922
hors	-13923
グランド	-13924
▁zdol	-13925
▁stick	-13926
項目	-13927
▁Ameryka	-13928
っていました	-13929
は何	-13930
▁Tal	-13931
▁ordered	-13932
▁związane	-13933
▁Base	-13934
bergi	-13935
人間の	-13936
活動を	-13937
アドレス	-13938
aptop	-13939
▁podkre	-13940
▁komið	-13941
▁wanda	-13942
▁objective	-13943
▁answers	-13944
▁Kol	-13945
ferences	-13946
▁Pur	-13947
▁Proper	-13948
łe	-13949
▁Joseph	-13950
ーツ	-13951
▁ds	-13952
▁skó	-13953
▁Beaut	-13954
▁Najlep	-13955
▁ASUS	-13956
▁gości	-13957
配信	-13958
▁odnies	-13959
YP	-13960
限定	-13961
▁joy	-13962
チョ	-13963
一人	-13964
including	-13965
iada	-13966
▁Greece	-13967
arity	-13968
quarters	-13969
取締	-13970
▁(3)	-13971
▁funkcjon	-13972
BR	-13973
hæ	-13974
▁division	-13975
▁recognize	-13976
▁odm	-13977
▁拡張子	-13978
obah	-13979
▁پا	-13980
arski	-13981
لوم	-13982
的で	-13983
▁Rz	-13984
▁Usługi	-13985
UJ	-13986
▁Due	-13987
▁raise	-13988
▁promotion	-13989
eries	-13990
していました	-13991
MC	-13992
員の	-13993
agsins	-13994
▁stanu	-13995
▁lake	-13996
▁þannig	-13997
▁musical	-13998
▁contrast	-13999
▁rozwój	-14000
▁serving	-14001
不明	-14002
▁odkry	-14003
.3	-14004
▁1991	-14005
anied	-14006
andon	-14007
▁guard	-14008
したら	-14009
を変更	-14010
▁Kitchen	-14011
czegól	-14012
▁Ya	-14013
ącego	-14014
既に	-14015
▁collabor	-14016
▁Awards	-14017
▁Source	-14018
▁Klim	-14019
▁creative	-14020
▁அள	-14021
印刷	-14022
▁hví	-14023
▁layer	-14024
テンプレート	-14025
▁profit	-14026
icznym	-14027
▁agencies	-14028
▁Golden	-14029
リード	-14030
ウェイ	-14031
▁Gd	-14032
▁remote	-14033
▁CE	-14034
▁neut	-14035
共通	-14036
▁sjáðu	-14037
生徒	-14038
▁coś	-14039
▁realize	-14040
タイトル	-14041
▁Szczegóły	-14042
▁Lis	-14043
how	-14044
ってきた	-14045
alized	-14046
に置	-14047
wych	-14048
▁これが	-14049
▁தொழ	-14050
idelines	-14051
▁ped	-14052
▁repeated	-14053
特定	-14054
▁Learn	-14055
▁niezw	-14056
2/	-14057
akers	-14058
シェア	-14059
▁represented	-14060
▁verðið	-14061
なぜ	-14062
▁claims	-14063
▁Wyposażenie	-14064
古代	-14065
▁Sab	-14066
isku	-14067
▁சம	-14068
▁Prize	-14069
acu	-14070
▁Monday	-14071
▁ul	-14072
ロンド	-14073
手段	-14074
▁Circ	-14075
▁einkunnir	-14076
うる	-14077
ique	-14078
▁flav	-14079
▁Nowy	-14080
▁Index	-14081
ポン	-14082
▁latter	-14083
ございます	-14084
▁குற	-14085
▁அதிக	-14086
▁Swedish	-14087
holders	-14088
▁zre	-14089
▁evaluation	-14090
▁کم	-14091
▁wysokości	-14092
▁experim	-14093
考慮	-14094
▁Sof	-14095
神の	-14096
night	-14097
ユーザーが	-14098
odzien	-14099
▁ர	-14100
▁Ps	-14101
வன்	-14102
▁Międzynarod	-14103
itis	-14104
▁Prófað	-14105
▁Studies	-14106
▁closely	-14107
全国	-14108
▁revolution	-14109
▁hyp	-14110
owol	-14111
第二	-14112
を図	-14113
ínum	-14114
▁detection	-14115
▁tilgre	-14116
▁discount	-14117
▁Lok	-14118
▁wiz	-14119
▁wheel	-14120
▁zrobić	-14121
51	-14122
ivers	-14123
ピア	-14124
▁częścią	-14125
bund	-14126
▁کل	-14127
angaż	-14128
▁oprogramowania	-14129
ړه	-14130
意の	-14131
▁associations	-14132
▁Job	-14133
▁توګه	-14134
urning	-14135
தாக	-14136
▁laus	-14137
▁strona	-14138
▁fighting	-14139
óc	-14140
oted	-14141
DB	-14142
のホテル	-14143
をはじめ	-14144
▁Martin	-14145
ięk	-14146
▁Nad	-14147
pes	-14148
▁zobowiąz	-14149
▁guy	-14150
▁residence	-14151
▁lít	-14152
を学	-14153
▁長	-14154
▁directed	-14155
úar	-14156
を手	-14157
▁mats	-14158
57	-14159
ario	-14160
staf	-14161
▁fiscal	-14162
フォン	-14163
agnir	-14164
▁dæ	-14165
キーワード	-14166
ifest	-14167
機の	-14168
▁draft	-14169
▁wygląd	-14170
▁emergency	-14171
▁serial	-14172
▁Kolor	-14173
▁consumers	-14174
ズの	-14175
カナダ	-14176
からです	-14177
▁jakim	-14178
▁improving	-14179
▁situations	-14180
先端	-14181
called	-14182
集中	-14183
▁typical	-14184
▁granic	-14185
▁mogli	-14186
エア	-14187
燃料	-14188
Su	-14189
▁	-14190
e	-14191
a	-14192
i	-14193
o	-14194
t	-14195
n	-14196
r	-14197
s	-14198
l	-14199
h	-14200
d	-14201
c	-14202
u	-14203
m	-14204
y	-14205
p	-14206
w	-14207
g	-14208
f	-14209
k	-14210
b	-14211
z	-14212
.	-14213
,	-14214
v	-14215
j	-14216
の	-14217
1	-14218
0	-14219
、	-14220
S	-14221
T	-14222
A	-14223
に	-14224
C	-14225
I	-14226
P	-14227
ー	-14228
2	-14229
-	-14230
る	-14231
を	-14232
は	-14233
し	-14234
。	-14235
い	-14236
ł	-14237
ð	-14238
た	-14239
M	-14240
で	-14241
て	-14242
と	-14243
す	-14244
ó	-14245
E	-14246
ン	-14247
்	-14248
な	-14249
)	-14250
が	-14251
D	-14252
(	-14253
B	-14254
ę	-14255
R	-14256
W	-14257
ま	-14258
N	-14259
ą	-14260
:	-14261
O	-14262
F	-14263
x	-14264
H	-14265
れ	-14266
L	-14267
9	-14268
3	-14269
ż	-14270
5	-14271
ス	-14272
G	-14273
4	-14274
ル	-14275
ト	-14276
こ	-14277
"	-14278
イ	-14279
ś	-14280
か	-14281
K	-14282
8	-14283
'	-14284
り	-14285
ら	-14286
6	-14287
U	-14288
J	-14289
っ	-14290
7	-14291
á	-14292
க	-14293
و	-14294
さ	-14295
あ	-14296
も	-14297
リ	-14298
í	-14299
ு	-14300
う	-14301
ا	-14302
ア	-14303
ć	-14304
ッ	-14305
த	-14306
ி	-14307
ク	-14308
ラ	-14309
V	-14310
よ	-14311
く	-14312
þ	-14313
き	-14314
/	-14315
フ	-14316
q	-14317
そ	-14318
シ	-14319
タ	-14320
・	-14321
?	-14322
プ	-14323
ド	-14324
æ	-14325
ه	-14326
ر	-14327
ம	-14328
ロ	-14329
د	-14330
ர	-14331
ப	-14332
年	-14333
ö	-14334
ن	-14335
め	-14336
だ	-14337
テ	-14338
Y	-14339
お	-14340
ா	-14341
ل	-14342
Z	-14343
ジ	-14344
ん	-14345
け	-14346
レ	-14347
ட	-14348
ی	-14349
つ	-14350
!	-14351
வ	-14352
人	-14353
ன	-14354
ィ	-14355
デ	-14356
日	-14357
グ	-14358
ム	-14359
ń	-14360
バ	-14361
ú	-14362
コ	-14363
え	-14364
カ	-14365
や	-14366
大	-14367
ல	-14368
ت	-14369
サ	-14370
的	-14371
ک	-14372
「	-14373
」	-14374
م	-14375
ど	-14376
用	-14377
マ	-14378
ள	-14379
ய	-14380
ي	-14381
–	-14382
ை	-14383
ற	-14384
行	-14385
ウ	-14386
国	-14387
メ	-14388
せ	-14389
ュ	-14390
わ	-14391
ブ	-14392
合	-14393
一	-14394
س	-14395
オ	-14396
本	-14397
ち	-14398
X	-14399
場	-14400
チ	-14401
;	-14402
学	-14403
é	-14404
ョ	-14405
中	-14406
時	-14407
エ	-14408
ビ	-14409
間	-14410
پ	-14411
生	-14412
上	-14413
キ	-14414
パ	-14415
会	-14416
分	-14417
ニ	-14418
ェ	-14419
ச	-14420
ந	-14421
ァ	-14422
定	-14423
ې	-14424
者	-14425
動	-14426
月	-14427
セ	-14428
出	-14429
ャ	-14430
み	-14431
地	-14432
発	-14433
ダ	-14434
要	-14435
作	-14436
ナ	-14437
事	-14438
最	-14439
性	-14440
自	-14441
私	-14442
|	-14443
子	-14444
開	-14445
見	-14446
後	-14447
ý	-14448
使	-14449
業	-14450
能	-14451
_	-14452
ب	-14453
方	-14454
関	-14455
%	-14456
成	-14457
ば	-14458
ポ	-14459
社	-14460
ミ	-14461
ネ	-14462
部	-14463
実	-14464
び	-14465
அ	-14466
化	-14467
理	-14468
]	-14469
[	-14470
ベ	-14471
じ	-14472
彼	-14473
入	-14474
Q	-14475
新	-14476
力	-14477
ズ	-14478
物	-14479
高	-14480
機	-14481
当	-14482
報	-14483
対	-14484
ケ	-14485
設	-14486
べ	-14487
ź	-14488
モ	-14489
全	-14490
同	-14491
前	-14492
数	-14493
法	-14494
体	-14495
通	-14496
へ	-14497
現	-14498
々	-14499
情	-14500
内	-14501
&	-14502
品	-14503
手	-14504
取	-14505
目	-14506
表	-14507
多	-14508
下	-14509
世	-14510
ピ	-14511
度	-14512
”	-14513
長	-14514
ソ	-14515
ツ	-14516
ザ	-14517
所	-14518
可	-14519
名	-14520
以	-14521
ே	-14522
ご	-14523
代	-14524
இ	-14525
ワ	-14526
ず	-14527
ハ	-14528
ペ	-14529
加	-14530
家	-14531
立	-14532
変	-14533
持	-14534
•	-14535
Þ	-14536
言	-14537
様	-14538
’	-14539
気	-14540
画	-14541
ボ	-14542
利	-14543
語	-14544
ろ	-14545
ړ	-14546
必	-14547
意	-14548
ガ	-14549
خ	-14550
問	-14551
明	-14552
ண	-14553
連	-14554
在	-14555
ش	-14556
界	-14557
文	-14558
ホ	-14559
知	-14560
期	-14561
ォ	-14562
金	-14563
外	-14564
電	-14565
特	-14566
回	-14567
示	-14568
今	-14569
続	-14570
市	-14571
来	-14572
ெ	-14573
保	-14574
ノ	-14575
主	-14576
教	-14577
選	-14578
記	-14579
有	-14580
信	-14581
際	-14582
ょ	-14583
供	-14584
ټ	-14585
計	-14586
ز	-14587
女	-14588
“	-14589
何	-14590
解	-14591
経	-14592
活	-14593
約	-14594
提	-14595
初	-14596
研	-14597
ங	-14598
戦	-14599
達	-14600
+	-14601
式	-14602
正	-14603
ோ	-14604
受	-14605
付	-14606
思	-14607
ユ	-14608
他	-14609
術	-14610
向	-14611
第	-14612
集	-14613
料	-14614
常	-14615
重	-14616
究	-14617
題	-14618
書	-14619
ொ	-14620
ګ	-14621
げ	-14622
水	-14623
心	-14624
எ	-14625
小	-14626
結	-14627
ほ	-14628
道	-14629
産	-14630
点	-14631
海	-14632
置	-14633
*	-14634
制	-14635
面	-14636
公	-14637
製	-14638
確	-14639
不	-14640
،	-14641
無	-14642
認	-14643
得	-14644
員	-14645
ギ	-14646
組	-14647
東	-14648
進	-14649
む	-14650
決	-14651
چ	-14652
果	-14653
政	-14654
楽	-14655
指	-14656
ف	-14657
山	-14658
張	-14659
形	-14660
=	-14661
基	-14662
別	-14663
質	-14664
車	-14665
共	-14666
考	-14667
ゲ	-14668
神	-14669
存	-14670
話	-14671
安	-14672
近	-14673
素	-14674
次	-14675
調	-14676
予	-14677
参	-14678
感	-14679
応	-14680
空	-14681
適	-14682
ね	-14683
真	-14684
拡	-14685
غ	-14686
ヤ	-14687
„	-14688
原	-14689
始	-14690
平	-14691
起	-14692
状	-14693
強	-14694
民	-14695
資	-14696
客	-14697
個	-14698
ゴ	-14699
務	-14700
位	-14701
技	-14702
域	-14703
ீ	-14704
構	-14705
先	-14706
ழ	-14707
ع	-14708
送	-14709
உ	-14710
元	-14711
ډ	-14712
引	-14713
工	-14714
光	-14715
造	-14716
価	-14717
支	-14718
接	-14719
切	-14720
—	-14721
音	-14722
等	-14723
身	-14724
ヴ	-14725
含	-14726
線	-14727
広	-14728
流	-14729
食	-14730
』	-14731
観	-14732
『	-14733
運	-14734
ூ	-14735
$	-14736
少	-14737
種	-14738
野	-14739
州	-14740
議	-14741
ښ	-14742
味	-14743
京	-14744
験	-14745
号	-14746
展	-14747
軍	-14748
効	-14749
非	-14750
都	-14751
権	-14752
再	-14753
施	-14754
北	-14755
ஆ	-14756
限	-14757
ج	-14758
単	-14759
伝	-14760
義	-14761
配	-14762
台	-14763
規	-14764
備	-14765
直	-14766
検	-14767
管	-14768
良	-14769
過	-14770
細	-14771
量	-14772
境	-14773
門	-14774
統	-14775
終	-14776
売	-14777
交	-14778
天	-14779
和	-14780
建	-14781
更	-14782
影	-14783
環	-14784
材	-14785
説	-14786
込	-14787
型	-14788
科	-14789
及	-14790
格	-14791
ゃ	-14792
例	-14793
追	-14794
類	-14795
換	-14796
英	-14797
写	-14798
証	-14799
移	-14800
三	-14801
各	-14802
済	-14803
Ś	-14804
ح	-14805
相	-14806
映	-14807
注	-14808
企	-14809
\	-14810
治	-14811
収	-14812
与	-14813
Í	-14814
論	-14815
美	-14816
色	-14817
星	-14818
<	-14819
ヒ	-14820
島	-14821
番	-14822
役	-14823
»	-14824
着	-14825
ق	-14826
準	-14827
ځ	-14828
二	-14829
像	-14830
任	-14831
田	-14832
容	-14833
米	-14834
投	-14835
由	-14836
録	-14837
完	-14838
川	-14839
演	-14840
件	-14841
図	-14842
査	-14843
ゼ	-14844
値	-14845
風	-14846
速	-14847
器	-14848
装	-14849
択	-14850
止	-14851
ゆ	-14852
転	-14853
館	-14854
求	-14855
ぐ	-14856
口	-14857
版	-14858
告	-14859
我	-14860
#	-14861
異	-14862
店	-14863
然	-14864
協	-14865
づ	-14866
校	-14867
育	-14868
増	-14869
改	-14870
~	-14871
ぶ	-14872
専	-14873
呼	-14874
路	-14875
住	-14876
仕	-14877
څ	-14878
ヘ	-14879
南	-14880
団	-14881
係	-14882
反	-14883
商	-14884
}	-14885
態	-14886
{	-14887
命	-14888
両	-14889
@	-14890
標	-14891
営	-14892
護	-14893
害	-14894
死	-14895
象	-14896
優	-14897
識	-14898
万	-14899
領	-14900
西	-14901
放	-14902
ヨ	-14903
介	-14904
古	-14905
球	-14906
屋	-14907
除	-14908
違	-14909
測	-14910
院	-14911
率	-14912
太	-14913
半	-14914
試	-14915
想	-14916
低	-14917
ئ	-14918
ひ	-14919
催	-14920
条	-14921
賞	-14922
士	-14923
導	-14924
響	-14925
®	-14926
残	-14927
°	-14928
室	-14929
修	-14930
族	-14931
視	-14932
区	-14933
好	-14934
望	-14935
>	-14936
登	-14937
従	-14938
載	-14939
処	-14940
復	-14941
石	-14942
般	-14943
土	-14944
府	-14945
離	-14946
木	-14947
側	-14948
ږ	-14949
策	-14950
待	-14951
旅	-14952
字	-14953
€	-14954
周	-14955
ざ	-14956
探	-14957
総	-14958
史	-14959
比	-14960
断	-14961
系	-14962
詳	-14963
男	-14964
編	-14965
減	-14966
王	-14967
ぎ	-14968
失	-14969
御	-14970
十	-14971
複	-14972
ஒ	-14973
撃	-14974
判	-14975
ƙ	-14976
ص	-14977
助	-14978
氏	-14979
É	-14980
ぞ	-14981
援	-14982
割	-14983
覧	-14984
親	-14985
白	-14986
防	-14987
評	-14988
愛	-14989
独	-14990
園	-14991
歴	-14992
働	-14993
照	-14994
消	-14995
曲	-14996
程	-14997
源	-14998
県	-14999
株	-15000
念	-15001
聞	-15002
極	-15003
属	-15004
難	-15005
去	-15006
築	-15007
創	-15008
Á	-15009
足	-15010
囲	-15011
銀	-15012
了	-15013
推	-15014
争	-15015
医	-15016
深	-15017
乗	-15018
扱	-15019
温	-15020
因	-15021
ۍ	-15022
圧	-15023
費	-15024
町	-15025
局	-15026
述	-15027
悪	-15028
歩	-15029
葉	-15030
読	-15031
勝	-15032
販	-15033
訪	-15034
駅	-15035
満	-15036
花	-15037
景	-15038
隊	-15039
段	-15040
円	-15041
降	-15042
療	-15043
整	-15044
落	-15045
職	-15046
師	-15047
座	-15048
波	-15049
簡	-15050
積	-15051
Ł	-15052
頭	-15053
船	-15054
官	-15055
紹	-15056
病	-15057
析	-15058
洋	-15059
案	-15060
熱	-15061
況	-15062
削	-15063
朝	-15064
誰	-15065
算	-15066
陽	-15067
模	-15068
戻	-15069
未	-15070
火	-15071
精	-15072
急	-15073
融	-15074
監	-15075
許	-15076
港	-15077
兵	-15078
母	-15079
返	-15080
委	-15081
財	-15082
端	-15083
ஸ	-15084
父	-15085
階	-15086
超	-15087
破	-15088
興	-15089
紀	-15090
守	-15091
村	-15092
鉄	-15093
継	-15094
列	-15095
頼	-15096
】	-15097
【	-15098
具	-15099
覚	-15100
項	-15101
毎	-15102
帯	-15103
益	-15104
殺	-15105
担	-15106
‘	-15107
ɗ	-15108
ぜ	-15109
飛	-15110
善	-15111
織	-15112
Ż	-15113
密	-15114
ぼ	-15115
省	-15116
皆	-15117
為	-15118
課	-15119
習	-15120
末	-15121
友	-15122
薬	-15123
称	-15124
福	-15125
歳	-15126
拠	-15127
撮	-15128
授	-15129
携	-15130
負	-15131
攻	-15132
植	-15133
互	-15134
Ø	-15135
―	-15136
答	-15137
ژ	-15138
帰	-15139
察	-15140
芸	-15141
歌	-15142
夜	-15143
航	-15144
短	-15145
講	-15146
購	-15147
幅	-15148
索	-15149
衆	-15150
宇	-15151
赤	-15152
障	-15153
順	-15154
訳	-15155
ü	-15156
挙	-15157
博	-15158
ط	-15159
声	-15160
払	-15161
採	-15162
著	-15163
早	-15164
遠	-15165
惑	-15166
若	-15167
ஜ	-15168
層	-15169
遺	-15170
渡	-15171
週	-15172
将	-15173
節	-15174
城	-15175
補	-15176
徴	-15177
寺	-15178
街	-15179
«	-15180
留	-15181
給	-15182
絶	-15183
陸	-15184
願	-15185
差	-15186
夫	-15187
衛	-15188
損	-15189
紙	-15190
律	-15191
略	-15192
^	-15193
農	-15194
労	-15195
範	-15196
寄	-15197
革	-15198
概	-15199
聖	-15200
ふ	-15201
退	-15202
壊	-15203
雑	-15204
印	-15205
買	-15206
功	-15207
根	-15208
振	-15209
君	-15210
絡	-15211
故	-15212
級	-15213
宮	-15214
宙	-15215
武	-15216
請	-15217
警	-15218
戸	-15219
右	-15220
刻	-15221
操	-15222
井	-15223
申	-15224
四	-15225
派	-15226
描	-15227
契	-15228
突	-15229
射	-15230
祭	-15231
健	-15232
首	-15233
ஹ	-15234
緒	-15235
ê	-15236
裁	-15237
候	-15238
勢	-15239
険	-15240
競	-15241
輸	-15242
党	-15243
居	-15244
馬	-15245
青	-15246
掲	-15247
令	-15248
韓	-15249
易	-15250
豊	-15251
責	-15252
а	-15253
罪	-15254
ゾ	-15255
災	-15256
о	-15257
僕	-15258
徒	-15259
頃	-15260
典	-15261
辺	-15262
越	-15263
©	-15264
献	-15265
既	-15266
и	-15267
維	-15268
被	-15269
暗	-15270
千	-15271
舞	-15272
郡	-15273
閉	-15274
布	-15275
便	-15276
司	-15277
横	-15278
承	-15279
固	-15280
打	-15281
厳	-15282
練	-15283
皇	-15284
橋	-15285
背	-15286
宿	-15287
±	-15288
普	-15289
酸	-15290
富	-15291
左	-15292
黒	-15293
億	-15294
停	-15295
劇	-15296
散	-15297
血	-15298
症	-15299
河	-15300
走	-15301
諸	-15302
庭	-15303
核	-15304
額	-15305
Ù	-15306
危	-15307
押	-15308
替	-15309
ゥ	-15310
途	-15311
席	-15312
俺	-15313
致	-15314
晴	-15315
較	-15316
※	-15317
締	-15318
江	-15319
軽	-15320
絵	-15321
胞	-15322
藤	-15323
休	-15324
息	-15325
抗	-15326
震	-15327
婚	-15328
跡	-15329
患	-15330
昇	-15331
ヌ	-15332
宗	-15333
ä	-15334
又	-15335
並	-15336
顧	-15337
則	-15338
ஏ	-15339
巻	-15340
õ	-15341
香	-15342
迎	-15343
激	-15344
康	-15345
章	-15346
染	-15347
油	-15348
督	-15349
欠	-15350
弱	-15351
央	-15352
群	-15353
傷	-15354
谷	-15355
آ	-15356
荷	-15357
績	-15358
到	-15359
〜	-15360
欧	-15361
混	-15362
沿	-15363
犯	-15364
蔵	-15365
服	-15366
似	-15367
敗	-15368
角	-15369
税	-15370
ض	-15371
希	-15372
避	-15373
岩	-15374
旧	-15375
養	-15376
廃	-15377
姿	-15378
夏	-15379
松	-15380
岸	-15381
依	-15382
岡	-15383
苦	-15384
鮮	-15385
湾	-15386
壁	-15387
敵	-15388
討	-15389
肉	-15390
均	-15391
森	-15392
幸	-15393
恐	-15394
с	-15395
艦	-15396
盤	-15397
茶	-15398
林	-15399
е	-15400
亡	-15401
努	-15402
弊	-15403
宅	-15404
飲	-15405
談	-15406
遊	-15407
焼	-15408
貴	-15409
乱	-15410
ڼ	-15411
獲	-15412
闘	-15413
救	-15414
仲	-15415
触	-15416
貨	-15417
縮	-15418
ã	-15419
静	-15420
延	-15421
児	-15422
顔	-15423
貢	-15424
永	-15425
疑	-15426
久	-15427
就	-15428
困	-15429
磁	-15430
н	-15431
傾	-15432
Ó	-15433
否	-15434
仮	-15435
清	-15436
抜	-15437
捕	-15438
伴	-15439
曜	-15440
頂	-15441
奏	-15442
š	-15443
春	-15444
ヶ	-15445
×	-15446
午	-15447
冷	-15448
稿	-15449
堂	-15450
百	-15451
械	-15452
純	-15453
ى	-15454
爆	-15455
ஷ	-15456
弾	-15457
包	-15458
郎	-15459
禁	-15460
翻	-15461
隠	-15462
充	-15463
促	-15464
燃	-15465
占	-15466
湖	-15467
`	-15468
耐	-15469
泊	-15470
仏	-15471
遅	-15472
弟	-15473
宣	-15474
魅	-15475
排	-15476
快	-15477
華	-15478
雨	-15479
板	-15480
欲	-15481
−	-15482
距	-15483
納	-15484
五	-15485
誌	-15486
唯	-15487
届	-15488
к	-15489
ـ	-15490
慮	-15491
阪	-15492
束	-15493
栄	-15494
弁	-15495
盛	-15496
草	-15497
泉	-15498
ك	-15499
池	-15500
ñ	-15501
黄	-15502
液	-15503
臣	-15504
診	-15505
魔	-15506
р	-15507
枚	-15508
庫	-15509
余	-15510
逃	-15511
喜	-15512
笑	-15513
倍	-15514
雪	-15515
偵	-15516
盟	-15517
脱	-15518
秘	-15519
Ö	-15520
齢	-15521
佐	-15522
帝	-15523
駆	-15524
洗	-15525
邦	-15526
謝	-15527
妻	-15528
霊	-15529
吉	-15530
脳	-15531
沢	-15532
審	-15533
昨	-15534
巨	-15535
針	-15536
掛	-15537
津	-15538
ō	-15539
搭	-15540
Ú	-15541
尾	-15542
聴	-15543
執	-15544
刑	-15545
舗	-15546
微	-15547
剤	-15548
揮	-15549
夢	-15550
吸	-15551
鳥	-15552
č	-15553
¿	-15554
至	-15555
Å	-15556
秋	-15557
逆	-15558
炭	-15559
籍	-15560
倒	-15561
酒	-15562
驚	-15563
九	-15564
副	-15565
兄	-15566
崎	-15567
卒	-15568
魚	-15569
滅	-15570
Ä	-15571
躍	-15572
志	-15573
奨	-15574
ظ	-15575
訴	-15576
浜	-15577
滞	-15578
َ	-15579
募	-15580
宝	-15581
گ	-15582
底	-15583
砂	-15584
招	-15585
誘	-15586
ぬ	-15587
皮	-15588
暴	-15589
幕	-15590
秀	-15591
緑	-15592
季	-15593
樹	-15594
飾	-15595
辞	-15596
誤	-15597
沖	-15598
折	-15599
昭	-15600
票	-15601
侵	-15602
八	-15603
徳	-15604
需	-15605
骨	-15606
丸	-15607
ے	-15608
ぱ	-15609
床	-15610
礼	-15611
雇	-15612
裏	-15613
繰	-15614
抑	-15615
娘	-15616
片	-15617
訓	-15618
冬	-15619
伸	-15620
в	-15621
殿	-15622
¥	-15623
倉	-15624
痛	-15625
忘	-15626
柔	-15627
恵	-15628
鏡	-15629
§	-15630
繁	-15631
己	-15632
隣	-15633
緊	-15634
庁	-15635
雲	-15636
秒	-15637
輪	-15638
閲	-15639
ç	-15640
л	-15641
該	-15642
翌	-15643
臨	-15644
ُ	-15645
券	-15646
潜	-15647
浮	-15648
透	-15649
è	-15650
免	-15651
露	-15652
祝	-15653
双	-15654
乳	-15655
勧	-15656
溶	-15657
老	-15658
抵	-15659
刺	-15660
衝	-15661
›	-15662
却	-15663
伊	-15664
£	-15665
抱	-15666
۱	-15667
奈	-15668
圏	-15669
尊	-15670
т	-15671
縄	-15672
暦	-15673
署	-15674
拒	-15675
併	-15676
毛	-15677
雄	-15678
駐	-15679
ஞ	-15680
¶	-15681
塩	-15682
威	-15683
暮	-15684
礎	-15685
祖	-15686
緩	-15687
→	-15688
筆	-15689
厚	-15690
釈	-15691
慣	-15692
奇	-15693
誕	-15694
à	-15695
迷	-15696
繋	-15697
埋	-15698
鉱	-15699
刷	-15700
幼	-15701
暖	-15702
襲	-15703
棄	-15704
憶	-15705
踏	-15706
履	-15707
丈	-15708
汚	-15709
ā	-15710
奴	-15711
ث	-15712
勤	-15713
衣	-15714
玉	-15715
迅	-15716
·	-15717
窓	-15718
⁄	-15719
Ð	-15720
札	-15721
熟	-15722
債	-15723
濃	-15724
薄	-15725
誇	-15726
滑	-15727
悲	-15728
瞬	-15729
′	-15730
詰	-15731
握	-15732
六	-15733
砲	-15734
Ã	-15735
貸	-15736
氷	-15737
沈	-15738
渉	-15739
巡	-15740
鎖	-15741
敷	-15742
没	-15743
â	-15744
軌	-15745
牛	-15746
軸	-15747
粒	-15748
縁	-15749
夕	-15750
ɓ	-15751
《	-15752
؟	-15753
里	-15754
寿	-15755
輝	-15756
紛	-15757
詩	-15758
掘	-15759
迫	-15760
括	-15761
菜	-15762
批	-15763
脈	-15764
焦	-15765
》	-15766
忠	-15767
́	-15768
ؤ	-15769
脅	-15770
挑	-15771
腕	-15772
郷	-15773
兼	-15774
貿	-15775
銃	-15776
盗	-15777
軟	-15778
贈	-15779
眠	-15780
遂	-15781
詞	-15782
敬	-15783
即	-15784
儀	-15785
賛	-15786
μ	-15787
閣	-15788
摘	-15789
奥	-15790
干	-15791
添	-15792
筋	-15793
培	-15794
豪	-15795
乾	-15796
遣	-15797
糖	-15798
祈	-15799
借	-15800
柄	-15801
у	-15802
麻	-15803
粉	-15804
舎	-15805
慶	-15806
淡	-15807
洞	-15808
償	-15809
幹	-15810
۰	-15811
妙	-15812
賃	-15813
崩	-15814
彩	-15815
菌	-15816
仰	-15817
ۀ	-15818
憲	-15819
羽	-15820
貧	-15821
虫	-15822
ஈ	-15823
吹	-15824
序	-15825
嫌	-15826
奪	-15827
刊	-15828
恋	-15829
甲	-15830
殊	-15831
還	-15832
臓	-15833
賀	-15834
頻	-15835
懸	-15836
昔	-15837
房	-15838
怖	-15839
託	-15840
箱	-15841
穴	-15842
坂	-15843
裂	-15844
枠	-15845
幾	-15846
寝	-15847
ぁ	-15848
雰	-15849
是	-15850
湯	-15851
犬	-15852
炎	-15853
網	-15854
塗	-15855
毒	-15856
歯	-15857
童	-15858
桜	-15859
д	-15860
ஐ	-15861
漁	-15862
膜	-15863
隔	-15864
婦	-15865
眼	-15866
預	-15867
遇	-15868
径	-15869
歓	-15870
脚	-15871
彫	-15872
妹	-15873
脂	-15874
ذ	-15875
塔	-15876
覆	-15877
怒	-15878
七	-15879
捜	-15880
丘	-15881
姉	-15882
浴	-15883
貫	-15884
荒	-15885
耳	-15886
竹	-15887
ž	-15888
丁	-15889
之	-15890
髪	-15891
慢	-15892
偽	-15893
ß	-15894
撤	-15895
腹	-15896
晶	-15897
浄	-15898
鍵	-15899
й	-15900
岐	-15901
拝	-15902
顕	-15903
魂	-15904
勉	-15905
挿	-15906
牧	-15907
藩	-15908
稼	-15909
卵	-15910
ゅ	-15911
疾	-15912
å	-15913
欺	-15914
才	-15915
銅	-15916
♪	-15917
蓄	-15918
ø	-15919
旬	-15920
唱	-15921
蒸	-15922
如	-15923
豆	-15924
随	-15925
須	-15926
抽	-15927
鋼	-15928
墓	-15929
煙	-15930
甘	-15931
α	-15932
旨	-15933
浸	-15934
踊	-15935
措	-15936
陰	-15937
僚	-15938
哲	-15939
励	-15940
剣	-15941
孫	-15942
м	-15943
亜	-15944
龍	-15945
湿	-15946
۲	-15947
漢	-15948
鑑	-15949
➡	-15950
裕	-15951
鹿	-15952
尽	-15953
誉	-15954
硬	-15955
ஃ	-15956
往	-15957
灯	-15958
寒	-15959
昼	-15960
詐	-15961
偉	-15962
陥	-15963
麗	-15964
紅	-15965
殖	-15966
ஊ	-15967
践	-15968
遭	-15969
ř	-15970
捨	-15971
ஓ	-15972
郵	-15973
封	-15974
怪	-15975
勇	-15976
栽	-15977
誠	-15978
̄	-15979
▷	-15980
浅	-15981
鳴	-15982
譲	-15983
陣	-15984
袋	-15985
尋	-15986
摩	-15987
徐	-15988
瀬	-15989
把	-15990
伏	-15991
架	-15992
†	-15993
繊	-15994
黙	-15995
媒	-15996
晩	-15997
恒	-15998
縦	-15999
狂	-16000
矢	-16001
柱	-16002
疲	-16003
冒	-16004
仁	-16005
ı	-16006
腫	-16007
肢	-16008
狭	-16009
۳	-16010
腐	-16011
捉	-16012
騒	-16013
摂	-16014
偶	-16015
旗	-16016
徹	-16017
～	-16018
竜	-16019
兆	-16020
葬	-16021
浦	-16022
看	-16023
眺	-16024
芝	-16025
屈	-16026
斜	-16027
羅	-16028
俳	-16029
翼	-16030
Û	-16031
訂	-16032
奉	-16033
肌	-16034
隆	-16035
ぽ	-16036
洪	-16037
膨	-16038
燥	-16039
阿	-16040
Æ	-16041
悩	-16042
符	-16043
騎	-16044
獄	-16045
Č	-16046
滝	-16047
ô	-16048
堅	-16049
潮	-16050
征	-16051
揺	-16052
稲	-16053
脆	-16054
戒	-16055
飯	-16056
罰	-16057
雷	-16058
酵	-16059
璧	-16060
妨	-16061
寛	-16062
拓	-16063
Š	-16064
犠	-16065
轄	-16066
牲	-16067
飼	-16068
紫	-16069
凍	-16070
揃	-16071
溝	-16072
炉	-16073
貯	-16074
呂	-16075
箇	-16076
慎	-16077
珍	-16078
ě	-16079
菱	-16080
恩	-16081
噴	-16082
ş	-16083
隷	-16084
磨	-16085
喫	-16086
趣	-16087
熊	-16088
頑	-16089
闇	-16090
肥	-16091
ū	-16092
棒	-16093
؛	-16094
靴	-16095
揚	-16096
杯	-16097
疫	-16098
掃	-16099
胸	-16100
妊	-16101
泳	-16102
仙	-16103
駄	-16104
漫	-16105
暇	-16106
鼓	-16107
逮	-16108
棟	-16109
п	-16110
狙	-16111
猫	-16112
‐	-16113
卓	-16114
漏	-16115
准	-16116
那	-16117
銘	-16118
賢	-16119
麦	-16120
遵	-16121
灰	-16122
咲	-16123
梅	-16124
г	-16125
雅	-16126
邪	-16127
緯	-16128
糸	-16129
ِ	-16130
唆	-16131
廷	-16132
冠	-16133
僧	-16134
阻	-16135
唐	-16136
旋	-16137
嘘	-16138
控	-16139
渋	-16140
俗	-16141
酷	-16142
垂	-16143
粋	-16144
Â	-16145
忍	-16146
智	-16147
۹	-16148
循	-16149
敏	-16150
膚	-16151
嬉	-16152
⋆	-16153
偏	-16154
я	-16155
羊	-16156
句	-16157
沼	-16158
塚	-16159
爵	-16160
壮	-16161
鎌	-16162
謀	-16163
枝	-16164
ぷ	-16165
蘇	-16166
彦	-16167
郊	-16168
虜	-16169
拘	-16170
菓	-16171
Ź	-16172
玄	-16173
尿	-16174
弘	-16175
倫	-16176
畑	-16177
寧	-16178
鈴	-16179
蔽	-16180
釣	-16181
̈	-16182
慈	-16183
癌	-16184
孤	-16185
涯	-16186
Р	-16187
酬	-16188
〈	-16189
寸	-16190
辛	-16191
〉	-16192
壌	-16193
姫	-16194
Ƙ	-16195
۴	-16196
ч	-16197
塞	-16198
彰	-16199
鬼	-16200
奮	-16201
紋	-16202
狩	-16203
隻	-16204
肝	-16205
虐	-16206
杉	-16207
穏	-16208
ь	-16209
也	-16210
銭	-16211
刀	-16212
劣	-16213
幻	-16214
荘	-16215
鎮	-16216
伯	-16217
茂	-16218
腸	-16219
叫	-16220
幌	-16221
軒	-16222
霧	-16223
諾	-16224
醸	-16225
嵐	-16226
陶	-16227
剰	-16228
拍	-16229
珠	-16230
李	-16231
î	-16232
悟	-16233
★	-16234
召	-16235
泥	-16236
冊	-16237
­	-16238
窟	-16239
獣	-16240
ë	-16241
謎	-16242
絞	-16243
粘	-16244
ぴ	-16245
瘍	-16246
衰	-16247
帽	-16248
訟	-16249
忙	-16250
б	-16251
輩	-16252
岳	-16253
披	-16254
丹	-16255
搬	-16256
挨	-16257
拶	-16258
渓	-16259
懐	-16260
帳	-16261
峡	-16262
譜	-16263
癒	-16264
啓	-16265
ぇ	-16266
碑	-16267
邸	-16268
潔	-16269
漠	-16270
۵	-16271
ヲ	-16272
肩	-16273
亀	-16274
誓	-16275
幣	-16276
克	-16277
穫	-16278
芽	-16279
祉	-16280
貼	-16281
暑	-16282
ы	-16283
綱	-16284
綿	-16285
巣	-16286
弥	-16287
渦	-16288
А	-16289
弦	-16290
桃	-16291
峰	-16292
娠	-16293
坊	-16294
β	-16295
●	-16296
衡	-16297
悔	-16298
鼻	-16299
泣	-16300
睡	-16301
塾	-16302
ă	-16303
孝	-16304
壇	-16305
崇	-16306
欄	-16307
鉛	-16308
盾	-16309
殻	-16310
溢	-16311
薦	-16312
Ę	-16313
鋭	-16314
附	-16315
烈	-16316
尚	-16317
砕	-16318
垣	-16319
宛	-16320
擁	-16321
潤	-16322
з	-16323
肺	-16324
弓	-16325
匹	-16326
豚	-16327
剛	-16328
舶	-16329
逸	-16330
恥	-16331
虚	-16332
臭	-16333
鶴	-16334
薩	-16335
妥	-16336
姓	-16337
俊	-16338
筒	-16339
尻	-16340
澤	-16341
凝	-16342
漂	-16343
鶏	-16344
腰	-16345
廊	-16346
潟	-16347
稚	-16348
匿	-16349
傍	-16350
匠	-16351
昆	-16352
禅	-16353
柳	-16354
鍋	-16355
ヵ	-16356
堀	-16357
٪	-16358
胆	-16359
浪	-16360
陵	-16361
酔	-16362
享	-16363
肪	-16364
傘	-16365
С	-16366
涼	-16367
孔	-16368
椅	-16369
巧	-16370
ů	-16371
脇	-16372
遮	-16373
耗	-16374
遷	-16375
畜	-16376
卿	-16377
斎	-16378
貞	-16379
蓮	-16380
塵	-16381
汎	-16382
砦	-16383
糧	-16384
勘	-16385
梨	-16386
覇	-16387
吐	-16388
扉	-16389
彗	-16390
鋳	-16391
祥	-16392
棚	-16393
ə	-16394
ο	-16395
汁	-16396
秩	-16397
函	-16398
λ	-16399
叙	-16400
捧	-16401
♫	-16402
累	-16403
應	-16404
昌	-16405
旦	-16406
泰	-16407
硫	-16408
盆	-16409
涙	-16410
墜	-16411
Ω	-16412
腺	-16413
妖	-16414
粧	-16415
勲	-16416
Ć	-16417
泡	-16418
Ç	-16419
蓋	-16420
据	-16421
隅	-16422
〒	-16423
煮	-16424
飢	-16425
і	-16426
呈	-16427
憩	-16428
噂	-16429
←	-16430
遍	-16431
矛	-16432
皿	-16433
蘭	-16434
喪	-16435
宜	-16436
麺	-16437
逐	-16438
菩	-16439
≪	-16440
但	-16441
釜	-16442
牽	-16443
陳	-16444
艇	-16445
冗	-16446
ν	-16447
賜	-16448
沙	-16449
嘉	-16450
駒	-16451
π	-16452
堪	-16453
賭	-16454
۷	-16455
惨	-16456
ī	-16457
х	-16458
尉	-16459
崖	-16460
桂	-16461
賊	-16462
۶	-16463
撲	-16464
錯	-16465
芳	-16466
斉	-16467
۸	-16468
窒	-16469
朗	-16470
后	-16471
擦	-16472
ε	-16473
畳	-16474
嘆	-16475
殆	-16476
墳	-16477
腎	-16478
Ž	-16479
Ý	-16480
鐘	-16481
阜	-16482
ρ	-16483
茎	-16484
伺	-16485
赦	-16486
桁	-16487
菊	-16488
縫	-16489
寮	-16490
塊	-16491
剥	-16492
胃	-16493
ة	-16494
蛇	-16495
喚	-16496
舟	-16497
拾	-16498
穀	-16499
蜂	-16500
乏	-16501
袖	-16502
尺	-16503
苗	-16504
戯	-16505
郭	-16506
敢	-16507
М	-16508
縛	-16509
穂	-16510
缶	-16511
К	-16512
瓶	-16513
►	-16514
歪	-16515
裸	-16516
猿	-16517
耕	-16518
φ	-16519
ι	-16520
叶	-16521
τ	-16522
你	-16523
貝	-16524
呪	-16525
Ą	-16526
稀	-16527
遡	-16528
憎	-16529
朱	-16530
ğ	-16531
ς	-16532
祀	-16533
葛	-16534
û	-16535
舌	-16536
勃	-16537
斬	-16538
叔	-16539
虎	-16540
≤	-16541
嫁	-16542
慰	-16543
綺	-16544
髄	-16545
賑	-16546
堆	-16547
伎	-16548
猛	-16549
猟	-16550
或	-16551
痕	-16552
侍	-16553
跳	-16554
笠	-16555
妃	-16556
瓦	-16557
粗	-16558
愚	-16559
輌	-16560
疎	-16561
ï	-16562
刃	-16563
幡	-16564
σ	-16565
栗	-16566
ò	-16567
幽	-16568
汗	-16569
浩	-16570
漬	-16571
餌	-16572
拳	-16573
۔	-16574
筑	-16575
宴	-16576
捗	-16577
伐	-16578
ũ	-16579
騰	-16580
竣	-16581
İ	-16582
鍛	-16583
飽	-16584
沸	-16585
О	-16586
抹	-16587
١	-16588
叩	-16589
懇	-16590
賠	-16591
梁	-16592
В	-16593
僅	-16594
填	-16595
播	-16596
傑	-16597
礁	-16598
贅	-16599
☆	-16600
惹	-16601
■	-16602
澄	-16603
禄	-16604
י	-16605
墨	-16606
П	-16607
胎	-16608
頁	-16609
擬	-16610
挟	-16611
蛍	-16612
懲	-16613
辿	-16614
於	-16615
寨	-16616
漆	-16617
勿	-16618
扇	-16619
盲	-16620
Ü	-16621
楼	-16622
吾	-16623
牢	-16624
槽	-16625
堕	-16626
💐	-16627
ц	-16628
梱	-16629
班	-16630
卸	-16631
庶	-16632
椎	-16633
滴	-16634
囚	-16635
枯	-16636
濯	-16637
肖	-16638
曹	-16639
枢	-16640
掌	-16641
馴	-16642
ш	-16643
宏	-16644
赴	-16645
寂	-16646
✓	-16647
呉	-16648
─	-16649
ĩ	-16650
ω	-16651
旭	-16652
鷹	-16653
이	-16654
勅	-16655
暫	-16656
滋	-16657
宰	-16658
國	-16659
○	-16660
哀	-16661
錠	-16662
ぺ	-16663
亭	-16664
侯	-16665
湧	-16666
埼	-16667
謡	-16668
潰	-16669
雌	-16670
喧	-16671
狼	-16672
凄	-16673
辱	-16674
γ	-16675
κ	-16676
峨	-16677
乃	-16678
陀	-16679
机	-16680
隙	-16681
簿	-16682
〇	-16683
▶	-16684
斑	-16685
塁	-16686
曰	-16687
昧	-16688
爪	-16689
嶋	-16690
倣	-16691
Б	-16692
祐	-16693
貌	-16694
♡	-16695
藻	-16696
侶	-16697
楕	-16698
膝	-16699
凡	-16700
褐	-16701
諦	-16702
篇	-16703
菅	-16704
堤	-16705
謙	-16706
輔	-16707
匂	-16708
杭	-16709
鈍	-16710
憧	-16711
茨	-16712
賄	-16713
洲	-16714
Ɗ	-16715
其	-16716
麓	-16717
醤	-16718
佳	-16719
怠	-16720
ٹ	-16721
肯	-16722
莫	-16723
脊	-16724
胡	-16725
這	-16726
殴	-16727
錦	-16728
眉	-16729
錬	-16730
劉	-16731
褒	-16732
吊	-16733
泌	-16734
骸	-16735
鉢	-16736
ˈ	-16737
綴	-16738
遥	-16739
掴	-16740
翔	-16741
戚	-16742
夷	-16743
岬	-16744
渇	-16745
虹	-16746
樽	-16747
‹	-16748
絆	-16749
姦	-16750
籠	-16751
朴	-16752
柏	-16753
Ō	-16754
δ	-16755
柴	-16756
〔	-16757
蝶	-16758
餓	-16759
〕	-16760
乙	-16761
酢	-16762
灌	-16763
讃	-16764
‡	-16765
庵	-16766
٫	-16767
噌	-16768
朽	-16769
蜜	-16770
ו	-16771
厄	-16772
η	-16773
拭	-16774
ٰ	-16775
문	-16776
帆	-16777
稽	-16778
紐	-16779
أ	-16780
凶	-16781
娯	-16782
桐	-16783
慌	-16784
Т	-16785
弧	-16786
ÿ	-16787
≥	-16788
胴	-16789
貰	-16790
此	-16791
¬	-16792
ж	-16793
畿	-16794
庄	-16795
惜	-16796
笛	-16797
ì	-16798
丼	-16799
癖	-16800
尼	-16801
戴	-16802
瑞	-16803
拐	-16804
琴	-16805
⇒	-16806
粛	-16807
鯨	-16808
琉	-16809
曖	-16810
θ	-16811
斗	-16812
ň	-16813
濡	-16814
峠	-16815
獅	-16816
鴨	-16817
Δ	-16818
蹴	-16819
陛	-16820
Ñ	-16821
聘	-16822
餅	-16823
濫	-16824
嬢	-16825
忌	-16826
剖	-16827
窮	-16828
牡	-16829
款	-16830
零	-16831
醐	-16832
篤	-16833
醍	-16834
≫	-16835
曇	-16836
絹	-16837
濱	-16838
¦	-16839
Д	-16840
窯	-16841
리	-16842
讐	-16843
洩	-16844
曽	-16845
悼	-16846
篠	-16847
鞭	-16848
棋	-16849
噛	-16850
瞭	-16851
辻	-16852
ю	-16853
宋	-16854
腔	-16855
屯	-16856
綾	-16857
烏	-16858
亮	-16859
玩	-16860
Г	-16861
妄	-16862
刈	-16863
淳	-16864
⁡	-16865
️	-16866
媚	-16867
亘	-16868
雀	-16869
藍	-16870
股	-16871
搾	-16872
炊	-16873
ș	-16874
紡	-16875
爽	-16876
碁	-16877
拷	-16878
٢	-16879
溜	-16880
尖	-16881
ר	-16882
ẽ	-16883
敦	-16884
Н	-16885
憂	-16886
廻	-16887
٠	-16888
喉	-16889
濁	-16890
栃	-16891
洛	-16892
¢	-16893
卑	-16894
坪	-16895
И	-16896
蒙	-16897
抄	-16898
諮	-16899
甚	-16900
祇	-16901
哺	-16902
勾	-16903
箔	-16904
ő	-16905
綻	-16906
喋	-16907
蒲	-16908
溺	-16909
淀	-16910
瞑	-16911
滿	-16912
斐	-16913
壕	-16914
胚	-16915
緻	-16916
ء	-16917
笹	-16918
坐	-16919
歲	-16920
秦	-16921
∞	-16922
繍	-16923
廟	-16924
枕	-16925
恨	-16926
ē	-16927
猶	-16928
Đ	-16929
且	-16930
ė	-16931
暁	-16932
đ	-16933
愉	-16934
橘	-16935
躇	-16936
棲	-16937
朔	-16938
躊	-16939
蛋	-16940
唇	-16941
痺	-16942
嶺	-16943
牙	-16944
Φ	-16945
只	-16946
聯	-16947
¡	-16948
嫡	-16949
瞳	-16950
騙	-16951
賓	-16952
제	-16953
覗	-16954
迦	-16955
嗣	-16956
曝	-16957
晋	-16958
閥	-16959
媛	-16960
ф	-16961
顎	-16962
Ń	-16963
ù	-16964
淵	-16965
萌	-16966
韻	-16967
鳳	-16968
苑	-16969
哉	-16970
站	-16971
桑	-16972
哨	-16973
憑	-16974
氾	-16975
箸	-16976
Л	-16977
杖	-16978
ό	-16979
凸	-16980
纂	-16981
汽	-16982
冥	-16983
慕	-16984
惧	-16985
恭	-16986
œ	-16987
閑	-16988
窃	-16989
彙	-16990
ْ	-16991
鬱	-16992
∈	-16993
諜	-16994
ħ	-16995
🙂	-16996
坦	-16997
憤	-16998
υ	-16999
辰	-17000
א	-17001
叡	-17002
∅	-17003
ゞ	-17004
痴	-17005
٣	-17006
硝	-17007
紳	-17008
聡	-17009
儲	-17010
湘	-17011
炒	-17012
詣	-17013
Ф	-17014
藝	-17015
租	-17016
罠	-17017
槍	-17018
詠	-17019
汲	-17020
这	-17021
嘩	-17022
吟	-17023
柿	-17024
邱	-17025
‚	-17026
侮	-17027
糞	-17028
嗜	-17029
醒	-17030
栓	-17031
膣	-17032
煎	-17033
鞍	-17034
駿	-17035
廣	-17036
ʻ	-17037
挫	-17038
晒	-17039
逝	-17040
喰	-17041
痢	-17042
楊	-17043
隈	-17044
頓	-17045
坑	-17046
拉	-17047
疹	-17048
ڈ	-17049
妬	-17050
♦	-17051
일	-17052
◆	-17053
한	-17054
罹	-17055
倭	-17056
矮	-17057
磯	-17058
鳩	-17059
畔	-17060
唄	-17061
悠	-17062
鯉	-17063
矯	-17064
壺	-17065
扶	-17066
ː	-17067
漑	-17068
屏	-17069
ה	-17070
도	-17071
帥	-17072
杜	-17073
凌	-17074
堰	-17075
淫	-17076
산	-17077
隕	-17078
ّ	-17079
ί	-17080
桟	-17081
대	-17082
薫	-17083
라	-17084
У	-17085
螺	-17086
沌	-17087
儒	-17088
姻	-17089
蔓	-17090
凹	-17091
嚢	-17092
纏	-17093
甥	-17094
冶	-17095
魏	-17096
ל	-17097
ά	-17098
하	-17099
棺	-17100
倶	-17101
曾	-17102
陪	-17103
馳	-17104
국	-17105
주	-17106
蚊	-17107
ぉ	-17108
Σ	-17109
蛮	-17110
ɪ	-17111
嶼	-17112
汝	-17113
喩	-17114
芯	-17115
嫉	-17116
٩	-17117
趙	-17118
些	-17119
串	-17120
臼	-17121
堺	-17122
醜	-17123
煩	-17124
靖	-17125
奔	-17126
า	-17127
柵	-17128
撰	-17129
逢	-17130
晃	-17131
鹸	-17132
蔑	-17133
어	-17134
琶	-17135
磐	-17136
芋	-17137
琵	-17138
蕎	-17139
錫	-17140
스	-17141
惚	-17142
錐	-17143
ב	-17144
毅	-17145
啊	-17146
鄭	-17147
Î	-17148
殉	-17149
霜	-17150
裾	-17151
∗	-17152
汰	-17153
ௌ	-17154
婆	-17155
么	-17156
釘	-17157
מ	-17158
塑	-17159
斥	-17160
崗	-17161
猪	-17162
嗅	-17163
傭	-17164
영	-17165
呑	-17166
焉	-17167
條	-17168
苛	-17169
舵	-17170
什	-17171
輿	-17172
餐	-17173
嵯	-17174
嗎	-17175
礫	-17176
云	-17177
靭	-17178
원	-17179
漸	-17180
苔	-17181
圭	-17182
掩	-17183
畠	-17184
杏	-17185
⋅	-17186
芦	-17187
瑠	-17188
諭	-17189
貪	-17190
ھ	-17191
悦	-17192
э	-17193
訊	-17194
頸	-17195
旺	-17196
伽	-17197
葵	-17198
萩	-17199
會	-17200
	-17201
廉	-17202
轟	-17203
霞	-17204
頬	-17205
楠	-17206
蒼	-17207
۫	-17208
에	-17209
Е	-17210
Ï	-17211
雛	-17212
۪	-17213
汐	-17214
ぃ	-17215
閃	-17216
사	-17217
ა	-17218
가	-17219
葺	-17220
√	-17221
紗	-17222
董	-17223
梶	-17224
萬	-17225
痩	-17226
서	-17227
啦	-17228
耶	-17229
喝	-17230
지	-17231
畏	-17232
曳	-17233
賦	-17234
碗	-17235
È	-17236
睦	-17237
관	-17238
Ş	-17239
峙	-17240
呀	-17241
濾	-17242
穿	-17243
煌	-17244
喘	-17245
鷲	-17246
↓	-17247
乞	-17248
弄	-17249
玲	-17250
З	-17251
膳	-17252
樺	-17253
ת	-17254
餃	-17255
蔚	-17256
゚	-17257
嘔	-17258
璃	-17259
而	-17260
庇	-17261
ţ	-17262
佇	-17263
摯	-17264
爺	-17265
叱	-17266
踪	-17267
來	-17268
學	-17269
祷	-17270
拙	-17271
ա	-17272
瀕	-17273
浙	-17274
们	-17275
襟	-17276
謳	-17277
騨	-17278
╪	-17279
洒	-17280
ი	-17281
俣	-17282
鎧	-17283
燕	-17284
狗	-17285
个	-17286
帖	-17287
贖	-17288
의	-17289
艶	-17290
아	-17291
∂	-17292
疆	-17293
ƴ	-17294
榴	-17295
膏	-17296
閏	-17297
٦	-17298
墟	-17299
扁	-17300
鱗	-17301
〝	-17302
挽	-17303
薪	-17304
焚	-17305
撫	-17306
梗	-17307
茅	-17308
飴	-17309
煉	-17310
筈	-17311
朋	-17312
נ	-17313
ț	-17314
凱	-17315
彷	-17316
做	-17317
慧	-17318
仔	-17319
ہ	-17320
膵	-17321
‬	-17322
蒔	-17323
縞	-17324
	-17325
燈	-17326
厨	-17327
掻	-17328
迂	-17329
ヂ	-17330
窪	-17331
♥	-17332
椿	-17333
斯	-17334
眞	-17335
狐	-17336
怯	-17337
沃	-17338
兎	-17339
χ	-17340
慨	-17341
↑	-17342
̧	-17343
٤	-17344
臆	-17345
鵬	-17346
拌	-17347
昏	-17348
蕩	-17349
撥	-17350
щ	-17351
嘲	-17352
詫	-17353
繕	-17354
胤	-17355
訣	-17356
聨	-17357
閾	-17358
鍮	-17359
÷	-17360
傲	-17361
遼	-17362
ร	-17363
廠	-17364
٥	-17365
ぅ	-17366
諏	-17367
ע	-17368
窺	-17369
장	-17370
ש	-17371
俵	-17372
┼	-17373
嘱	-17374
婿	-17375
⟩	-17376
們	-17377
謹	-17378
鮨	-17379
다	-17380
臥	-17381
牟	-17382
漕	-17383
吧	-17384
矩	-17385
峯	-17386
挺	-17387
壬	-17388
鵜	-17389
을	-17390
❤	-17391
疼	-17392
唾	-17393
筐	-17394
捻	-17395
ư	-17396
葡	-17397
虔	-17398
桶	-17399
✔	-17400
憐	-17401
櫓	-17402
摺	-17403
ा	-17404
怨	-17405
Ê	-17406
│	-17407
惣	-17408
錆	-17409
饉	-17410
槻	-17411
垢	-17412
嵌	-17413
某	-17414
‖	-17415
자	-17416
跨	-17417
毀	-17418
鍾	-17419
为	-17420
น	-17421
翁	-17422
호	-17423
叢	-17424
ệ	-17425
ọ	-17426
ד	-17427
髭	-17428
寵	-17429
إ	-17430
ъ	-17431
牌	-17432
邑	-17433
泄	-17434
시	-17435
珊	-17436
〟	-17437
頒	-17438
爬	-17439
惟	-17440
攣	-17441
ヅ	-17442
巴	-17443
吏	-17444
拔	-17445
徽	-17446
酎	-17447
ľ	-17448
ё	-17449
釉	-17450
揆	-17451
羨	-17452
撒	-17453
기	-17454
裡	-17455
∑	-17456
姜	-17457
瑚	-17458
詮	-17459
懺	-17460
ї	-17461
體	-17462
수	-17463
⋯	-17464
暢	-17465
ạ	-17466
賂	-17467
妓	-17468
고	-17469
्	-17470
로	-17471
¤	-17472
ť	-17473
寅	-17474
痙	-17475
粥	-17476
Х	-17477
冨	-17478
구	-17479
檜	-17480
麹	-17481
柑	-17482
髙	-17483
釧	-17484
叉	-17485
٨	-17486
莉	-17487
舐	-17488
그	-17489
嚇	-17490
囃	-17491
巳	-17492
梢	-17493
巫	-17494
酪	-17495
ɛ	-17496
说	-17497
蹄	-17498
٬	-17499
Α	-17500
稜	-17501
萎	-17502
니	-17503
煽	-17504
Π	-17505
巾	-17506
栂	-17507
斧	-17508
우	-17509
나	-17510
晦	-17511
楓	-17512
凛	-17513
孵	-17514
裔	-17515
鼎	-17516
埃	-17517
蝦	-17518
肘	-17519
□	-17520
剃	-17521
咳	-17522
弔	-17523
├	-17524
鞘	-17525
惰	-17526
紺	-17527
呆	-17528
寡	-17529
荏	-17530
灘	-17531
箋	-17532
篭	-17533
栖	-17534
翠	-17535
鋸	-17536
蝋	-17537
痘	-17538
瞰	-17539
埠	-17540
♬	-17541
佛	-17542
浚	-17543
광	-17544
曼	-17545
俯	-17546
塀	-17547
眩	-17548
膠	-17549
화	-17550
于	-17551
佑	-17552
碧	-17553
裳	-17554
ŏ	-17555
瀧	-17556
祠	-17557
萄	-17558
⟨	-17559
έ	-17560
Γ	-17561
吗	-17562
樋	-17563
Λ	-17564
인	-17565
부	-17566
전	-17567
詔	-17568
湊	-17569
̃	-17570
ً	-17571
淑	-17572
櫻	-17573
▪	-17574
采	-17575
ή	-17576
攪	-17577
凰	-17578
禍	-17579
︎	-17580
棘	-17581
ψ	-17582
猥	-17583
孟	-17584
黎	-17585
罵	-17586
粟	-17587
蚕	-17588
砥	-17589
漿	-17590
蹟	-17591
檀	-17592
薇	-17593
✨	-17594
膀	-17595
擢	-17596
⇩	-17597
공	-17598
٧	-17599
ʼ	-17600
齋	-17601
荼	-17602
庸	-17603
隼	-17604
ק	-17605
荻	-17606
寶	-17607
민	-17608
渫	-17609
蠣	-17610
姪	-17611
駕	-17612
咽	-17613
郁	-17614
는	-17615
र	-17616
ก	-17617
ぢ	-17618
秤	-17619
胱	-17620
樫	-17621
遽	-17622
堵	-17623
时	-17624
ן	-17625
仇	-17626
與	-17627
箏	-17628
蟹	-17629
潘	-17630
厩	-17631
毘	-17632
勒	-17633
腿	-17634
糾	-17635
舷	-17636
薔	-17637
槌	-17638
屠	-17639
珪	-17640
嘗	-17641
彌	-17642
ḥ	-17643
崔	-17644
榎	-17645
謁	-17646
ʊ	-17647
┘	-17648
圳	-17649
丞	-17650
諱	-17651
俸	-17652
梯	-17653
鰭	-17654
ξ	-17655
愕	-17656
杵	-17657
话	-17658
목	-17659
肛	-17660
ṣ	-17661
鴻	-17662
Я	-17663
Ε	-17664
爾	-17665
트	-17666
說	-17667
渕	-17668
筏	-17669
ơ	-17670
魯	-17671
茹	-17672
櫛	-17673
迄	-17674
絨	-17675
Ш	-17676
揉	-17677
楚	-17678
≈	-17679
饗	-17680
ġ	-17681
[...]
